/**
  ******************************************************************************
  * @file    network_data.c
  * @author  AST Embedded Analytics Research Platform
  * @date    2025-07-06T15:50:21+0200
  * @brief   AI Tool Automatic Code Generator for Embedded NN computing
  ******************************************************************************
  * Copyright (c) 2025 STMicroelectronics.
  * All rights reserved.
  *
  * This software is licensed under terms that can be found in the LICENSE file
  * in the root directory of this software component.
  * If no LICENSE file comes with this software, it is provided AS-IS.
  ******************************************************************************
  */

#include "network_data.h"
STAI_ALIGNED(8)
const uint64_t g_network_weights_array[6914] = {
  0xbe822027bdd1d9ceU, 0x3df669753ea39f5bU, 0xbedc14d23f26c968U, 0x3d596208bf5ea074U,
  0x3ea87fc0bf498c32U, 0x3d8087933f4d636dU, 0xbe9cd1a8bdc20cf5U, 0x3cccd0e13db52825U,
  0xbe9436513d1edd5cU, 0x3df46e2a3d58d677U, 0xbc85e878bd546da4U, 0xbe01e2443c5d1e5cU,
  0xbd4599bebe32788aU, 0xbc273017be4234f7U, 0xbe9715f53e0d0bffU, 0xbe0112d63d8ba280U,
  0xbe0a89403e734f18U, 0x3dd00aed3c343fe5U, 0x3d72fca9be20cf22U, 0xbd9018febdedf842U,
  0x3d82457c3dc45ee8U, 0x3e8a0921be3c4620U, 0xbe1629033cb107a0U, 0x3d9fd6843e32812eU,
  0xbd56c09cbe0f963cU, 0xbd706006bd687d0aU, 0x3e16399abe8124d7U, 0xbc9513f43ddabeedU,
  0xbde7b8b3bdec6d7eU, 0xbdd86d41bde5f810U, 0xbd5c2d6d3c6da494U, 0xbd8e763abcfd3eb5U,
  0xbe0ff87f3d09f366U, 0xbd3e0ec43e69f62eU, 0xbd8ff658bd90de14U, 0x3e68ebb13e4d16d6U,
  0xbe04db753e80f635U, 0xbe1cdeb7bd57bd3eU, 0xbd8f37c8bdbc9110U, 0x3acfbb733c3d77cfU,
  0xbe1762f9be20a9e6U, 0xbd6126a93cdac0a9U, 0xbc0bd26d3cb848e0U, 0x3ac89aac3d6c0e12U,
  0xbd85bd573d10d1d7U, 0xbd0412f63d0d9cccU, 0x3d8de9f93d821f61U, 0x3cb18229bd5c05d1U,
  0xbd9cb6843dfa1378U, 0x3c19a31dbe1d38c5U, 0x3e68c02d3c8a3b36U, 0x3dcb6256bda8bbfaU,
  0x3e11365b3da10624U, 0x3dc7855a3cbfa070U, 0xbcd3444c3c68ff60U, 0x3d26ce9f3e965dd1U,
  0xbda8118fbd9837f4U, 0x3d78c6b6be274cc2U, 0xbcadb424be050b22U, 0xbd9b2e113d62f8a0U,
  0xbd5dcc5cbe1a5277U, 0xbe2321423d22a88aU, 0xbdbfc16e3d4d0347U, 0xbd5f1f1ebd4ba6abU,
  0x3d7306a93e49990bU, 0x3d36e5333c10b2c1U, 0x3da7e7bcbdf5fb98U, 0xbc828bfb3d5e0d01U,
  0x3d15b490bd643331U, 0xbd073e9e3bfca4bbU, 0x3c8c38b03d9fb5ccU, 0xbd42de673da46f69U,
  0x3d65da32bb90f458U, 0x3da71ea8bd1e13e4U, 0xbdb447eebd9dccedU, 0x3e6fcb4b3f53c4c1U,
  0xbdab7b70bf6d25a7U, 0xbe86d4d4bda2f22cU, 0x3bf9d17a3e5e5aefU, 0xbd7a5228bd24fc32U,
  0x3d39a056bd12eb40U, 0xbe95e4413cb58e5fU, 0xbcd281e73e9322b0U, 0x3e3c84be3e1a6958U,
  0xbd8193ce3dd64248U, 0x3e411f9fba8c3ca4U, 0x3e3c6b833e0c98d8U, 0xbdd80ab33d97241bU,
  0x3ced09a5be3f5a8bU, 0xbe34d3fc3e8beeaeU, 0x3c8dc01c3e0fb1f4U, 0x3d6cc5213d8b3667U,
  0xbdb98197bd8123e4U, 0x3e33680a3db3e3cdU, 0x3d8b3c56bcb58f4aU, 0x3e199f58bdff7bd9U,
  0x3cc5f5e63dd9f7dcU, 0x3ddd90b43d8021cbU, 0xbd1e82023dedba4eU, 0xbe230658be2193b9U,
  0xbdef387fbc6e1f6cU, 0x3e4f543f3de08bf3U, 0x3d234388bdfddbb8U, 0xbe52abf53df7dbb2U,
  0x3c9330babdb55f7cU, 0x3db4acdc3c513403U, 0x3cf154c03cee32c5U, 0x3e082efc3c44a563U,
  0x3d7c19443d2c6229U, 0xbdb5e5babd3a9172U, 0xbd05bca83d649e5fU, 0x3cf9b368be149ff1U,
  0x3e80c0adbda4e831U, 0xbaab4ba7bde49286U, 0xbe5d3db4be5b3360U, 0xbda5b460bd242445U,
  0x3d766511be7e5203U, 0x3cf93c053e20499eU, 0xbdb0d09abd5a0ea6U, 0xbd87f2d2bd997279U,
  0xbe0e3efb3b97e2bbU, 0x3d9e575fbd5cecf5U, 0xbe286003be2df28fU, 0x3d371da13cc49d1eU,
  0xbd6d70183ae025b2U, 0xbbf6edfabe59ad27U, 0xbd7b9bfc3d5ad56bU, 0xbcd6fac73e3d15fbU,
  0x3d8234873e28f476U, 0xbe0464713e4f4ce6U, 0xbde4d2a1bd2f57d4U, 0x3e4556d63e09ecd5U,
  0x3e0675d8bd81f55eU, 0xbdf8758dbdbc8bffU, 0xbcd0998bbd5bcc08U, 0xbd3329d03d2e0838U,
  0x3e0dd70f3dc8a5baU, 0xbd8691b53dbded28U, 0xbe49c960be0db3bfU, 0xbcbc5ae03d6c1557U,
  0x3b5577ff3d1f9497U, 0x3ddf0683be20bb62U, 0x3e3953bdbd45e451U, 0x3e5d8e1fbd6515a1U,
  0x3d44f3283e0c8a31U, 0xbde526edbc090fedU, 0xbef28d63bf0cca70U, 0xbc9988123ebe995dU,
  0xbe4c30e43ec51f6eU, 0xbd01fac3bf12fc92U, 0x3e154910bf12bfb8U, 0x3c63f4583f053d36U,
  0xbedb7844be8b61f1U, 0x3d96015f3d6f8a9cU, 0xbdf05effbcf33866U, 0x3e8203603e26d73aU,
  0x3e50c55bbcb580ccU, 0xbd4b01093e268ccdU, 0x3d627285bdbdf0b5U, 0x3d8d2a48bbbca484U,
  0xbd2c0622be4af20dU, 0xbdd5296a3d62daf8U, 0x3e1e64093e26d490U, 0xbe141931bdb0bc2bU,
  0xbe3767b8bdbceecbU, 0x3c9d4ebe3dc6d1f9U, 0xbe001f47be218930U, 0xbe3b3ee5bd446e02U,
  0x3e1fe248bdba76deU, 0xbcf519aebd009ad0U, 0x3d8b4b753cac08faU, 0xbd7a3ddb3cf8e577U,
  0xbe12f0f0be4b039bU, 0xba9d07f43dfae201U, 0xbca6d247be19a9eeU, 0xbc38850f3d8e8082U,
  0x3e010d72bcd0548dU, 0x3cafce6bbd9ff29eU, 0xbd3bd506bc8de49dU, 0x3daba5d4bccfe104U,
  0x3d35467d3d71e51dU, 0xbd846a4d3c570b25U, 0x3d96d0d73d0430b5U, 0xbde5ae98bdad187fU,
  0xbe38e3d83cc139b8U, 0x3d7aa322bd7a6fabU, 0x3e1180803dfcd085U, 0xbafbe391bdaf0226U,
  0xbe000935bd5b68b7U, 0xbe7989e63d38a30fU, 0xbdfecd1e3d153238U, 0x3da2ac9f3df2ab49U,
  0x3dc140ce3cae11fbU, 0x3d88a6c6bdd644cbU, 0xbcdc4058bdf7630cU, 0x3c8855e5be3aadcaU,
  0xbdb9eb5a3d76bf72U, 0xbd05c2e6bdb5ddebU, 0x3d92a631bc9b1cc2U, 0xbe171fbd3d9bf56cU,
  0xbe2acc5cbd13a898U, 0x3de1689ebbfe0015U, 0xbd5d53e23df89f87U, 0x3d0d9be23d37479cU,
  0x3e0e4d4dbce348ccU, 0xbe447ed63d5b8f89U, 0x3d0d0aa63e074233U, 0x3c30ff6b3e05abb8U,
  0xbd8942c9be5326aeU, 0x3d2bed53bc7a35ddU, 0xbd8b80bf3de9c0d8U, 0x3df0e9c4bc283b39U,
  0xbd09a4fa3cbe4867U, 0x3ca3a2bd3dcda197U, 0x3d11773ebd0abd1fU, 0x3dee7d913dc084faU,
  0x3e0e8fa13b12abbcU, 0x3dd03091baae74acU, 0x3dcea8c53d7d5c26U, 0xbeec38ef3efcd0f4U,
  0x3d4d81f0bf55c437U, 0x3f0e851abe2b36b8U, 0xbdbf83f63eb97de1U, 0xbec6680dbf084f4eU,
  0xbd7dd9bf3efbec3fU, 0xbea7a54a3e10d131U, 0x3d668585bf61a27bU, 0x3dc99b5c3d2a773dU,
  0x3d62deb43ce1c269U, 0xbe226ade3ce83800U, 0x3c3cd2b03d53b3deU, 0xbd9beb0b3d6d8d43U,
  0x3d443d7cbc42c612U, 0x3d9ecc403d6f55c1U, 0x3de52fc5bd5911b1U, 0xbd1d48b13e00c1b8U,
  0xbc133eb13c048f2aU, 0xbc57279e3cba96cdU, 0xbbbc9e22bda5a5c2U, 0x3da497583deff1e9U,
  0xbd9cf1623df3a36bU, 0x3d900ea5be03c9b2U, 0xbc9dfd96bd8b8bdcU, 0xbd481f2e3dced237U,
  0x3ddbc518bd5cc129U, 0x3dcb27dd3d9f7604U, 0x3cd28a3c3c84eb33U, 0x3d2733d93c1e4dccU,
  0x3db41e3d3df7d458U, 0xbcab9e1fbddb0a1dU, 0xbd785d36bbf272a7U, 0x3dce5910bd4f4d86U,
  0xbb96004b3d3a6445U, 0xbcaef83fbd95c14bU, 0xbd8f190b3d7e373aU, 0xbe1bf6aebd1ca32eU,
  0xbd07d2053d2bf670U, 0x3d5b2d5ebd9f2398U, 0xbd896895bcae19aeU, 0x3c91039fbd205289U,
  0xbc486a073ca4c345U, 0x3d8ac6ba3d991b79U, 0xbe4268ea3db89c7aU, 0x3c64a7303d1fed0cU,
  0x3d2b2c3f3c3fbe25U, 0xbdc78624bd68b0eeU, 0x3e2eb7f23b791e54U, 0x3da066143da277c5U,
  0xbd368ff7be0f5a9fU, 0x3dcdd53f3d58208cU, 0xbc6e30fcbe280279U, 0xbc460fe83dacf7b9U,
  0x3d0b4efb3db3c602U, 0x3e4697b03af667acU, 0xbcdb4fdb3cb2cac9U, 0xbd278995bcc84a03U,
  0xbc36a10cbc8b2b65U, 0xbde07dbdbc0ec9edU, 0x3da466e5bced5715U, 0x3dcdb75b3b59fd91U,
  0x3e1af0783d0b0675U, 0x3d3a79c2bca638d1U, 0xbd8e878b3cc22424U, 0xbd3bac10bd64cd28U,
  0xbdaf90a5bd8411a5U, 0xbe0dcbebbdc2044cU, 0x3d3ecb0c3cb78b2bU, 0x3d4285983e3f4fcbU,
  0x3dd4f52c3c2cbf15U, 0x3cb4e3b03d2a7c13U, 0xbcb491243e153431U, 0x3dc598a43d4033a1U,
  0x3e60e2043eda5804U, 0x3d846cfe3f48c7d6U, 0x3ea8d486bef7eb89U, 0x3e1210c03f0f7e1dU,
  0xbe7994fe3f0bd29eU, 0xbc78aaeabf257250U, 0x3da715c63eb6d396U, 0xbd5335023f3a4803U,
  0x3e4d0666bbcdf9dfU, 0xbac228cebe9721eaU, 0xbcc94a86bd903214U, 0xbc1f9d9bbdff0284U,
  0x3e65806f3e0349fdU, 0xbe8b908b3c7e5dc8U, 0x3d7b65d9bd882049U, 0x3c0c5abd3db69469U,
  0xbe069d063e07b123U, 0x3e0c93e03d7ceb40U, 0xbdb635f0bd75d84dU, 0xbca24cc2bdc9b5aaU,
  0xbda315a93cbf8f44U, 0x3e087c883ca70b76U, 0x3c691dd7be86e8c5U, 0xbd9d1b7dbd8300ecU,
  0xbe0810063de66264U, 0xbded48dc3d31527bU, 0xbd86ae90bdc9d5d0U, 0xbd957d79bd50464dU,
  0xbd8420d83d89e279U, 0xbbf075243d8cf686U, 0xbc8ed859bc985c64U, 0xbb5263c93da1d60fU,
  0x3c64a8353dfc02e2U, 0xbcdc66713dffd35aU, 0xbdcc49023d60d44fU, 0x3bb9f21abd063996U,
  0xbc84a20ebe0e5e71U, 0x3db254a63b13bf52U, 0xbde50e86bdd8b4a1U, 0x3ab69df2bd21553dU,
  0xbdc8d80c3d5469bdU, 0x3cfaf4533e0b4572U, 0x3c8cf5883d43e987U, 0x3d9b3496bd65efa8U,
  0xbc65630d3dcf8115U, 0xbb91ba8dba8e6d71U, 0xbdaad4733d8d7987U, 0xbcec83dcbe019f08U,
  0x3b9a09093e3835e0U, 0x3a43338bbc2d99cdU, 0x3c178150be454f6aU, 0xbe36e2ebbd0c6575U,
  0xbe033b24bd6b5412U, 0x3deae8e33e1833abU, 0x3d8608c8bdb0c0efU, 0x3de3ffd33d14d57bU,
  0x3e14e5683c58cd06U, 0x3d8e1e9cbe0f3f40U, 0xbd49b2033c8a0bf9U, 0xbdf03470bac5e3dfU,
  0xbe02caeabe0ed21dU, 0xbd59e0f23da8f211U, 0xbdefe283bde0aa2aU, 0x3d6e79cfbd946cb0U,
  0xbdb4b4f5bb3da23fU, 0x3e189b4f3dade3dbU, 0x3ca7dfaa3e27088dU, 0xbd6523babd4cec9fU,
  0xbdeaf66e3d50bc34U, 0xbbb6253cbd752c86U, 0xbda5b0b9bd7d01e5U, 0xbd1d514f3b8692b2U,
  0xbe2a7cc8bddee68bU, 0x3eaa4271bf04a000U, 0x3d39a86b3e84e574U, 0xbeb333893f615802U,
  0xbd10df98bf865e2dU, 0x3edf7e233f0f0c60U, 0x3c299d6abeb58311U, 0x3ec328fabe447a11U,
  0xbd337bef3e7e8c0fU, 0xbe8e4158bbcc1f9aU, 0x3d6427dfbdc658d5U, 0x3d334d593d5b6f9dU,
  0xbd39ff20be049ebaU, 0xbe91febe3c79937bU, 0x3d9c3f703cf1d12bU, 0x3d93ea1dbe981198U,
  0xbe808c543d8ca4dfU, 0xbc4659a9bd593eceU, 0x3e005933be2f411cU, 0xbe11a7e83df1046fU,
  0x3e087ff8bd9ff9e1U, 0x3d5e8823bbb615d9U, 0x3e12dbf8be14ce23U, 0x3c800a853da50f5aU,
  0xbbf4dfd63e46899cU, 0xbe41c0dbbd2a34faU, 0x3d2bea713d477d51U, 0xbe0822a33e07abaaU,
  0xbe89e1493ca8febfU, 0x3e08d233be062178U, 0x3dafb5ee3cebb368U, 0x3e3ee1eb3e1bd09fU,
  0xbce8f76bbe13eb77U, 0xbd8c448a3e3707a0U, 0x3e34cbb0bd036242U, 0x3d25334b3e24e71cU,
  0x3defa2c8bd8b1eadU, 0x3d0fb483bdaf172bU, 0xbe2b949a3dba555fU, 0xbe0b0c0c3d47ef2eU,
  0xbdafb3983df598c0U, 0x3d1e1032be159fdaU, 0x3e18000a3db53158U, 0xbd43be88bdb7d99fU,
  0x3d96cde73d44ea6fU, 0x3da5582fbd222756U, 0x3d93f1b0b993bea9U, 0x3e29fa8e3cf79802U,
  0x3d93b5acbdb60931U, 0xbe5c3b5cbc5d567fU, 0xbc925f46bc8870f2U, 0xbcc99b383ddad73cU,
  0xbd5aaae2bd81d50aU, 0x3e106fcabe4a2254U, 0x3d5e5214bcb37a57U, 0xbcdd11ff3ceb7f0eU,
  0xbdd971f13dceda51U, 0xbcf910423b639116U, 0x3cec0c48be668615U, 0xbe30f2853c8eb00cU,
  0x3c1bfab33db57921U, 0x3db96117bd9ca595U, 0xbc3c0b6cbcaff783U, 0x3b313f0aba4285f2U,
  0xbd8a1a2fbd749509U, 0x3d69a0743e04881bU, 0xbd9b3a55bd3beea5U, 0xbe05b81abd660dadU,
  0x3e18b91abd7c02feU, 0x3e0be4403d717030U, 0xbd97af44bd3ee8aaU, 0xbd10052c3bc3bc95U,
  0xbd61a9363dd57cdaU, 0x3d19a0e03d38971bU, 0x3f17db23bed62bf4U, 0xbd88b098bd88d511U,
  0xbede81ba3e8ef3c2U, 0x3d2ccd64bddb629bU, 0x3edd16a03eed6b1fU, 0xbd57dabbbea7aeb0U,
  0x3ef31f73beb81c26U, 0xbd4797b8bdead650U, 0xbda66951bcd7496bU, 0x3d28d5b83d11baa7U,
  0xbd36a5a4bd18f32dU, 0x3ca2386dba0066a5U, 0x3dcfb75fbc9535bbU, 0x3db1693d3e27eee8U,
  0xbd33154e3d26cd28U, 0xbd81ba11be1425e2U, 0xbdaf9b1abd6b4d5aU, 0x3db15879bd9c73a2U,
  0x3d5de9d53d3eda21U, 0x3d23c1e63d555c58U, 0x3d485cb33d92d2f4U, 0xbc7dc82abd656846U,
  0x3d619563bde3227eU, 0x3d76e49cbd8bd9aeU, 0xbe2ef08d3cc47cc8U, 0x3c8ab3fdbcc78da9U,
  0xbe3105033d5e230eU, 0xbda92708bbd1924bU, 0xbc48f393bdb704eaU, 0xbdbdd2bf3cb38c69U,
  0xbadef498bd347e0cU, 0xbdbbb5923b6b1d07U, 0xbde836793aeaff6bU, 0xbd85ed73bdb0d8cdU,
  0xbcd15616bd2d39c3U, 0xbdefba3ebcebc566U, 0xbd241372bd54ac83U, 0xbd9e9bc63d5d9185U,
  0x3e1436a9bd2fb8b2U, 0xbe0e03573dd1b864U, 0xbcd6641dbe131f39U, 0xbd2b1e523e05af7dU,
  0xbb98447c3cd7de0bU, 0x3d62a6c2be0ba49aU, 0x3e24342cbdc724b9U, 0xbdd4e961bc860f21U,
  0xbb82c0fa3dcc4bccU, 0xbdc034a23dadaaf7U, 0xbb65e3edbc2a3d12U, 0xbe0a17e23ddf3cbbU,
  0x3db4464ebcb8fea8U, 0x3d4b27273da15ccdU, 0xbe001a473c8b21fbU, 0x3e2352e7bd7625eeU,
  0xbd39a5b43cde5db0U, 0x3d936c8bbdd6e3c5U, 0x3c02d0c1bd4fc313U, 0xba9bfba4bdd787fbU,
  0xbc320c353c066635U, 0xbd2c2d233d4aa91bU, 0x3c595248bcb42797U, 0xbac09386bc0cc361U,
  0xbdd1c55e3dee9639U, 0x3cde41e83d45e3f9U, 0x3d3c9c00bd9475f8U, 0x3d3d9edebd8d35d6U,
  0x3d571f23bdeb2b82U, 0xbdbbbd69bb9ef59dU, 0x3d8fe017bd42a317U, 0xbc913501bc1160c9U,
  0x3bed5c01bd0112ebU, 0xbc56d6693bfc1343U, 0xbdb1475ebdaf35daU, 0xbe471690bf4d19e4U,
  0xbd820aea3ebcac29U, 0xbf468ed6be339756U, 0xbdcaa77f3dc9ac38U, 0x3f1bcf69be1b4bb2U,
  0xbe0e489e3e12c0efU, 0xbd169b3abeb3f41cU, 0x3ce076823f0859eeU, 0xbca1f76bbbb8fce7U,
  0x3d8582f4bd3472ebU, 0x3e27c4ba3dca5dadU, 0xbcfa848bbd3d28a0U, 0xbd263ad43d901425U,
  0xbd2d2fe139cfb018U, 0xbce0966b3e31074aU, 0xbdb9419e3d9f4f2fU, 0x3c8686ce3e274c0eU,
  0x3d5318f63e26219bU, 0xbb0f3c5fbe3cfad9U, 0xbd8a249bbd8ebc2dU, 0x3e5258d73e952809U,
  0x3d1837f4be2a08cdU, 0xba443efdbdc38c03U, 0xbcba9a043d0d5393U, 0xbd9f57d1be13d84bU,
  0x3e0d6e633d85b8d1U, 0x3c8d072e3dc25697U, 0xbd342812be14245fU, 0xbe2d23eabd8cf3e1U,
  0x3dd29c69bd250c9fU, 0xbe495102be1fc8c4U, 0xbcbcbcaebc0c0ff1U, 0x3de788a6bd1d6604U,
  0xbdc00986bd838974U, 0x3daaf5c13dafa1deU, 0x3d39c8fbbcc55686U, 0x3da5b3713dc116e2U,
  0xbcc3d63dbdd534acU, 0x3e194a243e04f386U, 0x3e274d6abd9675a4U, 0xbd3f872fbde4d747U,
  0x3da340b03da8064bU, 0xbdfda29bbc5da5a9U, 0x3df673973d395453U, 0xbdbdfe103d82136cU,
  0xbcbcd756be258bcbU, 0x3de0c8733db77728U, 0x3e705e0bbd06ffd7U, 0xbcb81f79bd1b005cU,
  0xbd9d1816bb7a8c28U, 0x3d2c3c653d3c9cc8U, 0xbdb42b4e3e5ed9e3U, 0x3de96d043d9792f7U,
  0x3d95e9b4bde6f694U, 0x3e137f3abe244c5eU, 0xbd896e17bd907154U, 0xbe221c3d3d6ca7e4U,
  0xbd311b923cd09b83U, 0xbd94e7aabddc98a7U, 0xbb158e783de8791aU, 0xbe070e463df0d4ecU,
  0x3d7924f6bc46b7a8U, 0xbe0d6bf8bbf2d24eU, 0xbe188aacbb0b9b23U, 0x3e629e49bd6f7eeeU,
  0xbd228f54bc66fabcU, 0xbd1923f33da67f9eU, 0xbd311bae3de6ddfdU, 0xbbc0fb54bdd63079U,
  0xbc858af13c388f5fU, 0x3e30cf2c3de49c63U, 0xbded5f46be86b518U, 0xbc21b6653d3f8d5dU,
  0x3f194e90bf111752U, 0xbc456bad3db64796U, 0xbede6f893ea0a6e7U, 0x3d682165be673a71U,
  0x3ebc683d3f99dea5U, 0x3ca072f6bf680cc1U, 0x3f2d7e7cbe8e3376U, 0xbe34035bbcbeb7f5U,
  0xbe495716bcfdea96U, 0xbd9de24a3c2de7cdU, 0xbce2ef453e09d2d1U, 0x3e86702ebc46f79dU,
  0xbd51295ebc1da9b3U, 0xbdda8aa33d90cfc0U, 0xbcbadab2be2d0f89U, 0x3d85a5bd3e435b9bU,
  0xbc188e93bd8b6e79U, 0x3da1a7d7bb83780aU, 0xbd9a98583d054a93U, 0xbd3712c93ba2a06eU,
  0xbd817f24bc865b0bU, 0x3d30a454bd0afa5bU, 0x3c9b089e3de5edcaU, 0x3d4a3555bd21cff4U,
  0xbd987a66bd6d9710U, 0xbe14b15cbdb261bbU, 0x3d98df183c187f83U, 0x3e0addbf3dfc0cacU,
  0xbd2f53e3bd8fd41aU, 0x3df97bdabd5c8941U, 0xbe10ec24bd901fdeU, 0x3e0ba62a3c1703d9U,
  0xbc13dbcd3d5706c4U, 0x3c2314ef3e2c2505U, 0x3d99104c3d1c7f1fU, 0x3e2c9bb6bc9e4750U,
  0xbdb9b134bdfbbe29U, 0xbcdfb1bf3d140327U, 0x3db3080bbda1b2c3U, 0xbe57f396be0fb56aU,
  0x3d8245dbbd6a9537U, 0xbe0eb3bfbd1c025bU, 0xbd03311d3d7f6a45U, 0x3d793043bd0c51bcU,
  0x3dfb10b73c35833eU, 0xbe07ffa23d4098a7U, 0x3e0956f93c7f31e1U, 0xbe6423afbbc4fb95U,
  0xbcb534073cbf5cdbU, 0x3d8f59953cc44589U, 0xbcf6dccabdb213d5U, 0xbd8f3f193e26fc8bU,
  0xbd332b4b3d87cfd9U, 0x3d61eab1be111a04U, 0x3dac112ebda8adf0U, 0x3d6e161c3d66e435U,
  0x3d7075acbd7e83a8U, 0xbe13879cbe453387U, 0x3e060b88bd9a05f2U, 0xbe2766c73d2962c6U,
  0xbe5906e03c51e28dU, 0x3d90a3b63ccf13e5U, 0xbdffb5bd3e29ad98U, 0x3e23e756bd15f51fU,
  0x3cdbb4babd639492U, 0x3df5467e3d9d84dbU, 0xbd9a1d46bd889139U, 0x3d9f9a4dbdd9f17bU,
  0x3e38420abe0b071eU, 0xbe54d2793be89698U, 0x3c8de81dbd7b11c1U, 0xbd8415143cb4feacU,
  0x3c360e70bba99384U, 0xbd989d133f040485U, 0x3c8cce73be66b18cU, 0x3ee27f753eb7630bU,
  0x3cc943adbf1f5f38U, 0xbee3e15dbc969e6dU, 0xbd67a0f4bdd83f1fU, 0x3cbc488a3dfdd54cU,
  0x3d63509dbe3aaa52U, 0xbe197ec3bc0fb806U, 0x3d809a203e0f4f40U, 0x3e9d8622bc25e3deU,
  0x3d163505bd46feb4U, 0xbdf02d583dc1a091U, 0x3d609732bc8f44fdU, 0xbd7b24ac3d6c7196U,
  0xbe0b6fb43d6a85e1U, 0x3cea38aebced5d96U, 0xbd28c42dbd0570cfU, 0xbce0e1fbbe143d3eU,
  0x3db2e0693df9aae9U, 0x3d8750cc3e6609e6U, 0x3e259cce3de85619U, 0x3cc9ba61bcd2db9aU,
  0x3d70d13ebd288c4fU, 0xbd813e1bbd3125f7U, 0xbe97333a3dd5696bU, 0xbe566631bddc6426U,
  0x3e8458663e335d62U, 0x3e1dcb683d1c99d7U, 0xbe129f0f3e2af0f5U, 0xbbf6844e3decf4a5U,
  0x3d07ea87bd345a3cU, 0xbd3be019bd4f1225U, 0xbb14fa013e1dc266U, 0xbe1d67fd3e3dd1b7U,
  0x3d43dfd93db3f906U, 0x3e6417afbbbcc0d7U, 0xbd84a6f9bc905f7fU, 0x3c1c3a90bd8171f4U,
  0xbd3455403dba5f63U, 0x3c2e7cc33e5befb0U, 0x3d4a72b7bc37695fU, 0xbe0648edbe3ed52eU,
  0xbdb29f63bda83f4aU, 0xbe09247cbd08b016U, 0x3ae08f7abd2f6cf6U, 0x3dd1e87bbd1e9470U,
  0xbddb8d1bbe161ab0U, 0x3e8dd69b3d2e3102U, 0x3d7b51c7bca1f521U, 0xbe4874633e036352U,
  0x3d9378253dfb19dcU, 0xbd5a4cafbe7ca52dU, 0xbdc073f13c80366cU, 0xbd8be1aa3d68b5c2U,
  0x3d3a1e6b3d9aa300U, 0x3c7e7dc23d8e0cdbU, 0x3d9b4c5bbda95edcU, 0xbd1328303e49ee22U,
  0x3d632af83d8379fbU, 0x38ddc7e73a83b2aeU, 0x3e6d89b73e3cfd8cU, 0xbdae4412be2c9ffcU,
  0xbd898a9d3a80a0aeU, 0x3cbab11d3d809749U, 0xbdafb638be3bf515U, 0x3c9551b23e2a0225U,
  0x3e2019793cb131e5U, 0xbd5866b7be63c0c9U, 0x3dbef0783c9c6652U, 0x3ddbcf173bbb6a2dU,
  0x3da7a25c3d55bb73U, 0xbd42b7ce3e7c181cU, 0xbd21455bbf1fffdbU, 0xbd7f011cbeee912dU,
  0xbf109545bf11f7a5U, 0xbbf7aea13f5b8683U, 0x3f0af2973d08dd50U, 0x3ca558453c82beb1U,
  0xbce0471bbeda1003U, 0x3d55ef49bf092b6fU, 0x3e8961e6bd9f7c22U, 0xbd8a034cbcea96ecU,
  0x3e080d3cbde72b52U, 0xbe0e4188bd91bba3U, 0xbd5f51ddbb70bb53U, 0x3dec8c4c3e41e3a1U,
  0xbcd47e34bd9fe04eU, 0xbe047843be8de556U, 0xbe18c74d3d1838f5U, 0xbd084fb6bdc739d8U,
  0xbd772221bdda7045U, 0x3deb9b9ebcfd0be4U, 0x3d4b51d73e1550ebU, 0xbd45f7af3895b07aU,
  0xbe4958c7bd827e9fU, 0x3d1e637b3d6da31aU, 0x3da23b2a3c978ce3U, 0x3d164b1d3a8005f7U,
  0x3df0e33e3c028ba9U, 0x3deb3418be2136ceU, 0xbd24efdc3e28dc8eU, 0xbcc16a0d3deaeab9U,
  0x3d29b312bd8016c4U, 0x3e3ff1d13cebbb5cU, 0xbbb9faef3d6b9f3dU, 0xbd0d53d53d92db41U,
  0x3c6f0c3ebd341646U, 0xbe0bc39b3d0059b1U, 0x3dcdd1d9bd0969ccU, 0xbcdcc5e13d908555U,
  0xbc6f3295bd205f85U, 0x3d00c95fbd655fa1U, 0x3e24f252bcd801bdU, 0x3d2ac6a13b4388b9U,
  0xbdc8bce13da7bad1U, 0xbcf0f64b3d5c4503U, 0xbda8a0aebdfc5161U, 0xbd8e5cd9be158fc7U,
  0x3dd17d9abe009e8dU, 0x3dca9efb3d2c8444U, 0xbe037de4bc8e52bcU, 0xbd8f2e74be0b72ceU,
  0x3d81878a3e03c1bfU, 0x3e1d3010bd1337f7U, 0xbdaa0da4bd4b7662U, 0x3ca68407bd2a738fU,
  0x3d190b0abc3b678eU, 0xbda0de4e3de1fbc2U, 0xbd80ce6c3cbc1cd7U, 0xbd8549133b3e9b8dU,
  0x3d68fa5d3db934d1U, 0x3ddef3f5bdc6f009U, 0xbd60233f3cfc72e1U, 0x3d54eeb7be3c057cU,
  0xbd33e9b93d2e2bd5U, 0x3d88bef8bcdd35f8U, 0x3d892d503bfd62baU, 0x3d654e673e0cdf9dU,
  0xbbdec7d2bd4c0841U, 0xbd94146d3da2386aU, 0x3d3fce8cbd0fee22U, 0x3b328584bddca3b6U,
  0x3e24a67fbd7ef1f1U, 0xbd8a564d3d799a67U, 0xbc8ac0833d4b7246U, 0xbd848a043f0fc608U,
  0x3ca7aa10bf7f6b6dU, 0x3f5a4af1bd8b6306U, 0xbdf434cabb0b8379U, 0xbf412ba23d26be1bU,
  0xbd0edbc8bbdcf27dU, 0x3dbd60c53eebe49dU, 0xbd8cc065bf787340U, 0x3d0f486d3d084ff4U,
  0xbd531abd3e49a5c1U, 0xbe50d0f83d54e6ccU, 0x3d7353713c2e6b2dU, 0x3d85aeb53ce252a2U,
  0xbd6bb00ebdeed733U, 0x3da98f87bd0b56e1U, 0x3d328746bd6c266aU, 0x3d9f75a03da696c1U,
  0xbdec14eebd8c3ce9U, 0x3e06dcddbda86bebU, 0x3c2e44493d470dafU, 0xbc4a38e73da5b080U,
  0xbe596bfa3d8ecc3aU, 0xbd3f38903d9c19dfU, 0xbd9408a33be58b12U, 0xbd96cc263d246112U,
  0xbc6afc9fbbcdc4fdU, 0xbdc428d6bdb1c13fU, 0x3d16dbaf3cfbdaf4U, 0x3d6ab3ed3d35a7cfU,
  0x3c5f5469bdbb1e3eU, 0xbcf58a40bca37db9U, 0xbcb5dd7cbc66692fU, 0x3d7bab17bd30e6b6U,
  0x3cec654fbe559635U, 0x3da226263c9abe05U, 0x3b8395473c1e1d5bU, 0xbb8c9df03d8cda62U,
  0x3d8d120f3c923dc4U, 0x3d5eba31bd7f3990U, 0x3d886a963b0f1476U, 0x3df16717be2c8ef5U,
  0x3d442d173bfaf5f6U, 0x3dff2e2ebdce98efU, 0x3e2971e7bcf0e07dU, 0x3c8b02ab3cd69192U,
  0x3d753c673ce013a5U, 0xbdc1c1bc3d847d94U, 0xbd28492e3d5cf395U, 0xbd068cfcbda85ecbU,
  0x3cc94d6b3d52b289U, 0xbc6203863e005f78U, 0x3d28a0efbe294114U, 0x3ce8a0753c65a284U,
  0x3cbe52723d1fa07cU, 0x3d0b72bf3dc4ae3aU, 0x3d2d748dbc8c832cU, 0x3d42a7f43dde8220U,
  0x3d8f714e3d1bf78dU, 0xbd764beabddd0887U, 0x3e0fa7e6bcc0dcffU, 0xbd24a5193d0a10fbU,
  0xbde1e45fbc243b01U, 0x3e72e68fbd59d2d6U, 0xbd9853743deb5ab2U, 0x3c9e8618bd08789cU,
  0xbd7893ffbcb0e87fU, 0x3de940543d5ed194U, 0x3db854d53d501764U, 0x3e0aa4583ccc0ddbU,
  0x3cb8920b3e3b2aa3U, 0x3e02dd4b3d14d2eeU, 0x3da2c1643e2039e3U, 0x3debcb503d8ca8a9U,
  0x3f0a9c2f3d814650U, 0xbd3ff4d2beaf1326U, 0x3d580bbb3f391e22U, 0x3d9dae85befce419U,
  0xbe39ead43f174e9eU, 0xbc40e4b4bf13bdd7U, 0x3e9b5771be0a46deU, 0xbd96a626be22888dU,
  0xbdf82d643c93498dU, 0xbd13f83e3d65dc0fU, 0xbdaa073bbe76f11fU, 0xbb8b1c6c3e4717c6U,
  0x3d91bf60bd5ef2bbU, 0xbb1828403d8ae8b9U, 0xbdac2a63ba29a3abU, 0x3ddbb593bde36d0fU,
  0x3d4882df3d50f7a0U, 0xbcb762733d5dbf75U, 0xbd3c5347bd937981U, 0x3da629c53d82b4c1U,
  0x3e60b1cdbe58c4a3U, 0x3c18ae4c3d286621U, 0x3ae87aadbdbe4345U, 0xbd1830acbda6f0adU,
  0xbd1bfc183bad1d78U, 0xbc344c2f3d9c0fa3U, 0xbe8245d4bcc5d7cdU, 0x3ddf228cbdd168a7U,
  0xbd298f5e3dd3af98U, 0xbe05a21d3e1a1d3eU, 0x3df4d07bbd91c218U, 0x3db8cc7d3e293c48U,
  0xbc92156abd089c47U, 0x3c533c8abd999048U, 0x3e252dd73d4a7cb3U, 0x3dea10343e1f00aeU,
  0xbe1c7b103df93b15U, 0xbd6dc3163dc4d475U, 0x3e00bfc7be2482d1U, 0xbe0f9a38bd8ba663U,
  0x3c971158be511fcaU, 0xbda1784b3c417369U, 0xbd9635afb721df61U, 0xbd6cf38dbdc9ed45U,
  0x3e25cbd6bc990c33U, 0xbda1ebe93e1d60c2U, 0x3e0cde5abe1a1963U, 0xbc13cee7bdb04e23U,
  0xbe4030c23ca3e889U, 0xbe078f95be45fe96U, 0xbc3e23b13e4a754fU, 0x3ca52428bd3aadbfU,
  0xbdd12d85bdedcdcfU, 0x3e1fdfefbd1f8f50U, 0x3be4061c3dccc726U, 0x3e22b2543dcce444U,
  0x3d4da8e6be281df1U, 0xbdb082f4bd9d85f3U, 0x3db7b1d13e2bd24dU, 0x3d50a091bd0a5e07U,
  0x3d8a5f3ebc80b9f8U, 0xbd8a94aebcd90355U, 0xbcdd26d5bc852b03U, 0x3dce46793d3a3614U,
  0x3ca6c283be48f0c6U, 0xbd13f9d73de0ec6fU, 0x3d5cc1bebc5b16b0U, 0x3d5323873dcedb20U,
  0xbc880fbe3d35bcf8U, 0x3e6609323c8053a5U, 0x3d2c9667bc234590U, 0x3d37bc963d9c88c0U,
  0xbce33b6bbdd99b63U, 0xbed8d39b3e68ac85U, 0xba3087f63f2e5471U, 0x3ea84ba7bf3a0c99U,
  0x3da616183f23f595U, 0xbe7c492cbf29bcb6U, 0x3cdae6913eed27e8U, 0xbea7fbaf3e250ef5U,
  0xbc7710a13f382a9fU, 0x3e8a60f4bd0d64f1U, 0x3df2d5713d116469U, 0x3cad13063e9a5e2cU,
  0x3dba46d8bc33d5b3U, 0xbdba97903c99c242U, 0x3c71f4bfbd85dcc7U, 0xbd889ee23d8e6b49U,
  0xbd159adb3e19df32U, 0x3e2dddd0bcf0f768U, 0x3e0cd236bbb7fbedU, 0xbdf6ed0d3d0725fdU,
  0xbe67212bbd99a77bU, 0x3d8835253d9e1037U, 0xbc781b083e1f844eU, 0xbdb9f5edbde9cde1U,
  0xbe28ed04bcbf5377U, 0x3e087ba6bece7789U, 0x3dbe960b3d58dda1U, 0x3def57fa3d6b5b72U,
  0x3c8c36353d8af28fU, 0xbbab6b74be37e253U, 0xbb39b74dbe1f9b84U, 0x3e07cef83e12b550U,
  0x3d22cdfd3e0e33e4U, 0x3cc4b1bc3db1be99U, 0x3e063d9fbc5060e5U, 0x3d9324b6be58dcddU,
  0xbda92a0bbdc8ea38U, 0x3ca5711bbbb6e373U, 0xbce2a092be42decdU, 0x3cc9aa84bda301f7U,
  0x3d9c56babe2454d1U, 0xbce34be63d3e01ffU, 0xbd7988d2bc449364U, 0x3e2ff2313daf5122U,
  0xbd1431dd3d71a002U, 0xbdebc4703bf38b42U, 0xbe1dadecbdb4444cU, 0x3c9b8dc43c3d3edeU,
  0x3bc9385b3d98391fU, 0xbda912e2bdccb60bU, 0x3d7f79863e3647e4U, 0x3cf9c5903cfbd255U,
  0x3d8923a23d53c4deU, 0xbe295ba63c9ded71U, 0xbe1a9a66bd98283fU, 0x3cd0ab82bc24b277U,
  0xbe13537bbb7d5da2U, 0x3df9e218bd146539U, 0x3d9acc213d788e0eU, 0xbdd958273d2da6e1U,
  0xbd5c377d3cfd7b39U, 0xbd8f35ae3ca09df8U, 0xbd15dae8bdeb7759U, 0xbe00bfa73e1af1b3U,
  0xbd8e1d973d378799U, 0xbcdca50bbdef68efU, 0xbadadd043d98c71dU, 0x3d026fda3d02764bU,
  0xbcf5accbbd6cefadU, 0xbdb443003d14b5daU, 0xbe6f9cf8bd4586e5U, 0x3cf3edbfbc4341daU,
  0xbe4b0320bc75b69eU, 0xbd7ffc0cbd8adc2fU, 0x3f39494cbe2f91c7U, 0xbd3294c0bebe2579U,
  0xbdb60c5d3dd2b49fU, 0xbdacabc4bd1d80f6U, 0x3c539fe33fa522a7U, 0xbdfbe8e7bf8ce8e0U,
  0x3f48f64cbea5525bU, 0xbeaed162be5f68b1U, 0xbe239f473c1d52a0U, 0x3dc86a07bc5a729eU,
  0x3d517e79bd706956U, 0xbe12e9b63e0b21ccU, 0xbd086143bd0e2e8fU, 0x3c84f315ba09f4c0U,
  0xbbb064d8bd6b3157U, 0xbd84d2483bf93221U, 0x3d01a56d3d8ae90aU, 0xbd8fad02bd85f8e6U,
  0xbdcba36cbcd9b6eeU, 0xbc8220fc3d1cb6e7U, 0x3d3a4a70bcf83644U, 0xbc8560ccbcd930b5U,
  0x3d67b8f93e32112eU, 0x3d9d0baa3d92da23U, 0xbcfbd28dbcd03e7aU, 0xbd24c022bd8219cbU,
  0xba997e8bbcaa5090U, 0xbc5f261cbde178e5U, 0x3d0a46723d5c97c2U, 0xbd6af252bdbdad37U,
  0xbd18ac99bdbd934cU, 0x3d892513bba32b92U, 0xbd856c16bdc8bf74U, 0x3dc70282bc9c034eU,
  0xbd2485bdbc572023U, 0xbbc2640e3e10b971U, 0x3dcb2d443e178babU, 0x3e1af62abd8f6821U,
  0xbc20b171bc5fd47eU, 0xbb2162543e32f70fU, 0xbd784e6f3d81695cU, 0xbe60d027bda74beaU,
  0xbd1b6853bde68645U, 0x3b99d2aabd194bf1U, 0xbd1f3cedbd4e0da8U, 0xbc8cf1adbcf2b7c1U,
  0x3c49e55e3d703b81U, 0xbd6c99cd3d9b568eU, 0xbda229623b6027ffU, 0xbca7e74b3cb02512U,
  0x3cc950babd731e75U, 0xbd6a9e79bd904527U, 0x3dab46f83de7c3f4U, 0x3d7bb92d3dba73d3U,
  0xbd945158bc623a1bU, 0x3d749dd93e1f37ecU, 0xbd5cafeb3d77a5e5U, 0xbd5a157ebd30ed67U,
  0x3c9011b0b988be13U, 0x3d7a882fbd511555U, 0xbdc3d88c3cba7e5fU, 0x3cfc3e36bdd8be79U,
  0xbd0f82c8bd01b696U, 0xbdfa9236bccbc704U, 0x3d95de21be1d8721U, 0xbda902bf3d29ca61U,
  0xbda8f8063bc9fe78U, 0x3ba20989bdc35fe0U, 0xbd4e31a93cc699f4U, 0xbe8464babe0ead96U,
  0x3d3927e13e2ce8cdU, 0xbd415794bc510d22U, 0x3cd8fe11bd86589cU, 0xbf24c104be9f5de5U,
  0xbbced5d13ea3cdd2U, 0xbece2295bea785c8U, 0x3db282413eaebafcU, 0x3ea30caabeeb8ab9U,
  0xbc5d11e53ef38e1cU, 0xbee38f66bddaf7feU, 0x3d25d9663e3ad069U, 0x3e56ca143d641b44U,
  0x3c9c242fbe02ad00U, 0xbd4e24c53cf2e099U, 0xbe04fef0bd91e09aU, 0x3e2c9a48bda51565U,
  0xbe6a45fdbddf159eU, 0x3e1e1c793d0be85dU, 0x3d7900093e0c3e91U, 0x3db2586f3d7336d3U,
  0x3def9b54bddd0c6aU, 0x3c96245d3ca4c8f5U, 0xbd53380abe23db4fU, 0xbdaa727cbdf5dbdaU,
  0xbe03f09dbd723449U, 0xbdd395dcbcf2315dU, 0x3e2056063d4dbf81U, 0x3dc6d190bc19453dU,
  0xbac0ec743e761183U, 0xbd8114c2be986fe7U, 0xbd9c19d4bc935f66U, 0xbe3ce76c3e272ba8U,
  0x3d40df833e253c1fU, 0x3e157a7f3d921d8aU, 0xbdc34eb53d4cdfa8U, 0x3de910553dbe510aU,
  0xbdc60a66bdbe4ff8U, 0x3d5ec39a3d33af62U, 0x3d5dc30fbcf7e664U, 0x3e7a7b823cef6eccU,
  0xbde77d6abce02d8cU, 0xbd02dc483d61881cU, 0x3e8872523e0f9a97U, 0xbdfd033f3bd3b61cU,
  0x3e71f294bd1735dfU, 0xbe06fe11bd37367dU, 0xbdcc80b6be05d664U, 0xbe1515073cabf5b2U,
  0x3dbb5f0dbd2f2b7cU, 0x3cd26af4be1e41a4U, 0x3d935facbc13f174U, 0x3d157a073e217019U,
  0x3e270f2a3d965da3U, 0x3ccb57b5bd6f691dU, 0xbdd2dfc4bd892f19U, 0xbd1bae103e14ea6bU,
  0x3dbc472c3e489e79U, 0xbd0f8423bda1a61fU, 0x3d13095fbdf420d8U, 0xbd16df4b3d64b401U,
  0xbda4dfe5bc0fca83U, 0xbd0cc732bcb26ac9U, 0x3debf13ebd02de71U, 0x3d453c19bcb4dbe0U,
  0xbd7ada273db761caU, 0x3c1db77b3dba255aU, 0xbd7091323da7747bU, 0x3b99551a3c413362U,
  0xbabe32a13d656a6dU, 0xbdd942863d4b0919U, 0xbc562ca63e146edeU, 0xbdc08826bc5f0debU,
  0xbcab42f0be13c512U, 0x3d57285f3aea381bU, 0xbd485163bd9c1d25U, 0xbd9b68283c915f5aU,
  0xbe81edd6be52b051U, 0x3da63f4e3eec4ad5U, 0x3d44daa93f0da1c8U, 0x3ba6f9afbf46b5bdU,
  0x3c52f9e8be9d894aU, 0x3d6279e63e9c76a6U, 0xbe4b6407bcd1c466U, 0x3d57f0763e69a07aU,
  0xbce7b6aebd081ca2U, 0x3d3a1fbb3bcaec01U, 0x3dfb6c7e3dcf3ec0U, 0x3de23a2bb93071abU,
  0xbe20906ebe0cf51aU, 0xbcc3a0ccbde11443U, 0x3dd485263d0a5bc1U, 0x3d3d92b33d83bc3dU,
  0x3dbc2acabcb55974U, 0xbc34d6a13d99bdd5U, 0xbd239efc3d3195dbU, 0xbb25da813d12c0d4U,
  0x3c424ec4bde57db7U, 0x3d929e07be038bb6U, 0xbd2289f7bddb6b99U, 0xbe08e353bda4cb4fU,
  0x3e324f5a3d2df965U, 0xbdd49f623e1ec0d9U, 0x3d4c5d85b9be88baU, 0x3d2efb3f3d934be1U,
  0xbd98dfe6be304712U, 0xbc4b32c8bdeb5286U, 0x3db82cc03d8bf875U, 0xbcd3281abe13c10cU,
  0xbe12dca4bcea85b4U, 0x3e57537bbac90e63U, 0xbdd31e173d71910dU, 0x3d2dbaaa3dd124abU,
  0xba4cab80be0228e2U, 0xbd86e10fbd4682ecU, 0xbd60fc523bb14a56U, 0x3d8074d4bd151631U,
  0x3df9cc7ebd42dbb0U, 0x3d61615cbe1a7eedU, 0xbdd8d577bc65897cU, 0xbc8413ad3d58be4eU,
  0xbcd8cd5e3e28911aU, 0xbdbe71c63d2a99f5U, 0x3d15daf4bbee3ac4U, 0xbdc288513dde1e2aU,
  0x3cc7df70bd166c29U, 0x3dc111f2bc9a1e06U, 0xbc3fa2863c722d77U, 0xbce988fe3e4b23ccU,
  0x3d4796bbbdb874bcU, 0xbe03cf02bd5f1398U, 0xbdce2aef3c4fc71cU, 0x3dd256773c7bb148U,
  0xbc6d79c9bd1a6cccU, 0x3d9dd895be0a6655U, 0x3da4d4873cafe548U, 0xbc10f25abbf23e9aU,
  0xbcb38f8f3cec601eU, 0xbdd0e1a03d4c2806U, 0xbcd49a673d9b408bU, 0x3dab96b63dc8cd16U,
  0xbd111d43bd168aadU, 0xbbed8501bc86257dU, 0xbd45af913d9c34f8U, 0xbcf2a0dc3c7b4360U,
  0xbcd532b8be24b4e8U, 0xbe1fb471bdd0724bU, 0x3e46e74e3d8635feU, 0xbde29fc2bc570acdU,
  0xbd29b2d8bd871718U, 0xbefa69d43f343dd3U, 0xbda61dc4bef238f3U, 0x3f26ffbbbe8f1757U,
  0xbc6bff173ed0611eU, 0xbee50565bf41f726U, 0xbd9c31093f242c28U, 0xbf11d93a3e8c5176U,
  0x3d7003adbea1a4b1U, 0x3c491cc63da99b8dU, 0x3a5ed8b93e122825U, 0xbdb9d4e9bd71bca3U,
  0xbe0e87b0be377769U, 0xbc3021f9bde72bd0U, 0x3d491bb13dbf83f4U, 0xbd03ec5dbdb6e094U,
  0x3d014996be0c7a11U, 0x3d9c2d5f3d808a5dU, 0x3c421c25bdbc7766U, 0xbd159c313d0c3ea8U,
  0xbdb9ad2a3dac2464U, 0x3e3ff0a4bcf5bee0U, 0x3bb2bc673dcd2dbfU, 0xbbe8e0adbd991cc2U,
  0x3d169fe63e1cb853U, 0x3cef97643dffc61eU, 0x3d0f31c2bbd9bedcU, 0x3c9b04323d85837fU,
  0x3db4e09a3e2941a8U, 0x3be6821c3e005186U, 0x3e18225b3e4ffbc3U, 0x3d89fc723d3e9e96U,
  0x3cabf8943e477413U, 0xbe0d9cf1bd6cb0cbU, 0xbdd4915dbe3cf095U, 0xbca8b0453dc404e4U,
  0xbe08b86fbd819d59U, 0x3bb0f3b53d99f410U, 0xbda6d382bcff6c9eU, 0x3d4919d33d9bf6a4U,
  0x3d18e921bc4ef86aU, 0x3b273afa3e34e4e9U, 0xbc6c7fdbbd1e3defU, 0x3dfcef27bc8d1d83U,
  0xbcde56423d46bf01U, 0x3cd962493b153f78U, 0x3e30452f3dbabedaU, 0xbe1fb0eb3d2a397eU,
  0xbd2958523d5be39fU, 0x3e462706be3b29d4U, 0x3e3f1885bcf0814dU, 0xbc9e57993e846ab8U,
  0x3cc99571be4976fbU, 0x3dc718733ce68f7fU, 0xbc03ed0c3e832d5cU, 0x3e4e8ed7bc8f3107U,
  0xbe3ff9633ddf30e8U, 0xbd354c553cd14db1U, 0x3e3e1be33e561366U, 0xbd9903153dd7861bU,
  0x3e378ba9be28c9aaU, 0x3e241ffa3df6cb68U, 0x3c33ed25bc917bbaU, 0x3ce9ea033cc1f659U,
  0x3cbef5113d6053c6U, 0xbd802a653db29297U, 0x39e4f6893e318037U, 0x3d89d7f1be0cc3d7U,
  0x3da450163e3900fbU, 0xbd16065cbd3bc399U, 0x3c5ecc953e11382eU, 0x3dfb01b5bcc1c164U,
  0x3dcf87be3c78b990U, 0x3e34ea48baa4747bU, 0x3ca1636a3f0c4922U, 0x3d7bd6483eb9ad24U,
  0x3f0e88c03e89c04dU, 0x3cd056b5be6ea085U, 0xbee8ff903e64bf93U, 0x3e297d83be3fd503U,
  0x3e216a053e9ba1e5U, 0xbb6b3ae53e37845bU, 0xba89373a3ca65e52U, 0xbdf4c4b0bdcc7222U,
  0xbd1a07603da30d30U, 0x3c4f1ab1bd849563U, 0xbc724f353de0bac4U, 0x3ac47c92bd51f14bU,
  0xbe10c41f3c8dc938U, 0x3cc89445bd0367ceU, 0xbdbf101dbd933b28U, 0xbda4ee97bd86ce77U,
  0xbd4ad3223c60cf6fU, 0xbd2bb40bbb6e5114U, 0xbc57f397be14749bU, 0x3e1de1173e03a4aaU,
  0x3e4c3cc3bd9723dcU, 0xbd4141e4bdaaa61eU, 0xbdce37ab3da75ba9U, 0xbe13793bbbc3566fU,
  0xbd9d77183daf95beU, 0xbc6198ce3cdf0d53U, 0x3dccb62bbcb0b1c3U, 0xbcbf595cbc3e2774U,
  0xbd88c4843b5940deU, 0x3dbab27a3e4eb97cU, 0xbd2556c7bd87266aU, 0x3e0880523dbca0c2U,
  0xbd830a4a3dd81a43U, 0xbd7f60ebbcf2e508U, 0x3c94cd603ce1fedfU, 0xbca30926bd928d26U,
  0xbc5e503dbd36ad76U, 0xbdc2e76d3d701ca3U, 0xbdb4dd84bc2278f4U, 0xbd799c53bcd686f1U,
  0x3daf64b1bded79e3U, 0xbd914def3d9cbfaaU, 0xbd5ed4863def3b2cU, 0xbd9f141cbc656284U,
  0x3cba56ce3de8a2a9U, 0xbc4b328d3dc26966U, 0xbd1a5b293d14c782U, 0xbdcfe7883d9a58e3U,
  0xbe049786bca14b4bU, 0x3cd8c7753dd91e27U, 0x3cf3927cbe5b4384U, 0xbd69b4a1bccf04efU,
  0xbc8e23e93d8feb89U, 0xbc882c9b3da81dedU, 0xbd05ec253c240366U, 0x3e2bed42bc7025f9U,
  0x3d851d78bcc98919U, 0x3c8a7e14bddb1817U, 0x3dd0c0acbcd0c064U, 0x3d1765f23dd55408U,
  0xbd0bc84c3af596fbU, 0xbb32eb883d849734U, 0x3d69fe4a3d8a5eaaU, 0xbde5ed50bd8c0dfdU,
  0x3dbc69513e0de621U, 0x3df51043bd9380aeU, 0xbe7a122fbd868d68U, 0x3d424033bdf9b932U,
  0xbd2896c3bdc5a90bU, 0x3d8c62f2be058fceU, 0xbd42d249bd9cdc89U, 0x3f35e9b1bf269684U,
  0xbd1bb9aabedefcb2U, 0xbf1e5613bd8b9c81U, 0xbd9d12803e2c7544U, 0x3ecc12af3f35c11dU,
  0x3c628d8cbf0965d7U, 0x3f159193bf2225c0U, 0xbd823d39bec7c85fU, 0xbcee6b1ebdfdae8bU,
  0xbe33b8c9bda20b5cU, 0x3cc1aaa13dada84eU, 0xbce8a2723d135584U, 0x3d37fc2c3d252841U,
  0x3e0b2e9d3dc10ca7U, 0xbd7797903d2b9318U, 0x3d0b73f8bd8cfd50U, 0x3ccbeba0bd2730b9U,
  0xbcaf55b03c52d82fU, 0x3d2849553ba4951eU, 0x3d30e4bdbd3a9b7dU, 0xbe02f7a7bc919e4cU,
  0x3db239123de62304U, 0x3dd37a46bd58a0ddU, 0xbce7195a3c6fe670U, 0xbca176593be4fcc9U,
  0x3d26136cbdd29553U, 0x3cc11c0a3bc8c461U, 0xbd9a006c3d5ec3c9U, 0xbd01f5bd3d45e570U,
  0x3dc3d0f73c4d55eeU, 0x3b22f0afbd9c33f6U, 0xbd1486b43d17ebdbU, 0x3d8618babdf453c6U,
  0xbd3b6ef9bc86ea0dU, 0x3dc437633d7422d7U, 0xbe1ae9dc3e07495dU, 0x3d73d9a73c6c2f01U,
  0x3d82c3d73d47af51U, 0x3dba2b52bdd96f29U, 0xbd933b3dbd8e4406U, 0x3d8e93413ce17849U,
  0xbddee514bc5241eaU, 0x3cefba7bbbe04dd5U, 0x3d18b2243ba38242U, 0x3e354fccbd07cd7eU,
  0xbd6ab81fbdb66eeaU, 0xbd550af63dcb4db4U, 0xbe0cda9c3cb2bd82U, 0x3d020c62bd79e13aU,
  0xbdabb17bbd65bd67U, 0x3d767a473ce6a492U, 0xbc8b36063dac6131U, 0xbdda44e2bd5de43dU,
  0xbd81847bbdafdbd3U, 0xbc5509cbbccbc07cU, 0x3e0732cfbdd7d443U, 0xbd69b3e83d63a04cU,
  0x3c961ba03c0097e7U, 0xbd91d203bda608aaU, 0x3d2b8335bc55211bU, 0x3d5d4ff33b15f7cfU,
  0x3dd2d1fb3c692052U, 0x3c072f5b3cd7503fU, 0x3d310091bd8e5207U, 0x3d7f343abcad789dU,
  0x3d8052463d35102fU, 0xbd9bbcf5bd81a506U, 0x3a4155343d0aa385U, 0x3daffeecbc91c3fcU,
  0xbd3f54ddbd3b27a1U, 0xbd1d5dc23d2009e1U, 0x3dbde485bcfaa4ecU, 0x3c8863563d8bf214U,
  0x3f3a3c3cbe51e4baU, 0xbc113e72be8e58daU, 0x3d8b31f53effe666U, 0xbcd090e9bf1c853dU,
  0xbc4d8ac63ec7a474U, 0xbd4ea3e7be834225U, 0x3f206394be53319dU, 0xbcf11606bf07ebffU,
  0xbe800627bd2ba4d5U, 0x3d90da003d89578fU, 0xbe0a934abe8ae21eU, 0x3c8c45e9bdbd1c1eU,
  0x3d20d1843d4bfb3bU, 0x3e35ea5e3e84702aU, 0x3e6d52ff3e498689U, 0xbde998dd3d67f90cU,
  0x3e3eb7f03cb636f7U, 0xbdb5da03be25c4adU, 0xbd8074e53d83b1c6U, 0x3da03b19be1ee986U,
  0xbd69c10dbd540bf7U, 0x3e1c9763bdecbe4eU, 0xbcd4a3d73b1e1887U, 0xbbefb0ef3cdc6228U,
  0xbdaf38f73d35a63eU, 0xbc9dcb8c3dabcb1dU, 0xbe7325823ce8b8aaU, 0xbc9fe794bd75b7b2U,
  0x3dc4c9b9be32403dU, 0xbb16fefa3dab8287U, 0xbe1231623d6ae403U, 0x3df2af78bcd40149U,
  0xbe41c0c4be55a0f3U, 0xbc10a930bc9f3a45U, 0xbd9b9cb23caf65cfU, 0x3e52a3a53d0388aaU,
  0xbe90e5323a5dd90fU, 0xbdcb4242bcfe1337U, 0x3e594dc4bdeafb10U, 0xbccefbf7bd2ebcd5U,
  0x3e5d0c95be0dddf1U, 0xbe618994bd231946U, 0x3d6639403d67ab81U, 0xbd840f6fbe0d9df0U,
  0x3d1607073dff544aU, 0x3e1644eabdc2e25dU, 0x3c0fedb2bd78de16U, 0xbdbf0c5b3de9b7d1U,
  0x3e4d01f83db45c9dU, 0x3c1a81723dfbe948U, 0xbda9705ebd182453U, 0xbe01cc623c4276cdU,
  0xbe0eb749bda71620U, 0x3e4ef5b83cf9fe80U, 0xbe3e4d29bd46dc60U, 0xbd6d904e3e046bb6U,
  0x3e1574f33e817ad3U, 0x3c489ca43dcea789U, 0x3e550a28be6db71eU, 0xbdac61e53e182a1eU,
  0x3c2ec8243de90c64U, 0xbe400cb4be0ba0b1U, 0x3d3244b13d9f4148U, 0x3d0d43dd3d1229c7U,
  0x3cf892a33bc7e1ddU, 0x3de45f6c3d4ab568U, 0xbcf1d6133c88dd1aU, 0x3da40fc3bca15e4eU,
  0xbc7efbc7bdc71a5eU, 0xbd138b36bdcc9a2bU, 0xbd296cae3d7f6bddU, 0xbd555b28bc7099a4U,
  0x3d087032bdbb915bU, 0x3ea2a5b43f0ce767U, 0xbd1ad507bed24797U, 0x3e6079813e841efbU,
  0xbdb04a7abdd662efU, 0xbe8dcae93f828734U, 0xbcff5867bf657200U, 0x3ee4adb83e480096U,
  0xbd5b00d2be675feaU, 0xbe1a8f313d1e7da6U, 0x3d1dabc93de0cd34U, 0x3c7921ae3dad0c1bU,
  0xbce5a4a9be787278U, 0xbcc7b22a3db9ad8cU, 0x3ebe1d2a3dcf775dU, 0x3c9ce24d3e0d7d84U,
  0x3e7eaa41be9d574aU, 0xbe47d54e3d9994baU, 0x3cdc231c3e350471U, 0x3e21ba9ebdb10893U,
  0xbd2ba0373d847c3dU, 0x3e86fbd2be9f8f4eU, 0x3c10b6cb3dc8edd9U, 0x3e2a0b1cbdcec688U,
  0xbd8cb449bd973f62U, 0xbccff5f0bec4aebdU, 0x3e0f4027be44b9f1U, 0xbe6c2f363e0f21f3U,
  0xbd9e6387bde9fd40U, 0xbd92bcc03dc8dc66U, 0xbdb02075be185cf0U, 0xbe838653beabac9cU,
  0x3d2ebdaabd7d7e6eU, 0x3dce6d81be36b9daU, 0xbda8fef73da341a3U, 0xbdcb9e19bca03a6aU,
  0x3d6824d13d66c036U, 0xbd9e06af3e10c88fU, 0xbd25d5483dee2559U, 0xbbfe1ba13c3959c4U,
  0xbc849aea3cd85ca3U, 0xbe1d816e3d7ce559U, 0xbe1359a43d50477eU, 0x3d538fcfbe31473cU,
  0x3ddf1c5abd9f22caU, 0x3e94b88a3e299affU, 0x3ca7e2b5bdf9e00cU, 0x3e29a6b5bc6c7d90U,
  0xbd14311dbe1643a6U, 0x3ece95693e6577c4U, 0xbd8b100dbea18b7aU, 0x3c38d97c3d0fb0beU,
  0xbbe4cfc63ea126f4U, 0xbd317091bd71da0aU, 0x3d9bf245bb1f00e1U, 0xbc49df6f3e6a9313U,
  0x3e3320c83d456c7bU, 0x3db9ff323e0ad1f7U, 0xbd93d689be21f4e6U, 0x3ccf3b8bbc246d3dU,
  0x3dbd9e5a3d6ee453U, 0x3d8a08f53dbc8d9bU, 0xbdc4bb5a3e9c4199U, 0x3e708f2f3e817e1cU,
  0x3e5047cdbcc6f776U, 0xbbd43347be5f61fcU, 0xbe05f1153e090e14U, 0x3e3088873d12f081U,
  0xbdf832cfbdfd7539U, 0x3df2391f3d5cd86aU, 0x3e8faa3bbdf49987U, 0xbe688ee7bdf350b3U,
  0x3df155413e35b49eU, 0x3e573e6ebd8a864cU, 0xbde51b773f1a933bU, 0x3d9b72e1be95ed90U,
  0x3ef0efaabe9f53d9U, 0x3ca43fae3ee1ed1eU, 0xbea603623b464023U, 0xbb8cc838bcadd94dU,
  0xbcda3dd23eaeedb3U, 0x3d7ae217bee97f3dU, 0x3e55876e3c85343cU, 0xbc956835bd76bffbU,
  0x3d825bf2bd334b6eU, 0x3dc9c481bc84d8acU, 0x3e1eb7c73dab5bceU, 0xbe5c6845bdfc7d9dU,
  0x3d45c184bd49e151U, 0x3e2af3e3be29a06aU, 0x3c8842343d1d77b5U, 0x3b7c05bebc868facU,
  0xbd9f62723c88fd0bU, 0xbd01c47a3cb1668aU, 0x3d90e9ddbda3291fU, 0x3d882e6ebcc456d7U,
  0xbc1deb3d3defdc15U, 0x3c0414ebbcca47a0U, 0x3cae4b5e3dbb7bb1U, 0xbd7ec6803d4ccb2bU,
  0x3d99a776bdd2408bU, 0x3ced6f023e031088U, 0x3c0a5ad73d8b30c6U, 0x3d091cfabd768027U,
  0x3d336db63c73c6b7U, 0xbd68926fbc0a7298U, 0x3ded1cadbdc868ecU, 0xbcb901f6bb6b1f66U,
  0xbdd65835bdc51909U, 0x3dcb09153d5a2822U, 0x3e54fb73bd92ca09U, 0x3e129a2e3d90dbc3U,
  0x3c5333963e2d3939U, 0x3d2bd6463d1143d4U, 0x3c3ae8cfbd82e304U, 0xbd1fa9363c7dd259U,
  0x3d89ee65bdfb6619U, 0xbe0607873cb0a1b7U, 0xbd2194e33de95985U, 0x3cd814efbd9227aeU,
  0xbd8394293cb30039U, 0x3dd432dbbd247ef8U, 0x3da0ee293cf78f62U, 0xbd3962923e2e71f7U,
  0xba4eada33d122d2cU, 0xbd2a915a3dc8ea1eU, 0x3dc00f313dfd2d6fU, 0xbbffed033c1153e5U,
  0xbb5d19363c855d07U, 0xbdf486dabc392668U, 0xbd3e9bcbbc7cb5caU, 0xbd91bb72bd446b7fU,
  0xbd8a61103da258fdU, 0x3b8d45b33d767eb3U, 0xbd77ad51bcbfe4c0U, 0xbc9bbee6bd97530eU,
  0xbd233149bd341a8aU, 0x3dc4ad0dbdcda25bU, 0xbe3f97e8bd200b9aU, 0xbd9012b63e4f4a05U,
  0xbb02b35bbde4da7eU, 0xbd59b3443c51bed8U, 0xbe12c287bd3947f8U, 0x3e220d283b0b120bU,
  0xbd1843993e0506d3U, 0x3dd39ffbbc6af2caU, 0xbdb107683cd7546bU, 0xbf1d94c2bc9de4faU,
  0xbd344b8cbf173521U, 0xbe7cf5093eeb8110U, 0x3d01de79bf0302bbU, 0x3e3d5438bf54c7acU,
  0x3d4b05603f4e6144U, 0xbe50aaadbe5da37fU, 0x3d252cdabf1fdbadU, 0xbd8715f1bc464adbU,
  0x3d572b6c3d8ef457U, 0xbdf5934f3de8fce0U, 0xbdc7cc713df70e17U, 0x3e485cc0bcd9d604U,
  0xbb5e784abe40402aU, 0x3d8ff2fdbd3c4c16U, 0xbdb967f1bbe6d153U, 0xbe23349bbdb6344bU,
  0x3d11b1f1bcee1e37U, 0xbe5c5e823db519a3U, 0xbd41eb1b3de764d3U, 0x3e85266f3de4b27aU,
  0xbde7594ebb02ceabU, 0xbd980d8f3daa2739U, 0x3e0a78eb3d56934cU, 0xbd84ce953d4087edU,
  0xbc8f47d3bd48d867U, 0x3e248f40bd57f397U, 0xbda202a7bdc0664bU, 0xbd7f50fcbc10485aU,
  0xbc5207c03d05cda3U, 0xbd89ffea3c266adbU, 0x3e205ac33de49e57U, 0x3e17d595bdb39226U,
  0xbdbe385b3d928251U, 0xbd0099643bce422aU, 0x3d3abacd3e28c578U, 0xbe12fc51bc8caba6U,
  0x3c19dc103d61fa71U, 0xbd6162a13e061da8U, 0xbde0a9963de48597U, 0x3dbf675bbda0740bU,
  0xbe35af28be1f8a7bU, 0xbd664921bd8e6cbcU, 0x3df77a3b3be75618U, 0xbc5b9b7a3e630e46U,
  0xbd7e995ebd693273U, 0xba040253bde873bdU, 0x3e0b8053bd7faa4dU, 0xbd62b5a7be01e493U,
  0x3c457e1e3c75d9ebU, 0x3d1054cfbdb4eadaU, 0xbbc92202be6714d7U, 0x3e2dfc073da8599bU,
  0xbd4277213d466dd1U, 0xbd9c6c0ebd6989e3U, 0x3c99c9ccbddc22bfU, 0xbd5ce9e13e07c455U,
  0xbcd7345cbd0fcdd7U, 0xbd39287d3da8e61bU, 0x3c7fdb08bd8e3b0aU, 0xbe0c6764bdc83d6bU,
  0xbddb383a3cce91faU, 0xbd18dbed3e2032afU, 0x3cf7ddae3dfb8264U, 0x3e1d144e3d4c3361U,
  0xbcaae91fbdaa6503U, 0xbe22d0bd3ce296b0U, 0xbd49b5413e1c6247U, 0x3ddca729bded4435U,
  0xbce4ad7ebc08e90aU, 0x3dda1c95bdbc4950U, 0x3c850685bd8f6e04U, 0x3dd5de3abdb3d5adU,
  0x3f45fcc83ea3eb84U, 0xbcf4ae523f70d996U, 0x3e8bf580be74a35fU, 0x3d299e873e1e0059U,
  0xbdff9fe93f17301eU, 0xbd3c3f3ebf060732U, 0x3edfd85c3ea2059eU, 0xbd9b55ff3f4cbec9U,
  0x3e5975603ba25aafU, 0xbd65b19cbd48ee08U, 0xbd816002bd74b8dbU, 0xbdb3c7843e64283dU,
  0x3c15b70dbdfd35f1U, 0x3e22d5b03e1ac407U, 0xbe3f0392be1bd703U, 0xbda818323e1195b4U,
  0x39a0480f3c436c71U, 0x3deab2263ddae639U, 0x3ca998c6bdc134e4U, 0x3e2146e03e0267e5U,
  0xbe69abb63c7d4353U, 0xbd8a43d63dcaaf53U, 0x3e4474163a9f541dU, 0x3e88695e3d18bdf4U,
  0xbd8a175abe454ce1U, 0xbe0eb5c6be0a373fU, 0xbdb329e73e2d3a17U, 0xbdc1c6a4bda91083U,
  0xbdead64e3e015406U, 0x3e37a12f3cbbc435U, 0xbc0a6139bb98c85cU, 0xbc575f29bdc20636U,
  0xbddb448b3db042fcU, 0x3da7ee0fbdcfa546U, 0x3d8f011e3e98d189U, 0x3d0496efbde55d76U,
  0xbdc108c1bc423425U, 0x3c9e7e7b3d153580U, 0x3dbfc2eb3bf382bdU, 0xbc1994cc3e33a5d1U,
  0xbd9ac44bbe1714e4U, 0xbac4b93dbe1addcfU, 0xbcee94e93e287813U, 0xbe0ded3b3e00ee11U,
  0x3c98b7043e296ba1U, 0xbe44a418bd52a23dU, 0x3e0aa5a3bdc07609U, 0xbd93e3083caf644dU,
  0xbda84d6c3ecb233dU, 0x3dfe2f453e269061U, 0xbe36337bbdd006e1U, 0x3ddf23433e6e19e9U,
  0xbe79cbccbde496f7U, 0xbe8a7534be24d128U, 0x3e54b9fabdf3d425U, 0xbd46750cbd224041U,
  0xbd92a7dabb7324f6U, 0xbce1b2b9be6b7258U, 0xbcd4ee653c6a265dU, 0xbd81c5093d655d26U,
  0xbdcabe25be8b0392U, 0xbdfe33f93c82043dU, 0x3dd9ad583d6274b9U, 0xbe761b433d99c11eU,
  0xbe6836553e1ff028U, 0x3de198533d42b92aU, 0x3da6a6043e4a5a4fU, 0x3e4ea9edbe182a81U,
  0x3c4d046c3d66b889U, 0xbe4f14cdbdef8841U, 0x3d227d56be5344daU, 0xbd7a7d6ebe350ea7U,
  0x3d8213adbd516a7dU, 0xbec287863e24c0a8U, 0x3c8141dcbf79f2f0U, 0x3ec10faa3f1930b8U,
  0xbd93f5f0bf172ddcU, 0xbe97285fbe72cf06U, 0x3b49e2373ebe7a96U, 0xbdc4c78abdcb7ddeU,
  0x3d0d7c1ebf8f265aU, 0xbe83d269bbbb96e7U, 0x3dbefa0f3e858651U, 0xbe4795c5be393447U,
  0xbd1f84753e785801U, 0xbab6e74cbd87d6c0U, 0xbd9d8411bd5980f6U, 0xbd28460b3d95dda4U,
  0xbd96c696bd0cca99U, 0x3d549a93bd6830a0U, 0xbd2bbe7d3d3617e0U, 0xbd6076b93d616f47U,
  0xbb65d78d3d3454eaU, 0x3da3de7d3d93ef3bU, 0x3d9331323d2620ceU, 0x3e27223a3d9735adU,
  0xbe28fa3bbdb015edU, 0x3d2c41df3da4c1d9U, 0x3d8f9dbcbe853124U, 0x3dc606843df7e885U,
  0xbd1ac8533e3cf1a7U, 0xbe2109d4bd52a663U, 0x3c685fc2bcf463cdU, 0x3d5b42443d3f1c0fU,
  0x3cca6ec9bd98e561U, 0xbcdc554c3dbcb6fcU, 0xbd54fe4fbde02e8bU, 0x3c49da173deddfecU,
  0xbd052f8f3d987db6U, 0x3c4401723bd6c0c7U, 0x3d76f9593db61c45U, 0x3b8b43163d426181U,
  0x3db44328bd34d67bU, 0x3d5bbd9d3cea7a44U, 0x3d6f066abde58b12U, 0xbc0d839ebda5b090U,
  0xbe38dc453e051422U, 0x3c7d67fabdbcb4ebU, 0xbc9054ee3d476bc6U, 0xbd5bc7553d043ae1U,
  0x3dc46721bb84be04U, 0x3c54a9743d7a0aacU, 0x3d833226bde09682U, 0xbdafb09c3d2d95ccU,
  0x3d065a5ebe1146fdU, 0xbc2529fa3cabd0ecU, 0xbd1125cd3cdb5712U, 0x3c2781aa3d018be9U,
  0xbe48ab1d3cb3612eU, 0x3cb5463b3e09526dU, 0x3c2c99acbcb4a5b7U, 0xbd6e139a3d0ef24fU,
  0xbe1d5cbb3d2c1645U, 0x3d03b17cbd8c9081U, 0x3db14b44bd8e2b2fU, 0x3a0b9ac1bdae6519U,
  0x3e17a23a3ceeef16U, 0xbe6dfad83e3633e5U, 0xbcb989183d816c76U, 0xbd2c89ed3d73b47dU,
  0x3ddcc14c3e28b3d6U, 0x3e59bdd3be39109aU, 0xbcb1941bbcb0cffbU, 0x3e011e803c8c8022U,
  0x3d20fd663e011225U, 0x3d18fd5e3c9d243cU, 0xbe3968fd3f083ef8U, 0x3d2281ec3f625760U,
  0x3ee4b232be664661U, 0xbd3411ab3eaddd84U, 0xbeea67cb3d882f58U, 0xbd87d486bdf1a0b7U,
  0xbe6bf33e3ee81f2cU, 0x3d74ef513f62c061U, 0x3dea67d63d0cce01U, 0x3e34cc23be0e5096U,
  0x3d42eef63d9dfe1bU, 0xbd60a903bda9e46cU, 0x3e4107c43d616f2cU, 0xbdc386603c5712d2U,
  0x3e095101bd7ce948U, 0x3c8fdb37bdc69ec6U, 0x3e6476b83c6726aaU, 0x3dd9fac13e3fb6ffU,
  0xbc96eb38bcdb463dU, 0x3c4c58b63ce969c4U, 0xbcabcd693e1d8690U, 0x3c01f416bd8a69ccU,
  0x3dbd8a2abdb406b0U, 0xbc5becfd3e00bbaaU, 0xbcb17a183d7b9c61U, 0xbd57eeedbcddf84fU,
  0xbd8ae58abd703737U, 0x3d884e983dee5bc8U, 0x3e67146d3cc7747fU, 0x3d8f6b5cbdb1a768U,
  0x3d88a16abd135319U, 0x3d94a5833dc5b053U, 0xbcb353eebac62da1U, 0x3deb0bae3e4ca0eeU,
  0xbdc13f033dad4e03U, 0xbd7883a13d3bd55cU, 0x3c619653bdb3e30cU, 0xbdd567c0be1e293fU,
  0x3d8ed1ba3d06e82cU, 0x3cc2d7e8bd5e4aecU, 0xbd97eefa3de7d6c2U, 0xbdb342c43d25b767U,
  0xbb55b1debcf89fdcU, 0xbc43a0923de69144U, 0xbdfdbcc03d94f868U, 0xbd33e8b53b263addU,
  0x3d20bf513df0bef6U, 0xbdb39b123d875de3U, 0xbd5ef8bebc42b859U, 0x3c60fd0c3c94a174U,
  0xbd9d60bf3c9fb489U, 0xbd7c8212be0c64e7U, 0x3c8209153d239b6bU, 0xbd866097bc1c1df5U,
  0xbe333f5fbd5714a7U, 0xbdae86babd812678U, 0xbb3ccd41bd678f22U, 0x3e2fbdee3dce1cddU,
  0x3cc765fa3c8c3881U, 0x3ca50f433dfe5c3bU, 0xbdb229b0bd13a725U, 0x3d0119613d6dd658U,
  0x3d400485be2e3759U, 0x3c3d7007bb538708U, 0xbc574510bd47524aU, 0xbd72d65bbe3153d6U,
  0xbc9c4e08bd33387aU, 0x3dd8afa7bddb0ff0U, 0xbded77783d5a467fU, 0x3e335faebc9f158cU,
  0xbd30c2a9bc56837bU, 0x3c8ca84fbd680a19U, 0x3d5ceacb3ca2ae19U, 0x3ea3b9163f568028U,
  0xbc3ed6203e33755aU, 0x3f197e513ecd15b6U, 0xbc0c571bbe8ba82fU, 0xbee3c6203f36f72fU,
  0xbd0a0ca8bf123e37U, 0x3e94c06e3f0b1358U, 0xbc34f00c3d5b613fU, 0xbe2003203d6e3447U,
  0xbcec670dbd385bc7U, 0xbe1af76bbdedb6fbU, 0x3d5d4f67bcd263e3U, 0x3e054b2abb06f390U,
  0x3ce4139ebcf29f54U, 0x3e006f0f3d36df3bU, 0x3d48c65abdd2a4d9U, 0x3d0cd446bd9a7b0eU,
  0xbbb29c033d17bc69U, 0x3ca72210bc7b151aU, 0x3d38354e3d92fd34U, 0xbcc2a8293d870b48U,
  0xbc0103913d6104f5U, 0x3c5ad0573e266875U, 0xbd9cab003c4d2670U, 0xbcae15ba3dd0f9d3U,
  0x3c25615d3d11d5b3U, 0xbd0a6e5bba24be17U, 0xbc86430c3dfc2002U, 0x3c32e143be358784U,
  0x3d61b7443da3ab23U, 0xbd903d74bd937636U, 0xbc9e50123d938667U, 0xbdb9a68b3d84ce4cU,
  0xbd8e04653c64dcacU, 0x3d97bf39bd0715b1U, 0xbdb3f86cbda6aa7dU, 0xbc8a3c9e3e006bc4U,
  0xbdc00d6f3c3b75a1U, 0xbc3052c83dd37a2fU, 0x3dbfb0b63ded0f16U, 0x3dfcb750bdc3a650U,
  0xbba79792bd1308baU, 0xbc5b9e13bca16c6eU, 0x3c2f26b0bdae53dbU, 0x3d8d6ae63ccc33e1U,
  0xbcb34b183dd93f9bU, 0x3db42b923c6795f3U, 0xbd71c787bc944ba5U, 0x3dcd9e093ce29e41U,
  0xbc9c7927bdb4afc2U, 0xbba0d5763d49b75fU, 0xbc1af6c73dabd29eU, 0x3e885c62bdaec72fU,
  0x3bfe2e573c8b0356U, 0x3caabd463d15e00fU, 0xbd7a29603ad59ec6U, 0x3e128f34bdde6894U,
  0xbd9b430c3c64bf99U, 0x3c8cc6d03dbfa8d3U, 0x3c0525883dc08c9dU, 0x3d05ecd83c8d38f2U,
  0xbdaf4de33bde7f96U, 0xbc5a02143dcf77beU, 0xbcdab7573dd6c5d5U, 0x3dca6a2dbbd78e5dU,
  0x3dbe605fbd062558U, 0xbd658e1cbabecc6bU, 0x3c434d75bcda32c2U, 0x3a9f3ee13d149b75U,
  0x3d0279633c915c59U, 0xbd477fc23e187b78U, 0x3c87876a3dc921dbU, 0xbd9941b03c843e13U,
  0xbef8d56dbed32e5aU, 0x3d283f60be6d1427U, 0xbee6f33e3ef44a29U, 0xbd8df4dabf52425eU,
  0x3ee20c2abf6dfc32U, 0x3d5389ba3f4d412dU, 0xbe3e0de8bebd9179U, 0x3df270fdbe681e00U,
  0xbea1f340bd2c61fcU, 0xbdfe2d01bcc1cf72U, 0x3e61f1213d890dd6U, 0x3eb409e53d71a8a9U,
  0x3dc8a0edbe885a5eU, 0xbba06944bd378807U, 0x3c4a6a7dbc32e61bU, 0x3d162b643de6fec9U,
  0xbe68d08b3d349506U, 0xbda0087dbcab3d00U, 0xbd7fe1c0bd5b15bfU, 0x3a6a231b3e28ded5U,
  0xbde82b8cbd87f998U, 0xbcdce2cebe95106bU, 0x3e12f1693d89d152U, 0xbbaefb5abb620ecbU,
  0xbd2387e4be05e70dU, 0xbdaf1d1d3d6eabdaU, 0xbd2c42c33e0af1c8U, 0xbc2322df3df92bf8U,
  0x3c96bfed3cf8cc86U, 0x3c178d123de65bffU, 0x3bf7d2053d500b30U, 0xbdc9b25c3de2ac7cU,
  0xbd86ff78bdd10539U, 0x3d99c95cbdc2448fU, 0xbe5098c23da2c650U, 0x3e3ffa7e3d79eb20U,
  0x3d5915ed3d7de952U, 0xbe1f50f53e359f26U, 0x3bfa72c2bc640af0U, 0xbd8073c43e3ffbe3U,
  0x3a8c87db3dc51c31U, 0x3b9c5ac4bd978c3bU, 0xbdd718d9be3cd087U, 0x3d91bbacbe1137cfU,
  0xbd4fe6b43dce5c86U, 0x3d8a2106bbb38003U, 0x3e4c26a4be1e1007U, 0xbe29628d3cb70928U,
  0x3dbd5eebbd5d2854U, 0x38eeefd33d6d5f73U, 0xbe329ffebe28a69bU, 0x3d68170b3e049358U,
  0xbe0221cfbc20bea2U, 0x3c855f78be70d9bdU, 0xbd42bdd9ba530442U, 0x3c89edbb3d17b075U,
  0x3d82bddd3d96341fU, 0xbd6f4a53be1c8d95U, 0x3d99c8763d5e9c37U, 0xbb985485bce46fbbU,
  0xbc57e3b73b3c596aU, 0x3bca79943ba94657U, 0x3c1210b23dedf280U, 0xbc8b44833d695c2bU,
  0x3dae1acb3dbb7520U, 0x3dab05ae3d62451aU, 0xbd90ceb6be0b6d37U, 0x3d93d0d83db3927eU,
  0x3c7cdd81bdd5d4d6U, 0xbd3cb98d3dca3889U, 0xbd23087a3dcead04U, 0x3c57cb25bb0b5760U,
  0x3d95fb103dd8c6a0U, 0xbe701b623f1ff097U, 0x3cd89dfa3ebc806cU, 0x3ecf235dbf039690U,
  0x3d30e13c3f209db2U, 0xbea72fb6bf0b8dbcU, 0xbd432fc33ecc3cf9U, 0xbedfa3913ec71f33U,
  0x3dadd6b73ee5c532U, 0x3e9d6b1e3dc8e812U, 0xbc9b44723c8e6cc4U, 0x3e1bd6f8bcd82918U,
  0x3dd3fbbebd93b6dcU, 0x3e5924b33d78d707U, 0xbdb002443d862a2aU, 0x3b1e624d3c535568U,
  0x3dfdec7fbdbf762fU, 0x3b3449f33d80961fU, 0xbb85fad8bd308a4aU, 0xbc96e731bd2618deU,
  0xbdec4e6fbc863348U, 0x3cf52cacbe251f75U, 0xbda5ce433d6f9b79U, 0x3e47a53cbcb40751U,
  0x3d1524223ca64953U, 0xbd9e23cdbc97e685U, 0x3c8cd8d43d0f31bcU, 0x3de40ef93cd92831U,
  0x3d1822acbe33f662U, 0x3d5c94fcbbf30503U, 0xbcda844bbe17f810U, 0x3bdd2572bb10c83bU,
  0x39d0e12e3ccb1645U, 0xbd025008bcadff95U, 0x3e46f15a3ce3085cU, 0x3dc61dbbbe2621c3U,
  0x3dda9295be4189c5U, 0x3b556e67bdd0a739U, 0x3d56ff063e24c709U, 0x3d825b4bbd3187aaU,
  0x3daba276bcace96bU, 0x3d80d9553db38e2eU, 0x3dba53483c9a30c4U, 0xbb0330bd3e01d4feU,
  0xbd2ab4883e022e8bU, 0xbd4adadc3db9290eU, 0x3ca19ea5bdff2e5bU, 0xbd4428d2bcd42202U,
  0x3e3455743dda7023U, 0xbd823d803ceb160bU, 0x3e4c4fab3d2695dbU, 0xb8fbdc933b7b1c14U,
  0xbab1af7dbc7797daU, 0x3e027dd0bda2b3b8U, 0x3db94b5dbd22170bU, 0x3c9e28f0be0db880U,
  0x3daae3e83e216084U, 0xbca063cebdfb79d2U, 0x3ca5c3fe3d9e0bebU, 0x3d1fdec53d48bf9cU,
  0x3cbb7c69bbdcbb50U, 0xbdfd98993e007ad2U, 0xbcecb8f83d127a66U, 0xbe240e05be03505cU,
  0xbdf826f9bdf55bffU, 0xbd7596cd3c319c0eU, 0xbdb12d87bd9a494bU, 0x3dd6e74f3d85649cU,
  0xbdf985cbbe051646U, 0xbe046405bd6ac2aeU, 0xbe4e36953caba20dU, 0x3d30b3f7bcb41ab1U,
  0xbdfa32023d685aadU, 0x3da30e93bd847317U, 0xbefc541ebebb59deU, 0x3d50f807bf07b6f1U,
  0xbef79ced3e8ec49aU, 0xbd218f40bed831b2U, 0x3ecb5dd3bf3e1c13U, 0xbd4dc94c3f2e24c9U,
  0xbeed56fcbe354f22U, 0x3d8b5805beef85a4U, 0x3e08d434bcd730e5U, 0x3d9228d73d87a690U,
  0x3de75394bc130b49U, 0x3d0bde833deea0a8U, 0xbd259368be3acd1cU, 0x3e4dcce5bd302d6eU,
  0x3dd05dfebd1a0920U, 0xbd92952dbd34e072U, 0x3ceb05543cf27fdbU, 0xbce13e9dbdb3e22cU,
  0xbd94ebf03dcddb6cU, 0x3d505cd1bd32e53aU, 0x3ad99973bdb323bdU, 0x3e13ae51be2e15dcU,
  0xbd91f5163b85e928U, 0xbb5843d33d37f6e4U, 0x3ca728d4be0a8843U, 0x3d59e7cebe08ab68U,
  0x3db5c2babdf5bc67U, 0x3d74b386bc609cbbU, 0xbe10113fbde45e48U, 0x3e24940e3de138e2U,
  0x3d02b5a4bddddd8eU, 0xbd07951cbd5992bfU, 0x3d9cd1b73ded1677U, 0x3dec8abd3de8ce20U,
  0xbdcd721ebdfc4dd7U, 0xbda692ca3cf5fd2fU, 0x3d78cbe63c24f619U, 0xbe29cc313d570e45U,
  0x3de5d20dbc11cf8fU, 0x3d9c75183e08eff0U, 0xbdc333f53c33373fU, 0xbd1592acbe0f42fdU,
  0x3ccaefdfbdbb7dfaU, 0x3d9a59873defcc7fU, 0x3ca474893e2fcca3U, 0xbd83387abcea3278U,
  0x3a442775be04ef1bU, 0x3d2d7f8c3d89ebceU, 0xbe0ae9bebd791e8dU, 0x3de930e3ba2485e2U,
  0xbdd19598be2ac330U, 0xbbac3c34bdf9e589U, 0x3da772ba3e029cd7U, 0xbc69e7c4bda0413aU,
  0x3d157228bd2678fbU, 0x3d9385bc3db10c7eU, 0xbc5b6cf2bd2b2b12U, 0x3caba5e23de17bf9U,
  0xbdc8b4003dfe6f2cU, 0x3e4353b0bc624e51U, 0x3c0ac2e7bd8eca9fU, 0xbd79efdb3e016795U,
  0x3d0e51f8be022591U, 0xbd0ec87f3cbb1b92U, 0x3e5d953dbddb363fU, 0xbddaa3e0bc9be3bdU,
  0x3c4f836c3ca5f02aU, 0xbd4dd6893df9d648U, 0xbda96515be3d6364U, 0x3da648ecbe04d6cfU,
  0x3e1525fabd55c30fU, 0xbdad42c43d8a0492U, 0xbc07b50ebdaf8755U, 0x3ebd8a7e3f224920U,
  0x3cd49e823e48dd6bU, 0x3e9b1a2bbb72f5e4U, 0x3de040a63e5c0794U, 0xbe90566e3ed11038U,
  0xbd5abf01bec83eebU, 0x3e6b52183e3da884U, 0x3c0a3ee43d3afff0U, 0xbe02848c3d143e3dU,
  0x3c62d9973d6af06eU, 0xbd905d473e2e9086U, 0x3dd58c71bdb5b44cU, 0xbdc3bd8c3e44f58eU,
  0x3dc0a504bd286fa2U, 0x3deb1696be1dee4bU, 0xbd3029453de77becU, 0xbd816cc2bd59ea5aU,
  0xbda3e163be35770dU, 0x3c962c19be2466cbU, 0x3bb4943d3cb1d683U, 0x3c0bfc853e189566U,
  0xbd006b883d6b0a66U, 0x3bcaddd33e1c6054U, 0xbd30cfd13d84e87eU, 0xbe7b7da83e06a83cU,
  0xbd590ed3bc41266bU, 0x3d16a541bab297b4U, 0x3d9736bebcf1e187U, 0x3dccc26d3d5f92d5U,
  0xbd82289e3d44df08U, 0xbd09062abdc7c9b8U, 0x3d26a691bb0950ddU, 0xbdb15ac93e618a0cU,
  0x3cd39be3bd4bf41aU, 0xbd9b1576bde090f5U, 0xbd656a4e3c5346bbU, 0x3d1fe2613cb2b59fU,
  0x3c7f0bae3cb84d55U, 0x3dd507b7bc99f68aU, 0xbcb22a753bd04178U, 0x3d23381e3bc29e2aU,
  0xbcd1b7e53e333d9dU, 0x3b610191bd3a532cU, 0x3e383445bdae5a41U, 0xbd958c073e13d148U,
  0xbe0a83f23c756157U, 0x3d033ebebcbd0328U, 0xbdf162193dc5a62dU, 0x3e2db7c53d3b71baU,
  0x3d874094bd85c687U, 0xbcc87c543da39013U, 0xbc96d7f9bc35815cU, 0x3e089f71bd4231b6U,
  0xbd562480bdee2c63U, 0x3d0c3f823b6fcc09U, 0x3d0584be3e1a84a7U, 0x3d38f8e9be3cd544U,
  0x3d77cf64be078f6aU, 0xbe723dcb3e02a5fdU, 0xbc2a115c3da891e8U, 0x3e311b1ebdbb9387U,
  0x3da640e13d855106U, 0xbe131963bba72ea1U, 0xbdeb4f31bc24508cU, 0x3d29e63cbd80f9dcU,
  0x3df6b0443d9ca6eeU, 0xbc5a55a0bd493efeU, 0x3bfdd4313de553afU, 0xbdf25a493d30c417U,
  0xbd843a7bbc577fe9U, 0xbdf6f817bbc3b14dU, 0xbd912b123da9e3bbU, 0xbdc1d35abd22203bU,
  0xbf213353bed13e66U, 0x3dbf46e73d8f0f79U, 0xbf3101783c0a5f29U, 0x3dc21e933e0dc28bU,
  0x3f1f407fbf8c7809U, 0x3d88007e3f400695U, 0xbf2e6e43beb84f88U, 0x3e8a32043d8a7545U,
  0x3e126153be267da2U, 0xba93d1a1bd492b56U, 0xbc207d1fbd760ee9U, 0x3cd6b1163c19479cU,
  0x3dab4e633bce3d3fU, 0xbc025c97bd163aa0U, 0xbc4fc3043df725b2U, 0x3cc286dbbd3e4fd0U,
  0x3d76e9453d57ae2fU, 0x3dd89aeebdb42f49U, 0x3dc04e723e14d1d4U, 0x3c85c3893dc505e6U,
  0x3bfc32a7bdc396feU, 0xbe03fd903d1c4cb6U, 0x3dee72663d9a0104U, 0x3e065d373da76607U,
  0xbe27a6ff3e071867U, 0xbc8bdcc6bd1cd036U, 0x3d826c323dba31cdU, 0xbc58bc803d2b94b7U,
  0xbd9beb643dce9a1bU, 0x3d047a11bcb9f33dU, 0x3da1e1e5bd708c8dU, 0xbd8bf221bcc0dde2U,
  0x3d7d324d3e2c5f7fU, 0xbdfeda623d70d32fU, 0xbe2053e1bd443466U, 0xbdd752c8bd03f6fdU,
  0xbd596960bd3474d5U, 0x3daf4b803da697a1U, 0x3e02daa7be37ac24U, 0x3da9494ebd5d5d15U,
  0x3de6edd73b9bbc06U, 0x3cf5cb6dbdf4bb6eU, 0x3db4d9b6bdcd21d0U, 0xbd4da9c83da14d66U,
  0x3cd7bf523d662c03U, 0xbd0d4e763da5c81dU, 0xbcb82074bc063586U, 0xbddeca3cbca6c55fU,
  0x3d6e696b3dc727e2U, 0xbdd31ebfbe0c7bb3U, 0x3e20a91dbda81d77U, 0xbc3a5d103dfd5f42U,
  0x3e2842663df5b878U, 0xbd56434d3d5e7965U, 0x3d964dd9bd87617aU, 0xbdda7693bd314d53U,
  0x3da772d1bda43608U, 0x3dbe70b3bd6cefd8U, 0xbd1d60e43d80d79dU, 0xbd4660d7bb35740fU,
  0xbdab36c23caedaddU, 0x3d3ffe4cbd2a7ca1U, 0xbddd1550bd6401ddU, 0x3defd0f2bd3d0544U,
  0xbc82f9d33bf45ffeU, 0xbcf1fc793d42d173U, 0x3b65c60a3d732e7dU, 0x3d102c2abdc14885U,
  0xbd29e950bd9a4653U, 0xbd05b9efbd55bbb1U, 0xbc4f683abdf735feU, 0x3e0e9d1dbbbf5078U,
  0xbe6654153ccb728fU, 0x3ed54abf3f51307eU, 0x3b30c709bf09a608U, 0x3f4e4a283e571729U,
  0xbd1bccdfbe0fb0fbU, 0xbf3ae4d63ea3950eU, 0xbdc21b85bea2f4afU, 0x3ede78993ef61447U,
  0xbd617311be8543b9U, 0xbe47750d3e46024aU, 0x3dc0f97e3db6edf8U, 0xbd2ad3f8bdeac9cdU,
  0xbdb072613dc6f87bU, 0xbda4d19f3e04cc6aU, 0x3db7e7543d8cc297U, 0x3de1dc1c3d4b9773U,
  0xbd69d99b3d3d8df0U, 0x3da0d88a3c64a378U, 0x3db28bcc3dd4fcefU, 0x3c80e73e3d3f9daeU,
  0x3ddc4903bc2d8e8bU, 0x3cd107313bd482c4U, 0xbde7b3f93d5fbd6eU, 0x3d9681903d8eca49U,
  0x3cadb6e33ca7df95U, 0x3d64593e3d6e152dU, 0x3dbb06b63b3395cdU, 0x3e3847a2bc85b1d3U,
  0x3cf835bb3b8e4dc2U, 0xbd9afa32bd917582U, 0x3e4efa1dba09ad72U, 0xbda8269bbd3a6341U,
  0xbd99dfc03cbcca61U, 0xbd697f9e3df6c3c7U, 0x3d08cb5ebd3985bfU, 0xbd066249bcb69b3aU,
  0xbda01b6a3e06c708U, 0x3dc16cdf3e468358U, 0xbd90a4b5bb2bfe61U, 0xbdc265d63d9cd8e2U,
  0x3e2cf0153e35581eU, 0xbd51a3b5ba8db032U, 0xbbfeeb1abdaaa171U, 0xbcc8cbe4bbaaf377U,
  0x3d48a16d3d9b934bU, 0x3d4616cfbd7d6684U, 0x3c138d403da598c6U, 0x3dd48fa5bb0e0ca7U,
  0xbcf57c7dbd3083e3U, 0xbdc7b67ebd3ceea7U, 0xbd69049fbbe205d0U, 0xbe105a763e2b7088U,
  0xbdca5e8abcd518edU, 0x3d8e96b8bb65d8aeU, 0x3da38197bceb56a8U, 0x3d9665ed3e65a51fU,
  0x3c1a26ee3e0d9c45U, 0x3ddc0efd3d1b9968U, 0x3dd2cb02bd905e17U, 0xbd864b04bcb32c64U,
  0x39af78003dab2e67U, 0xbd7e09e1bdcd4188U, 0x3dec4865bd0fc9d6U, 0xbd3c0a34bdb3080eU,
  0xbd488623bdd9d421U, 0x3d8149a4bd0d6193U, 0x3d89d10f3dfb4e4cU, 0xbd16bd5a3e16a3d0U,
  0x3d298bb23df8dc96U, 0x3d4f9c613c5dbb9fU, 0x3de495883e489174U, 0xbd2d6056bcac1fb9U,
  0x3c557ea43deb2431U, 0x3d00f8d1bcf9e895U, 0x3ed0dede3f0f6a40U, 0x3e4196bfbe6c9125U,
  0x3ece884fbd79f239U, 0x3e6f658a3e24ee6fU, 0xbee1b1013f5e25dfU, 0x3e655682bf3a0685U,
  0x3eddc13f3e68de0fU, 0xbd4e5b58bdc3894cU, 0x3dff9717bd244403U, 0xbda112f2bdc4e9baU,
  0x3e25118dbe381dc0U, 0x3b2fec6cbcb61839U, 0xbe1adb553c1a8bb0U, 0xbe18b05abe63046dU,
  0x3db6c2aebd4549c6U, 0x3dde1467bd84d220U, 0xbe09dbb0bdaf982aU, 0xbe25f566bde43d5fU,
  0xbd99d5f53e02e12eU, 0xbd476e6bbd4769a8U, 0xbd6b102dbd1eddd0U, 0x3e0b748b3a40dbeeU,
  0xbe68a5babe4ae830U, 0xbd9e9cd4bdbf7012U, 0xbd76b8683e41c6aaU, 0x3cf2de26bce150cfU,
  0xbdb4c207bcf021adU, 0xbd21f56b3d2ac08fU, 0x3e1816213df585a7U, 0xbcc8edb5be090736U,
  0x3db1ff5cbd6527c9U, 0x3cc7a71e3c325686U, 0xbe1914adbdb8bf14U, 0x3dceef91be108064U,
  0xbdbba0d03e3c8f43U, 0x3d4a70edbd87dc0fU, 0x3e060c8cbd898093U, 0x3d41fb3bbd96fdf5U,
  0x3dc457da3c8b35daU, 0xbdce13203d875eb9U, 0x3e87195abd9fdf1cU, 0x3c1fd8543e013afbU,
  0xbe0a44063e3b2485U, 0x3debebe9bdaf3477U, 0x3d6128443e21e9caU, 0xbd0ea6fdbe179c2dU,
  0xbda342bfbcd2f117U, 0xbdaac0d8be126939U, 0xbc0e06f63d597609U, 0x3c9ffadf3dadf5a9U,
  0x3c6fac6abe2e9f42U, 0xbcb91fad3dfea580U, 0xbd4864863dfca6e4U, 0xbdd86a55bd4bc877U,
  0x3e0309a73c205be1U, 0xbd21c09fbc84799bU, 0xbcde9d43bddce548U, 0x3dcb7e1fbc9e5d76U,
  0xbda122063d81baebU, 0xbd1e07bf3e0ed1ecU, 0xbcdbf9fbbe2a1594U, 0x3cfd60043d52dae8U,
  0x3de5ceb93d962852U, 0xbdcb36a4bd6a17b4U, 0x3d825ff83dd163aaU, 0x3d98e944bca63360U,
  0xbdad2dc23db10110U, 0x3d8beca13c2d729cU, 0xbe0cca7b3c8d484cU, 0xbd802c803cc0287aU,
  0xbd54fac7bdd9c659U, 0x3c0d2cfbbb658667U, 0x3cdc4391bcace689U, 0x3f125c00bf2764e1U,
  0xbda290c2be7c4494U, 0xbeaf5f90bead3f4fU, 0x3c949e413f102b88U, 0x3e9014c33f565ce7U,
  0xbe127ee6bf50ed34U, 0x3ec7d6dfbf209816U, 0xbe2bc86e3d899fb2U, 0x3e0ce5e3bdbcbd54U,
  0xbda9ad5cbe4f5a9fU, 0xbe07cd5e3d912cd8U, 0xbe37367abddbd182U, 0x3dd0b4f8bc453a35U,
  0x3ddea4743e00acfeU, 0x3d9e1941bdb6ea96U, 0xbde79f16bbb3de17U, 0xbde32ab53e1b030bU,
  0xbdbe036e3d029ac0U, 0x3dd94d77bd72a183U, 0x3ba40243bc8f2e54U, 0xbdf496dd3e6a34bbU,
  0x3ceae27f3d45c13dU, 0xbd35561e3ded49ceU, 0xba9dbe0bbd9bf77bU, 0xbe1740aa3d820390U,
  0xbd9a9ab2bdc84b53U, 0xbd6e6c473e0ca68cU, 0x3dc81f973d1996c2U, 0xbe57e8f8be017bb2U,
  0xbd9cf1e33de53d63U, 0x3e0a8e723b9bb20aU, 0xbb7f0dc0bcd4c3feU, 0xbce97d2d3e0fe979U,
  0xbc8000df3e05d0a6U, 0xbe6736cbbcc15fbeU, 0xbc892a38bd08dfbdU, 0x3d38a54f3dfd85ceU,
  0xbd81f6e43d8ae990U, 0x3da4d2d5be22a59cU, 0x3be58ecd3d99cd49U, 0x3cab2522bda4d3c8U,
  0xbcb833e7bcc1f480U, 0x3dbea4323df50ca4U, 0x3e43e5d33e0a9345U, 0x3dbaee6abe025415U,
  0xbc552299be6572e4U, 0x3d146d6cbcd7268fU, 0xbde4f175bd1a11eaU, 0xbcb1178d3dd39cb0U,
  0xbd204a7fbb9bb16eU, 0xbdf89958bd5c1296U, 0xbd2539603e121db8U, 0xbc7ea5c23dd78716U,
  0xbd05ea5f3dae2e18U, 0x3cbd093bbb2e772cU, 0xbd8f64ee3d3ca540U, 0xbe1cef773d6d3814U,
  0xbd318ba1bdeb1190U, 0x3bcd71a53debc01dU, 0xbe0a53f33de8c3eeU, 0x3d139ef0bd98a9a8U,
  0x3c9f9f0fbd3c8ab1U, 0xbc1270eabd0501baU, 0xbde34e0fbdd472ffU, 0xbd31f86cbe115952U,
  0xbd2053c53dbdf180U, 0xbcde866cbcc2c651U, 0xbe25af32bdd9c2caU, 0x3cf9550f3d11b5e1U,
  0xbda28b35bc67fe09U, 0x3cf057c33d7c5144U, 0xbd9d07a63dc03742U, 0x3e2d970e3c9395d8U,
  0xbc1f2cd2be753ca9U, 0xbd3c1a103dbbbec3U, 0xbdb334203f68b22eU, 0xbd926045bf829ea9U,
  0x3da47f92bc914d6cU, 0xbcd35c693d2beea2U, 0xbe00cf523c6fc8d8U, 0xbc6d81913cf708d9U,
  0xbe846074bcb476caU, 0x3d85e4cd3e81c890U, 0xbe28b1f8bdca84cfU, 0x3de462b53c721649U,
  0xbd2e2c4bbe5143d3U, 0x3e2623c8bc9955aaU, 0xbd8acf40be211f9cU, 0x3d9666f53da2de9aU,
  0x3e1a29193e1ab664U, 0x3c28cab7bdc34f7cU, 0x3db6c38f3da0e567U, 0xbd036863bd8c3013U,
  0xbd44acb13d12920eU, 0xbd339351be109734U, 0x3d2b145abcda8af5U, 0x3b1accbabd2d6112U,
  0x3cb7d9b23d5a4c29U, 0x3aeafd4f3e315020U, 0xbd89a1f7bd3173c2U, 0xbd740b2f3dc2e96cU,
  0xbd8a89c6bd5fb5c9U, 0xbdd4f301bad3fb33U, 0xbdd430cb3dbc24f3U, 0x3cc9cf47bd538573U,
  0xbda4913dbc6d8cc8U, 0x3e124e3dbd1f3884U, 0x3ddccdf63d1857beU, 0xbda0e35cbd37444fU,
  0xbd822c893daf37e4U, 0xbdfc216dbd0a2235U, 0xbe52d0023e170ebcU, 0xbe2e0508bd25a2a1U,
  0x3d81bd51bcf914e0U, 0xbcf97cd0bcd8285fU, 0xbe8034f9be684dfeU, 0xbd346da7be28c5c9U,
  0xbcc586bdbd0dc594U, 0xbcbab0903e679f83U, 0x3c79fac63ccb6886U, 0xbe01f1323c445694U,
  0x3c053400bdb0475aU, 0x3c869d6bbd0a076eU, 0xbe45cc913dc463a1U, 0xbdee226ebb8710bbU,
  0x3da1d3e13d138e0cU, 0xbd7e44143dc3301fU, 0x3e00bcb63db02231U, 0xbd7b22db3d40d2a9U,
  0x3e110a0bbcdb13adU, 0x3cd6f044bd33240bU, 0x3e221cb53e198021U, 0xbe0951623ddd0aaaU,
  0xbd1edfefbc04ab8aU, 0x3e094893bbfe7dd3U, 0xbd79be8d3d2618d7U, 0x3daa112d3d4fc1d6U,
  0x3d75e6223d0ae4d8U, 0x3d7919023cf9a2f4U, 0x3da2ca4e3d264275U, 0x3e378c1e3dd3c7b9U,
  0xbc156f42bd99294aU, 0x3e37b0283de0139cU, 0x3dada02fbe37c0c5U, 0x3dc352a83db82f5eU,
  0xbd3b1b1b3ddd67d5U, 0x3f2119013ea811cfU, 0xbcfcce58bc1d12baU, 0x3edec7d23ee2adbaU,
  0x3d3ebee4bed3a4c5U, 0xbf06a9f53f5b9d51U, 0x3a0f02d5bf2e5492U, 0x3edd29663e98fadfU,
  0xbe46e49dbe5e85e0U, 0xbcc5b61fbd3a6254U, 0x3d650b203de0d78fU, 0xbe28f577be3fda58U,
  0x3c3f39dfbd123774U, 0x3c8389883db4c23eU, 0xbdcd01303ddfd81aU, 0x3a8e6a053d83e810U,
  0x3cd66ef4be1a61adU, 0xbd22bb1b3dacd136U, 0x3dc0481a3cd53038U, 0xbea5c235be04985cU,
  0x3daf6510be0f95ccU, 0xbc94c040bd9396d4U, 0xbe0139dd3c962052U, 0x3c59b154bc847e2aU,
  0x3e23c1243d4bd699U, 0xbdd456e4bd7b97ccU, 0xbd5e67793ce14fe1U, 0x3e5568ad3d8dbfbdU,
  0x3c840c863d14794aU, 0xbdbaf5e13c71dc8bU, 0xbd545930bd3da93dU, 0xbd547e61bd71309cU,
  0xbe86563a3da8655bU, 0x3d4c544cbcb04c20U, 0xbdd903a63bc09262U, 0x3d8d030abdd6360aU,
  0x3dcd5f953d09b0bfU, 0xbe90d148bcc611b6U, 0xbadc73a03c0df807U, 0x3e474f4abdb50c91U,
  0xbdb826bbbe0813a8U, 0x3d9dc3a13c84a067U, 0x3d3ec3adbdb11864U, 0x3e29d82abe002815U,
  0x3d613c31bc2d9da2U, 0x3e339a21bdda6704U, 0x3dcbd9f7bcb7fda6U, 0xbe07477a3df1f2c6U,
  0x3dde80e0bd8ec117U, 0xbbead903bc246a7fU, 0xbd54bd7abe48ba35U, 0x3dae69893e86b5ccU,
  0x3d21efcb3e2ce483U, 0x3d7d75d3bd14cb60U, 0xbdbcfc283d2aadf2U, 0x3d2495ae3cfaaa79U,
  0x3d3a3efcbd932454U, 0x3e10f622ba4e4aa6U, 0x3e11f3c6bdfaed00U, 0x3e1497ed3db7e26bU,
  0xbc1c6c3f3d576818U, 0xbd7f4d2fbe408a8cU, 0x3e16530e3d6a3cafU, 0x3d1f098b3cce7078U,
  0xbe1b92b4bce2f4acU, 0xbdb94278be49821cU, 0x3e1d1c5bbd6408e1U, 0xbdcd5891bdf7046aU,
  0x3d993082bdad27edU, 0x3d08b7f43df1aaccU, 0x3df5fa24bdbe098bU, 0xbaa696b4bd98a6f3U,
  0x3dccf255bc2ded16U, 0x3dca1abf3d8e918eU, 0xbf55d3083edcc265U, 0x38abf8003e701291U,
  0x3f0df58abdf1f47dU, 0xbdcfc033bcfd45f7U, 0xbee27223bf7509b5U, 0x3c977fbd3f439d53U,
  0xbf0af92b3ea50706U, 0x3d10326f3d8eade4U, 0x3e1a3b0e3c71064dU, 0x3dc1752abdbc7a1cU,
  0xbd154c51bc14d893U, 0x3d9f49893d194576U, 0x3de2dbdf3d385891U, 0x3c1495f23d5c59e7U,
  0xbd3ca2d43dd15429U, 0x3db0b1e3bd14fcbcU, 0x3d886260bd67006aU, 0x3c5e196a3b42acddU,
  0xbce48c663da80bc6U, 0xbcdd40a9bcbf9808U, 0xbc0584a43da587f4U, 0xbdb689663deb8e14U,
  0x3db7f2f0bd57fbcaU, 0xbcfa903bbd0f5a13U, 0xbd1d32c9bc8f3ba4U, 0xbc608f393bddc273U,
  0x3d442c963b324ee2U, 0xbd07c871bd969ec5U, 0x3d794f233d8db09eU, 0xbdd24ac73e0f4784U,
  0x3dee4ff6bd23147fU, 0xbd607bc73c4f865eU, 0xbd360ae93ddc10c4U, 0x3d2777ecbc9a903bU,
  0x3d62e3d5be501130U, 0xbdf5e6d33e112a88U, 0xbdb04c2abc4babcaU, 0x3c068cda3d92f182U,
  0xbd9986913bf9dad2U, 0x3d927c3c3db69919U, 0xbda9c7953dd460fcU, 0x3e0c4d1cbd7c2b6dU,
  0xbcbf06bd3e08dd84U, 0x3da2ed29bd4e6921U, 0xbdcee6ef3c869fe1U, 0xbc764ea5bbe42ad6U,
  0xbd8c0fcdbdd38e17U, 0xbded1f1f3d76a5c8U, 0x3e2694f5bda3a6ccU, 0x3e1de9413da277a6U,
  0xbd7ec8213d710149U, 0x3d423a91be166231U, 0x3dd7db7d3d0bbe9eU, 0x3db39aeabd5900f5U,
  0x3e481d00bd9d858fU, 0xbd171f7c3cbdd717U, 0xbe441c723c3754d4U, 0xbc93d7903d97e40aU,
  0x3b8b7d4abd0ac540U, 0x3d4572263cb57a9aU, 0x3d2c21ab3d565e03U, 0x3d341a913c9aaf35U,
  0x3d74b005bd8aa0a9U, 0xbdbea84b3cedc511U, 0xbe05e7743d8f5a8eU, 0x3d2585cebde29572U,
  0xbd7215883c8cc121U, 0xbdadae7cbdb16d22U, 0xbc897029be08f2d3U, 0x3ca0930fbb1b1ef2U,
  0x3e08af223db2f30cU, 0xbd6bd83fbd59c965U, 0xbdb239003e0fe076U, 0xbe4252373e504d98U,
  0x3d88a956bf92c31fU, 0x3ebdd6d2be8e4f87U, 0x3d6e96ce3ec6253eU, 0xbe860fabbe8f793cU,
  0x3c0ff5633e2a3a77U, 0xbdaf46f63c8a4101U, 0xbdad5f0cbf513f3aU, 0x3e20d13cbd296da6U,
  0xbd152a513e872d16U, 0xbd9b18473c8b1440U, 0x3ca5282fbaf24604U, 0x3ddc16d73d98404bU,
  0x3e47a8123cd9702aU, 0x3cb6600abca1b765U, 0x3d5f3223be072f98U, 0x3c8e520f3e389ca0U,
  0xbe763d9c3da13b51U, 0x3d8785bdbdc5afdfU, 0x3db09b46bcac93ddU, 0x3dde64973c4fdeaeU,
  0xbd8a786ebd453b9eU, 0xbc5c656f3e20252dU, 0xbdc18b7e3d750aa4U, 0x3dbf0181be2a774eU,
  0xbc7c0924bd7dec65U, 0x3dcf06b6bbb6b9f4U, 0x3e1bd5e33e1d4855U, 0x3d87f9283e265425U,
  0xbd8f059dbc8e2a79U, 0xbde7b6c23db4adbbU, 0x3db6d858bd8537d1U, 0xbba194463e09eab5U,
  0xbe14d1313d525476U, 0xbdfacec83d61b3d8U, 0xbe072864bcb61d38U, 0x3d676d25bd32dba0U,
  0x3e254c0fbd88ba14U, 0xbdf7b7903c919261U, 0x3da1ecad3e0078c5U, 0x3d9962433db3a528U,
  0xbbb483703c8cb9a1U, 0xbcda41d13cf1e08cU, 0xbdacbaf0be5896c7U, 0xbd1bf6753e56e10dU,
  0xbdc995033dbcf860U, 0xbd79d470be02b4a5U, 0xbda1e91b3e07a9daU, 0xbd9fb00ebe194133U,
  0x3ca596c5bd10d305U, 0xbda1e28fbcb05925U, 0xbb6efa88bd221b88U, 0x3c9f530c3d95a5c3U,
  0x3e40533b3c1acdffU, 0x3e5bf1f73e0ce33fU, 0xbe2b296dbe3764c3U, 0x3e3b29053e062faeU,
  0x3db877543cd1dd9cU, 0xbe23499c3d892ee3U, 0x3c331760be156af5U, 0x3bf394973e211902U,
  0xbc847c6d3e292fefU, 0x3e1531913db90de9U, 0x3e314d093e0be7f9U, 0xbc8d5fa2bbdb4517U,
  0x3e1931a0bcad729aU, 0x3d9fec0cbc807d58U, 0xbd004545bd0c79daU, 0x3cf869263da97cadU,
  0x3e0e41aa3e34b9fcU, 0x3cd42d913d9f4813U, 0xbd45efeb3db9d786U, 0x3d660fbf3dbfcd65U,
  0xbeb300ebbef597c5U, 0x3d6c2af0bf1095b4U, 0xbefcdb8abf0aa542U, 0xbdcb61783f1b1e1bU,
  0x3ebd3a3fbebfd9f0U, 0x3daeebd83ed7bcc7U, 0xbdb98580bf0009ddU, 0xbc79ab2fbf2d12cfU,
  0x3d1b1ae8bd63602bU, 0x3cb346f83d1fdc99U, 0x3d1ca3febd7c628cU, 0xbcf8b384bd621092U,
  0x3d05b049bc4eb35dU, 0x3c3f21b4bcfce1f1U, 0x3dc030c23d4f2874U, 0x3da46a40b90be200U,
  0x3cfbeab23db58e49U, 0xbd031a1d3da8e3afU, 0x3ccf57463dd3d291U, 0xbe5248403e550fcaU,
  0x3e1b6652bdfdd761U, 0x3e52298cbd9d0f26U, 0xbd22d4cdbd6eac06U, 0xbd7856ae3df4bd74U,
  0x3dd3d43ebe630701U, 0x3d9e8071bdaecbf0U, 0xbdf9da36bdad3b55U, 0xbdc72335bde0bc86U,
  0x3cb69db9bcad900cU, 0x3d68f9a83d8ee822U, 0xbb519c03bd79742dU, 0xbcd69311be1c9374U,
  0xbc689730bd71b477U, 0x3d60c3d3bd165c37U, 0xbd5aa1d0bc9b602bU, 0xbdb50270bd9712e7U,
  0x3e3b302f3e41a7feU, 0xbdefb42e3d1767d6U, 0x3d53a1eb3c06b85fU, 0xbda05c17bd684978U,
  0x3c8d1f383e34ca90U, 0x3bf09f3dbcf021eeU, 0xbb7de1a53cba2043U, 0xbe299727ba2cbf97U,
  0x3d8c03ff3cb66fbeU, 0xbcbff6e93d5766ddU, 0x3dcd8d79bea157a3U, 0x3d5aca183d34c946U,
  0xbc420f73bd985d41U, 0x3db949b0bd7772a2U, 0xbcde7364be09a85cU, 0x3d8cc3aebd6e98d0U,
  0xbe00ae183e0bd219U, 0xbe104735be3f6645U, 0x3e0d52373d902be6U, 0x3db24420bcf556f1U,
  0xbd6d4cc33d97cadeU, 0xbe5171c93e1ecd7dU, 0xbe39f95abdaed620U, 0x3e31129abe0396e9U,
  0x3ce2013bbe0d7e63U, 0xbddc1976be10d237U, 0xbdb933963e279193U, 0x3d9cbcfcbd15ed8cU,
  0x3d9668e73e97be0fU, 0xbd0b3a5b3d8621edU, 0xbd3197b6bd2a502aU, 0x3b5432d8bcf56f0eU,
  0xbdb1cff23ddc96edU, 0xbc5f53bebdd86c46U, 0xbd9087123df87495U, 0x3e0373cd3e402631U,
  0x3ddc5cd5ba498b47U, 0xbf15f534be9f1c31U, 0xbd8c4fefbea14f10U, 0xbeb1b3793f39c686U,
  0xbd60a52fbf64ca23U, 0x3e44c7b2bf377c6dU, 0xbd99e0673f1ee5cdU, 0xbef3bad3be9b7459U,
  0x3c942158beb2c3bbU, 0xbf042436bcb4bf20U, 0xbdc44772bdc25a90U, 0xbc95e2e43da80db7U,
  0x3d8875b9bc17e8f6U, 0x3d39a181be092372U, 0xbc0148cc3d34d4f3U, 0xbe29edd33d3060efU,
  0x3cd6a1e2bd5ac50cU, 0x3dd2171bbd2a675bU, 0x3db90e3ebe148049U, 0xbe81e27b3d3168f9U,
  0xbe3390e83cf0f9c3U, 0xbd41dd58bd9f52e5U, 0x3d287940bcbd1223U, 0xbdfc92f23bc479ceU,
  0x3db89d4b3d0226baU, 0xbd2b2513bb494154U, 0xbe429db73d2418e6U, 0xbcaa24bfbcce737fU,
  0xbccda85bbe045066U, 0xbdbe52c53d163ac6U, 0xbb4b96803dc9563dU, 0xbcbb73bbbdc7cab1U,
  0xbcc8f66d3d47cdd9U, 0xbdc4f92b3d14c5e2U, 0xbdf0b9063bf3f1bdU, 0x3db5a864bc867284U,
  0x3d9219f03e14e704U, 0xbd5a22ad3e4e25b7U, 0x3e00b89c3e36dffeU, 0x3d53d6e2be1ffbbeU,
  0xbc7ef12fbd6c2b2dU, 0x3d6fa550bdb1c3d0U, 0x3d378c2ebe15996fU, 0xbd5ee9873db30bd5U,
  0xbd978ab33d5798b3U, 0x3e0f97d53e23f094U, 0xbda62b5abdb97c47U, 0xbde10fc43d45cfdfU,
  0xbd2487e83e575f55U, 0xbd0fc71ebddb98b4U, 0x3e351172be3a8590U, 0xbe4812c73bbdcfb4U,
  0xbb66039c3e56664fU, 0x3c4e8ae43d611a0cU, 0xbd2a855dbd72865eU, 0xbe344e343d8eb86aU,
  0x3d818dc03db2f323U, 0xbe7062da3c55990fU, 0x3c19be223d5b9dcaU, 0xbd15c05d3e01f294U,
  0x3da7dd8abda5c41dU, 0x3d6fcaef3d95ba54U, 0xb997845abd0718afU, 0x3e4b18f33e01a881U,
  0x3e2b6da03e1f4f19U, 0xbd36255c3dac92e5U, 0x3d8f7800bcaf5784U, 0x3cf4c3e1be446628U,
  0x3c2540abbd5549bdU, 0x3e2d65403cb5fb1bU, 0x3ca51cfe3cda8114U, 0x3daf0af93bd158f4U,
  0xbd58f69fb9743622U, 0xbc21591c3dba4be9U, 0x3cd3c090bf4ec016U, 0x3b74ac24be6be573U,
  0xbf3eee0d3e579be9U, 0xbda37340beb15867U, 0x3f0c3b83bd7afd3bU, 0xbcbaaf7c38d61b8cU,
  0xbe23211cbf40186cU, 0x3db134efbdd7512eU, 0xbe2fcd36be1954f6U, 0x3de1795d3d242255U,
  0x3d736537bd8759faU, 0x3e37707bbd374448U, 0x3d1365b83a9e59acU, 0x3bc54d0f3e578f92U,
  0xbdb5865cbb6280c8U, 0xbe0cdb133d306065U, 0x3dfc7b7b3e1bf6a3U, 0x3d9604153d30fb75U,
  0x3e84050bbe5281baU, 0x3cccfe9cbc869570U, 0x3c43645f3cd5f118U, 0x3db33ade3db43d25U,
  0xbd3aaeb2be096673U, 0x3e1fcf883d538445U, 0x3b890cf73e357f91U, 0x3d29ac97be205fdeU,
  0x3dd3a439bda6e958U, 0x3d4defa73d7e921aU, 0xbe477fb5bdf20428U, 0x3dd6c82a3de995eeU,
  0x3d149908bd8e4ecfU, 0x3cac8fdabd20a992U, 0x3c6e5deebda6a3f7U, 0xbdbd4beb3dc07969U,
  0x3e2fe88dbc828372U, 0xbc856898bb9460f7U, 0xbd0d7b83be95910dU, 0xbd56b1ae3d6ba9bfU,
  0xbdb02542bdcc4c1aU, 0xbd9ed3bcbbe4c840U, 0x3d608099be09e0c3U, 0xbdb26152be74650eU,
  0x3d92b2063e569a87U, 0x3d3fd254be20a1f0U, 0xbdb6b3bd3d650f65U, 0xbc7dbdcabcfc89c5U,
  0x3dad9456bc2429cbU, 0xbe020650bd7b998cU, 0x3cd68db9bdcd590aU, 0x3ba9783a3cd1880fU,
  0x3db71511bde5ecc9U, 0xbd0fabe53beddcc4U, 0x390861a8bd5b2872U, 0xbdfe7220bc13fb3bU,
  0x3daca39e3daf2794U, 0xbd5c362c3c60cdabU, 0x3d2d981dbdc7571dU, 0x3b4143653e0645aeU,
  0x3d14aaef3d5a05d3U, 0x3e3e60efbd6d31eaU, 0xbe24d0a2bd40d969U, 0x3de1087bbd957179U,
  0xbe4fbae5be02859eU, 0xbce5b9703d82a84aU, 0xbd924ecb3e0d85b3U, 0xbc151cc4bc2b58c4U,
  0x3d944c713cd948c0U, 0x3d524484bd381ab6U, 0xbd10ecc5be53f000U, 0xbdeeebe4bcbd7ef6U,
  0xbd1306f6bc72a47eU, 0xb866b7433d219cb4U, 0xbe140e593dd7baa0U, 0x3f17efffbe24b4caU,
  0xbde82adcbf831aa8U, 0xbdbbbfdbbe250254U, 0xbd29dce23ea682f7U, 0x3da94b233f681fcdU,
  0xbd970a1cbf13db11U, 0x3f002021beac54ddU, 0xbe0fb643bf4684b0U, 0x3e1f46fabd7ad97aU,
  0x3dcfdeef3c2c061fU, 0xbe5373a53d8181c7U, 0x3d723651bc95e7a5U, 0xbc1840613d3ef642U,
  0x3d4fbc4c3d38a2cfU, 0x3dff8a9ebbcd7987U, 0x3e08878ebda5dcebU, 0x3d5bcb11bdc4a252U,
  0x3dbef357bd27faddU, 0x3de7bafabcf8b309U, 0xbd919ba7bdf035c2U, 0x3e0992e73dca8ed4U,
  0x3d64a2ecbc03532cU, 0xbcaaa4013dfa6950U, 0xbd1b71b1bd44283eU, 0xbd032b5a3d8e2649U,
  0xbce518643d4e37acU, 0xbcd00ee83d2be706U, 0x3d32e598bcd69f64U, 0xbd2935b7bcccef14U,
  0xbd0a08083d90ba57U, 0xbc3681ba3e59fe9eU, 0x3daed18e3c92810eU, 0x3d5be7043db6b569U,
  0xbb0f52953ce9e524U, 0xbdeed6e1be5cb90eU, 0xbdf89299bd8053e4U, 0xbae78b903d7591edU,
  0xbd3c328a3d2cba87U, 0xbcc8f89dbdabc421U, 0x3cb7ca5d3e143316U, 0xbd217f7b3db5f440U,
  0xbdc4d30fbe1b4b72U, 0x3d78134fbc415983U, 0x3dcd503abd02a3b3U, 0x3d839a91bcdca3daU,
  0x3a83bc17bdf4c30dU, 0x3d82b142bb856e8fU, 0x3cdb971c3d2c8316U, 0xbe4557ce3b1d8711U,
  0x3dbc6f3bbb684fbaU, 0x3db2bed6bdf00d9aU, 0xbca2a4a93b215de9U, 0xbda188fb3deb9ab5U,
  0xbd8fbe883e02032bU, 0x3e8a07343e272060U, 0xbe0528a4bd95801fU, 0xbc9eb9c23d4296a9U,
  0xbc9b134dbd2ddc20U, 0xbd980ff23c8c6520U, 0x3ce9c0403c72d10aU, 0x3d1eb52c3db9816eU,
  0xbdd43050bb927494U, 0x3d93ac323dcfba1aU, 0x3ca1dfd83d4faa48U, 0x3d8c128f3dcc644fU,
  0x3d6bd167bc92d555U, 0xbe0e389ebcf1661eU, 0xbcc8fedfbb0dcd80U, 0x3df51767bc98d3deU,
  0x3d4704e4bcd59213U, 0x3e58221abd735448U, 0xbd4e428d3d54ffcbU, 0xbd2f614dbd778921U,
  0x3f1babb73f1de4beU, 0x3bdcb0573e8be419U, 0x3f267de6be523c53U, 0x3db7c3c03dcc1a1bU,
  0xbf02306d3f80678bU, 0x3d6a7f36bf58af07U, 0x3ef70de83f1b74c2U, 0xbdfa9ccb3eaf43f2U,
  0x3d163a3b3e49bbbeU, 0x3db7284d3dc7b51fU, 0x3d06d2a1be0b6841U, 0xbcb82bab3daeb910U,
  0x3e0280a43cbcf0d2U, 0x3c82a168bd6c9c19U, 0xbe50b7933e3a9992U, 0xbd366bec3d2a8b08U,
  0xbe1dfca73cabdd56U, 0xbd3cfeb83dbcf387U, 0xbe147bd13cc1e09dU, 0xbdd4148bbdb1fe95U,
  0xbd7bf9713e109ae1U, 0x3c01f569be023f71U, 0x3d8d4b19bdc5e265U, 0x3d696c0bbbd34cc8U,
  0x3e41d675bd7046a4U, 0x3ca692963c1a83c6U, 0x3e78881c3b9ec8ccU, 0xbca2e664bb58e06aU,
  0x3e0919e9be0db4daU, 0x3d560598bd06d8e8U, 0x3d2ca7ec3cc5e646U, 0x3d8dd6f03b7cc900U,
  0xbd9494d5bd28edbeU, 0xbd740dfc3d0f6902U, 0x3dd2e711bcd94e4dU, 0xbdb38b4a3d3727a3U,
  0xbe3fa715bc76a8a7U, 0xbdbd2546bb017470U, 0xbc6020903dc68d10U, 0xbe0bceedbdc71387U,
  0xbda712abbde88213U, 0x3e1714d8bd3df249U, 0x3b5010d7bbf83549U, 0x3bcd6b1b3dc2bb90U,
  0xbcf490fbbd06421cU, 0xbe35fedf3d0fc133U, 0x3ce2d3e13d7d3b7eU, 0x3da676fb3cdfbc68U,
  0xbddf918abe8a5f78U, 0xbe019931bda1f925U, 0xbde11192be211383U, 0x3d2aed7bbcbdea3aU,
  0xbd64283a3e1efd55U, 0x3e41e82e3db5fcfbU, 0x3cfab02abd1db44bU, 0xbc1c7834be0d0fafU,
  0x3db57dca3df2ad38U, 0x3d89ae623db96d7bU, 0x3d4083c53ddff499U, 0x3e2e70063d6220e4U,
  0xbd0eecc63dbd2585U, 0xbc29d69bbe40d8c6U, 0xbda2b9533d7fbf58U, 0x3b30a1c4bdb9c7d2U,
  0x3d13de7bbc0061e7U, 0x3d42041cbc4e5655U, 0xbdec8854bddca7a1U, 0xbd88c1bc3d843ca1U,
  0x3da65b493cf6af93U, 0xbe0eb6503caedbecU, 0x3e2d7c973e12a6fdU, 0xbdf30a9b3cdda2b0U,
  0x3a94614a3e095303U, 0x3e20de1b3f6e2a9eU, 0x3ca84b88bd48c1baU, 0x3f67e6633e1472f1U,
  0x3d8e715b3cb703bcU, 0xbf41f95f3ede93f5U, 0x3d05ee5bbef0fdacU, 0x3df61bc13f0e71e3U,
  0xbdc1cea43d197bf4U, 0x3db052bd3dd97947U, 0xbd553dde3e049db2U, 0x3bd27c14bda36183U,
  0xbd8731dc3cf190eeU, 0x3d064ede3e2d8bb4U, 0xbdffc6bb3d6510ecU, 0x3d4e3f0b3cb1e478U,
  0x3cb2a9f13d396c7cU, 0xbd31ade53bc56ca1U, 0x3c891f12bdeb6c3fU, 0x3b6d63f5bd18123dU,
  0x3e0a4cf33ce92e04U, 0xbd36a2c13cf5d3b3U, 0x3decccdebd2783d1U, 0xbcbe2a6b3da05014U,
  0xbcf7f9af3e3f19b2U, 0x3da1ef7e3e54b682U, 0x3d3126cdbe35e5ffU, 0xba92d64abd0dc42dU,
  0x3e276a46be2c4f5cU, 0xbd8d9fd33d1d2b66U, 0xbc9398f03d159070U, 0x3da6d36ebde420d3U,
  0x3e01ebc83d91e3fdU, 0x3dfab2fa3cc0f5a7U, 0xbe23343c3e7893d2U, 0xbabef0efbde2ce0eU,
  0x3d86b4e63dc683e2U, 0x3df6524c3cfe02c5U, 0xbca9d9c7be5a1f38U, 0xbd9852393e110d58U,
  0xbda5ef9bbc246154U, 0x3da416d6bc944ed9U, 0x3da81bb63e14126fU, 0xbccaf4b1bc433ec6U,
  0xbd9712793cd04dceU, 0xbdc92c7c3b8253e3U, 0x3e840e733df4e56eU, 0x3e3396c0bd9acd32U,
  0x3dd9068ebe764940U, 0x3de36eff3e17d69cU, 0xbde439373ce0fcedU, 0x3c9f59603d634b97U,
  0xbd9dd1fcbcc980eaU, 0x3e85c72cbe092d1fU, 0x3d38785c3df12ae1U, 0xbb2355c2bcdd68f0U,
  0xbe168eeb3d969842U, 0x3ce3c4893bc2d969U, 0xbd76a10e3ded2b44U, 0xbc1b4175bde3b28dU,
  0xbe02f34dbd0b8393U, 0x3d8b53bdbdd03a34U, 0x3d9223b1bdf031fbU, 0x3d156c15be12ee67U,
  0x3d343883bde067d0U, 0xbbc5cb8e3d8de6eeU, 0xbd7a42d5bc82fa5eU, 0x3dd43581bbda0ebdU,
  0xbc4fafcabc365113U, 0x3d4601f13db8fd86U, 0x3e3aeb89bdc6df54U, 0x3d93c2343cac5b6cU,
  0x3dd282213c14ed8eU, 0xbd9c7d6f3d124c03U, 0x3e6e8a83bf1dca1bU, 0xbc97075b3f4ad3f8U,
  0xbf2535793f16b276U, 0x3d304c80bf24435cU, 0x3f1e9be83dc3f6c1U, 0xbd838bbbbd8ee0dbU,
  0xbd8b8ef7beb6e47eU, 0xbccff2813f340f71U, 0xbe3b38bcbd9f6797U, 0x3e26acc03d5837a2U,
  0xbc8bd9e93c4734b6U, 0xbd1ef3a43e317f90U, 0xbe2229d53cd4fbf5U, 0x3da56af33c06e7a5U,
  0xbc23ef5bbe176d5cU, 0x3e37f32b3cd8447bU, 0xbd50ce493d7c694cU, 0xbc5d8dfcbcbbee7bU,
  0x3bb6b9d73d51df09U, 0xbe221ce2be4130c4U, 0x3c4e21e53c9dc0b8U, 0x3cd1c275bd3313d2U,
  0x3d8fdf053c93adf9U, 0x3dc5f3433b92974aU, 0x3d42faed3db55f29U, 0x3ca421163dea851dU,
  0xbdfd87f3bc34e17aU, 0xbde04f8bbdf1f324U, 0xbe053f88bd67d233U, 0xbdf0de3dbd52687aU,
  0x3e1c63ae3d9b5bf6U, 0x3db0a7473cef8b5dU, 0xbd2827d23c256ca6U, 0xbe0b4f0a3e10dcaeU,
  0x3dabde9ebda3996eU, 0x3d2058f6bc40116bU, 0x3d49effe3e297398U, 0xbda742edbdae61b3U,
  0xbe50d016bded7567U, 0x3cbcb649bd64ecacU, 0xbe59d5dabdb44d05U, 0x3e02f4093d4bb08cU,
  0x3ce2e518bdc31c90U, 0xbbbc4037bdd1d738U, 0xbe36b9603d4e3517U, 0xbd028c813e18c9aeU,
  0x3aaaa5ca3e09589dU, 0x3c43ae923c2e4a1fU, 0x3e0bd6dfbceb7d17U, 0x3cf8162dbe561a6aU,
  0xbc72ade03d75c744U, 0x3d7cbb02baf58d7cU, 0x3ccda9e5bcaa60d6U, 0xbdcfd211be06d25aU,
  0xbdce2d2bbda51d59U, 0xbc6fc4443d6cf622U, 0x3d7a78ea3d02be7cU, 0x3df6162f3ddac1feU,
  0x3c34659cbde4d3e2U, 0xbd1bcacd3c995fccU, 0xbd848ca33d02fd32U, 0x3c65b440bba57c49U,
  0xbd8125393deafb38U, 0x3d2359b3bdeca45bU, 0xbd17b5b0bd5a0250U, 0x3e5fa9c33d94707fU,
  0x3cf60f5cbe4dde6aU, 0xbe01f7c03d11d95cU, 0xbd6932aebd309dffU, 0x3c6cea263d48f09dU,
  0xbd40aabdbe45a9a5U, 0x3d14078bbe160bf9U, 0xbddc6c14bc4f4e50U, 0xbdb74886bd25b1dfU,
  0x3d52a3b3be20ca56U, 0x3e310add3f35827aU, 0xbbb46b44bf9632d5U, 0xbe35eb41becc932fU,
  0x3d9c37233eff13d0U, 0x3e5c142a3d583bbcU, 0x3d6979e7be670383U, 0xbee324bb3cf91c5cU,
  0xbd90a6c83dee66f4U, 0xbe6aa879bd324a42U, 0xbdce5620bb4595ffU, 0xbcea8ee4be38b350U,
  0x3d6c16cfbde08ad6U, 0x3ccb6593bde502b3U, 0xbe4130553dad1bebU, 0xbd7a229abcbbeaeeU,
  0xbe4966ae3e13781aU, 0x3e8680483d97d48eU, 0xbe803baf3da35914U, 0xbd5dd4003e37345bU,
  0xbd4fd00dbe6aca44U, 0xbcd66de93d969485U, 0x3e7fce0dbce145c0U, 0xbdf24a1b3e42baccU,
  0x3e42fc943cbbba67U, 0x3e20e26b3d3c04a7U, 0xbd88e39a3eb69a84U, 0x3e395b3cbeae33a8U,
  0xbe701aaa3d7824a1U, 0x3b6238223e463cbbU, 0x3d154327bdba271bU, 0x3c9d25b2bcf11401U,
  0xbd9baedfbd8cfb1cU, 0x3e4dd7913e88825eU, 0xbd2e8eaf3ddfc1aeU, 0x3c3b93dfbd18b2b1U,
  0x3d0785ddbbcf718dU, 0xbdb284613e0ddff1U, 0x3da562dc3c3146a2U, 0xbd219dbebdbcf9a6U,
  0x3e83d717be197d48U, 0xbe849d77be8004f0U, 0x3b050480be318ccdU, 0x3dd928553e3ee996U,
  0xbc3132c13e091be4U, 0x3c85d2a2bdccc501U, 0x3d751361bd697a9cU, 0xbcc834283c5b4c9fU,
  0x3cf1c88d3d93f4b7U, 0x397207eb3cb2a34eU, 0xbd90a2f73caf51dcU, 0xbe8366db3e9e817cU,
  0xbdaf4abe3e2f4c3aU, 0x3c1b8e543e9ad892U, 0xbd6a3faf3e186ea4U, 0x3e063b1abd2bbcdeU,
  0xbe2f9d6abe173680U, 0xbdd68ceabc8fd797U, 0xbd785f423befa533U, 0xb903bcaebd7d5a6fU,
  0xbd236f34bd4e6d62U, 0x3db78f7f3cfa8587U, 0x3e1395ab3e33ebc6U, 0xbd471594be721a87U,
  0x3e2a5bb33de54d60U, 0x3e0547893dd77207U, 0x3e0544843dd6d3a8U, 0x3e8e910d3e68b555U,
  0xbe1a29ac3d516d3aU, 0x3e8f98e3be3d8966U, 0xbcba690fbe2f929dU, 0xbe25699a3e5e8bdbU,
  0x3f474656be07f4d3U, 0xbe09b600bf4be8feU, 0xbe843fb83d0c0264U, 0xbd0d27c7bd98fc5bU,
  0x3e81fda73f445086U, 0xbd0a1b10bf02868cU, 0x3f3101a4bea56fdeU, 0xbdc1671abf3646acU,
  0xbd06af70bc77171fU, 0xbdd9c60dbd7cbcb5U, 0xbd072d8a3c2601abU, 0xbdf7501abd0c6493U,
  0x3df5cca93c1b40d0U, 0xbb831cf03de7994bU, 0x3dc73bbab9c9fb6eU, 0xbd390a133de42220U,
  0x3c22e00cbb61c2cbU, 0xbd087eed3cc4e6c9U, 0x3cd3f86c3db68241U, 0x3b80dfbfbd18e378U,
  0xbc3d10823dc9ae99U, 0xbac8af473d2ff5e9U, 0xbe0abf193d834062U, 0x3dafe7bcbc9b6169U,
  0x3ca86b69bdad0761U, 0x3d1212fdbe0dd973U, 0x3e822086bd339a74U, 0xbd219a8ebdfa72c3U,
  0xbcfcd5393ce8872bU, 0x3d82c54f3cfdae17U, 0xbdfa1657bd79a57bU, 0x3dbfb643be5c1c73U,
  0xbce5e5ef3c0a6c94U, 0xbe8349af3ddda596U, 0xbd240da23daf5973U, 0xbd2bb679bd4fdf0aU,
  0x3d31fcad3db75e34U, 0x3d30a705bcfafb25U, 0x3df293ab3ccdcfaeU, 0x3de45f0dbca5ecf8U,
  0x3d4e3055bd304481U, 0xbd95b5003d749e08U, 0xbdcfd1b23dba2e24U, 0xbd0fc17fbd1bcd51U,
  0x3e92aa97be1bb278U, 0xbd9e18d1bdd80837U, 0x3d964d2c3e16998eU, 0x3e0b221cbe293e91U,
  0x3bc65489bd70c557U, 0x3da532ca3d8e9225U, 0x3de144a63d107153U, 0x3e03917ebd14042bU,
  0xbe249bf83d09aee1U, 0x3d31fc673e22ecfdU, 0x3dc845403d96b95cU, 0x3e102bf03bc94be7U,
  0xbd1b3a963d5c35f7U, 0xbe2201463e34483fU, 0x3d72bb1f3d7ef41cU, 0x3dcc9f4c3d4048f8U,
  0x3bedae5fbd20a391U, 0x3d82a7afbd0d4223U, 0x3dcc1950bdebdd39U, 0x3e2f6703bd78ded6U,
  0xbe136382bc157da2U, 0xbdec97d53d3fb53cU, 0x3d6c5258be2d47ccU, 0xbbebbc123bace1b8U,
  0x3dcfe144bdffeeddU, 0xbcd40120bd71c4fcU, 0x3dc744083d937ee2U, 0xbdb756e53dbbd104U,
  0x3db28bdd3d9ab727U, 0x3e0fc901bf0d2bfbU, 0x3d3c8494bdc5f3c8U, 0xbf24ee8ebf664aabU,
  0x3c94049a3f8430bbU, 0x3f052da8bea03e44U, 0x3d0395823e6da299U, 0x3d31d153bf17df14U,
  0x3bc0aed3bbc9ad15U, 0x3f0afa17be5a1be8U, 0xbd97c9a2bdcd1fbdU, 0xbe13a8e0bc94c6abU,
  0xbe15a36e3e0d3842U, 0x3d1da946be06775cU, 0xbe2702083c05b377U, 0x3e1961c83e0350baU,
  0xbda85e7dbdd0d3daU, 0xbdfb1395bd6a8efeU, 0xbe28d3423dbdc2d3U, 0xbd8141f53d34cd02U,
  0xbe2128533e4e95d3U, 0xbe106d85be110723U, 0xbc50539c3cd54133U, 0xbbaf4ad03c5b7bf7U,
  0x3d8c8eacbd3bed6fU, 0xbe09fb6bbe0be080U, 0xbd3a3996bd10f07dU, 0xbe11612ebc1d258bU,
  0x3d22c1ad3bccd562U, 0xbd89ad15bcb68a54U, 0xbdf6d9c3bd9454e8U, 0x3cc0c1aabe2b88cfU,
  0x3ccf5dbc3e3b4e4fU, 0x3d2cce623ad6b6e0U, 0xbdebfe9dbdf3bec7U, 0x3c942707bda21b43U,
  0xbd3e0df2bd5b57f1U, 0xbddd2836be23251aU, 0x3d695efdbe6277c5U, 0x3d70af81bdc1677dU,
  0x3dfb3f79bd92cea5U, 0x3e69eeaa3d87ab09U, 0x3ddc1d1f3d7445b8U, 0xbe2869033def13a5U,
  0x3dd11d6ebcd1b178U, 0xbd9c5fef3db78371U, 0xbe8ed571be260677U, 0x3e8150863c28c75dU,
  0x3e2f10e33e57d109U, 0xbb004083be0b93e3U, 0x3dfc3f60be1bcd7bU, 0x3e7302d9bd16f8cbU,
  0xbd712361be084bf2U, 0xbddabfb43e14fcd9U, 0xbe06436b3ccee576U, 0x3d70492abdc73255U,
  0x3dbee211bd0fad44U, 0xbe8094903ac7bf4bU, 0xbdeb72f3be31b11bU, 0xbe1c38e6bc01f9dbU,
  0x3e593e533d9e4338U, 0x3d8027f33cb176a5U, 0xbd9bc844bdf475b0U, 0x3bc73cbfbb1a9841U,
  0xbe1d437b3cffb952U, 0xbd0a9d2a3d8e27eaU, 0xbd95abdc3cc62ee0U, 0xba5f27babdec09eaU,
  0x3dc89161be27f5e5U, 0xbca6394cbc387e5cU, 0xbd11f723bcfec6efU, 0xbce7aa7fbe69f95cU,
  0xbd2aa5cc3cfb68e4U, 0xbd5bfdf1bd885e7bU, 0x3ea490713a3cdeb5U, 0xbda8c4ab3dc4be9fU,
  0xbecc09cb3f2acd9aU, 0xbcf6b462bf11b6baU, 0x3eaf88863e917cc8U, 0xbd27ace8be93b7bdU,
  0x3ed5b932be040805U, 0xbd83fe403e949d58U, 0xbb2cba51bcfa4ecdU, 0x3e61a584bd8aa0dcU,
  0xbcd5d45d3e8d90c6U, 0xbd38f98ebcd1dc1aU, 0x3d3f974e3e529976U, 0x3c3513743dd21718U,
  0xbeb3440d3d300c18U, 0x3dcfbd5dbdffa4dfU, 0x3dd8c7793da26a7dU, 0x3dc669393d0507b3U,
  0xbda8b2efbc008642U, 0xbd3b33013d9f0b63U, 0x3e12c8483d948f62U, 0x3d7827c73dafae1cU,
  0x3e510d5b3ca65981U, 0x3d69ee4f3caf9630U, 0xbd6efc9dbe644325U, 0xbdcf8b2dbc9a0fe6U,
  0xbe015ac83e257ea5U, 0x3d599083bcd34bfdU, 0x3dbccf5cbe331f84U, 0xbcc04787bb9b2224U,
  0xbe85b4f5bd841fddU, 0x3d372b993e3a5b10U, 0xbbb4ac853ccdefc2U, 0x3d76c8a0bd842a44U,
  0xbdaa84dcbd9a6706U, 0x3d9227f13d379136U, 0xbda423733ded4d91U, 0x3e19621dbd9f648eU,
  0x3e42a6dc3de535bcU, 0x3cbebf943e385697U, 0x3d97a50bbddca6f2U, 0xbdfd7209bcfc18e3U,
  0xbd7d4bca3cee646dU, 0xbd36d4efbda130edU, 0x3e6f63313d163972U, 0xbd86b3bbbdf5a628U,
  0xbe045c93bca63260U, 0x3e367c4b3d820b02U, 0xbceba8c73e088596U, 0x3e651de23ec275dcU,
  0x3ced7eea3d7f6dc2U, 0xbc855ccbbc2ed1a5U, 0x3d8883a5bd7b64c3U, 0xbd8b504cbe44cd5eU,
  0xbdeb51eebe29f403U, 0xbd082eccbd4521afU, 0x3dbb29c5bdf70dd2U, 0x3cf5556abe827f20U,
  0x3dcfda14bd863897U, 0xbdd6530ebe09f24cU, 0x3e26bd9e3e27386aU, 0x3d41da90bd0987feU,
  0x3bef0d863e2d86e0U, 0xbbf2202f3be1dd62U, 0xbdcd6473be1830afU, 0x3de58014bdcaac06U,
  0xbcb94618be230454U, 0xbe43b04f3d8dbe9eU, 0x3deed0cdbe72a3a7U, 0xbe1bfaf43d5a021cU,
  0x3df842053e2a889dU, 0xbe2994b6be863f77U, 0xbe328ce63c83eeb3U, 0x3f05de7a3f3efba7U,
  0x3dac6b7d3eeb885cU, 0x3f46082d3e8aefbaU, 0xbcb814a5bea07772U, 0xbf0c29963f494b8cU,
  0x3d831d0bbf1d706bU, 0x3f027b103efd4d3aU, 0xbd8cd85a3ed88205U, 0xbad19a583db97be8U,
  0x3af7e8e3bd33cf87U, 0x3c83860bbd9d4571U, 0x3df70f26bde2d2c1U, 0xbc869a2ebe0a5044U,
  0xbd700e27bc298f6dU, 0x3e32e289bde43c63U, 0x3e1362993d8f23ebU, 0xbe0afe393e317aa7U,
  0xbd06cd1abd03bf13U, 0xbdc030f2bd890c10U, 0xbe4a41073d9cc106U, 0x3d929b2bbc37f39bU,
  0x3e1ba76f3d967dd4U, 0x3db6c4173cad3704U, 0xbe0e3c92bd915fdbU, 0x3debf0af3e0abbf5U,
  0xbc81505abe2c4cc6U, 0xbdf3b5263d81cd75U, 0x3deaf3303dbef2ceU, 0xbe064eb7bda64203U,
  0x3b9085b9bd37ab30U, 0x3d1766673e89ebe3U, 0x3dd7dc233caef47bU, 0xbd40811bbcdab2ecU,
  0x3d78e3c53b4d35dcU, 0x3d860b173d3d9b0fU, 0xbcbb926dbda113d4U, 0x3c60e3d3bd98522bU,
  0x3d4b0fec3d850143U, 0xbd7c485fbe173369U, 0xbb75650ebe01a1b2U, 0x3d6246c1bc92fbfdU,
  0xbd72235bbba45000U, 0x3ce492da3d9c16aaU, 0x3e5dd8a3bda7ac52U, 0xbdba4d8cbe30e789U,
  0xbd9490bc3c811fa2U, 0xbd54e59abd8ecbf7U, 0x3c49df88bd6ff270U, 0x3dc2fd57be2cbd13U,
  0x3da75fc2be356333U, 0x3e56ddb43d6f5126U, 0xbdcb010e3dfac5bbU, 0xbdfee3c33e0026abU,
  0xbcf27e6abdeae746U, 0xbe250bdfbd1875f8U, 0xbd3247c1bd62da30U, 0xbcb1d2e93dabe750U,
  0xbbf640bcbd8fb32aU, 0x3c3862c53cb6c08eU, 0xbd98aadf3de31ebeU, 0xbe66459f3aa8d473U,
  0x3d00fa22bdeb54b0U, 0xbd8f100b3da3eda9U, 0xbd8a2d41bd820680U, 0xbd10ca4d3b6041efU,
  0x3c0dd7843d141506U, 0x3e36448bbe4736ffU, 0x3e25ef743bd8a8e6U, 0xbda6bef43d219f41U,
  0xbd4b17ea3ce03531U, 0x3d68a847be6f893cU, 0xbb52545f3d16a02fU, 0xbd63f64e3c6ccd18U,
  0x3f27131bbee4ce02U, 0x3cd74ab83f023039U, 0xbf2b84fc3dede2f1U, 0x3d5109bcbe1375e9U,
  0x3f085e673f804631U, 0xbd92c599bf5dd560U, 0x3efdb5b7be7c1b75U, 0xbdd7a0463f3b0b52U,
  0xbcc0f415bd60ca6fU, 0xbd2ed016bd91cf9dU, 0xbcd65232bbb037baU, 0x3da6c2a63da7b38eU,
  0x3d0b75523db8336aU, 0xbd0aec64bc2f0922U, 0xbdae2ee9bdb9419aU, 0x3de6eee3bd0b6c73U,
  0xbe0cb1703de53063U, 0x3cb704d63c25606bU, 0xbdd3bb56bc5f3d6fU, 0x3bad9251bcdcd880U,
  0xbd33b950bd64904dU, 0x3dcaaf90bc9e2c38U, 0x3d48d891bdff3db9U, 0xbe4fe1ed3b82d7d9U,
  0xbda7afcd3d6393d4U, 0xbd9a0a483dbde409U, 0xbe6518e33d658615U, 0xbcf96f43bccdfc9fU,
  0x3d44f2dbbcd89c45U, 0x3d4fde6dbc9fd79dU, 0xbd44bd693df88724U, 0x3d229b0e3c2f3213U,
  0x3cd021713d0d5103U, 0xbd03b5a23c18d76aU, 0x3e1e6c3f3e06008aU, 0x3d97e2dabd12f840U,
  0xbdb293ccbd5e5ed9U, 0xbdd37adabd601174U, 0xbda309c6bd5cdbcfU, 0x3c843d963d33a0a4U,
  0xbe248165bd2c7efeU, 0x3e2950a03d7fbc24U, 0x3d6e4342bda34b3fU, 0x3c239739bc1aa200U,
  0x3d1cdc46bda3ea91U, 0x3cfb0a72bda0a806U, 0x3e25b4313e188c4cU, 0x3c97df98bdc507ccU,
  0xbbbd7ede3d952767U, 0xbd18e34bbda51f2eU, 0xbd67bf4dbc233139U, 0x3c441d1e3de6cdbfU,
  0xbd8bc6ad3d89f8ebU, 0xbd57563abcdda300U, 0xbd662d093cb77433U, 0xbdfd61f23e2f2a80U,
  0xbd82d94a3d99369dU, 0xbe082d38be349ee7U, 0x3d15c32cbda2c8a3U, 0x3d06534a3c7599c8U,
  0xbc7c7659bc27c156U, 0xbcf9c2b7bc2ef84cU, 0xbd0786743d04e5a3U, 0xbd02215fbd4e6aadU,
  0x3e0d6af8bdee77c4U, 0xbd270f05bd410089U, 0xbde7b3c83d34975cU, 0xbd878d62bda51bceU,
  0x3d3965fdbe58afedU, 0xbe5c56a03b76a065U, 0xbd4f20c43bb93590U, 0xbd1b2ea0be681206U,
  0xbc2f662ebe23aad7U, 0xbe44a4be3e2bce5fU, 0x3d5f25e4be9dcb92U, 0x3df0204f3ebe4ff5U,
  0x3cc04816befea963U, 0xbded1e65be8c24b7U, 0xbd0cdbaf3ed40beeU, 0xbda11ab53e164fddU,
  0x3d1514a6beba9819U, 0xbe214e703c340ab6U, 0xbd6e7db8bcadec43U, 0xbcbf31aabe0c8a9cU,
  0x3e6a132d3dd4ad1aU, 0x3c98829c3d763a73U, 0x3c5daf273cc6b361U, 0xbc392867bdd1d945U,
  0xbd84a1053e02e296U, 0x3c9df96e3ccf65ceU, 0x3c3443dd3b27998bU, 0xbe225f6d3dd5e2b7U,
  0xbdd387613cc20af7U, 0x3d7c12d3be3c2956U, 0xbd6cc0a63c592dedU, 0xbc284371bd43b70fU,
  0x3ceca2be3d9589daU, 0x3de3c9313e5fbc57U, 0x3d1db542bd0e485dU, 0xbd0a46cfbc4bebf1U,
  0xbd32fd7e3e11a4c6U, 0x3b45ade9be012ccbU, 0x3d564226bdb1b80eU, 0x3c18558a3c62b329U,
  0xbd4c85ed3d6ea17fU, 0x3ccf31dbbe37d046U, 0xbdc12205bcbbe028U, 0xbdea5641bcafcb2bU,
  0x3e52512abd47f263U, 0xbd7f97a73d4cc3a0U, 0x3dca772c3df5ec66U, 0x3d1db93bba33888eU,
  0xbe0ce5f63dd30bf5U, 0x3e3408333d958843U, 0x3d4d1554bdbad519U, 0xbcaa03f63d58b218U,
  0xbd8f4aa63d0fea44U, 0x3bcd34043af159bfU, 0xbdafd0b33b31c6baU, 0x3dbfd0a83c24a6c4U,
  0x3e0298e6bd58109dU, 0x3aa5a8c33e21d23aU, 0xbe0e92b43d9ddb13U, 0x3c3e1777bddc4ad7U,
  0x3de7bb5bbd15659fU, 0x3e000ab9bcffce1bU, 0xbd834771be22f4c9U, 0xbd9c3157bd822a9cU,
  0x3e1c0abdbe27db7fU, 0x3cb9eed03e618dd2U, 0x3d8a38f3bab4bcf5U, 0x3d96cb7abcde77abU,
  0xbd3f6d08bdc5faddU, 0x3db72e6aba20aebcU, 0xbd21bf7bbb93f2a2U, 0x3cb3013cbb95c8faU,
  0xbd31e8f63d9ed29aU, 0xbe0875dcbd1dd592U, 0xbc5c06b4bd5c895cU, 0xbd5d83573da904d1U,
  0x3d97961c3c8fa900U, 0x3d3706dcbcd8e647U, 0x3e9230c038b2ca84U, 0xbe4ae326be26b2efU,
  0x3cec54123d5406d3U, 0xbd24bad83e2a0defU, 0x3f559ccabf0015bfU, 0xbd5d232e3dd521dcU,
  0xbf3f554abcca7dd7U, 0xbca9d351bcbf89f7U, 0x3f2512793f520005U, 0x3dab9aa1bf4e1bfaU,
  0x3f221a5cbe9f5fcdU, 0xbde4ae243e46f6e0U, 0xbcbc791ebe104488U, 0xbd960ca7bc196301U,
  0xba17ca273d1e5607U, 0xbd3824c93c44bafaU, 0x3ca094f83e029b9dU, 0xbd438f16bd5c9bfbU,
  0xbe346e1bbd0573b6U, 0x3e3247f03d1be1dfU, 0xbe0d568cbbdd39daU, 0x3d4aa263bc8c5d01U,
  0x3d9ff57fbd9c26dcU, 0xbc8fd45bbc1bc5e8U, 0x3dc607d5bdf29f09U, 0x3c8bad19bca1c209U,
  0x3c9a44b8bd93bbfdU, 0xbd3687a5bce3df4dU, 0xbd0f7496bcbf9bf4U, 0xbdc627e4bddb6193U,
  0xbd5c8a493e0fc0f2U, 0x3d833f043bad24d1U, 0xbdd2bbbabde5af4eU, 0xbd325533be195449U,
  0xbdaae861bcdbbdc6U, 0x3d8d518a3ccd07b9U, 0xbe511e5a3de85021U, 0xbd4627c33d9316f0U,
  0x3c8ceee3bd87c44aU, 0xbda84611bd9aaa0eU, 0x3cf984753d7090dfU, 0xbdd50cd43c2c28a5U,
  0xbd9b0788bd98ff71U, 0xbd3a89d3bda11dd0U, 0xbe071dd43d646c81U, 0xbd5ba7843cad7516U,
  0x3d6d924b3cee5014U, 0xbdf4b920bca7ff8bU, 0xbe25331b385c75eaU, 0x3ce24e273cdab573U,
  0xbcede30fbb83386fU, 0x3a73b1963b8ad088U, 0x3b1792e4bd6fb63dU, 0x3cc6fbd2bdafd2eaU,
  0x3d7ec119bbd61fd4U, 0x3df173a13c2372b8U, 0xbddb196bbdc03fbaU, 0xbd2c35353cf45b2eU,
  0xbdb3ced3bc1c7ba3U, 0x3df028913d8bcd7bU, 0x3dd8ce1ebd56faadU, 0xbd9dab72bd83a2d4U,
  0xbde4597f3d9906abU, 0x3df61806bd0c1e6aU, 0x3aa2647f3cb993daU, 0xbe102d4cbdab22a6U,
  0x3dcc58763d1ad512U, 0xbd375105be25d663U, 0xbe1484873cdf9389U, 0xbd9759c9bd7907b3U,
  0x3e16c402bdc71ba4U, 0x3d27d54a3981b810U, 0xbc09797c3d9aabfcU, 0xbd88c141bdf8e95aU,
  0xbdb9b014bdad3158U, 0xbd915476bdd983a9U, 0x3dafbfdebce75101U, 0xbeb00cf03f09b145U,
  0x3bf4a9d93f63e79cU, 0x3e091cca3e31da70U, 0xbc372ad0bebe0d69U, 0xbe1dd22abe0c5cfbU,
  0x3d552fb53dcf1babU, 0xbeac58d03f01fe3bU, 0xbbd522c53f4b3157U, 0xbd4372453d452dceU,
  0x3e171a7cbe6ab832U, 0x3cb84b8638990448U, 0xbd8eba37be17fb74U, 0x3901121f3d35c4afU,
  0x3c57df813d8cec5cU, 0xbcf815a63dbae057U, 0x3e2763363da7db3cU, 0xbdebb85bbe0c0579U,
  0x3e7c46a23dc89cb4U, 0xbba15c063d88c872U, 0xbdea10f43dc2bc32U, 0x3df4d6bdbdd5297dU,
  0xbd4276f5be4ef2caU, 0xbd034cfabdd9f93dU, 0xbe34c0283c1a2ce9U, 0x3e220ab23e424428U,
  0x3d94d084bd00127fU, 0xbe3372f13db79442U, 0x3db4b5173e4067f5U, 0xbdb6b2923d5d92abU,
  0x3dcf7351bdd1137eU, 0xbb74b9573db2f99cU, 0xbd7474d43e98508dU, 0xbe3c2b62bd0c1464U,
  0xbcb1f05a3ee0929cU, 0xbe07b6423cd25b09U, 0x3df3ba2fbdebb934U, 0x3cc429b2bd92850aU,
  0xbe81d7f53e1ece97U, 0x3e4e15d1bda4128bU, 0xbd4b483d3dbc7fc6U, 0x3ccd6442be64c2e7U,
  0x3e2ce1c63d074453U, 0x3d6f766bbe165765U, 0xbe4a33823d621feeU, 0xbce4149d3e822db5U,
  0xbc433badbdcac342U, 0x3d4223713e3304c5U, 0xbc7d8e9e3d881a1bU, 0x3dd95b02bc9cc0ddU,
  0x3de367cc3e3993d8U, 0x3d1bb318bde1cf1eU, 0x3ddbe6783e21082cU, 0x3deabb3abd96b6afU,
  0xbdbf6003be694603U, 0x3d42456dbd276981U, 0x3dafa193bcfb11b1U, 0xbe005782be15e6cfU,
  0x3dfcabf5be70ba4dU, 0xbb2e62aabb96d8bfU, 0xbe71f708bdb942c9U, 0x3e22c21fbd253c3fU,
  0x3e10c33b3e28df56U, 0x3d15a660bda18abaU, 0x3ca70cc33dcb9647U, 0x3e3d748cbbb9912cU,
  0xbd83b4b0be8316f1U, 0x3dd0a2ee3d9fe5a4U, 0xbd8406b5bd850d27U, 0xbe956604be051e64U,
  0xbd8772b3bded1decU, 0x3de83f743ae561b0U, 0x3e114822be39c23dU, 0xbbcbd814be2b3de5U,
  0x3e3041c9bf15ed87U, 0xbdec68afbe0c6294U, 0xbeea0bd03f1e0941U, 0x3cc0ec96bf44daabU,
  0x3e92e40c3e31142aU, 0xbda38577bdbea4e6U, 0x3ea83f10be4020f1U, 0xbd19a8543d35a146U,
  0xbe9c4e3bbd5b8b77U, 0xbd8291b03d9eeb6fU, 0xbd1959663d4fa943U, 0x3d4f4d573cb5532aU,
  0xbe7f77ca3d97b4cdU, 0x3c117e67bd7fe265U, 0xbe7135443dac5dc0U, 0xbe1b52623cb01043U,
  0xbe20d014be2a95f3U, 0xbc2b5a1e3df50743U, 0xbe0e7811be05d312U, 0xbe2edde03e454957U,
  0xbcf6b8743db1f508U, 0x3e1ebcbdbe21c62aU, 0xbde27337be53106bU, 0x3dd263c3bde6da08U,
  0x3df6801fbbbcababU, 0x3e22e5ddbe24b513U, 0x3db2cdfd3d7c7a3dU, 0x3d91491c3e22ecbaU,
  0x3d260d5dbdec611cU, 0xbe32bcb6be317c41U, 0xbe6e06673e0d35a6U, 0x3e5a70a3bd9b0b31U,
  0xbdb2cf26be1472e3U, 0x3dde79ec3e045d18U, 0xbc3795183d226c3eU, 0xbcd4143b3e1db2e9U,
  0x3d958d593db5f39fU, 0x3b8575d7bdc8126eU, 0x3db49e8d3e04dbf7U, 0x3de3eb5fbdc258f0U,
  0x3d972f003e038c51U, 0x3e5febddbbc296dfU, 0xbe3343c73d966b57U, 0xbdeaa8d9bb80ca1dU,
  0x3dcc8171bd6e8c75U, 0xbdead54ebe03641aU, 0x3dc08c503e4275f4U, 0xbd44e6d13c0cab05U,
  0xbe49b3ebbe28c744U, 0xbe1c3d5a3dbd2c15U, 0xbd0fee923d57038eU, 0xbc0f0ea2bc2d1649U,
  0xbdf598813dcbe6c4U, 0xbd7aa69fbc8c0f8aU, 0x3cba78b63cb69c83U, 0x3e9229dd3dabebb3U,
  0x3dae563ebdfc7bbaU, 0x3d14965bbdbca3b9U, 0x3d9758fabc9d0e84U, 0xbdea54793e2ec218U,
  0x3c77da2a3d5ec975U, 0x3df00c59bc42b5ceU, 0x3d183bf93ce56517U, 0x3d288080be0aca61U,
  0xbd483809be08b84cU, 0x3e75384fbc8e4cc5U, 0x3d9b7db0bd1bdbddU, 0x3d5573b03c0797fbU,
  0x3e4a05be3bb301b0U, 0x3dbf63433d5e794fU, 0x3e8f0d45bd28b213U, 0xbe06a046be0ace48U,
  0xbc9139883e23db4bU, 0x3ef02ceebebae3fbU, 0xbd0f7ca0be4434e0U, 0xbe52c053bf2b1c8cU,
  0xbd8ef3213f3213a7U, 0x3e3f24293f18c041U, 0x3d2b37c9bf04d582U, 0x3ec9aecebe38c735U,
  0xbda8ee1fbaaea6e8U, 0x3ea7c916bd0680f0U, 0x3c5dac98be2ffb84U, 0xbdaacf713e4107acU,
  0x3e31ad5f3d92e4beU, 0x3ba141243de02759U, 0xbdb1df2cbc592d05U, 0xbdfa5f3f3a059a59U,
  0xbc62e8bcbc7d6a9eU, 0x3ebb6b4b3d93b5b5U, 0x3e3191623da6c620U, 0xbdbcd4633e58a4d2U,
  0xbc3b22253d1503b9U, 0xbd4d4c6abe12a134U, 0x3db32de93db4f697U, 0x3c30feed3b3c80d1U,
  0xbdae465e3e00012fU, 0x3dce8a0abe40406cU, 0xbdff5995bdc92453U, 0xbe0db6603ddfa81fU,
  0xbe356319bce7a22dU, 0x3d855589bd893d23U, 0x3d7239e7bcc91448U, 0xbdbd3a323e505633U,
  0x3cd781e93da9d651U, 0xbc1c9ac43e10b5ffU, 0x3be4229dbe5763e6U, 0xbdc36265bdfb0d17U,
  0xbdb39cf13d5305c8U, 0xbbd69842bd0c2a82U, 0xbd33609e3d681566U, 0x3c6cc4fb3d84cedbU,
  0x3d9a59de3c30ddebU, 0xbe018d673d881093U, 0xbdf4a8aa3d39dc51U, 0x3d3c64c03cf2c495U,
  0x3c8e7c713e22af26U, 0x3e2096b7bbb31d89U, 0xbe55dc983d91e9c5U, 0x3cab654ebcf6fa99U,
  0x3e6b49d7be195f6aU, 0xbdd92eec3d0da82aU, 0x3ea20d7ebcfbf33bU, 0xbe425393bcf040afU,
  0xbdb11331be093422U, 0xbcd9bcff3e4db7efU, 0x391dea963df85c6eU, 0x3e30de4c3e9477b6U,
  0x3dd1fd453c45e934U, 0xbd5fcbf73e12cae8U, 0xbe51e8e33e32ea06U, 0xbe03f9113ca33e84U,
  0x3d02eb55bc420325U, 0xbdd1d1e6bcc6505dU, 0xbd9f1f163e3e3511U, 0x3d1cc9cb3cd45241U,
  0xbde69808be371a7aU, 0x3e0fdf633d01a452U, 0xbe28f591bdd61ea9U, 0xbd9faae2be0e50a1U,
  0xbe414670bd399777U, 0x3d787e4cbc9ac89bU, 0xbe95ab40be371407U, 0xbe440626bdbe6012U,
  0xbe945c003d10efedU, 0x3d83e6b0bcc6f343U, 0x3d192230bec6276aU, 0xbcf2341e3c90c042U,
  0xbe6d70efbf10de02U, 0xbd7152ba3f3556d5U, 0x3e4781f7bea90160U, 0xbd7872843ef8943fU,
  0x3dee3b94bdab9e97U, 0x3df220003d42ce3cU, 0x3d3ae5a3bd229888U, 0x3d2a1fd5bcd0fc16U,
  0xbdad776cbd50c2d6U, 0xbe103ce3bde93022U, 0xbc0dc2f53f31d157U, 0xbb1ccce3bb151200U,
  0x3e9ca651be44b916U, 0x3cb3f5e8be19ae43U, 0x3e800a153d8a3853U, 0x3d054f55be8f957cU,
  0xbdccec103e71e6bfU, 0xbe03f2383e011ce5U, 0x3d53be62be190587U, 0x3e844d72be6076aaU,
  0xbe6ddc44bdba64f2U, 0x3e4204393ea0f5e2U, 0x3df5fc493e098192U, 0xbd63bd673cd15894U,
  0xbc97b4bbbc7f9ba1U, 0x3bf9ea263e1d5b7bU, 0xbeab4ee3be6828d9U, 0x3e88568fbcc1a264U,
  0x3e15fac43e8d6c4aU, 0xbd4ea215bcf61caaU, 0x3e7b1d1e3e41f814U, 0xbe8cc0183e9cfdfdU,
  0xbd185338be411710U, 0xbdcdbeda3dbff25dU, 0x3da9b824bd7cdc2eU, 0xbe9a7e23bee2efa9U,
  0xbd548c373e93abdbU, 0xbdefb219be8f0c92U, 0xbe9b3ddcbe973f3dU, 0xbbaf0462be2ed62dU,
  0x3d2d0c373df95d15U, 0xbe5106953e133fb3U, 0xbe6a33393e739ca7U, 0x3d80b5f0bd8a6558U,
  0xbe6b02c23c4bc9a9U, 0xbde72ded3d90253eU, 0x3e3232013d999a44U, 0xbdde3f77bd0d1f46U,
  0x3e99f60cbe7381e6U, 0x3c557a953e3487bbU, 0x3e4f76533db46567U, 0x3dad3e023e8e8d57U,
  0x3da4d2bc3e1e88c2U, 0xbe43a4f5bdab5104U, 0x3dec2bf1be004b92U, 0x3d61ec193edfdb81U,
  0xbcc40d053da14789U, 0xbdcc9b443e274ebfU, 0x3d834dc53dc3a92aU, 0x3cf82996bdf48e44U,
  0x3ea420af3ea56f6bU, 0x3e36aa66be120c81U, 0xbe92f5543daade22U, 0xbdfd26ddbe16cff3U,
  0xbe4b8ca63e7c158aU, 0xbc5c281a3e7ad3b0U, 0xbe2a9a73bd24e659U, 0x3e7c44cdbedaa16bU,
  0xbdb9d3f3be94a32fU, 0x3d0db91c3df33f6aU, 0x3d097f01be75a0f6U, 0x3ebf111ebf61f991U,
  0xbd89bc773e2427aeU, 0xbf1e7605bdc4f945U, 0x3dacdb9e3e9640bbU, 0x3f08bb7b3ef1d7d4U,
  0x3d888446bec02c42U, 0x3e892eedbf04cfcaU, 0xbdd80a17bbfa0d86U, 0x3da0913cbcd68a26U,
  0x3cff57b13e47d77aU, 0xbd9551193c357b2cU, 0xbe14fa90bd3667a3U, 0x3ca66addbdcf3846U,
  0x3df964813de46c55U, 0x3d1c97243d33c4deU, 0xbe1e9fb2bd0e2928U, 0xbe0ab1413ccb18b8U,
  0xbd5d90afbbc6fea9U, 0xbdbd7049bc67610cU, 0x3c9914103d6e0e80U, 0xbe664f173e511f97U,
  0xbe32c71fbdbc93b1U, 0xbd501888bd008f4aU, 0xbdd353f63c073163U, 0xbd6db499bda63273U,
  0xbeaf29933d53458aU, 0xbe2991083e5b106aU, 0xbc0bbabe3d282dfdU, 0x3d8623313e254077U,
  0xbd8525923dc6ff3fU, 0x3c821fe6be41393fU, 0xbbb7f374bdfc1f9aU, 0x3e4984f4bd149925U,
  0xbccc6033bdb5ad70U, 0x3dc09d3f3cf7238cU, 0x3e022863be91f8ccU, 0xbe3541d53d6514b1U,
  0x3d00d6c3bcc16b80U, 0xbdf4ab90be01c923U, 0xbd78b8a2bcddbdc4U, 0xbaae08413ea299adU,
  0x3d4b9984bd5d4d81U, 0xbd01f131bd53c6a9U, 0x3d13cd433dde4e93U, 0x3dffbd7fbd5da6baU,
  0xbd804891bd4fe85bU, 0x3da611253c1de250U, 0xbe1ad10a3d53bb09U, 0x3dd90eed3e2dc71dU,
  0xbca54870bd99ecbbU, 0xbdc27a6cbe65cf3aU, 0xbc5be6fdbd9e2b8aU, 0xbb2e1302ba2174d5U,
  0x3c38af9bbea3d284U, 0xbe52e9b93de46788U, 0xbd049c26be17cb5bU, 0x3cf60202bd146e3bU,
  0xbe08e226bd983431U, 0x3ddd805a3d9bd496U, 0xbe5944ee3e38de46U, 0xbddb41763c24844fU,
  0x3c5e57cc3ca5ec20U, 0xbddce7e5bd91c1b1U, 0x3dfc44e13de2ce62U, 0xbe31a0d73dade6abU,
  0xbd4bd2b0bd2d887aU, 0xbccbe3363e654839U, 0x3bfec8713db9c53cU, 0xbe3c296b3c21bd94U,
  0xbdc949fc3d47d210U, 0xbdf8cc1d3df23842U, 0x3d79a8b1b9bf7343U, 0xbce6e8e8bc9900a9U,
  0x3e7ec464bf6a3b1cU, 0xbcbf6c833e008b7fU, 0xbf3eafb23f0442c5U, 0xbd1b01debef122d7U,
  0x3f1e616a3e56b755U, 0xbddff948bdc98c31U, 0x3c86aadfbf0e897cU, 0x3c605f843e380a8cU,
  0xbe5d4603be165f76U, 0xbcc060dabdfc9339U, 0xbd3cb6673d2445e6U, 0x3de7f99c3d539240U,
  0x3cde176ebe0bb356U, 0x3d1a7b803c0d8982U, 0xbcd4f594be195a49U, 0xbcc66a373e0dff5aU,
  0xbcf1bbd63d4deedfU, 0x3e2e9a7bbd2a3d1aU, 0x3d960598bddc9368U, 0x3e05ea523d3afdbfU,
  0x3dda3110bcb7978cU, 0xbd191af7bc6c4496U, 0x3d8a846b3d99c438U, 0xbd75808a3d4c48beU,
  0xbd14fd933d516a6dU, 0xbdac2e5e3cbce2efU, 0xbd1a1174ba5acb32U, 0x3d175aa6be08fa1bU,
  0xbd251879b86ecb4cU, 0x3ce20786bcab2ed1U, 0xbc84331fbd4ad062U, 0x3e041330bd576b6bU,
  0xbe785360bbc7257aU, 0xbd40472dbd5643e9U, 0xbd6af59d3d68c892U, 0x3c1aa8be3d4a24c0U,
  0xbdffb5b8bcf35ab0U, 0x3bc558a0bdba3aecU, 0xbdc3ee09bd196514U, 0xbd4e41d5bc5fcdbaU,
  0xbc3cb28ebd70f673U, 0x3cd884e63d0878e4U, 0x3e0c07413dd9462dU, 0xbd07ba54bd662d78U,
  0x3dbed8efbd1563c4U, 0xbd776d643cc12cc6U, 0xbd5641b53d4f0aa7U, 0xbd971a293e0548f5U,
  0xbda093563e1881feU, 0xbd87663cbda3fc97U, 0xbcd3502cbbe76a84U, 0xbd01494cbd8a7172U,
  0xb9c73e493dbff694U, 0xbd18b07cbdbbfe77U, 0x3c919fdb3e20d92bU, 0x3c725a2d3caf8ba5U,
  0x3d22b46fbc4454c8U, 0xbdde0465bd84158dU, 0x3c95d448be2a1836U, 0x3e4163113d52b296U,
  0xbdb493133da82da0U, 0x3d805c14bcb65072U, 0x3ca19864bd0a4bcfU, 0x3d13588e3d5e9573U,
  0xbc6289563e015e5cU, 0x3e000f7c3c1810acU, 0xbd27e85cbe34a8eeU, 0x3e3d17233aecbfb1U,
  0xbdcaf729bd69f5f7U, 0x3cd6efcbbd881916U, 0xbd84a641bc800623U, 0xbe2dc72abe16711aU,
  0x3caca2b139f8b7b3U, 0x3f05c7adbf414aa6U, 0xbda2087bbf06e213U, 0xbf5bf56abea57037U,
  0x3cd68d733ea1cb9fU, 0x3f3ef4e13f508c48U, 0xbb1ff1ebbf153171U, 0x3f10bfeebf34e746U,
  0xbdf46f65befce752U, 0x3e339e9fbdfbb59bU, 0xbd3370f7bde409edU, 0xbe0871053e43a496U,
  0xbdb0c3273d3e3c5aU, 0x3dfea1f03d744cd8U, 0x3dbaac1f3d3e1f7fU, 0x3d5182a93c822e4aU,
  0xbb9d0725bdf9f979U, 0x3cd3a10bbdddbb3bU, 0x3df27122be19c0b0U, 0x3d9ea1ed3d026f07U,
  0x3c7cc0c8be47e343U, 0xbda699723ce6d622U, 0xbdf46a84bb82317eU, 0xbd95d51d3cc6f310U,
  0x3db32db3bd0a7d97U, 0x3d28a11c3c64b0f8U, 0x3c1d9577bd923025U, 0xba20633dbcf65cbcU,
  0x3e049b6dbe351960U, 0x3dcddda43de6cca0U, 0x3e000f64bddb8a54U, 0xbb29a5273d399051U,
  0xbd8b9bc63e2c4947U, 0x3e35f7eabddb8914U, 0xbdef8957bdb53fdfU, 0x3d8f1db2bdd9d0cbU,
  0xbd84fc1d3d019969U, 0xbdf29648bde5f797U, 0x3bafbc68bd896b29U, 0x3d3a5daf3d99fb0fU,
  0xbd8c4943be0579ccU, 0x3dd7b7543e1e4772U, 0xbd9201e0bd3181caU, 0x3c2f7944bd6e1640U,
  0x3db90a9e3dc24604U, 0xbde923b1bdf7e72aU, 0x3e26c53e3d882b3eU, 0x3c74c33ebded3e3dU,
  0xbc5135643d86b7e5U, 0x3d825f33bd8ac786U, 0xbd97ffebbdc010e3U, 0xbbaee178bccffc07U,
  0xbd4aed67be063cc2U, 0xbe15e3d4be9f0cbcU, 0xbdabe253bd19ba0eU, 0xbc39ee323cc9567eU,
  0xbcff8a7bbda803b2U, 0x3dda02be3c8780efU, 0x3e0bbc5fbd88652dU, 0xbce798803e0a1cb9U,
  0x3db947273b9fbcafU, 0xbc82fc57bd5f795cU, 0xbc91c4683e17778cU, 0xbd2a427cbd57df7dU,
  0x3de85068bcac2708U, 0xbda055e33d7ce4c0U, 0x3cdc11aabd558f06U, 0x3926ebc13e330b4bU,
  0xbdbc35fbbd1b839eU, 0x3c8197723e07b1e4U, 0x3d52944bbe142751U, 0xbd2a28163db99d4bU,
  0x3d682e923d084281U, 0xbb39f6393dc60edcU, 0x3f1379b1be4fe919U, 0xbc9961533e4bee65U,
  0xbec47da63e1ae2d0U, 0xbd6a8c723c325a82U, 0x3ea86d353efeb636U, 0xbc00ef6fbeabb2afU,
  0x3ec6fe95be68c8a6U, 0xba012a803c10ea18U, 0xbe504fb6bbf6f5f0U, 0x3e381db93d69a714U,
  0xbd371089bdb56266U, 0xbdabeb1c3d667c39U, 0xbd5e32983e5c1f36U, 0xbda474afbd17b056U,
  0x3dbdc1c73e35384eU, 0xbe961647bb241891U, 0xbd09f4313cc0a29bU, 0x3dbce5e5bd9cfe37U,
  0x3c6336f63d82b6b1U, 0x3dc546ae3db3c2a1U, 0xbdbe3995bdd90f4bU, 0xbdf09823bda11f07U,
  0xbd40112ebd189295U, 0xbe2521ca3e2bfcd2U, 0xbe0517833e77d67fU, 0xbe29ee8b3df227e7U,
  0xbe0ee17fbe4f73a7U, 0x3cebeec13e81dd50U, 0x3ca3eee0bcd713ecU, 0x3c89ca023e0b2f01U,
  0x3cee30df3e3781f2U, 0xbcb50ca23cef26aeU, 0x3db7e5653c938e9bU, 0xbde52c0abcb9f222U,
  0x3a56d55f3ba0055cU, 0xbd50023e3dca5205U, 0xbe2b3e00be68e306U, 0x3c8cd269bdc44034U,
  0x3e18c2533e174404U, 0xbd87a618bcdb746aU, 0x3dab7547bd7fe93aU, 0x3cb6db13bc7c5e12U,
  0x3dbcf21c3d854795U, 0x3d02230e3d1d7992U, 0xbb9aef51bd20eb1bU, 0xbe2c90713c0a209cU,
  0xbe5f1a973c91fb7aU, 0xbe4e6f8f3c82ea24U, 0x3debd6503cfd849cU, 0xbe4296d0be14c664U,
  0x3dd53b7fbddcedf2U, 0x3ddaf788bd9dd8f4U, 0x3e05f7033e5bb118U, 0x3dad51693d30021fU,
  0xbca377c93d18474aU, 0x3d48c13abd2367caU, 0x3bf3e57cbdef72a3U, 0xbd90e141bc7215e9U,
  0x3e66e11cbea27e0fU, 0xbdeaeab4be437bceU, 0x3daac1643e09a63cU, 0xbcf7573f3cd3d048U,
  0xbceef00e3e6b69e6U, 0x3da750cebc67f146U, 0xbe20ae60bc49783eU, 0x3c4f1ce23d570439U,
  0xbcf01756bd47f0e0U, 0xbda54e1c3dbc8e40U, 0x3d85ae2f3d6e94beU, 0x3e05ba38be42415cU,
  0xbd52ee303dffd1a5U, 0x3ea714edbc717198U, 0xbbd724c4bdd21aacU, 0x3e3d4a2d3f6d1b35U,
  0x3dc430f83e954c57U, 0x3f3261043e800debU, 0xbd007a27be7c71d1U, 0xbf0dcebe3ea6ae28U,
  0x3da294d6be9a352eU, 0x3e0548383f1f4cb6U, 0xbb8caac93dcc55acU, 0xbe59f5873d963492U,
  0x3d03e92cbd92c097U, 0xbba75dc83da07eacU, 0x3d4759443e44bb6eU, 0x3d958ee9bc329179U,
