/**
  ******************************************************************************
  * @file    network_data.c
  * @author  AST Embedded Analytics Research Platform
  * @date    2025-07-04T22:41:20+0200
  * @brief   AI Tool Automatic Code Generator for Embedded NN computing
  ******************************************************************************
  * Copyright (c) 2025 STMicroelectronics.
  * All rights reserved.
  *
  * This software is licensed under terms that can be found in the LICENSE file
  * in the root directory of this software component.
  * If no LICENSE file comes with this software, it is provided AS-IS.
  ******************************************************************************
  */

#include "network_data.h"
STAI_ALIGNED(8)
const uint64_t g_network_weights_array[6914] = {
  0x3c39c3fe3db0c410U, 0x3dd8049c3f339d01U, 0xbe2d0bfb3ec0accdU, 0x3d091869bf0c7b60U,
  0x3deb5d6bbe3e8fbfU, 0xbcd5009e3e94e895U, 0xbc462838bd3f514fU, 0x3c98fd383f19ca24U,
  0xbdaa88833d14a6c3U, 0x3d58a233baf512a8U, 0xbd8cfc5bbc633fb2U, 0x3cf130bbbd1a6141U,
  0x3da8915ebd9137f3U, 0xbe06872bbd8f67f9U, 0xbdd8782cbd5e9cd7U, 0xbd9c645cbba472aeU,
  0x3e39befd3de4757fU, 0x3e516a05be3f23aaU, 0x3dd474763d8d1a23U, 0xbc356a44bcdf4086U,
  0x3db9af373d3dfb7cU, 0x3cb345cabbe3f449U, 0x3e0700b03d4cb048U, 0x3d973b5f3e011632U,
  0xbdce90abbcc20f42U, 0xbbe09f453cc6d52fU, 0x3b191a7dbe2a5271U, 0x3e1396943daf4bc9U,
  0xbd35ef443d8c4d35U, 0xbc0f31153dbf542aU, 0xbdd017183c71ba2fU, 0x3d091ba0bda2ef8bU,
  0x3db06fefbc93b555U, 0xbd639ccc3e0e580bU, 0xbe25a039bdb4568fU, 0xbcdb60413c9a3764U,
  0x3da2fa773e4c79fdU, 0xbd65bf7dbdf7d494U, 0x3dc6c2dcbdac2f21U, 0x3dee7ba83d7d46abU,
  0xbcee3b12bdc0fd2eU, 0xbe17de21bccfac15U, 0x3d3dd9d63ded54c6U, 0xbdd5ece23cc9824bU,
  0x3c0ddd713d2fb2b1U, 0x3cc118d33d997739U, 0x3cdcdf6bbcc20972U, 0xbc14f752be3ae46bU,
  0xbe012d7b3db92c80U, 0xbd466f1fbd3cc129U, 0x3db185b5bdd1209eU, 0xbceb69e9bc4685e3U,
  0xbdc088f2bdb1f3aeU, 0xbd45b76ebd1e5049U, 0xbdf5c5cfbe17663dU, 0xbd94f2563e29f12bU,
  0xbe1753263d635e5bU, 0xbce56112bce8e365U, 0xbe12d5cd3cd108f7U, 0x3ce3a316bded0c50U,
  0xbcfe97fcbd2506dcU, 0xbd9f54953c8dbc2bU, 0xbd2a323f3c1a1e88U, 0xbe0f22e0bc107085U,
  0xbca092a23d4c0884U, 0xbcd8fde63e02375fU, 0x3e2ba4f1bd9c492cU, 0xbd858402bdefc95cU,
  0xbe13003cbe3cbb6cU, 0xbd80dfb3bd21eb60U, 0xbdc548d43c4fa60cU, 0xbd947c2d3d83c9ebU,
  0x3dac05eabde057b1U, 0xbdf78c813e80dd4aU, 0xbd2d9dcd3f25bc0fU, 0x3edf93e83f0e0475U,
  0x3cd79169bf497328U, 0xbea02c60be5d402bU, 0x3d66d78a3e85f75bU, 0xbe63c8a03cb500b6U,
  0x3cd9096b3ef20e70U, 0xbead531c3d3d4d5cU, 0xbd42124cbced2ed4U, 0x3dc45a3e3d44f8a2U,
  0xbd82d4be3dc9205aU, 0xbdeae86f3cb539deU, 0xbe597dbfbd01a58dU, 0xbe1a40dc3d50fa54U,
  0x3e1034c8be131488U, 0xbd9ab9e1bcae2c15U, 0x3d8a569dbd85d139U, 0xbdc5ce063ddbb0a4U,
  0xbd09ac06bc4c7c93U, 0xbdb9b3f6bd24cffaU, 0xbc9c3a8c3d792a9dU, 0xbbb85e2cbbbcb433U,
  0x3d11e8003e124496U, 0xbc4986f1be474f21U, 0xbbe86cecbce19bdfU, 0x3dc676b13e4b7e81U,
  0x3d727aa63c337ae9U, 0xbda806be3c22e378U, 0x3a572555bcd22a6aU, 0xbcff42443d0154e0U,
  0x3dca181b3ce52b65U, 0xbd1fb7033a039382U, 0xbde2b003bb0f3f79U, 0xbd80b858bd0dde68U,
  0x3d08a1833d76be53U, 0xbc1fa8c7bd1b2f92U, 0x3a9fd24ebe58266aU, 0x3d664bd2be0308daU,
  0x3b871f8bbe22e442U, 0x3d7f204d3e2c6475U, 0xbd83be12bdac0721U, 0x3da57a5bbe33c3d8U,
  0x3e4910efbd4abb98U, 0xbdb6b1533d889aabU, 0xbbb0a9b6be0b7890U, 0x3dd2e86e3c0895c4U,
  0xbbdea6c03e00999dU, 0xbda402fcbcdfda3dU, 0x3d0880cebdeec6e0U, 0x3e01ac60be358106U,
  0x3dcf04fd3db770a9U, 0x3ca906f6bd828f04U, 0xbd712a84bde627fbU, 0xbc2d83acbda10836U,
  0x3c81d7df3d82b6c7U, 0x389445a73dc8c249U, 0xbd0780223c7489d9U, 0x3d9eaaa9bd9edaabU,
  0x3c26af8b3d88e650U, 0x3e2dd8c1bd83674cU, 0xbdb14a843daf7d68U, 0xbe11fde5bd056b62U,
  0xbb290e0f3da5df2dU, 0xbc20716e3d9bac6bU, 0x3ccc9c73be27a2abU, 0xbe50c7cf3d9ddbe6U,
  0x3dcbad863d88308cU, 0xbe075a90bdd26994U, 0xbe23efdfbd16494cU, 0x3e458b0ebe403dfeU,
  0xbc8ddcd53c23bd65U, 0xbd8cb1a2bd1d4b39U, 0xbf43325dbf3a5205U, 0x3c3492543d919061U,
  0xbf3623e83e9a3defU, 0x3cbc9e39bedf8b0fU, 0x3f045739bf00af66U, 0xb93654fc3ef747abU,
  0xbed0d17cbf1008acU, 0x3dbddea0be95c2bdU, 0xbe3a6e1bbd5f285dU, 0x3e3be3b63a46c547U,
  0xbde1e40e3d400983U, 0x3dad7086bd963960U, 0x3dedca323d8bad31U, 0xbd0dc6e33d674780U,
  0xbd5494f9bd0d65c2U, 0x3d9bee6ebdbad397U, 0xbde54693bda2d6a0U, 0xbe405469bd9a5b33U,
  0x3dba2aa5bdd8595dU, 0xbc10b4973df9bca7U, 0xbe0cd37abdd5a91cU, 0xbcbd57803a14710cU,
  0x3b9ce8e93d5067f1U, 0xbdbc353ebde96c4dU, 0xbceb78b63d7e640eU, 0xbd26f5223d89b6fcU,
  0xbd2d33afbd9210fdU, 0xbd14a5d73e5db1b0U, 0x3d1d7a3fbd10ad26U, 0x3d52e2453d19dd8dU,
  0x3def30a9bde177fdU, 0xbd9f874bbe788df2U, 0x3db6da203e085b9aU, 0x3cac3db0bce64ce2U,
  0x3d17213e3d4e7291U, 0x3ce61c12be26462fU, 0x3e094c5f3d6b5f35U, 0xbd43873fbd67ee94U,
  0xbdd20b99bd4dd389U, 0x3c20cb8e3dc89406U, 0x3d47b5c4bcbe73a5U, 0xbc709850be245b07U,
  0xbc0ba160be15f98aU, 0x3da1d61b3d04297dU, 0xbd6204293baa4681U, 0x3d64e5653e77f81eU,
  0x3d5f020b3e1037a9U, 0xbc5024d4bd380107U, 0xbdb681653dab0e20U, 0x3dbeb2cf3a3f3239U,
  0xbd16fdf1bdc0d2b8U, 0xbe1117223d437e01U, 0x3d4c20163d0fc486U, 0xbcfef7f23d3a8054U,
  0x3e5d1f623d3eb1b9U, 0x3d798d3b3d9c7c7bU, 0xbe06c49c3d954cabU, 0xbd7c407ebdb17ebfU,
  0xbd60162abd29453aU, 0xbda633483e1d5df1U, 0x3d6924163df9385dU, 0xbdb47202bc3527b5U,
  0x3b9485163dda20c8U, 0xbddbf5acbb6684ffU, 0xbdccd07ebda98946U, 0x3e0faf0fbe398492U,
  0x3d1171c33c411134U, 0x3d9f1f793c93f288U, 0xbd11f88dbe09d45fU, 0xbc0546033e2ecea3U,
  0x3e0c5007bbe485f7U, 0x3e668e21bdd51233U, 0xbd8a06183c86adf3U, 0xbf15c2e73ddd065eU,
  0x3dcb01e3bf2ec0eaU, 0x3ee26979be36715bU, 0xbc9418e83e9a2604U, 0xbe90850bbf4385f8U,
  0xbc12a51f3f4714ffU, 0xbe85d7333e2d1315U, 0x3d990dc8bf1f1171U, 0x3d6cc75a3d772b68U,
  0x3dc203c73d35463dU, 0xbd93d17c3d19cdb7U, 0x3c6420c03dcdee58U, 0xbd3e93e53d7ff733U,
  0xbde67bbc3d82736eU, 0xbb19c2e03c8ac86dU, 0x3e240c5ebbd00eacU, 0x3c8bce6f3dba06c1U,
  0xbd14b4f73d634580U, 0x3daa6392bca0ee85U, 0xbde69900bdf551e9U, 0x3ae3fbccbd825396U,
  0x3d41b73f3dbe5770U, 0x3dba8cecbd5a6c0cU, 0xbdc4e552bd9b22cbU, 0xbd698f823d3afb61U,
  0x3d58c9933dc69aaeU, 0xbcf4cb443a599c4bU, 0x3dccfb5ebcf1aa2cU, 0xbd2bc52c3d393e3eU,
  0x3dd32a973d0ddae8U, 0xbdf8194bbe1f9c66U, 0xbbeae7373d586006U, 0x3a051ad13c3a1442U,
  0x3dde3e17bd2afcf1U, 0x3be69d52bd177977U, 0x3d0683dc3c1ce283U, 0xbd2048f43d0f9205U,
  0xbc8fb517bd0a05afU, 0xbc3748c23dba7ba6U, 0x3c703fee3df7db9bU, 0x3d8353bebce40b5cU,
  0x3d8b33293ceddea8U, 0x3e2bad5b3aa9b583U, 0xbb06f02f3dbae74fU, 0x3d83a790bb599d28U,
  0x3d11fffb3d74fe4aU, 0xbda64e743d6ad055U, 0x3d7adc0a3dc250e9U, 0xbca4d2b43dfbfa8cU,
  0x3c2998e4bcb4c40cU, 0x3d0a5d423cd5beaaU, 0x3c2c06a6bca4069cU, 0x3d34ecc8bd70e55dU,
  0xbb2a03433d58f976U, 0x3dc6ea2a3ce75f4bU, 0xbdbaa53e3e101f30U, 0x3e57ccd0bda2d477U,
  0x3da6d6bcbb20d6daU, 0xbd8ed348bdf8cef6U, 0x3d8116a53c9f513eU, 0x3dcf53893e16e4f7U,
  0x3d873bf9bd499914U, 0xbd2042afbd0dba0bU, 0x3c83fafebd629db5U, 0xbd455e10bdc0983dU,
  0xbd4abfc5be0bcca6U, 0xbda11494bd5c9b12U, 0x3da776babd4297d6U, 0xbca461883e6eebecU,
  0x3b5827da3c8cca12U, 0xbcb0bb5abc85df14U, 0xbcc1a3be3e051f2fU, 0x3e1453f93d17b54bU,
  0x3ef58c5f3ea6d505U, 0x3d70f97b3f140a96U, 0x3ebf3e5fbf0669fdU, 0x3dd6518d3f2cba69U,
  0xbe8e89fd3ed0cf5eU, 0x3d042481bef811d3U, 0x3e20518c3da6ac04U, 0x3cb7c2693efdddbeU,
  0x3e87bb0cbc2d74efU, 0xbe1a2b2e3b54c4a6U, 0xbc1a5051be008409U, 0xbcef1e5bbe0377c0U,
  0x3d0aa11b3d013097U, 0xbd24ca9e3e454abfU, 0x3d4b71d3bd205056U, 0x3e1b57973de05d71U,
  0xbdfc2b743e03f9adU, 0x3d7901a4bd4cdf71U, 0x3d54dbacbb7c30f4U, 0xbce22a89bcce1941U,
  0xbdcb9b213c5913ffU, 0x3d9a7eddbcbef6a4U, 0x3d1d0177bd0c0629U, 0xbbc9f7e9bc17e3d5U,
  0x3da1e8e03d69cb1bU, 0xbd6d8fc7bd1e8c06U, 0xbdac41463e0dd9f1U, 0x3d600483be0fc98fU,
  0xbd1bb5db3dfe2075U, 0x3e360e9d3df09135U, 0x3da65eacbdb33f14U, 0xbc57abf83d14d54dU,
  0xbcd55c97be5abf34U, 0xbdca900cbd24fc28U, 0x3dba84f23db05dbcU, 0x3deaf07e3cae9544U,
  0x3cf470c4bd8ba8abU, 0x3d3405da3c3b94d2U, 0x3d85decabd02e315U, 0xbd2e9dc9bd5a8db4U,
  0xbda011f23d542142U, 0xbd4d4f1dbdc156e2U, 0xbda984c9bd22f942U, 0x3dd1af05bd814aafU,
  0x3e095b583e4cefb0U, 0xbd5e1a7abd43dfe7U, 0xbd96ec2f3cfb51c2U, 0x3c7c0eaebd0d8356U,
  0x3cee9c70bdbc111fU, 0xbc6c5f59bc5d97d3U, 0x3d942964bcbc7b2cU, 0xbdd6b3e0bd9bd902U,
  0xbd094ea6be1c86e8U, 0x3d346efdbd9ce87aU, 0xbd31c3633d1c9439U, 0xbd82f4913e0d43feU,
  0x3dadcd22bda260c8U, 0xbd1d5cdbbe180902U, 0xbe0792553d62f4d4U, 0xbe028cefbd6e0ce2U,
  0xbc42f0f73cd6c05fU, 0x3b36930abd0ef72eU, 0xbd04d985bd97be21U, 0x3d47a8bd3e032ca1U,
  0xbe3162d13e17365cU, 0x3c3ba74a3cc12078U, 0xbe3d24eb3db331f5U, 0xbda14cf7bdb53abaU,
  0xbdcb560c3c5593a8U, 0xbd107cba3c1e40bbU, 0x3c9c9eef3c4f378aU, 0xbe4900cf3e0cc984U,
  0xbdbc53563c3cd93fU, 0x3edf74a63dd00adbU, 0x3d2978dfbf2a722eU, 0xbb13d61c3f311983U,
  0xbd8879cebf673662U, 0x3d89cb973f274e52U, 0xbb67afb7bf123876U, 0x3f06fd943e27bfc8U,
  0xbdcf3e5bbf160625U, 0xbe9fc7b63d52d910U, 0x3cc22334bdac83c2U, 0x3dd571c3bd32d1d1U,
  0xbcd8cb59bdbca28eU, 0xbe4d89053c8b9fffU, 0x3e3a3d7abd649c26U, 0x3db50eecbdb12dfeU,
  0xbd4aaf733e1a5919U, 0xbd6b182bbdf451f7U, 0x3b49b42abdd68661U, 0xbd62d9673dacfc5fU,
  0x3e82771ebdaac01cU, 0x3da27448bc41d87eU, 0x3cbf38b2bcd169ceU, 0xbe2c200dbd91c54bU,
  0xbd1d5940be362c8dU, 0x3d9a52a5bcb256b2U, 0xbdb3a2e7bdba7e1aU, 0xbc8b2058bcb359ecU,
  0xbdf8258a3b1acfa6U, 0x3c4dc8cf3d552a2bU, 0x3dcbf4d13c95be24U, 0x3d20f5a83d805633U,
  0x3db3c796bc96cff3U, 0xbe1bffc9bcd36d2fU, 0xbba5f6b93c46bcc0U, 0xbc2c8d78be1fc2d7U,
  0xbc56131ebd94dd0cU, 0xbd0097583d9957ceU, 0xbda59b5d3dd18775U, 0xbc3fdd7dbc4274e5U,
  0xbd1b97b4bcb3f622U, 0x3de1f160bc091392U, 0xbc60be493df9887dU, 0xbdb21aa93da7d0dcU,
  0x3d3c36e9bcc78916U, 0x3ca5098abd9ac6e0U, 0x3de02f6b3e334f74U, 0x3d09ac05bd8efea8U,
  0xbda203adbe16c82dU, 0xbd129d7e3de2ba44U, 0x3dd46efd3d6f4af3U, 0x3de38a3bbd21d67aU,
  0x3bc94270bd3bfff5U, 0x3d58d217bd5033edU, 0x3d3f4400be6a7677U, 0x3be75d983dd872c3U,
  0xbe0945e43c0e3380U, 0xbe0d0eebbe4c8a7eU, 0x3b4bcdbe3cd52df9U, 0x3dae93413d4855d2U,
  0x3c8e5c983dd2cd44U, 0xbb914f29bcbac1feU, 0x3d84f1eebcc36f01U, 0xbc00ccfcbd873905U,
  0xbd3cd33bbdaefc94U, 0x3dbf81a73d697b9fU, 0x3dd07f033e20ac01U, 0x3d7620d5bd20c6feU,
  0x3d267d9abe01c855U, 0x3e9681ee3e1f9d86U, 0xbe00622c3dd7029dU, 0x3e4376ad3d28ce7bU,
  0x3d870bf1bd0b551fU, 0x3bfbc7a6bd90ad7cU, 0x3f1b4e84bf0c07f8U, 0xbce88119bd3b495aU,
  0xbf28c5063d83477fU, 0x3d3cb65f3dfc37d2U, 0x3f12ced93f32149bU, 0xbd85be28bf0e8164U,
  0x3ea2a91cbf087dd4U, 0xbd8ab2eabd6d036bU, 0x3c1bf704bd765ec3U, 0x3dc9325d3d2ec216U,
  0xbd9ccdfa3c13fd94U, 0xbd444e0fbb81a1eaU, 0x3dcdc6823e0ac933U, 0x3dd1494e3e154052U,
  0x3cd9f3d8bdad2c9fU, 0x3d6e8620bd6714f6U, 0x3d28ea05bc5b398cU, 0x3e47de983cd0375fU,
  0x3dd12e5a3df462e7U, 0xbd7211693df7b72cU, 0x3e00df893da78f5dU, 0x3d194cbebc8cca24U,
  0xbd8fd9fbbb4df7c2U, 0x3abe811cbda51585U, 0x3c1440b23d4930a4U, 0x3dd752c3bd08147aU,
  0x3cbdc5bd3d97ed75U, 0xbd8bd6a73d0c19b6U, 0xbd8e2170be0dbbfbU, 0xbdf0a69abd2ca0c6U,
  0x3d48535dbdf54488U, 0xbde703053d7c9a25U, 0xbd2d82aabe2b3829U, 0xbda298b73da6f0d9U,
  0xbcf4d10cbd62686cU, 0xbe08d81abcea3dd1U, 0xbce4552ebd1328e8U, 0xbd3a856abdbf9a58U,
  0x3d17212f3e1e3351U, 0x3cb23f9e3d1e688eU, 0xbd0921d4bda859d4U, 0x3d20f5103e039518U,
  0xbd8ec0a8bddeaa96U, 0xbdb4512bbe12aef7U, 0x3d0f2d9fbc94fe4aU, 0x3da054553d710c67U,
  0xbcc7a7f4bd28bbb8U, 0x3de861623c4aec84U, 0x3d342b0f3debf83eU, 0xbd81798a3df97f54U,
  0x3d85e0f2bdc983b7U, 0x3e6740ac3de739baU, 0xbcbe967cbcef43bdU, 0x3e014f77bc8f367eU,
  0x3d1bce7cbd9e5329U, 0xbde530f6bd3fe139U, 0x3d05b2dc3d863d57U, 0x3d7411603c3d1c39U,
  0xbd964fd73c4c02a6U, 0xbe0309b03d9b935fU, 0x3d7228613cc92321U, 0x3ac9bb4bbcf013bfU,
  0x3d2476d03d96f114U, 0x3c273d82bddb386aU, 0xbd86e999bd59955dU, 0xbc4b00d8bda6dad1U,
  0xbdb5bc3fbdaa3ef8U, 0xbd84f2d23dc40cd5U, 0x3d39ffb4bd816661U, 0x3e0c49893d290a2dU,
  0x3bd2410abda9a078U, 0xbc9307973caa2979U, 0xbdb5ccf43dd1f404U, 0x3d2f1be4bf1d6006U,
  0xbc83e9643e4faa03U, 0xbf4a86f3bdfb6349U, 0xbd600c423e5a162eU, 0x3ef8d04cbdfcee51U,
  0xbe263af43dd2c58aU, 0x3df5800abeb1d88cU, 0xbcea706b3e776980U, 0x3d2692ccbd64a845U,
  0x3dadaf03bde97217U, 0x3d996a11bb4d011fU, 0xbde8a7aa3c3ddd08U, 0x3e1608e7bce456a8U,
  0xbc270e493b9fcf4cU, 0xbc468290bc06c649U, 0xbcdf89a93cca609bU, 0x3d4d41233d4245deU,
  0x3d8ef7bcbdbfea35U, 0x3dc13443bd94e2c0U, 0x3de6d5c6bdf7f60cU, 0x3de1af4e3dc3a8caU,
  0xbd0808dcbe00a517U, 0xbd08d923bdff66d2U, 0x3e0246ca3cd9918aU, 0x3dd84a733da42eedU,
  0x3dff803bbc7fd286U, 0x3df5f1dfbe076a73U, 0x3dc23077be202a45U, 0x3da571edbdecb5d8U,
  0xbd71e781bd21d4f9U, 0xbd225c9b3d964be8U, 0x3d33c0e0bc10b005U, 0x3c9ccd653df4d250U,
  0xbd1094e73a962530U, 0x3e5db173bd7cee2cU, 0x3e1e0b01be16177fU, 0x3d842b863dfe55aaU,
  0x3d4f80193c5e6d1eU, 0x3b9ed35f3eaa0f17U, 0x3dde4fa3bc6e9386U, 0x3db52739bd59f8fdU,
  0x3d940cf3bdabddd7U, 0x3db7f7b33d2d41ddU, 0x3db1a7013ddf93c4U, 0xbd062d1dbd8ad696U,
  0xbde70756bd8a0b4cU, 0xbc8400ffbd821b15U, 0x3dcbc0c8bdc2a9a7U, 0x3d8e04933c8aba42U,
  0xbe0e5af3be1ab1d9U, 0x3cd705603db3a49fU, 0xbd9199a53e086ebcU, 0xbe0671513ddc324dU,
  0x3dc1d1a83e13fb94U, 0x3cb11c6eba99bd09U, 0xbcd83194bd075e61U, 0xbda1477b3e449b27U,
  0x3de40786bd0fc228U, 0xbd0b1b8abd904a10U, 0xbc9302a3bd02fc47U, 0x3d1d137d3d938a53U,
  0xbb7c5399bda7374cU, 0xbd9b1c08bd6b0f17U, 0x3d0ceee3bd22c70aU, 0x3d00c9ecbdf1e632U,
  0x3c85a8e93cfc72d9U, 0xbdac28b6bd176ed6U, 0xbd1466c03e1f1284U, 0x3e0f7b49bdf320b0U,
  0x3d982d7d3d4b4aa2U, 0x3d94cbb53d878c37U, 0x3c6d5887bda844ccU, 0x3c9548183e03c852U,
  0x3f5f2f74be18438aU, 0x3c929e6cbe1b7857U, 0xbe84fa7b3e922970U, 0x3dac23ffbea2dfbfU,
  0x3e7afeeb3f900ddeU, 0x3d5edd69bf5d3c4cU, 0x3f1d8436bd8ae929U, 0xbe1aacc4beae4dd1U,
  0xbe162166bd71ea74U, 0x3dce18bf3d3c1d4bU, 0xbc7da548bbea50baU, 0x3cf0bd13bdae3c71U,
  0x3d2e5ef13e72ffb4U, 0xbe3eeaacbd8af526U, 0xbcea5f1cbd568fa3U, 0xbdfd5a72bdeb669fU,
  0x3d89ef0ebd92bafeU, 0x3d9ea8dc3cb2f276U, 0x3d0190ecbb9a3863U, 0xbc8231723d4e8c04U,
  0x3df872d5bd24d580U, 0xbe829be43d36c748U, 0x3d92711c3dddfd4bU, 0x3e27b31a3c8372d7U,
  0xbd7dffab3d85ccd4U, 0xbdc5be373d91b4e0U, 0x3d5aa3b6be314c70U, 0xbbc756f93c2353f2U,
  0xbc7f5f21bda3aab1U, 0x3ddb17d43d05a4b9U, 0x3d0ad68e3cd299ceU, 0x3d6be8ca3d512185U,
  0xbdbf1170be1c0e3cU, 0xbd4c9bb53d5c44d4U, 0xbd7d6f633cadefe1U, 0xbccebcf03d37901fU,
  0xbcd1e33fbbf00480U, 0xbe0d5babbd910799U, 0xbe10573fbda6b90bU, 0xbc2d132dbe14f445U,
  0x3e445e1d3c552723U, 0xbc5f261dbd873ab0U, 0xbcc7fdb13c919cb9U, 0x3d2f987d3d86e74cU,
  0x3e14aa093d7e636aU, 0xbcdbe1763da5446bU, 0x3dcb077b3ba64cdaU, 0xbe171136bdcc6dfcU,
  0xbdac096d3def3e2cU, 0x3d0a77b4bd0425afU, 0x3c8ac1adbd031a79U, 0x3d6c36143d02138aU,
  0xbd4ddef4be0d6af3U, 0x3d54de33bcb90ae3U, 0x3caf1e833e09d1c8U, 0xbdbb68663e169739U,
  0xbc77188fbe08fcbcU, 0xbe23ea373ca18709U, 0x3db5bd1bbd1e7886U, 0xbdd2304f3dd89ac5U,
  0xbb6d10fb3cdd42e3U, 0x3e14c5063d474d55U, 0xbbad24663d310f4bU, 0x3e3ab969bcf41f0dU,
  0xbd56d0fdbe4efb0bU, 0xba104f2b3da9b481U, 0x3df445e23ca9fcf0U, 0xbd186421bdcd0855U,
  0x3da53be0bdfe58c9U, 0xbdcd65163c0315dfU, 0xbcedfa4b3cc5c1a4U, 0x3d7c19653ca945bdU,
  0x3dcecd9bbcbda445U, 0xbe37dd483ea93fa6U, 0xbbd17e56be565188U, 0x3f069dfd3effae45U,
  0x3c9704d4bf4a1088U, 0xbebd6f41beb18a4eU, 0xbd9076e83e3d6439U, 0xbd67b22e3e9678abU,
  0x3deab638be9e945aU, 0xbeb578d2bd646a4dU, 0x3d91ccf33de9c657U, 0x3d57a876be00dc9aU,
  0xbdec44083d554e69U, 0xbe0c87333d50efe3U, 0xbe8021fabd864fe2U, 0x3e1a29b63da58512U,
  0x3d8615a83c96ecdfU, 0xbe1dd176bdbfc184U, 0x3dc6738bbe34f497U, 0xbdbc48053e062656U,
  0x3bc03f0c3ddafa02U, 0xbcff37f4bd9a3e59U, 0x3e05c14fbde54ca0U, 0xbcbcf7263d4ac820U,
  0xbde700db3db13cc7U, 0x3d34ba6bbe2d7ef7U, 0xbe5c071e3e51bd82U, 0xbddb265e3e052cdfU,
  0x3dcfe0c73dcfc95bU, 0x3de124cd3dace960U, 0xbddff73f3e093598U, 0xbccd98cc3e5ff37dU,
  0xbca4ba233db486f1U, 0xbcc2b8023d8e005fU, 0xbd80d8e03d881998U, 0x3b35453f3b98c5afU,
  0x3e6decf33d99ab34U, 0xbc332e3e3d95cfbfU, 0x3d8429003c311aceU, 0xbe002057bdd8f142U,
  0xbcf0a7813e43524bU, 0x3e02a01d3db0b878U, 0x3cc70ae8bdbe15ecU, 0xbdd58bd8be253ca4U,
  0xbe060a8bbd9c29e3U, 0x3d0213753c2a9c5fU, 0xbce878bc3d815c44U, 0x3d23d30b3ce94db1U,
  0xbb098fefbd33f955U, 0xbc5c8251bce15b4cU, 0xbb7e1d56bc1c8d22U, 0xbd2d9f2b3d8b1036U,
  0xbdbfececbe15ab46U, 0x3de60d1dbd106fafU, 0x3da587073dbb0fd5U, 0x3c9efce3be14d7a3U,
  0xbe2a49253e226a05U, 0xbdf38224bde2fdf5U, 0x3d934610be2a84f2U, 0x3dfda0b53dd8f4a1U,
  0x3cf0c0b6bc7bcd04U, 0x3d92f757bc976b12U, 0x3c1bbe003df8c31eU, 0x3e1757d2bdc98a3aU,
  0x3dc998eebdd23adbU, 0xbe2c7ed7bd940970U, 0xbd1f9eedbdc6ec9fU, 0x3e283b073db25526U,
  0x3dbec3c9be14f718U, 0xbdccd4ef3c849d65U, 0x3e029e4e3d851769U, 0xbd858d133cfc6118U,
  0xbdcb1f3abd20bfa7U, 0x3d7506293bd5c96dU, 0xbe033985bf0cd73cU, 0xbc5a2a77bf191ce1U,
  0xbf2b6747be0a69f9U, 0xbcc48e293ec30123U, 0x3f0a5b9bbe080d9dU, 0xbb094caa3e1260ceU,
  0xbdd45adbbea44ebfU, 0x3cac63b4bf038535U, 0x3e331960bd9105eeU, 0x3c9a0a9a3d8d3250U,
  0xbc630f0dbde7fde7U, 0xbb96d4b3bda6b317U, 0xbd9c5cab3beff014U, 0x3e3d955a3d0f0405U,
  0x3dee9cba3a82cd83U, 0xbd8950a03d58a1a0U, 0xbd103bbbbd51a1f6U, 0xbe083babbd9dab87U,
  0xbce1c8a3bd562843U, 0xbd3debc63d2d8d95U, 0x3cb902353b3fb50bU, 0xbe14eeb53d3013fcU,
  0xbde7bd993d92dc22U, 0x3defd1683d8a2febU, 0xbafdab5e3d93ed6dU, 0x3d8018b03c6ddfc8U,
  0x3d68d9833daea983U, 0xbcc6d6e5bd355ebaU, 0x3d74e1763d0f1582U, 0x3c14ac373df4fccbU,
  0x3d979434bc1ec513U, 0x3dac60333dc36853U, 0x3d2b6f503cecbbd1U, 0x3b923a6bbdd477b2U,
  0x3dfa465d3bd5d8ffU, 0x3da70f903ca6be4eU, 0xbd9580bc3cddedceU, 0xbdcbbb913d93853bU,
  0xbc96317b3aedba4fU, 0xbd9b1f72bdc6dac3U, 0x3dae58eebd199a83U, 0x3e0b92623e14a560U,
  0x3d2f1e4d3d6a5cdaU, 0x3da84729bce2c110U, 0xbd2e2b10bcb87cf7U, 0x3cc02143bdc97f96U,
  0x3ddf53d83b96d082U, 0x3d65cd913cc5a9f6U, 0xbdd61d373caa9442U, 0xbdcc28b1bd304a82U,
  0x3c8eb8a3bc7e1802U, 0xbd39022e3e01bac2U, 0x3d941e553b95c9dfU, 0x3d4796f93c226249U,
  0x3b442864bc3e09a0U, 0x3b834d4dbc0bfabaU, 0xbcc8d9313bbd6906U, 0xbd92f0763d0900f8U,
  0x3c340965bcd6d462U, 0xbca10d4c3d34cb28U, 0x3d8ee8c73d432ed0U, 0x3dac1e1abdb7aebbU,
  0x3c6da7a73cad879dU, 0x3ca25eddbd44b1b9U, 0x3de6ae613c2997b2U, 0x3de671933cb0926eU,
  0xbc229f82bc29a045U, 0xbcb0158a3de597cfU, 0x3c4067b9bcda7f53U, 0x3d7dfdbfbd1fab3bU,
  0x3dd117ecbd24994fU, 0x3dff325a3c19d4c0U, 0x3c68eb7a3d17653fU, 0xbc92c8f93f4ee5fbU,
  0x3ccab74cbf2a15d7U, 0x3f842e14be66283dU, 0xbdaee1ed3ddbf7a9U, 0xbf71bc873e03d7d9U,
  0xb9aa7aad3bcad33cU, 0x3d27c4f63f2c07e2U, 0xbd1cd1bbbf2631daU, 0x3e3c26e83e064aeaU,
  0xbd3dd0a23d685a1fU, 0xbd986a443d6e33a0U, 0x3dbe68a33dd9a96dU, 0x3cda09e03d58eb22U,
  0x3d8267cc3c6b8e2dU, 0x3da9e6cdbd9146feU, 0x3cd92bbcbde8f418U, 0x3dc0ea7ebc5856e1U,
  0x3ce14fcd3dc4d42dU, 0x3c7a5889bd2b4d9dU, 0xbc09fc06be391ae0U, 0xbdcd9a963d6caebeU,
  0xbc0a6fd9be2f8f03U, 0xbd80ffe33d2ce4a1U, 0xbcad3224bd5e227eU, 0xbd325a34be14ce17U,
  0xbda80e5fbca3b981U, 0xbc294be7bd2741f9U, 0x3c8bdba23ccf46d8U, 0xbcca3115bd547876U,
  0x3e0ee196bcc0c516U, 0x3d47b668be190316U, 0xbe02c0e9bd393ec7U, 0xbd38cd47bc365d46U,
  0x3dee0ef4bdb10138U, 0x3d8c42e03d663845U, 0xbd88e7edbc75eb3dU, 0xbd491b6e3cc4c3a1U,
  0xbd2793acbd634190U, 0x3d2847473da620a1U, 0x3dae50183ba1ce42U, 0x3d904aeebd54bc53U,
  0xbdc4698ebdb4906aU, 0xbd3c8714bcedc7b4U, 0x3dc6f9793d742eb0U, 0xbddc6aac3c747f10U,
  0x3d0eefce3ceea324U, 0x3d8c647abd93a327U, 0x3da848aabd30bbddU, 0xbdcf9691bc51b838U,
  0x3d65a4033d00654aU, 0xbd4454b93dd7eb17U, 0x3dc9e008be02c3faU, 0x3e092319bd8ffcbdU,
  0xbca34854bd08a66cU, 0xbbb1c155bca0f84fU, 0xbcbf62923e3601d3U, 0xbd026c90bd1feef8U,
  0x3db943e8be0882e9U, 0xbdbf5e35be06f288U, 0x3d16f0c0bd884562U, 0x3ce9c7933d5d9187U,
  0xbd0b0583bcbdc01fU, 0x3d6f7498bda252bcU, 0xbd4790023dc5f938U, 0x3cf2a565bcd22762U,
  0xbd7a85443d13f80aU, 0x3df64c4e3c6bd3c8U, 0xbdcbb8abbc0c4b16U, 0x3e3e3c72bd52ad4fU,
  0xbd3ee11f3dd483eaU, 0x3dc29b593ce848b1U, 0xbdd5352a3e02aef8U, 0x3d1d6c753df6a85fU,
  0x3e957f283e166426U, 0xbdcf74d2bed116b5U, 0x3ec479813f023a80U, 0x3d18b960bee42de3U,
  0xbefab30d3ef84e7bU, 0xbd405f3cbf0e4846U, 0x3e29826d3e54b2caU, 0x3bb56ca4bec2d3b2U,
  0x3d7863b53d04d29eU, 0xbd0059e23df40515U, 0xbdb73c1ebe0aa3e4U, 0xbd67efd13e16bd8bU,
  0x3c84889abd6ea42cU, 0x3d4cd1c4bc15407fU, 0xbdd38cc83c9de0a3U, 0xbd34d3e5bd28a9fbU,
  0xbd978cfdbd41de39U, 0x3d58adb93dee1349U, 0xbdf9918bbe056582U, 0xbd2eb46e3c69e960U,
  0x3d90742cbdb4c9beU, 0xbc32a60cbbd5dc99U, 0x3d66c5b4bc908f40U, 0xbd53a8cbbbd0a245U,
  0xbe12d6b7bd8473d1U, 0x3c247ffabdbca62fU, 0x3e0fd23a3d3de0aeU, 0xbc310b02bca83d20U,
  0xbe340dc73e00aedeU, 0xbbe07bc43e0f2a60U, 0xbd425a3ebe01e928U, 0xbc8ca67ebd93217cU,
  0xbe25265cbd3edb9cU, 0x3dfbcd66bb7f88efU, 0x3b36e83ebd72bd94U, 0xbe17f05cbd54e91eU,
  0xbdc17eb13da5b3dfU, 0xbcb707303bf6db94U, 0x3df5025fbdfd25f5U, 0x3cc081f23dca2954U,
  0xbb906a90bd14ddcbU, 0x3a9fa5d13d4c7d3fU, 0xbc8648c7be03c228U, 0xbe46c9c33e573406U,
  0x3da0477abd2e9546U, 0x3b1ee2183d7c2859U, 0x3e0a635cbd12ec13U, 0x3d8f393d3e062defU,
  0xbd884eb3bb5759e2U, 0xbd7991bcbc6edb25U, 0x3e11b0123c2712f2U, 0x3e71a9513da17eb1U,
  0x3c8092a5bd3e1d57U, 0xbdca2474bdd3313aU, 0x3c79cab3bd841111U, 0x3dc114d23e018086U,
  0x3e31261fbd847dcbU, 0x3d550d3fbc677a22U, 0x3e61e7583e237b00U, 0x3d946e483e65b1c6U,
  0x3d7cddb73d51941cU, 0xbcfd9254be071591U, 0x3deeb5f1be094f2eU, 0xbd00f64d3e08fa77U,
  0xbd8b54b0be7b7e20U, 0x3d8699893ce3ff9dU, 0xbd7e334ebddc6a07U, 0x3d3c609ebdbe6593U,
  0x3cc1c0be3dd2757dU, 0x3e6bd8633e1ab287U, 0x3da061c5be445d45U, 0xbd00fb56bde978c9U,
  0x3c92569a3c2d71bdU, 0xbe023b293db30bfbU, 0xba9bd4513f65c579U, 0xbca5ee18bebd35e1U,
  0x3d887d903eef5d78U, 0x3dfa8221beda028dU, 0x3d6710883e8bd222U, 0xbdd0fb9fbe26c01aU,
  0x3d7a039b3f59cb07U, 0x3e8c73ccbc94a0baU, 0xbd2acfe8bd995874U, 0xbdc8045e3d942833U,
  0x3d041e2cbd637808U, 0x3d931789bcfc2ab9U, 0xbdd7e1713c7aa29aU, 0xbe40b3c33ce7d257U,
  0x3e2f59873e1d30f4U, 0xbc9beca8bdd345d6U, 0x3de9d145be2b57b6U, 0xbd4c34c7bdf545f3U,
  0xbd5090513d7000eaU, 0x3d4babac3d097c6cU, 0xbe262b50bd01a53dU, 0xbd1b8a1a3d25e1b3U,
  0x3d5168073c02c3cdU, 0xbca9e5ddbe42f25fU, 0xbe03af853dbf0fcaU, 0xbded6b2bbe3d3c20U,
  0xbd41ba96be7d62b3U, 0x3dbc29ecbd88254dU, 0x3e02db02be32bc61U, 0x3d19a2273dea9309U,
  0x3d4161193db3aa70U, 0x3dd382d03d004519U, 0xbe23e2eabd25058dU, 0x3ddf8d9fbcd4dcb8U,
  0xbbbcc82a3cd7da40U, 0xbc49e0c3bd5a20acU, 0xbcc0b893be45aa1cU, 0x3d8735513d5f5a06U,
  0xbd9f67a2bd6ce105U, 0x3e267cd03c56a9a9U, 0xbc5053ff3dcc9e13U, 0xbde1ba9e3d829f93U,
  0xbcf8e1843d59f923U, 0x3d1c21303cff282dU, 0xbc97596dbe2835ebU, 0x3dc29cf23d2f3d07U,
  0xbdb0eb173cf55416U, 0xbdfaafcbbe773bddU, 0x3d79a5bebe20fc6bU, 0xbc91113a3c46a61dU,
  0xbcdb99593c6a0794U, 0xbd26f81abdc3a8d8U, 0xbd29bc2b3d9d0fc3U, 0xbdc9dadd3cce5cdfU,
  0xbdead0d23e467051U, 0xbc4015523d9cdffbU, 0xbbbcbb1dbcf3db63U, 0xbe1618a03dd00a4dU,
  0xbc632cb1bddc5bc7U, 0xbd21ce3dbdaddaf8U, 0xbd85e96f3d7900c5U, 0x3d8f80133df64de0U,
  0xbe048f0f3d817a07U, 0xbd097a93bde48da5U, 0x3c86aa0ebdaf8120U, 0x3dd3c61d3d81f4c9U,
  0xbd4a384abe30296aU, 0xbe516ecdbd9c8544U, 0xbe155c88be46bec7U, 0xbabb1c643da6862eU,
  0xbdf3e424bde06b37U, 0x3b5d59f4be0037adU, 0x3f48fdbe3ddd26c9U, 0xbb268cfbbaf48d5fU,
  0xbe10ec4c39db5238U, 0xbd2eccd53b99c1eaU, 0x3d5dc18d3f9be4ddU, 0xbd9abbb7bf8d85bdU,
  0x3f1c3769bbfc123eU, 0xbe49d1f3be0e892bU, 0x3d563321bc43f9e7U, 0xbd577b753d6c2356U,
  0xbd4452a73cf179c5U, 0xbdb0a1e53d110c1fU, 0xbdb2c923bd017cfdU, 0x3d8318b7bde230d1U,
  0x3d84f2a2bdb96200U, 0x3c9d12ec3df580abU, 0xbbe694dfbdb7ea49U, 0xbc9b1f463ae27363U,
  0x3d92f5e7bd9a9812U, 0xbcad2d2bbd4b14c2U, 0x3d77077d3d27f9e2U, 0xbd8e38d8bd077ddbU,
  0xbd3950e13d975963U, 0xbe3dae7dbd90eda0U, 0xbcea4f033da10025U, 0x3d877ba93b201176U,
  0x3a64f54b3daf77f8U, 0xbd170b80bd6c80f7U, 0x3d4ead963e195112U, 0x3daf63523d91517bU,
  0xbcd8eb66bcb40f07U, 0x3d9b47a0be0f8d3cU, 0xbab56512bd9180d6U, 0x3d09e0ccbba90bb8U,
  0xbd0370053db4a4caU, 0x3d6c13e63df5973dU, 0x3cb1650ebd9af388U, 0x3d9b5567bcef8eb3U,
  0xba764e313d27baaeU, 0x3db9ef1f3e476c4bU, 0xbceb18033d3b0c37U, 0xbe05e95a3e1cc177U,
  0x3d91269abc98111bU, 0xbd48e9febd9270f2U, 0xbbb446fb3bdbf9deU, 0x3d6aad54bc060056U,
  0xbddde6d7bbdf8637U, 0xbd110bc8bcc53c86U, 0xbdb33c4b3c9141bbU, 0x3b38505a3df3282dU,
  0xbc171e6a3c3067e4U, 0xbd751e623da791ecU, 0xbb86f03b3de59f11U, 0xbe2f44b03dc02f04U,
  0x3dac2888bc0f9ff6U, 0xbce6ecc33d8827e5U, 0x3e2955673dd2159bU, 0xbd49647dbca1ba80U,
  0xbe244229bcd79b29U, 0xbdb1d7f03d135492U, 0x3dba9a8c3cc358f6U, 0xbd394146bded0023U,
  0x3d3278a8bd4cbaf4U, 0x3d2453483c3db01bU, 0xbcdd8292b9f7e73cU, 0xbb1f1a323c39b853U,
  0x3d386c6b3d086e77U, 0x3d3df59dbdca4007U, 0x3d8daaa13daaaff0U, 0xbe034f59bd95a29fU,
  0x3d2f8d193d8562e7U, 0xbd9aa99fbdd2a5d3U, 0x3bec5534bd790f63U, 0xbf0799e8bf169de3U,
  0x3cc1dfa7bf32b9c3U, 0xbf38c183be1f00d4U, 0x3d3274503e95f052U, 0x3f08b748bec41cd1U,
  0xbd2db1373ed0bd3bU, 0xbea9671fbe940519U, 0x3d838a42bf1d3be9U, 0x3e343082bd58ff43U,
  0xbb1527853e2b3dabU, 0x3d8d148ebc020ae6U, 0xbb88880b3d2b5439U, 0x3dbd91cfbbda18a7U,
  0xbb9d8d5a3d899cd2U, 0x3c2184c9bd4ef929U, 0x3dbd46953de54181U, 0xbda98a3b3c37860eU,
  0xbce704f43b4b6dd4U, 0x3b88e45abe1e9b32U, 0xbe0f6afd3d9dff37U, 0xbda72457bcf2a658U,
  0xbe3869d93da585a4U, 0xbd7bf5d53d5654dcU, 0xbdb1a4cc3e2abf1fU, 0x3be4e1873d0035caU,
  0x3b357da43de07103U, 0xbd838062bc938431U, 0x3d0ea37fbd45811cU, 0x3d42952dbcdcdbdcU,
  0x3d091ad3ba442ffcU, 0xbe153a3ebe48de2fU, 0x3d6b0b43bd464f88U, 0xbd22a2e03e01ceccU,
  0xbe3490053e0d8c68U, 0x3d73826dbcb22eddU, 0x3ceb8259be4a5d3bU, 0xbd4ae2993e63c767U,
  0xbdb148d1bc74f5c7U, 0xbb32070c3cdd60d8U, 0x3cc26437bde989d3U, 0x3d511a713d2b0788U,
  0x3de17d903e6a7d9aU, 0xbe6498bcbd19f76fU, 0x3d7330b3bd8d5032U, 0xbd6124fa3d1a4b8bU,
  0xbc048b163c2e8bc2U, 0x3db1fa6f3cd5bc5aU, 0x3d40f1813c98b419U, 0x3c0dcc4c3e1a2ad1U,
  0xbd9445d7bcaa07d9U, 0xbbc6c98b3d941f81U, 0x3d9106aebcee3674U, 0x3ce74b7e3c8a022bU,
  0xbae486b23dffd4a2U, 0xbda6b290bdeb4adfU, 0x3dcd4794bdbdd53eU, 0xbd969b70bd4a32c2U,
  0x3d9f97a73d86a574U, 0x3ba79f1ebdb10be7U, 0x3e1470943d89c7c1U, 0xbd788c843d88a1c4U,
  0x3e11a6603d381160U, 0xbd455e1b3b095085U, 0xbdcb2703ba98fa68U, 0x3b8e606fb759d6deU,
  0x3d599947bc40c4bbU, 0xbce617e43e305c3cU, 0x3c433fb23dfe62e1U, 0x3dc214023ce0024bU,
  0xbd8d4648bd9c07a5U, 0x3e36a18b3d889732U, 0x3d8416a8bd0b6620U, 0xbcb33f303ddb563bU,
  0xbcdd81093e986857U, 0x3d8ad8053f0d6c2dU, 0x3ef364613eb7fb6fU, 0x3bd67eefbefdb7c7U,
  0xbe9d0e4ebe32a62aU, 0x3da306313e565217U, 0xbdf725bf3db98facU, 0x3cdfac793e946c99U,
  0xbe2994e13d4066e4U, 0x3d687da4bddd5dd9U, 0x3df0d73f3dae1819U, 0x3d5ebd3c3ce92f20U,
  0xbd7e35bd3d2956b1U, 0xbd9e4797bd789570U, 0x3d17a5773d5eda08U, 0x3e0a2bbc3b2db142U,
  0xbd387cda3d5255bcU, 0x3d4436a6bc9aa092U, 0x3bf8c2b9bdc0cb0dU, 0x3db68734bcd11b3fU,
  0xbd9306bebd1a4395U, 0xbc8992e03c8b335dU, 0x3e09a43abd899f17U, 0xbdd5123bbcfa3210U,
  0x3e3bc1023c842432U, 0x3c30face3dbd744eU, 0xbd999e843d43de40U, 0xbcb796b0bc968ab0U,
  0xbe2f7d48bdc80f54U, 0xbdbc50d7be210e77U, 0x3e0fced13e36e523U, 0xbe47f7873d46043fU,
  0x3d1f7788be3b8c11U, 0x3dfe5c7ebcaca2cbU, 0xbe37cd37bdb47bbbU, 0xbe1565733db76692U,
  0x3d6fcbd7bcca15b9U, 0x3dad64e8be14ea1bU, 0xbd57b664bad39a36U, 0xbd342e643d9839afU,
  0x3e0b1c32be55cfaeU, 0xbd4d7237be2118ddU, 0xbd7f79323d1f245eU, 0x3d3861dc3d28456fU,
  0xbd2b22b23da6b901U, 0xbd522715bd9cd0ebU, 0xbbc66293bc9302f1U, 0xbdd0239c3c81b815U,
  0x3e091d39bdc69d18U, 0x3dbd516f3d2b809aU, 0x3d8f9c47bd037effU, 0xbd956f143dca102aU,
  0xba9ac628bd9cc90cU, 0xbdf361683c76f1c9U, 0x3d33dfc73d1c4818U, 0x3e04fecdbd63ffbcU,
  0xbdbc673d3d83b7a7U, 0x3d0fdbce3ce57b27U, 0x3dfd516c3d7e3feeU, 0xbd7e0c14bd92f017U,
  0xbd43ecb03cbbcc24U, 0xbe3ddccf3d88a4cfU, 0x3cba0db33d83f3c8U, 0x3df5a6803d35d04dU,
  0xbe4e35a5bc8bd947U, 0xbcf787313d3d474cU, 0xbd94bd71bd8d308dU, 0xbe1fdc19bd2d9a42U,
  0x3e00d504be4cdd96U, 0xbdc9505bbe063573U, 0x3da9ab7a3cba3c57U, 0xbd9e06fabd0ae0b2U,
  0xbd11c97cbe0ab378U, 0xbf089ac73f378c3aU, 0xbe087503be6231acU, 0x3f21f509be940f5fU,
  0xbd08eb853ec5c2e4U, 0xbebedcc2bf4f5647U, 0xbdd80b833f4331b4U, 0xbea339da3f0f9505U,
  0x3e05d0e03bc1316eU, 0x3d9489033dfdceccU, 0x3dc4d3513c976de8U, 0x3bb92ed53ca1a0c2U,
  0xbdb4e7e3bcdde28dU, 0x3d5a5a57be0fbb77U, 0x3cab5cc93d0f614fU, 0x3ce71acabe0ab029U,
  0x3dc08e603d235d99U, 0x3ca564dfbb27f60bU, 0xbbe9dc3ebda1e8e3U, 0xbe00bc403e30882cU,
  0xbd06e52a3e220377U, 0x3d19f729bdcd2a00U, 0x3e39702fbcfeb952U, 0xbd8075673cd630b5U,
  0x3d948b7d3d664074U, 0xbc98271e3b88855fU, 0xbdab0e693dbae616U, 0xbcae83b63da0e3f0U,
  0x3d065818bd80fd3bU, 0xbd3e60d7bb3c9339U, 0x3dc8eb013dbb3747U, 0xbe186aa13dcd13ecU,
  0xbd304a89bcaae80fU, 0x3d6ab8d0be215edaU, 0x3d2bd827bdf7f00cU, 0x3c9784503de49fd2U,
  0xbba4f8653d2ce526U, 0xbd81120fbdbab5ecU, 0xbcee77ba3ca16984U, 0xbb90c39e3d473b7cU,
  0x3da5af3bbd2c11d7U, 0xbe10620ebc2fa414U, 0xbd15e22a3b5f5352U, 0x3df271c83b6b1625U,
  0xbcff8154bda29fe9U, 0x3cbe2d93bda31825U, 0x3d6e5d6c3d397028U, 0xbdd6cec33d458d55U,
  0xbdb7af43bd22dfdcU, 0x3c444c88bddd81c4U, 0xbd02bc9e3e12f236U, 0xbdc774893e24d566U,
  0xbdc4afe7be214dfeU, 0xbd22c901bd2a8c83U, 0xbd54e8743e04c0c6U, 0x3db4baa5be0b1c6fU,
  0x3da81a9d3d1189a7U, 0x3d7df3af3d1913acU, 0x3ca22275bce9f60aU, 0xbd8bf1883d82b5b5U,
  0xbd7f01eabd673e02U, 0x3e135dc5bd4a52bdU, 0xbce5ad9ebd508f5dU, 0x3c4d1ded3d0a14c3U,
  0x3bf600e73d319fe7U, 0x3b3884153d82104eU, 0xbcfd6d0b3e21516dU, 0x3d241b013c69808eU,
  0x3cab42983e0f7de2U, 0xbdb872c23d029c20U, 0xbc6f53e1bd8f1956U, 0x3cd36d20be01ff60U,
  0x3d22d5713d57a1b6U, 0x3db55cd8bcbf6335U, 0xbe2b332b3eb87422U, 0x3c90f5ff3f1eccb2U,
  0x3f0e57a73e8453e7U, 0x3c0d6edebeaa0858U, 0xbe93fa223bdfacceU, 0x3e3546a53dc78a03U,
  0xbb3928cd3d26bca5U, 0x3d56fdd83ecf3debU, 0xbd9283c53ab539e2U, 0x3d8e4c093bca09f4U,
  0xbc3656763e3215c1U, 0x3c3994d9bdd47c31U, 0xbc8985b03ca4940dU, 0xbe390d623d13c612U,
  0xbcfe91033a4260adU, 0xbd9dbeeb3c0d422aU, 0xbd93fe0dbc378164U, 0x3d187c8cbdd19025U,
  0xbdd33af93d8e1499U, 0x3dde0bb1bdfbb375U, 0xbdbcb2e5bc1ab8acU, 0xbd9cb933be1f8082U,
  0x3d5117bbbdd99fe4U, 0xbd6f429abd31283dU, 0xbe0dfcfdbcbfa80bU, 0xbdbaa9583d61ae2eU,
  0xbe3ffbff3e3734b9U, 0x3de13f53bcaaaa89U, 0xbc16d038bd90d33fU, 0xbda7ff3bbde63841U,
  0x3d5b8163bd8b4c96U, 0x3dd15e583dc402a9U, 0xbd0f346abddddbb9U, 0xbada87313d087676U,
  0x3b4788433e3326a3U, 0xbe5e6c543d843275U, 0x3d35d065bdba179eU, 0xbd326f0fbe0424aeU,
  0x3d948d93bde48136U, 0xbdccfd6a3d886aa9U, 0x3cf0f859bcc6970fU, 0xbcf958b0bcde0922U,
  0x3d9f4722bda93f1dU, 0xbc73a3433d4e7dc6U, 0xbc5fd9003e05be8fU, 0x3e09fd723e06f008U,
  0x3d45be0e3d84332eU, 0xbcc554a93c81166eU, 0xbc15a016bcfa1f88U, 0xbdc3e7babc638c21U,
  0xbcb998653ddfd0f1U, 0x3cb541c33d1c7c94U, 0x3d5cb75fbe00c9d6U, 0xbd6cccb83b60aa7bU,
  0x3dca076a3d9f7efdU, 0xbd4f3e4e3d871aeaU, 0xbe10b1703dc11665U, 0x3daf3ae1bd93187fU,
  0x3d9b9aefbd528c04U, 0x3dece530be8ce8e2U, 0x3da9292ebdd9869eU, 0xbcf8b3c73e07feb4U,
  0xbb4be8a33d413b9dU, 0xbd4f946a3cdb1e64U, 0xbd5b67c23c803370U, 0xbca91b053bfdc54bU,
  0x3e1a5587bcc0cb86U, 0x3e0c7dd5be0dc959U, 0xbd916689bdb70a3bU, 0x3d82f7e6be1cec1bU,
  0xbdcc0ac4be5813e2U, 0xbb1c7b25bda27aa8U, 0xbd020b4cbe41fc78U, 0x3f145b72bf02fbc9U,
  0xb9ffa122be8fd2beU, 0xbf31c1c8bd8b3b49U, 0xbd82c1b53e090d94U, 0x3ed1f4e33f3f7604U,
  0x3c9bd5f2bf1e0fb2U, 0x3ecdbdc7bed9387eU, 0xbd976506bea08be3U, 0xbcf43a4dbdbf8187U,
  0x3d83e737bda3e1f8U, 0x3d13e1af3ca3ddbeU, 0x3e2e7cd03df26156U, 0x3dbbe07a3e1e9d87U,
  0x3e2286913e6ab882U, 0xbcf8edf2bd2482a8U, 0xbd02b6b03d9958c7U, 0xbd06e19a3ad91a2eU,
  0xbd61cc803e18176bU, 0x3c387b823db44e13U, 0xbd7916cabd9017bfU, 0xbdb6d164bd0be844U,
  0xbd17d2dabc8108d7U, 0x3c7fe1c43d1cb571U, 0xbc9b76813d1bea0aU, 0x3bf62e4cbd48536cU,
  0xbca4faccbd681dcbU, 0x3cce4ff93e010b56U, 0xbab47113ba49a9d9U, 0x3d72034c3d05748aU,
  0x3cc9f9523ca1b0d9U, 0xbd5038afbcf71af8U, 0xbd1660fb3db87652U, 0x3d5bb86cbc9a7a3eU,
  0xbbcb7f8e3e0a96aeU, 0x3c90e9023db4865cU, 0xbd7ba598bcabe2feU, 0x3cb256563ddb20d3U,
  0x3ce81ebf3dea2c18U, 0x3cb2ef2d3d2fb226U, 0x3d101bc0be0fb0ecU, 0x3e03d86abc5e97cfU,
  0xbdd3ce0c3dc0ab60U, 0x3bde17c5bc94ca0eU, 0xbe006cbb3ceca7e5U, 0x3c46a2db3e01ae6fU,
  0x3de0c94abe14df85U, 0xbe0decf5bd03ac7bU, 0xbd892001bd0795aeU, 0x3dae034c3dabd065U,
  0xbc6e3efa3da71293U, 0x3c3b0514bd78aec0U, 0x3d3a1a27bc950632U, 0x3d79c1cf3df5c5fcU,
  0xbd637884bb9ecae1U, 0xbdb5238abe257e68U, 0x3d397c123bd82e28U, 0xbd2d10c9bdd65c2cU,
  0x3ca6fc5dbd9a1299U, 0xbdef9ad73c10132aU, 0x3ccad59d3bfea25bU, 0x3d26a555bc877d65U,
  0x3dd1cc6dbce9bc9dU, 0xbc017d463ca2e370U, 0x3d2b9209be0250b1U, 0x3d034893be2819d9U,
  0x3cc33dc63ca8766bU, 0x3d02f2b8bddf739fU, 0x3de1df073cf4757cU, 0xbd31b1f93d93c4f4U,
  0xbd7910843d8542f8U, 0x3d06beadbd484ea2U, 0x3e19b239bd75fd89U, 0x3d9e698b3dfb1e67U,
  0xbdee5d4b3e7e2d3bU, 0x3d1de754bdb7d656U, 0x3e63f7c93f028ff2U, 0x3d33e3b1bf53eb68U,
  0xbe07f40bbe2f14a7U, 0xbcb39bea3e6b8eb5U, 0xbe2757f8bd1e51c1U, 0xbdd3fc4fbf0d87d2U,
  0xbe7bafaabc650dabU, 0x3d9384753d7af120U, 0x3e5f9b5a3caeaab9U, 0x3d35b860bdc49338U,
  0xbcd1abee3d96078dU, 0x3e4633783d99b2f6U, 0x3d114d0e3dc35adaU, 0xbea42101bd8c0405U,
  0x3da9a6013d5bd9ddU, 0xbc73422cbddc4f85U, 0x3c87b4afbdb38ca7U, 0x3e238df23df5be76U,
  0xbe18b4aabd602d3bU, 0x3d4042c33dbeaa7bU, 0xba7b5a12be1179bfU, 0xbd489e5e3cf5f8ddU,
  0xbe1b25e5be0624a5U, 0xbd530d1e3d0e2d0fU, 0xbe60c6363db3aa73U, 0x3e16bd623db2f451U,
  0xbe5284493c937987U, 0x3e2d9af63d325ce9U, 0x3d6a08483e67e672U, 0x3e12066e3cc6e00cU,
  0xbe144a7cbc43e42fU, 0xbd95085f3e14b7e9U, 0xbdc24601bd05bf92U, 0xbde95324bdb1dd5aU,
  0x3c3ae18dbe0df0e8U, 0x3dad74c4bdb4a1f6U, 0x3d54e5f1bd9a1e7aU, 0xbbc7b64dbe244eb7U,
  0x3e8d5b99bd3fb1c9U, 0xbe234b31be0ee802U, 0xbdc097b7bc825494U, 0xbd1be5873dfaa530U,
  0xbe3f278bbe6bbf3cU, 0x3e3f6aa3bdef5775U, 0x3d6cadeb3d79fc26U, 0xbe3182dfbc845022U,
  0x3e551f96bd6894b5U, 0x3deadb46bdfdd2fcU, 0x3d89b15e3d86cff0U, 0xbe6e01a5bcffdff0U,
  0xbb9f6f163d3eeb84U, 0x3a01b02ebe375bbcU, 0x3df711e1bd771704U, 0x3e06517a3cd22e92U,
  0xbe27f9423d8cf4e7U, 0xbd5a591a3e1ea93fU, 0x3da81385be3cd059U, 0xbe0610833dc4ef6bU,
  0xbcfa73f7bdcfaf6aU, 0xbc751ca53d73f76bU, 0x3de81c7ebe887408U, 0xbe00fa9d3e10196cU,
  0x3d83c9dd3c06e988U, 0x3e0fc020be1abf86U, 0xbe14fc4d3dd2a975U, 0x3e468a87bde5048cU,
  0x3d0cadc0b95d2a71U, 0xbd5dde15bb82856eU, 0x3ac2b649bd8e7931U, 0xbd0a40c4bd977359U,
  0x3e5c62b4be00632bU, 0xbead8d2b3eb76984U, 0x3cf5ecc93f706ed6U, 0x3e05e3473e817c78U,
  0xbb801248beb9e0e6U, 0xbd6cfc303c871d93U, 0x3d113b643ceed865U, 0xbe91f303bcb9bb82U,
  0x3d43055c3f3370cdU, 0xbe22c0dbbc07efb2U, 0xbcb3f72fbd9f28e2U, 0x3d6cb3203e0d18f0U,
  0xbd01efe73d041926U, 0xbe4f4a7abd831383U, 0x3d1c9cebbd5a7705U, 0x3ccb1634bdde4a8cU,
  0xbdd927d2bd906ed0U, 0x3e77cd14be8a3600U, 0x3de4667fbcdb1538U, 0xbe3cb09b3d664ac7U,
  0x3ca01d27bc9768bdU, 0x3e0e79d5be451c23U, 0xbe6afe90bcd60d55U, 0x3e1391583daa903bU,
  0x3dadd0bf3db386d6U, 0xbeb11e3cbdc4d403U, 0xbd5ffb91bc87cc9dU, 0x3be49549bdc58118U,
  0x3da189cf3cea13ecU, 0x3cd7b85ebd9cb891U, 0xbd19136c3a2af027U, 0x3cfc5fc23dc45087U,
  0xbd7babbebd6793f6U, 0x3ca2c752b72ff7d7U, 0xbcebf8773d6a6d7bU, 0xbddab821bcf58a68U,
  0x3d53f5483dd39d17U, 0x3e07f9373b94c87cU, 0xbd15df98be2612b2U, 0xbe339e0bbda16346U,
  0xbd8ebe3e3dbd576eU, 0xbe4efcc03c2a33f5U, 0xbd4a0d95be20c7aeU, 0x3d59b2b8be1db799U,
  0x3dec0cde3d9e799cU, 0x3a8a91003e042edaU, 0x3ab7eacfbd8805cbU, 0xbbf883f13d0074b1U,
  0x3db2b393bdd5aa83U, 0xbd07df19be8a2ad9U, 0x3d2fc8cdbc910c9cU, 0xbe110bff3d13649fU,
  0x3c5008c3bd7ccae9U, 0x3e5fe7b2bc8e9135U, 0xbdcf36cf3d0075dbU, 0x3c2059cdbe6d6ae1U,
  0x3d8567543d42c078U, 0x3d9cbf093d9c6b8dU, 0x3cedb306bde73b3aU, 0xbdc719593e033e20U,
  0x3db394d4bd402ec7U, 0x3dae68023c870eb7U, 0xbda769b73e2f155aU, 0x3deb5810be026c80U,
  0x3d12a2f33d8b0244U, 0x3e46a3d7bd4beba7U, 0xbe5370833d5d9e60U, 0xbd4266443e2137b7U,
  0x3d0fe9e63cbb1f88U, 0x3d7282b6baaf164fU, 0x3d6225eabe5da60eU, 0xbde0be58bc78e729U,
  0xbd9d8aa8377126c2U, 0xbd03d6813d88168dU, 0x3e0865633f18d331U, 0x3d57e38dbed85bceU,
  0x3f616493be0532c3U, 0x3be13b863e7187a8U, 0xbf33aa203dbeafe7U, 0x3c329074bd111860U,
  0xbc8140563efc86d1U, 0x3d439177bf041a3cU, 0x3eab5ce13e05b1d9U, 0xbd6026163c3529e9U,
  0x3d468a54bb237548U, 0x3e481050bd2d1640U, 0x3dd6f2b63de75db8U, 0x3e068ce0bd19816cU,
  0xbd86dd67be047abcU, 0x3cf87ec73c0da548U, 0x3c6620a83de029efU, 0xbb9f73e53d3cd0baU,
  0xbc4b237bbd1f87ecU, 0xbc9890883dc18da1U, 0xbdc0de4abddaef19U, 0x3c8401c3bd8c8d4dU,
  0x3d7db5203dfccfe5U, 0xbe01dff3bc407d53U, 0x3ddb76a23c94d6b3U, 0xbd71f88ebd6f086eU,
  0xbe304fccbd570f96U, 0xb99c51cc3c93673bU, 0xb94a6880bcdf603cU, 0x3d03150c3b2a6dcaU,
  0x3de23500bd95e0eeU, 0xbdd0614ebe061694U, 0x3e242f60be3bcda0U, 0x3de94693be1afa40U,
  0xbda264a73c685ddeU, 0x3d1fa386bcab07feU, 0x3d7f5462bda30ffeU, 0x3cfe1e88bdd05a3eU,
  0x3e0477d73e0225baU, 0x3d369982bd0af1f7U, 0x3dcda3a6bd2447e7U, 0xbd8db99cbdd03b4bU,
  0x3d5d7ad8bdcdaa7cU, 0xbda9b735bd970d9bU, 0xbd5a5fe2bc8c5627U, 0xbd92439a3d9317feU,
  0x3df7969bbc561dcfU, 0x3ca3b2c8bdca5d44U, 0xbc367382bb9aa2a8U, 0x3d1d1cd23e6c5e2bU,
  0xbc752ff43dfdcec0U, 0xbd94ed6fbdbc431eU, 0xbd91c1c63d16cba5U, 0xbbada1573e1d054aU,
  0x3cb745ba3d403516U, 0xbd04a023be1ea9faU, 0xbde083853d83a773U, 0xbe063bb93be94a43U,
  0xbde2ea35bbb82d8eU, 0xbd9cfdf13e278c3dU, 0xbe22d30d3dac0362U, 0x3dfbd805bdbe309eU,
  0xbcb4d00bbc9def83U, 0x3e24849cbd1eb26aU, 0x3c9ea8df3d68ced9U, 0xbe3669503ce9a4c7U,
  0x3d840122bdcca72dU, 0x3d9cc6efbe70e390U, 0xbdf164733b7235c4U, 0x3d061f6c3e1c850aU,
  0x3ddb75bfbd5ccf83U, 0x3e2e44cdbd69a2c1U, 0xbcd0aae4bca19f2cU, 0xbf1fe1f4bd5c20e9U,
  0xbcf1d14ebf383466U, 0xbe80eadd3e59e889U, 0x3d2908d4be87d1a5U, 0x3e289965bf210f4bU,
  0x3b2c56d83f23ab75U, 0xbea33944bd2bd8bbU, 0x3d0eb89abf2bd316U, 0x3d7781493be01263U,
  0x3daf9ceabe1395a9U, 0xbd3b0c8c3d5525a0U, 0x3ccf13843de5d7ebU, 0xbddc7f9c3ce609a0U,
  0xbd32a3bebd1457b3U, 0xbdc6bcf1bbc97f73U, 0xbc251f69bd8a2e5dU, 0xbcd8f5dfbc179914U,
  0xbac84ee3bc8939e5U, 0x3d6238ba3e314cebU, 0xbc46ca9c3daba03aU, 0x3ca554c63cdca810U,
  0xbcc3014dbb4e2702U, 0xbe0feb4c3ded90f4U, 0x3dbbeaf23d137536U, 0xbc922ec4bcf49465U,
  0xbdc4793abd57ac1aU, 0xbcfe3321bdfb4b54U, 0x39eccbd9bdea8a7aU, 0x3cb0a1af3d9fdf32U,
  0xbde13de7bc91d27dU, 0x3c313c15bd009f6aU, 0x3dbfc1403c31180aU, 0x3c93b53d3dadc805U,
  0xbe0f09cc3d8058abU, 0x3de8123a3dbadbcbU, 0xbc4aaa56bdde1fa0U, 0xbd11b681bc06ced1U,
  0xbc711f153df3e948U, 0xbdec05263d9d35ddU, 0xbd9553c13d8603fdU, 0x3da3bb88bd1bc3e2U,
  0xbe108c91bd3ab5b4U, 0xbd03e13cbc9bdb7bU, 0x3e3f80723d8c5949U, 0xbcbf88143db9628eU,
  0xbde0e8533cb8baecU, 0xbc5791793c98e28dU, 0x3d42be49bc6a096aU, 0xbb1e5fe5bd463970U,
  0xbd0cabe43db06a04U, 0x3d472546bdc1bd27U, 0x3c88777bbde9d9e8U, 0x3c6a629e3cd81979U,
  0xbccae3bc3d0e5b85U, 0xbd6b9150bdab3653U, 0x3dc63b34bd81b79fU, 0x3c624ce33d5b9930U,
  0x3db947b8bce1fb30U, 0x3da0f9783e002574U, 0xbcd3cbafbbab8e7cU, 0x3da25efcbe0d636fU,
  0xbd9a5e5cbd055070U, 0xbd7a68ee3d83242eU, 0x3d3113463c058401U, 0x3d62dee73d521e29U,
  0x3c55c0efbaa3dfc7U, 0xbd8545493d862194U, 0xbbc151683d5775d9U, 0x3c8530b33ad107a9U,
  0x3ac2f3003da29aaaU, 0x3d6e721bbda12fecU, 0x3d677717bd54ba18U, 0x3d66325bbe0e66cfU,
  0x3ea829eabd847a4eU, 0xbcc0e0b33ee2ff10U, 0xbde23c753ea0b1acU, 0x3bc06a4dbea59268U,
  0x3eac87553e7c673aU, 0xbd1a2ddfbdc7c62cU, 0x3d707a5cbebb409fU, 0xbc54c2943df03cf0U,
  0xbd2e3a9a3ccbc80aU, 0xbd43f92a3d27e3c3U, 0x3d6e7de2bc944416U, 0xbdc0e1803cebfd1bU,
  0xbe8631993d2e0bafU, 0x3d77f49ebe5ed196U, 0xbd10bc9b3da507a7U, 0x3d8a44cdbceca7a1U,
  0x3d698cc83cf340d3U, 0x3d4904293e51f832U, 0x3e15ad1e3e0e4746U, 0x3e5b91c23da534f4U,
  0xbe57cb1fbd6d72caU, 0xbdbaab1d3d3a0812U, 0x3dc776dabe08f2c8U, 0xbd07cdbf3d453448U,
  0xbbcf40c4be15f534U, 0x3e0fd9e5bd8db558U, 0xbde3c930bd7dfbafU, 0xbdb9a8d9be75eb4aU,
  0x3dd513f43e316ebbU, 0x3e0a822d3c8acefeU, 0xbe2a7f3dbe173ff5U, 0x3e55bd89be82ce5dU,
  0x3de2478b3e3d7d00U, 0xbce29bb63d8604b4U, 0x3aa594e2bd8ee074U, 0x3d8be9f5bd11e2e0U,
  0xbd5e309b3d0c1399U, 0x3d49c5983e6314c6U, 0xbd2ac90b3e43a99cU, 0xbc7925123d2eb237U,
  0x3c7134f2becf64d0U, 0xbda0f706be3010c4U, 0xbe46d1993d3671a6U, 0xbe7fbb1d3e43431eU,
  0xbce87a893e293eb2U, 0x3b8fb7223bc522f8U, 0x3dbccaefbd12d03dU, 0xbda8af4ebe929080U,
  0xbbe49b203d9393eaU, 0xbd9bd9eabd4e639fU, 0xbe07eb7abe006a6eU, 0x3db49af2bc985b17U,
  0x3e822b7ebddf41b9U, 0xbce091febccbf67bU, 0x3d868a193d83771eU, 0x3c1a341f3d92a799U,
  0xbdcea9adbcba381bU, 0x3e204e30be868631U, 0x3dbbd53c3de76092U, 0x3d843de0be543a59U,
  0xbe837ac13dd11d04U, 0xbc960aa83b88a567U, 0x3da5fe30be83b593U, 0xbda2edd1bc0129ccU,
  0xbdf5e52b3e1e6432U, 0xbd315920bd93cb38U, 0x3e67e1b9bd0fd28dU, 0xbe0ffb373e1068d6U,
  0x3bb7f345be07b314U, 0x3e3976e1bdda582fU, 0x3d921a383e83726dU, 0xbdcd7e7c3e2b0175U,
  0x3be8aa9a3c932124U, 0xbc88eaf73e853557U, 0x3d5af5d23e577c40U, 0x3f00284c3f249e28U,
  0xbcbee254bf405207U, 0xbec6e124be32df84U, 0xbc3e60a03e6058b4U, 0x3e1f68913e5d55d3U,
  0x3dc51494bda7a631U, 0xbe677fda3ddec8edU, 0x3ca617d03db26344U, 0xbde4e2b3bd5851bcU,
  0xbe6527dc3e05ec95U, 0xbd9f9a753d30e5baU, 0xbdc260af3d669bb6U, 0xbe553cffbc84688aU,
  0xbde2a74ebe5c3a6cU, 0xbd7f0a3d3d3e2b65U, 0xbe1b6d633ce41f9bU, 0x3e2468393e233042U,
  0xbd69b5b83c0aee9cU, 0xbd06f5f6bacdc4b9U, 0xbe2c1ee6be81f361U, 0x3e3823a53dad7107U,
  0xbe210ecab922d0fdU, 0xbe04c825bd485a5aU, 0x3e09bcc6bd3597b1U, 0xbdf301b13e39b272U,
  0xbd1684023e6e804aU, 0xbe307e813dd26d43U, 0xbd3fa5963dec7ca8U, 0x3de08f07bca03cb8U,
  0x3d5e97e73dcabc6cU, 0xbc70e3b43d9a1a95U, 0x3dfa370dbc912449U, 0x3dc4ac8e3e4b2c87U,
  0xbb131c8a3da7e885U, 0x3df258fdbc9a70baU, 0x3e2896c93d03c1b6U, 0x3d85767ebe4821dfU,
  0x3d72c9d3bd37a480U, 0x3d3312bd3e0118caU, 0xbd3ec94ebe04789bU, 0xbd94e42abcfea8f8U,
  0xbe062b3b3d9fa017U, 0x3cd8c8fc3d2f3d0aU, 0xbd673dc63c1182f1U, 0xbc1120fc3d605e0fU,
  0xbd863b373e074f1fU, 0x3d5c5484bd017784U, 0x3e4c05eabe1c8f59U, 0xbd7ea8093e081033U,
  0x3d36fd59bd32e77bU, 0x3b2ca868bdd8c72aU, 0xbe49b9e9bb77c5b6U, 0x3e0f0a243c497b70U,
  0xbe8eee663d0374e1U, 0x3dcfec163e28da92U, 0xbda6b048bc5e5424U, 0xbcc437703ca13a54U,
  0xbdae5d0cbd9e0058U, 0x3c8defa2be54cd36U, 0x3e1de69ebe0a1c72U, 0xbcba1f9dbe0b72eeU,
  0x3cf10ddc3d14a375U, 0xbcd9196d3da33a7fU, 0xbd20aba0bc015925U, 0x3c6fdac2bd1d31bfU,
  0x3dacf71cbda96aacU, 0xbdd46883bde07777U, 0xbd7561d2bd8b7691U, 0x3cfffd233dda2460U,
  0xbcc98664bd86ab8fU, 0xbd499a23be8ea03fU, 0xbae872c63f2ecfb0U, 0xbc571521be56a07eU,
  0x3f5f8635beb074b2U, 0xbdd5ba173ee198acU, 0xbf5f58243e24a4beU, 0xbdc9c347bd973baaU,
  0xbc1c7a5a3f166081U, 0x3d59e17abdd1059aU, 0x3e1b47bf3d502738U, 0xbc0db32cbdf50979U,
  0x3d9a8168bd975248U, 0xbd400ac8bda495d2U, 0xbd9899afbdc1698bU, 0x3cc3ec38bc300d75U,
  0x3ddb9d0dbad0ecabU, 0xbdb4a33abe0a05ccU, 0x3d4edcf13e2c9d8eU, 0x3c84114d3e365dcdU,
  0xbbac8dd83db044e2U, 0xbcf297bd3d7b413cU, 0x3d91e564bcb134d2U, 0x3db1528f3d036fdcU,
  0x3cc8462abd980573U, 0xbb8634243d27e0e8U, 0x3db92c573dcd8cd5U, 0xbdc871a3be7b3407U,
  0x3d7cfbcebd07c1aaU, 0x3d4df04bbd57a18eU, 0x3dd2758abdc48c95U, 0xbc1c162cbde0f987U,
  0x3d0f9c57bd6fad63U, 0x3cfcb0273d752768U, 0x3e0154babd4a1c8eU, 0x3d91d8cb3c6f1a05U,
  0xbb8bc8283c9f6ffdU, 0xbced0799bdea8ef7U, 0xbc65dd8dbe069100U, 0xbd905393bd40dcb3U,
  0x3d2f21babcc5602fU, 0xbb088188be1d1462U, 0x3d1f43dc3c069ba4U, 0xbe44e3f73cf159ceU,
  0xbde00a7e3b190213U, 0x3d9bed463dd9eb6fU, 0x3d47e1da3c66edc1U, 0xbb54261abdb72c9fU,
  0xbd71e1ec3d65dff3U, 0xbd6170893d6ec14dU, 0x3cb9bca13dc8a02eU, 0xbe1bf61a3e0e4fc5U,
  0xbb857c93bc2a45b4U, 0x3e5c8d8fbdf09e0cU, 0xbe776d793e110dc9U, 0xbe17ac3e3d962665U,
  0xbdbfd53cbe335818U, 0x3e173296bdb777caU, 0xbc90f033bd9e042dU, 0x3daa56a53d95c8c6U,
  0xbd2ca76fbd0bff82U, 0xbe0a4cbb3e82f28bU, 0x3ccc74c43e6a972eU, 0x3cb30282bdf8e8b9U,
  0xbdd60996bc4c31f9U, 0x3ce0362d3e26ca97U, 0x3ce3a2273e38822cU, 0x3b873125bd9380ecU,
  0xbe2017b0bd2f46f6U, 0x3e0effab3e216758U, 0x3db76ee13cb907e5U, 0x3e03ca6b3e1bb897U,
  0x3d6029d9bc2f2403U, 0x3d948ff43e04c758U, 0x3cb34afb3cdf8b9dU, 0x3ec360fd3f075f27U,
  0xbd628d0dbd99100fU, 0x3f4476e13e8ee475U, 0xbd3c3f43be8e3003U, 0xbf0e7fbe3f31443cU,
  0xbd053cd5bf09fb88U, 0x3ea021223ebd0010U, 0xbc05eecfbde95911U, 0xbe729b443db04905U,
  0xbdf45e623d55ea94U, 0xbd54b721bd872dd5U, 0x3dd629acbda1765aU, 0x3decdb1e3d2f5830U,
  0xbcc632a1bdd458ecU, 0x3da2f558bdc0873fU, 0xbc91bd6abcd77f47U, 0x3d15856bbc1e0e18U,
  0x3c23718b3d1826f2U, 0x3cb17bde3d8fd7b2U, 0xbd0a6dc93de927f0U, 0xbdadacc03d93c464U,
  0x3dcd2e033debee3eU, 0x3ce150f53d77c40cU, 0xbd2cd9e9bb87667cU, 0xbcb3c468bcf2674eU,
  0xbdcd79083e08d1cbU, 0x3d6ad86d3dccb767U, 0xbd6d846b3df555a2U, 0xbdc19d02bdfd7f71U,
  0x3d71ed443e6743f6U, 0xbbe365b8bca94d8eU, 0xbd063782bdfd27bbU, 0xbc423fe13ce46ef6U,
  0xbd22d4ad3dc51e00U, 0x3ccd9940be427cf6U, 0xbd27f6febe167486U, 0xbcf4332e3d9a2d3eU,
  0xbdad7be93da2a589U, 0xbbaaed90bdfa8047U, 0x3dd710a33bbb05dbU, 0x3cc0265abdbb5074U,
  0x3d976832be4b0fb2U, 0xbda9ae7a3cfbf7e2U, 0xbdca463f3b3a596fU, 0x3d2b0bfc3da676c4U,
  0xbe271ded3d8dda83U, 0x3d78eda43c66bdb7U, 0xbe003c04bd828b9bU, 0x3b853b753db20c86U,
  0xbd0be782bb6957ddU, 0x3d6dd2a93ccb5574U, 0xbd29e5a23cce39e7U, 0x3cbe26dbbda95386U,
  0x3d29b7e33c1eda46U, 0x3e0b378a3cf7a7e4U, 0xbc7b31863d468313U, 0xbb3fa3c9bdd4120cU,
  0xbce972323dc0a9fdU, 0x3d6b491d3d9b4e2cU, 0xbc86e7aa3d9de799U, 0x3c5125373d313787U,
  0xbe0c05eb3e2cac2aU, 0xbb47c154bd8fcd90U, 0x3d8b79be3d32f9fdU, 0x3daf11ddbe32b692U,
  0x3c37c042bdea188fU, 0xbc3372d7bd9d8418U, 0xbc634dc2bc877d82U, 0x3db895f5bca554b5U,
  0xbd0db6e4bc13cde0U, 0x3da12f233d136bf2U, 0xbd709928bd22133cU, 0xbd4675223ceaf27aU,
  0xbf354e4ebecea378U, 0x3d9ba43ebee87610U, 0xbeb87bfa3d7c9215U, 0xbc07a269be6cee86U,
  0x3ec0b1e4bf75e72dU, 0x3d9381293f55ea65U, 0xbea4ffafbe54ac22U, 0x3dcaa1f5be9594d8U,
  0xbdb8a622bd30586cU, 0xbd12a1e9bd85bb7bU, 0xba59c437be13d6f1U, 0x3dcb53acbd9d6f4aU,
  0xbd2b38a0bd394f09U, 0x3ca3b0dabda0dc23U, 0x3c5d022f3c9ddbe5U, 0xbd8007613d6c66dcU,
  0xbcc0585d3d9304f1U, 0x3d3056a3bc72f702U, 0xbce809863cbbd094U, 0x3c9b71363c8e0ac4U,
  0xbbed5558bcde7629U, 0xbc242313bdb81215U, 0x3db1aac0bba304d0U, 0xbd69ac23bda31852U,
  0x3c90181fbcbebfefU, 0xbccc8333bdb8e858U, 0xbd849b22bd442493U, 0x3dc25c64bd187ac9U,
  0x3c8f9dc63e2976bcU, 0xbd20e94f3d6934c8U, 0x3d21cf9f3d2f8acdU, 0x3c5ef7843d8d0f4dU,
  0x3dbd0158bd020fa4U, 0xbda5418b3d197436U, 0xbd32def2bd895437U, 0xb9b13c89bd0ae279U,
  0x3c9684453e469b54U, 0xbdb761393d4cec59U, 0x3d97ffd9bbb901a8U, 0xbdbe51aa3d9362c1U,
  0xbd938df53bbfec5dU, 0x3cfb3c93bd7ffaf3U, 0xbd086a643d3b74dbU, 0x3dbe81b7bd1adb0aU,
  0x3c66b26bbc9d3363U, 0x3d470bd2bd543317U, 0x3dad2163bc7691dbU, 0x3ce181da3de4cf04U,
  0x3d8977243cc2eb43U, 0xbe1cfb7d3ddba20cU, 0xbe0a6d2ebda5d413U, 0x3cc26ac53e11901dU,
  0x3bf920593e095246U, 0x3df076373cee79f0U, 0xbb35b014bc32deabU, 0x3c2128e23d46b0fdU,
  0xbd3f8e653c5263b1U, 0xbdac5cdebcdb3e6cU, 0xbd8b73d3bd597eb4U, 0x3cf8cf34bcc6fc0aU,
  0x3d5082acbe5ad69cU, 0xbd9adefabe00b5caU, 0x3e5fb0f6bd82f205U, 0x3c952a56bdd8b534U,
  0xbd010ee43d389114U, 0x3cd5812d3e1f24e5U, 0xbca7747cbbb8422bU, 0xbdaac2e33d0c1b3bU,
  0x3d1ffb9ebc93936bU, 0xbc70585a3daee578U, 0xbe0101993daf61adU, 0x3a39b5693e23035fU,
  0xbd27fa4dbd0af84dU, 0xbeb12cb73ef471e8U, 0xbcfd2ae13dd9dd00U, 0x3f00b004bf23b073U,
  0xbb50369b3f52956dU, 0xbef3ac25bef37d0dU, 0xbdb570453eed69c2U, 0xbe817c493ec0e08eU,
  0x3d41691a3eb64016U, 0x3eae6ca33e164a0fU, 0xbc075df1be09b504U, 0xbd0e52903d2fd3d3U,
  0xbc69cd833ccfc74eU, 0x3e2d7335bd757395U, 0xbe258e823d640a0eU, 0x3d14f6d4bd94bfccU,
  0x3aecc770bc326612U, 0x3d7745b9bce0cd20U, 0x3cba1682be1b4291U, 0x3d95eb94bc2b0457U,
  0xbd638a16bd247971U, 0xbd58f8d43e13ef44U, 0xbe323a733de50132U, 0x3dbd9ce4bcc05108U,
  0xbd05c3ad3c80a47aU, 0xbc849baebcafb168U, 0xbced32c3bd0a2f42U, 0x3d62d0ebbca9e2dfU,
  0x3ce2bad5bca41828U, 0x3d3b9307bd9ee918U, 0xbd9c9703bde19bf2U, 0xbd5535143dd55750U,
  0x3d865fae3db1417aU, 0x3ccf87c4bcede8c5U, 0x3cecb0f93e00c45bU, 0xbd75642b3d3fbff9U,
  0x3dac39d3be3500e6U, 0xbe2598cdbd3beb66U, 0xbc72ada63da13cf5U, 0x3e02b3cb3dd22f7aU,
  0x3cf1a85c3ca468bdU, 0x3c90c552bded2487U, 0x3db248a3bdaef8e7U, 0x3bd3177b3dab08b1U,
  0x3d0835503e35848dU, 0x3d11936e3da6499dU, 0xbda434e0be225aeaU, 0xbc85ce78bd5a5f65U,
  0x3e1d9fecbdc93de6U, 0xbe0603173d9292c5U, 0x3dd8f0c53d853c27U, 0xbd06c30bbdef6b1bU,
  0xbe2283dabd5eee89U, 0xbd3394d5bd950504U, 0x3dc3951c3d2cf738U, 0xbca1b3563cf3d0afU,
  0x3d9f51683de47a4aU, 0xbd5694fabe2e0314U, 0x3e184ee0bd7a29b1U, 0x3cfb4b39bcc3eb85U,
  0x3d6dca9e3d9e2f9cU, 0xbd3ef14b3d9a8e0dU, 0x3da4bca73cd85b57U, 0xbca64912bce4278fU,
  0xbe3b20a23c0a6608U, 0xbe0a185dbcec5ca5U, 0x3d0296f3be0060c2U, 0x3daaa0fe3dd4a941U,
  0xbe1b0b683d9da790U, 0xbd49003fbd35ec04U, 0xbe02f098bdaf2984U, 0x3b172823bd45fa20U,
  0xbd5895cbbcaa72a1U, 0xbd259a74bd6d536fU, 0xbf2673f9be4cdc3eU, 0x3d9d0a65be358c93U,
  0xbee463623ea8765eU, 0xbceff650bedcf2afU, 0x3eb12a54bf4cbeb8U, 0xbe0362f23f370a6dU,
  0xbecb56aebd8f03efU, 0x3dc87b7ebe6e011bU, 0xbd55ad283c837373U, 0x3e66bd95bc3de5faU,
  0xbdabff11bdb3ffdfU, 0x3d2fe6a33dec14f7U, 0xbd0b329dbdb86922U, 0xb9461c17bce53052U,
  0x3d1772513d74738fU, 0x3d085158bdcb99e1U, 0x3e054730bce04e9cU, 0xbd0c950cbd449897U,
  0xbd41b4723dfe84b0U, 0x3cd13e843d0d5438U, 0x3cfe9684be2628c0U, 0x3d5f94afbd40ac61U,
  0x3d2ed6f4be02d843U, 0x3d865b65bd4f5e6eU, 0x3be9f6b5be0bef87U, 0x3d1220ffbd3fca47U,
  0x3d40cc13bda5dde1U, 0x3daefeb0bdc07648U, 0xbe01c5253e116b38U, 0x3dba5a823c40e6f8U,
  0x3e1875dcbd6169faU, 0x3b93f4073c9ca823U, 0xbbbd55b73b6cd5c9U, 0x3cf160463e062c7aU,
  0xbcf186e8be3a4652U, 0x3e02592ebdc25e5dU, 0xbcc22fd6bd3126dcU, 0xbd678c173be8bb08U,
  0x3cc6f7453d29093eU, 0x3d7b0dfd3ddb81a6U, 0x3cc72f55bd1b503bU, 0x3ba23f1b3d904101U,
  0xbd2de696bd7e4382U, 0x3e0de454be0173e3U, 0xbc7522983db9a609U, 0x3d3fa80a3ca7d2d5U,
  0xbe1540adbcdfe6deU, 0x3cab73ed3db9c674U, 0xbdc2aa693dec9c96U, 0x3c431d81bd1fe319U,
  0x3d00199cbddd6c5bU, 0x3e22c4963e0b24cbU, 0x3d5790b93c65a374U, 0x3aefdf753c84a97fU,
  0x3dbc9309bdafb354U, 0xbc02a43eba7d358fU, 0xbccc0d993d79a32cU, 0xbd37fac53d2c1032U,
  0xbe0e51e3bd296895U, 0x3d950f7c3d1e8b3eU, 0x3990ef88be2d6fe6U, 0xbe3cb6323dbc7155U,
  0x3e0dbb313c7cff7dU, 0xbda7b193bdcf49fcU, 0x3d646021be2370b6U, 0x3c40add43c98942fU,
  0x3d804b503bfb0232U, 0xbdb97fd4bca2420fU, 0xbbdb50433c9b7ae4U, 0x3e0d0b09bbdedb82U,
  0xbd5ce4bdbb743557U, 0xbd28fd4dbd8f78bfU, 0xbd6daacdbda49d81U, 0x3e9cbd923ce9c795U,
  0x3cdacd503f618ae7U, 0xbdaaac183cef4a93U, 0x3db01c5c3d171afaU, 0x3e4794133f260a0dU,
  0xbd0de0b0bf054f22U, 0x3e67d35dbe396528U, 0x3d1fb73d3f2f2fa0U, 0xba8440d33c881c7bU,
  0xbd09fd4bbd110a2aU, 0xbd1bb5e63c8ed6f9U, 0x3ca989143ca51e54U, 0xbe2720e6bd87d3dfU,
  0x3daa923abd788482U, 0x3df3d9923d26a640U, 0xbdef2aae3d0a5fbaU, 0x3d3ef881bd974fa8U,
  0x3e7400163ccf6727U, 0xbd803c533dab5610U, 0x3c2a4fcb3df001baU, 0xbd155add3db56a44U,
  0xbe2f12dcbc99ad64U, 0x3d0628f03d837f3aU, 0x3a389a9c3d13e49eU, 0xbe0eb29c3d06122aU,
  0xbde722ac3b26e1a8U, 0xbdb27ed6bd2a3258U, 0xbbfa23efbc158c83U, 0xbb8c4cd6bbe58fbfU,
  0xbd5953233db89f22U, 0x3cf5a7e0bda30648U, 0xbcffa9cdbe417339U, 0xbba18d9b3dc3cb98U,
  0x3d8d814dbcb9dadeU, 0xbde49e7b3cc1fde6U, 0x3e4b5e203dd62896U, 0x3b959846bbdb6dddU,
  0xbceb00053d8e3470U, 0x3da4aaafbc7f52ecU, 0xbc30ab75bd2a3d97U, 0xbdd788f3bd52d1e1U,
  0x3cb934b2bcee2412U, 0xbd41037ebcb06a5dU, 0x3c838706bca326ebU, 0xbd91e8b33e032af1U,
  0xbd5d2dd8bdc02faaU, 0xbaa5e608bcd78be8U, 0xbd069b403d853a33U, 0x3d3430533ba39c0aU,
  0xba447d88bd728a9dU, 0x3d12d1603c1613f8U, 0xbb13fd43bd8c28cfU, 0x3d21ab0fbc2f4f33U,
  0xbd186d8fbd5c3e90U, 0x3dc5c0d0bc1db70bU, 0x3e001fe33dad923bU, 0xbb8e7741bcd2875bU,
  0x3d6051d3bd147163U, 0xbe1149903e1734bbU, 0x3c7b3ba8bd29a614U, 0x3de538e7bd8499efU,
  0x3e6a8c3b3e06ceecU, 0xbd35710abb87457bU, 0xbd8d4d0bbce8556aU, 0x3d557337bd1f0ca3U,
  0xbda41bfa3dba0e76U, 0x3bbdda7abe33c793U, 0xbde9eb113d5ac372U, 0xbe11448cbdfffa71U,
  0xbd84fd7abd84d877U, 0xbd7c449c3baae66aU, 0xbda6b73bbd590637U, 0xbcf69939bc565e12U,
  0xbf5dd526be97ffadU, 0x3db8acbe3e0ca653U, 0xbf1bed123b75ac44U, 0x3db863a03df94258U,
  0x3f02865dbf77c408U, 0x3c57a0673f44f684U, 0xbf30b509bea1719fU, 0x3e80e48a3e13ae39U,
  0x3e1cde2fbe390557U, 0xbd19e125bdd4cb49U, 0xbd79143e3bcf002cU, 0x3d023d03bda8a8e6U,
  0xbd10a0a93d91a8c0U, 0x3b5bf56dbd8f29c4U, 0xbdaff926bdb2cb91U, 0xbc176dbf3df060c1U,
  0x3accc985bbcea45fU, 0x3ce3465bbd4f0bc9U, 0xbc18a4f3bd7ea98dU, 0x3e0ec2fe3d30e447U,
  0x3d85b086bd3ae891U, 0xbd4ec9fabd8c5475U, 0xbbc6962e3c1fcbc7U, 0xbd40cdef3dc2ef08U,
  0xbcefda703d70b1f3U, 0xbd215962bd9bc1ebU, 0xbc0802b4bd528078U, 0x3ccf11b73cd87d58U,
  0xbd5bddc13cc5e444U, 0x3db414eabcd2f2daU, 0xbd6ee5a33cff22ebU, 0x3d7aea8cbda96806U,
  0xbccd6673bc540d90U, 0x3d66ee903dd5fcb3U, 0xbce36a11bd0af57aU, 0xbd96e6903c050189U,
  0x3d1c14743d098227U, 0x3d31f571bd2529bbU, 0x3dbdcbf3bd89f6a8U, 0x3dc1c4243dd56911U,
  0x3da49aeabd9b0b33U, 0xbdb1e00d3cb8447eU, 0x3d958c7bbe000b80U, 0x3dddff87bb8df2c4U,
  0xbd1cef80bd393ef6U, 0xbe24d59b3d470428U, 0xbcd7c5a33dc1a150U, 0xbdc9fbefbdb48347U,
  0x3d19737b3dc59538U, 0xbd81376d3cb90a04U, 0x3d9817a6bd75f931U, 0xbdbf59433b3d26c7U,
  0x3c81c7c33d0fb291U, 0xbc8c979dbdba7444U, 0x3c91b3cd3e08a028U, 0x3d5382b73d06dc87U,
  0xbd65308fbe1a19a5U, 0x3d019dccbcef53ceU, 0xbdb9cd9f3dd391c9U, 0xbd492a5e3d884b0dU,
  0x3d9ac4a53d2883ceU, 0x3c925e8d3d5a1954U, 0xbde5c94a3cbfa8d6U, 0xbd8d4b36bb9b0011U,
  0xbca1344eba8bed29U, 0x3cae28c6bd6d9343U, 0xbd69a1443d6e5348U, 0xbce0d8603d196014U,
  0xbd110d90bc9b8602U, 0x3e17d441bd6f1e6cU, 0x3d15c4453d724771U, 0x3df3e3f73d2da067U,
  0xbd228918bd07c5faU, 0x3e552a353f226fe9U, 0xbd2b1209bee002fbU, 0x3f91e7e23e4b9edfU,
  0xbd444151be47d541U, 0xbf7359ad3e88aa69U, 0xbd8a6038be85c3f6U, 0x3e8417b13f184fc3U,
  0xbd957c18bec791c2U, 0xbdb5a6ee3e244542U, 0x3d99106f3e2c6f05U, 0xbd82e829bd8e60daU,
  0xbd6bf7adbd05b90fU, 0xbe17a3203d566bf1U, 0x3dc00e62bcefcc02U, 0x3ce7a35fbd721027U,
  0xbe1db37cb9cf1366U, 0x3dabfd07bd456e63U, 0xbd169bcabc872ee7U, 0x3e09e4953e2eac3fU,
  0xbda7494e3cd0e2b1U, 0x3df27cfcbc803b19U, 0x3d9399923d8f134aU, 0x3cd9187cbd5b9279U,
  0xbd21c142bd7aef7dU, 0xbdf2257e3c42b6adU, 0x3d1f88c8be079652U, 0x3ce06ebf3dda0352U,
  0x3bf8715a3ce7b462U, 0xbc88e4d4bab5de93U, 0x3e26c0a93d94705eU, 0xbd244718bc4567a2U,
  0xbc8cfa903cb30aedU, 0xbd83954f3d8b90aaU, 0xbdaff599bdb9afadU, 0x3d310c723d2324cfU,
  0xbdeb9f06bcaf2343U, 0xbd689049bd68b79cU, 0xbc95ebe53e2c79b7U, 0xbc01ef4b3d9665d1U,
  0x3d8be708be0fa099U, 0xbd2ba7653def958eU, 0x3cbd89ce3c8c0170U, 0xbda43671bd72d728U,
  0xbce9e4a73d97f863U, 0x3d1186da3d09ed3bU, 0xbdb44e343c55de19U, 0x3d871554bbc7e853U,
  0xbd4ca80d3e195cbcU, 0xbdd7d0f8be07336dU, 0xbd903889bd318730U, 0x3d44360a3d847d5eU,
  0xbc0e7dadbd7ba381U, 0xbc1973963d238637U, 0xbd5c015d3d4ba337U, 0x3d8ad85b3c152274U,
  0x3d46cfeb3c98c854U, 0xbc7d3db3bd96f5cbU, 0x3dd7dc023ba34a63U, 0xbdb73051bd67ac06U,
  0x3e44cf673d20103dU, 0xbd3fabcabe46cacdU, 0xbda2bef53cf5da39U, 0x3e617079bd2b20b7U,
  0x3d1338443d2f5b91U, 0xbdde21b93c32a238U, 0x3e150502bd15e9b4U, 0xbbfeb6c63e0eff71U,
  0x3d7a0527bd5f2f19U, 0xbd4d7ac7bd28a275U, 0x3e16638a3dea8690U, 0x3e1450c5bdde2b76U,
  0xbd9d49b63db3dd33U, 0x3ddd47b3be25b678U, 0x3ede8d3f3e207f88U, 0x3de2c913bf1b1900U,
  0x3ef4b3013d15bc3fU, 0x3e1f11a53c0fe544U, 0xbf0bfb3d3f38e081U, 0x3e6b52d3bf28d3e0U,
  0x3ebcf9cb3e8a368dU, 0xbcf7d0bebf063f68U, 0x3c9ec6413cb5e16dU, 0xbe1ab2b8bdc163daU,
  0x3d6945ffbc3fe89dU, 0x3cd2b98b3d937201U, 0x3dc512993cabee88U, 0x3e0a9ad6be08db0cU,
  0x3d463333bc36103cU, 0x3d0244543cb5b010U, 0xbbaec7bebdc2a7b3U, 0xbdc5e5643e1e912fU,
  0xbe0cb17d3db7d841U, 0xbdb4b1383d3562a7U, 0xbd37cdb6bc9b234eU, 0x3dd173ab3decc1bdU,
  0xbdbc91dd3bc35e37U, 0x3c0dec743e372c9aU, 0xbda92cb93dbd1771U, 0x3de49decbe12c679U,
  0xbd3451ecbd3d1bc8U, 0xbdbf296c3be9a64fU, 0xbdc578903dba1a69U, 0xbd26f17fbc3bfff8U,
  0x3d1ee055bd9715c9U, 0xbd69f0bbbd792d8eU, 0x3dbf85f53c9695f1U, 0x3e20b29cbe63cf46U,
  0x3b07d3713d58bcd9U, 0x3cf27448be02d319U, 0x3d5d0987bdb27185U, 0xbdd0f80ebdf88251U,
  0x3bda6eb43cef080fU, 0x3cab0e3cbe7574d7U, 0x3de73426bd85275dU, 0x3d8fa9ab3d1b51d3U,
  0xbd00e7633d339950U, 0x3b5370a33dd53957U, 0xbd927ccdbd925fffU, 0xbd87565ebbb3ae42U,
  0x3d86607c3d082850U, 0xbd2fe6363cb457f7U, 0xbd2b8dc9bdf0ba94U, 0xba427e0ebddce3e0U,
  0xbcbd9f273bc7c1f2U, 0xbe1ccc863d5e91dcU, 0xbdf3e7873e12c33cU, 0xbe254503bd3a013cU,
  0x3d20f55d3d68a267U, 0xbcf21f64bc7e7196U, 0xbd4dc2bf3ceb3015U, 0x3c318ada3db4853fU,
  0xbd83f958be0e16a5U, 0x3d94eb95bd101e8cU, 0xbc34d210bd5244d0U, 0x3e089026bd90dea7U,
  0xbdc752d43d10c1dfU, 0xba8c09113d9f44d6U, 0x3bc24b46bdddf48dU, 0x3da989f9bda32b59U,
  0xbda39e92bd03a95eU, 0xbd07d8863d5a20f8U, 0xbd7f1dad3d49a900U, 0x3d9e82bebdb3a69aU,
  0x3bb80be73c34387dU, 0x3dba812abcdb4e8aU, 0x3d9aeb163daadbe0U, 0x3f1bb3a4bf00293bU,
  0x3a472c3fbd3bda49U, 0xbf166874be900600U, 0x3d5b2a273f04015cU, 0x3ee2264c3f2afb0eU,
  0xbdcea8d5bf25d5c0U, 0x3efa2066bee26ddeU, 0xbde1684dbd4ef68bU, 0x3e85cab3bd57d3d7U,
  0xbdb16bfb3ce3398cU, 0x3e08628cbd2c31d9U, 0xbc8631d23cdb5f21U, 0xbc93c72d3df9ed46U,
  0x3dd0b94c3d32c4f7U, 0x3e28ad6d3da2a750U, 0x3d3b031e3d6aadd8U, 0x3cf83073ba88e613U,
  0x3bfc0603bda55550U, 0xbd72f61c3d9d0a04U, 0x3d66edf63d676392U, 0xbdecc4cc3d0f81dbU,
  0x3db063b43d01ed4dU, 0x3d439fe63d3fb392U, 0x3d94901e3c23f685U, 0xbd92681b3e55634aU,
  0xbdf0c7383d96f014U, 0xbdcad21dbc9797deU, 0xbc38c0e4bd36c231U, 0x3d56f38cbdc561aaU,
  0xbc8cfa273e029f08U, 0xbd83baa2bd213791U, 0xbdc79ce3bba2f52eU, 0xbd8960db3e16531fU,
  0x398123bbbb1091a5U, 0xbd7b5e003d81708eU, 0x3c8f8a5f3da8c3f9U, 0x3cc4fff93cae647fU,
  0xbb61f7f43cedd1c9U, 0x3e0072633d95a38bU, 0xbcddf62c3d3fb916U, 0xbc7c5b4e3d8d7507U,
  0x3d8835f83c56b3b4U, 0xbce01ab0bd87100aU, 0xbc912f853df554f2U, 0x3d489baabd52822aU,
  0x3b581fbabddc219fU, 0xbd880a893d5fbac6U, 0xbe3d435b3d801e9aU, 0x3d8c745b3d24bc54U,
  0x3ce8b6e1be3ebcd8U, 0xbd97683cbb2fb24bU, 0xbcc7fb423e27d340U, 0xbc00ad6c3d81ab50U,
  0x3ba3b5cb3db37d38U, 0xbd2c119cbd361531U, 0xbd205e9d3d970804U, 0x3d319a1d3d759eb2U,
  0x3cec4444bd079ae7U, 0xbd34be743d10ceb3U, 0xbbf43d083dbad701U, 0x3d6ff0b0bd53d716U,
  0x3c49fecbbdafa807U, 0x3dc401dfbcf1d042U, 0x3d219e32bd07b404U, 0x3c223fe33cdd5300U,
  0xbd9e8496bda8a1f2U, 0xbd910a9fbd95df37U, 0xbde35b0cbd145bcdU, 0xbd6d403b3db38124U,
  0x3d33fdfcbd6bb542U, 0x3d72061e3df98deaU, 0xbd720af13ded7339U, 0x3d09c1333d77b238U,
  0x3dadd014bd2cbc97U, 0xbdb3bd73bdbee5d2U, 0x3db291bc3f25e912U, 0xbd9a350bbf4594b7U,
  0xbe0d04ed3e154a89U, 0xbd78a93fbe38f0f5U, 0xbc1bc59ebc9b32f6U, 0x3d10539cbe2c741cU,
  0xbef0c0fd3cff0dc7U, 0xbd91bc233d830a59U, 0xbda43d51bc92efe7U, 0x3d4e8ec5bcd9711cU,
  0x3d8b66b6bbfe7837U, 0x3c965ed8b9e5a6c3U, 0xbd0e1c9f3ab600e7U, 0xbe0113243df19bcfU,
  0x3da43859bcae3586U, 0xbde52e82bd4516d7U, 0x3da9f6c73e0e5e92U, 0x3dc38f75bd95f001U,
  0x3d0d00963d8ebbf9U, 0x3df7d5a7bcc974daU, 0x3dc1d2b83c94c9faU, 0xbdbcdcd03d976753U,
  0x3da3885d3c71066bU, 0x3d8dac893d9fb352U, 0x3da7f9b53e4278cfU, 0x3d194b1a3e4d2c88U,
  0xbe2a6940bc421cabU, 0xbd9963883e5f8e0bU, 0xbd62dc5dbddad80dU, 0x3d809c72bdfead33U,
  0xbe18d85a3db93b23U, 0xbd4835523c880e8dU, 0x3a8c9d97bcd6f0fbU, 0xbd351c3ebcdd0e3bU,
  0xbdd155493c6dd2a0U, 0xbdf22518bdce4551U, 0xbcb32160bdc381e1U, 0xbda62fcb3e2fef49U,
  0xbcccf80fbd90f38aU, 0xbdfa0549bdd67195U, 0xbdc51fbcbdf78f29U, 0xbdcbd2dcbdea99ddU,
  0x3c700b99399fabcdU, 0xbdf3e2073dd4fa1dU, 0x3d86aa5e3d1ae1e0U, 0xbd394278bbf450a5U,
  0xbd6e9a9cbdd0c5c9U, 0x3e474c36bc9bc7c7U, 0xbd24cc42bd67d3e8U, 0xbe03425abe18c43fU,
  0xbd7fc35f3d38cdfbU, 0x3c9dd1203e477c2bU, 0x3e1b2e993c1ec513U, 0xbe4ecd01bdb49660U,
  0xbdbcdfd2bd9d3cccU, 0x3d8129f73decfe47U, 0x3de072523d58a0dfU, 0xbd3cedc13ca59aadU,
  0x3d4f850d3c885cf8U, 0x3b0adb9bbced0886U, 0x3daf72c83dfb039cU, 0x3d6d15093d1344ceU,
  0xbda1a0c23d0cc398U, 0xbc9c52dd3e0b09a8U, 0x3e3163c0bdb1c236U, 0x3e2fa0e43ce60a51U,
  0xbe0a6f13bd9a1c6eU, 0xbc9075d63dfd15e0U, 0x3de3f63dbe230681U, 0x3df94c873c21f867U,
  0x3d9bdcabbdec4784U, 0x3f0f366a3e6d6694U, 0xbd8b1c7abf13880aU, 0x3ef109363e37ace1U,
  0x3d4bdcc2be963c85U, 0xbef9e8603f4ebdd0U, 0x3cf14da0bf27ebf7U, 0x3ee70e0d3e964469U,
  0xbe128814bf0ddf17U, 0xbdd0bd3e3c3549a4U, 0x3d0885bd3c92f483U, 0xbdd51c0e3d8de734U,
  0xbd470505bdc8980aU, 0xbd2ff40839a1e860U, 0x3d546cd2bdbe9df7U, 0x3d21f0e13d8a6a51U,
  0x3c28b601bdc69bf1U, 0xbe02c960bd7f5233U, 0xbd55a0eb3de6aaecU, 0xbda46410bd4d092dU,
  0xbd8b06f9be4578c0U, 0xbd20674d3b550263U, 0x3c610bfa3e145493U, 0xbd3950e73d27dfd7U,
  0xbe0143523e6393e8U, 0x3d01fd1dbcd5b116U, 0x3c3eeb30bb49c773U, 0x3db6bad93dc15268U,
  0x3d8284f1bd98ec8dU, 0xbe0ebdff3dcbc825U, 0xbd51cced3d3aca7dU, 0xbc5e6132bd6900a3U,
  0xbd3b37c8bd7f50a4U, 0x3d0bdfc4bde14522U, 0x3d1ec23abda79de9U, 0x3d8a41d9bdcca8e5U,
  0x3d4e379e3d9f5b8bU, 0x3d7c0000bd9490cfU, 0xbccfa3633c8fc9efU, 0x3e31df8dbdc58c79U,
  0x3d83e228bd5f674dU, 0x3e0224933da783f6U, 0x3d3cb1b3bc75107eU, 0xbd7290e73c976051U,
  0x394ca5a3bd9ce65aU, 0xbd614d28bdec553fU, 0x3df62ec7bd9f7b66U, 0xbc7d2523bc76be71U,
  0xbcf5e44c3d8384eeU, 0x3a4765d5bd027d01U, 0x3c2709a43c816da6U, 0x3d12f0f8bd823a7fU,
  0xbdb0d534bd97b568U, 0x3d3ea912bbd01c6fU, 0xbde422133e1a0335U, 0x3d0de8933c182fe7U,
  0x3df6453cbd9f3ccfU, 0xbd04b0b63dcd918fU, 0x3dd65280bcea9ff8U, 0xbdea51263d66d8dfU,
  0xbda67f383da1e4d9U, 0xbd7933edbd14a377U, 0x3dc35ba4bd8687ebU, 0xbd3cf23b3dd44ad2U,
  0xbc8ec11d3bd918eeU, 0xbdad3127bd8d75e8U, 0x3d76885c3d826031U, 0x3cfc61ef3cb8fcccU,
  0x3e4731bdbe426e48U, 0x3d1cbbc13e593494U, 0x3cfb52fe3d35e2baU, 0x3c85a24bbd59b093U,
  0xbd91444a3d19f375U, 0x3dc1ddc43d24a4c7U, 0xbf10a14d3efc583aU, 0x3d04af1b3eda3a0cU,
  0x3f0bad073c41e2adU, 0xbcd6fa8ebe897150U, 0xbedbb39bbf669468U, 0x3d937d893f40a76fU,
  0xbe52d4b33e810943U, 0x3d7749df3ec0cf3dU, 0x3d7efca03b24dbb2U, 0x3c3efe2fbe10a65cU,
  0x3d4acff43dbaabfdU, 0x3ddc5a1c3de5f4f1U, 0x3d555719bd86e52cU, 0xbd90c230bd55f5e5U,
  0xbc139f5b3caecd2eU, 0xbd58c5dabc58fceeU, 0x3da4e8323c4b846cU, 0x3decbe68bd0dbc29U,
  0xbcbe894d3d3e209eU, 0x3d63bf52bc2737e6U, 0xbe2b7d653d6ca4aaU, 0xbdd77f7d3d83f661U,
  0x3d9d68923c6ba640U, 0xbd82b87a3d8867b1U, 0xbd3bd012bdd813c5U, 0x3d90c970bd36c474U,
  0x3b96f5103db6b146U, 0x3db41741bd4526f9U, 0xbc8702933dbb552eU, 0xbe426a93bcf8d598U,
  0x3e344410bb55dd24U, 0xbd4b34853c1923fdU, 0x3c2568f2bd31c382U, 0xbcd7b4313da6cd01U,
  0x3c24aaaebdcad0beU, 0xbd70a8603dba5c37U, 0xbd0fd2acbe2dec51U, 0x3ddfafe7bd902745U,
  0xbe0120f0be3680e8U, 0x3d6b0740bcab7991U, 0xbdd0c2e2bd643097U, 0x3cb38e11bd44bbb1U,
  0x3bcdb935bb9bbc47U, 0x3ddd7a31bd8e68d2U, 0x3d80d1acbd790299U, 0xbe0aa80dbdabd87aU,
  0x3d1ca88dbd7ffb8bU, 0xbdc833eabdb47657U, 0x3d6d0195bb2cb484U, 0x3e2e329dbc554d8cU,
  0xbcde049a3d361bc6U, 0x3dc297f03bba8ab8U, 0xbd4a4a3abd8c1eb1U, 0x3e076cb4bc786e98U,
  0x3dfaa285bac3a232U, 0xbdfaeca7bdadb34bU, 0xbe1f95613c2565a3U, 0xbd0ae9f23cd56de6U,
  0x3cebfb10bd852065U, 0x3c621319bddefa04U, 0x3d452a6a3ddb2251U, 0xbbfb4dd5bd89f640U,
  0xbc4c391fbd2ebda1U, 0xbdb9f1733d09844aU, 0xbda6f50c3ca7cd8eU, 0xbd8286b9be02cc1fU,
  0x3c3b094fbd1558acU, 0xbd5e155dbdd190b3U, 0x3e00a921bd904759U, 0x3cbede67bce7550cU,
  0xbdb2c3d73c152fa7U, 0xbe2f26e13d18a83eU, 0x3bddafe1bca9ced6U, 0x3d33ff4e3e56b453U,
  0x3c99ee3dbf07116fU, 0x3e4caafebe3e228eU, 0x3c7f88f23e23c329U, 0xbe2868cfbe38730bU,
  0xbcb2317e3dd3aa4bU, 0x3d7233c53e22815dU, 0xbd28f2fabef00fddU, 0x3e877d33bc905c4eU,
  0xbcd8c7e13a7b7554U, 0xbe2096023e0108abU, 0x3d6cfc553c696ae3U, 0x3da2b6d43dcb72f4U,
  0x3dc5512d3dbc45c2U, 0xba7f8a6bbe18ed5bU, 0xbd03613ebda482a2U, 0xbe2c268dbc8585a5U,
  0xbddbae1bbc4e3bd9U, 0x3d84e0f73d25d106U, 0xbdf655a3bd1649acU, 0x3e1d3da2bc6ca367U,
  0x3e37ecb23d943b58U, 0xbcc20ce93b086262U, 0xbd186b8a3ce1066bU, 0x3b6dcd433c33f18fU,
  0x3ceeef75bdf1c177U, 0xbd75ce61bd862edaU, 0x3daf9f533ce93a09U, 0xbbfa29393ba8ed81U,
  0x3d5d640c3c6a5e31U, 0xbcee5ca8bcf21dccU, 0xbcbc7b5fbcd1c9a4U, 0xba6c31b83d7ee791U,
  0xbe4f7b29bca15274U, 0x3d61e58b3d0c304cU, 0x3e0e4b29bd497ec2U, 0x3d52b079bca62912U,
  0x3df9ef823d59c75bU, 0x3d62c7333d9abb8bU, 0x3de24843bd9bd86fU, 0xbd9b5bd93cf714acU,
  0x3dc97aa4bcb99df3U, 0xbc0a6e793d87dcdeU, 0x3bead8563ab64322U, 0xbd16d2703bcc3e87U,
  0x3d2c650e3d758094U, 0xbe1b0c2b3dc004f4U, 0xbe1fcd143dd25259U, 0x3da7fe843d9503c7U,
  0x3cf1ebe0bd529d7eU, 0xbd68b740be00d0faU, 0x3da4d2dfbd8f7d82U, 0xbe0dc6e73e1849feU,
  0x3d144f583e2209c2U, 0x3d142eaa3df0f149U, 0xbdefd26fbe3122b1U, 0x3d9e45cebdecf550U,
  0x3e4763e93d4db3fdU, 0xbd202ecd3d9ffe80U, 0xbd95b39abdeff71dU, 0x3cbce2da3e17c0e3U,
  0xbaf5d3e33d4d6dd9U, 0x3d737cab3d8ef0d6U, 0x3db2377f3e26c631U, 0xbdf8686bbe14ba99U,
  0x3e4b140abe1153a9U, 0xbc6d5a78bcbe8f0fU, 0xbe44ac6abc923ca7U, 0xbe4ad7803e29073bU,
  0x3c9510723e0e00b0U, 0xbcb856c5bd1cfa83U, 0xbdd436193d360c61U, 0x3d9228f6bbe76f6eU,
  0xbee59af5bf58dfeeU, 0x3dcf889cbf0d08e6U, 0xbf3e1446bd740e87U, 0xbdb7fa753dbb7246U,
  0x3efb1b9fbea498ccU, 0x3dbb713a3ebd8339U, 0xbe4e4748beeea7a1U, 0x3c7ac251befaf346U,
  0x3de41979bdc88536U, 0x3dc126253c0b3133U, 0xbd2733a8bd802858U, 0xbe0edb39bd008743U,
  0x3d22a691be2930cfU, 0x3dda0c6ebd5ae7a3U, 0xbde454263d5d9d6eU, 0x3dcbec033e6ba0c3U,
  0x3ceb90df3dfdfa4eU, 0x3da62d453e634a6dU, 0x3d886f3c3d983d5cU, 0x3d1db1093c8ee92eU,
  0x3d05b55a3db72fa5U, 0x3c754da13cb73dcaU, 0xbb405a243d2ade9bU, 0x3b8a11de3e61bffaU,
  0xbdbf2c2539860eb6U, 0x3c839b93bd97ccedU, 0x3d14a955be3dbf63U, 0xbe6d62c9bda72bf0U,
  0x3d9a450c3d5ff952U, 0x3c2921e2bc2e414eU, 0x3dcdf3eb3e4bfdf2U, 0x3e1a8037bd109961U,
  0x3e0142143e048274U, 0x3daf2c9dbe7d40d6U, 0xbddbc4a93e2f5ed7U, 0xbd9a30113db216efU,
  0xbe0ad0843da33d77U, 0xbe15ba63bd00bca5U, 0x3c224c76bcc88926U, 0xbdb00b87bda606c3U,
  0x3e05b15cbdb151eaU, 0x3d8bdd103bc0cfceU, 0xbd3cbfda3db1cd75U, 0x3d1307d0be425113U,
  0x3856d1c2bd7a53afU, 0x3df155f1be1810e4U, 0x3dff2930be2cd958U, 0x3d94ffafbd35a498U,
  0xbc636f363d888507U, 0x3e050497bdaeeebbU, 0xbddf88663d1b2143U, 0x3d9cb8243e5298abU,
  0xbdcf3d59bd9c700fU, 0xbcd62832bdb25aa7U, 0xbd9c9ddabd931441U, 0x3d63712cbc005bb8U,
  0x3e0c92ee3d638e67U, 0xbe450ac53e2622efU, 0x3b8da44cbe3eb6dbU, 0x3d16bc8dbdb5b398U,
  0xbcfee938bde74af8U, 0xbe20a849bdc47229U, 0xbd06b5e73dbc5e12U, 0x3e04c32ebda38bf2U,
  0x3e02fcad3e8827cdU, 0x3c745a283c27c8c7U, 0xbaec858d3de11c82U, 0x3d946573bd73ee9dU,
  0xbce5e26b3e0b48f1U, 0x3d41ce973d770d36U, 0xbd25e0aa3e286000U, 0x3de696023d7130e1U,
  0x3ddc844cbc824f86U, 0xbea27d75be3fea13U, 0xbd9ad938bf2b2402U, 0xbea459dc3f1a64d4U,
  0xbd2617ddbf55d823U, 0x3d53192abf02c5c2U, 0xbe0792b73ec91813U, 0xbe51da1dbdeb1796U,
  0xbd88ec1bbf2d3cabU, 0xbe9a3dd73bc9322aU, 0xbdbec7753d82e374U, 0x3d8c044e3e72b35eU,
  0x3d3ad0ad3cc26eecU, 0x3ae9c5223e1f4560U, 0xbcb0ece8bc676e41U, 0x3dbcc0f3bd370b1bU,
  0x3db60185bd4a3bc8U, 0xbcd4dcb5bd108e27U, 0xbe3bb7893da0c067U, 0xbdb5851a3c6c6c6aU,
  0x3da50e73bcb3f3bbU, 0xbe14430d3c5e62efU, 0x3cf299153c046608U, 0x3cf46c153d93bd79U,
  0x3e0e01fa3d1e4968U, 0xbdaec526bddc628dU, 0xbd97c9f8bd848697U, 0xbdc78a8dbb10a8f5U,
  0x3d894150be25564aU, 0xbcffe0fb3cf2d9acU, 0xbda41de03de9d915U, 0xbd8debbfbd54e19fU,
  0x3e012dce3e2b3688U, 0x3e13ea553d291cc1U, 0xbd836b183d349258U, 0x3d789a00bc7afe69U,
  0xbda1722d3bebbda1U, 0x3d6cf8ce3d5765f5U, 0x3e23d2d23dabc57bU, 0xbc6b42d4bdd64855U,
  0x3dd166bdbe080455U, 0x3d9bd8bc3c930d58U, 0xbe2a5cf7bd2db7abU, 0x3c612a263d997543U,
  0x3c1e86273c80fc51U, 0x3d012912ba782fbdU, 0x3e3490083c964818U, 0xbd9669f53d68b7e9U,
  0xbde144823baf83a6U, 0x3cb059e8bd96eeedU, 0x3e26ce14bd914075U, 0xbcd67bddbe0e9285U,
  0xbda88d803dd4169bU, 0xbb20ac43be0284a0U, 0x3d970d90bda0342bU, 0xbe08368b3e5153ceU,
  0x3c7d32233d191296U, 0xbdb898a43c202135U, 0xbcf426d33e045a67U, 0x3ba9cf763c05a1dcU,
  0xbd832d533d9078c4U, 0x3e1b83983d610c1cU, 0xbd706beebe11e9f7U, 0x3d764c0b3d209f1cU,
  0x3d13a181bce5367aU, 0xbc631b973df4f0dfU, 0x3e3cf013bc0e85c8U, 0x3dec34febd30e495U,
  0x3d5b6df7bd22cb46U, 0x3d9fe9873cc147c7U, 0x3db25fe9bcbfec9fU, 0xbc898d58bbf92b85U,
  0x3e20c1d0bd1fd3feU, 0xbac3508fbe123026U, 0xbd537b25bf39878aU, 0x3d977d44be994cb7U,
  0xbf77142bbd0e0ea6U, 0xbbe20cb5bd85226fU, 0x3f22f7df3e0d52f7U, 0xbce7e99bbe421869U,
  0xbdca02aabf1a16adU, 0x3dde100dbe70f8f0U, 0x3d5234ffbe1921d6U, 0xbca724353e52e525U,
  0xbc9d672dbd2893efU, 0x3db796dcbe5118bdU, 0x3dca2022bd431ad9U, 0x3dd7a2c6b8cef6a6U,
  0xbc76882d3e3b21d5U, 0xbb64d0dcbdd01729U, 0x3dd001e63e0dfd40U, 0xbda76dd53c0a0f4cU,
  0xbbc858f7bd0218b1U, 0x3d8bc6e3be087b63U, 0x3d808f3ebd123abeU, 0x3c63e5d73e10e894U,
  0x3c271ceebd338018U, 0xbdcefc063d389203U, 0x3cb1e0a63e1ce1aeU, 0xbd1b0bca3b9dfea3U,
  0x3dfd707cbd54351eU, 0xbcd344ca3d44b58eU, 0x3e3f0b8fbb9153fdU, 0x3dd55a103dc67efcU,
  0xbdfe6e0fbd8a51e1U, 0xbcee8b0cbd867fd5U, 0xbda84011be4c35a2U, 0x3e03d3053db8e976U,
  0x3e535e2fbdda2c50U, 0x3d917d173daff75eU, 0xbdf12a24bd7a5a56U, 0x3e1c6d6dbd6f077aU,
  0x3daf5dd3bd9d1083U, 0xbd87f31dbe4d3e3aU, 0xbdb78b10bd374a8eU, 0xbd8b8ec7bd8bec30U,
  0x3df0e97dbc86c741U, 0xbc8b1cd6bded45ceU, 0x3cb6a07bba099396U, 0xbe7365673dd27281U,
  0x3d2151f03dff2e17U, 0xbcc0e97b3cec56ebU, 0x3bfdf4cabe586ad7U, 0x3dd7c8083e1613acU,
  0xbd2deaf3bdbbcee0U, 0x3d2cdc4c3d468462U, 0x3c3baa073d34630bU, 0xbcf083f43d94fcd4U,
  0x3e09d7563c0c74c1U, 0x3d2fe220bc8ce59dU, 0xbbbc1d21bcc5c868U, 0xbd6cff0fbdc0b684U,
  0x3d8981863d16a13dU, 0x3c9136c8bd02962aU, 0x3e250e67bc60f19dU, 0xbdccd9db3c93398cU,
  0xbd6274903e163884U, 0xbcc404f0bd9daddeU, 0x3da4eb8abd5257ddU, 0xbdf085463d4f1f47U,
  0xbdb7bc7e3d0674c5U, 0x3cd04eb4bd36967bU, 0x3d92fda13dba0775U, 0xbb794a633e08d8baU,
  0xbce391543d3906b1U, 0x3e2fe7db3d11ba9eU, 0xbc4980f23df4e8a6U, 0x3e81ad18bd2d8af4U,
  0xbdafd948bf885967U, 0xbe00afe5bdd8dbbdU, 0xbd0072c13e76a1c3U, 0x3d7348bc3f2a36a8U,
  0xbdbda745bee95d76U, 0x3e2a8c1fbccff0baU, 0xbde540a2bf4883a3U, 0x3d590641bd41dccfU,
  0x3e24eeb2bda84423U, 0xbe050b1a3dced441U, 0xbd604f3e3bcca638U, 0xbe03092cbca741a3U,
  0x3d4ee3443df60c83U, 0x3d90d2683d2334fbU, 0x3e0abdb83bb0ac78U, 0x3dae6329bb0660b2U,
  0x3d165c943d839545U, 0x3be7c34dbe4417b7U, 0xbc1b21fa3c8ea37eU, 0x3b20f4713df082e3U,
  0xbd0406943daba79dU, 0xbc8632eb3e41e7cbU, 0x3df0ff4ebe329397U, 0x3d2c2268bcf71941U,
  0xbdf54ffebd45e587U, 0xbe039ea2bbe62025U, 0x3d74ea3d3e0dae59U, 0x3dcba25f3d9d6857U,
  0x3d20e97c3d51ef15U, 0x3d409e97bd0179afU, 0x3ddbed903d9d043cU, 0xbe1a17d03e004219U,
  0xbd5ec9ef3db8ac7cU, 0x3d936af2bd30f316U, 0xbd9f45c53d01918aU, 0xbe1a44f5bd3a5ff0U,
  0xbcc32c923cf8942aU, 0x3cc70491bc9f449eU, 0xbbed5f72bc546ce1U, 0xbce52b17bd199433U,
  0xbdf5dd1fbd2f4da4U, 0xbe86d601bd99ed1dU, 0x3d8be99cbd497071U, 0xbd2534cb3e3b3b68U,
  0x3c6b767f3e1305dfU, 0xbcd429c5bde32f66U, 0x3ce17efebd8ab033U, 0x3d35553d3dc00684U,
  0xbda2c70f3da5b5dfU, 0x3d1d184b3d1dd5abU, 0x3dc7a0f13c1408ffU, 0xbc010e633e07f3e3U,
  0x3d3754a03d5649c6U, 0x3d6db5c8bd514981U, 0x3a19573c3df37f58U, 0x3d4450adbe265da6U,
  0xbd5c19f13e0ebc5eU, 0x3e2904673d1d56bbU, 0xbdd1526cbd265067U, 0x3d7176563de7893aU,
  0xbd2d2b8c3dd4a726U, 0xbd2bd7703ccadca2U, 0xbd9442483cc38e31U, 0x3d9020593d606d14U,
  0x3a8c060fbd329808U, 0xbd93e46a3df98c29U, 0xbe2ccebe3d90d9e2U, 0x3c9ce84a3d726ec9U,
  0x3e6012983d78b6adU, 0x3e8122643d70c180U, 0x3c819abb3d0d19d5U, 0xbd880a1d3caf7f3eU,
  0x3f6ecc7d3f3db0b4U, 0xbd1cccd93e34dea8U, 0x3f5d0f18be9e9ac1U, 0x3d4b05a63e54dbe7U,
  0xbf2d1fc13f5815aaU, 0x3da448b5bf3d649aU, 0x3ee9d9713f1486bbU, 0xbe1c17153eaa831bU,
  0x3e145c5c3e298d37U, 0xbe0f252ebbd7c797U, 0x3dc81964bcf4d28dU, 0x3ca8327d3d0788b1U,
  0x3e14f49a3d9af2cfU, 0x3b09330dbde0c157U, 0xbd7fe3b43d3f2abbU, 0x3c00c1883ddd9257U,
  0xbe0091fe3ccca85dU, 0xbd7c17103dc5b84aU, 0xbc0ca80dbc58318bU, 0xbd22f08abbafc8e5U,
  0x3d28e88fbc9d14daU, 0xbd347557bd31540bU, 0xbcf1351abd5c1fdcU, 0xbc674aae3da41a75U,
  0x3cbb5c51bc24d45dU, 0xbd63c9d53cad2226U, 0xba160b363e300e54U, 0xbd9fdffc3e1cac37U,
  0xbc4d81e1bd70686dU, 0x3baffc053c626733U, 0x3d8658d03d11a5bdU, 0xbdd5445abe2d9e93U,
  0xbd555e9d3d0db0f1U, 0xbd8ae72ebd04a832U, 0x3bba6c02bd50ad13U, 0xbc9923cb3d3cd617U,
  0xbda877f63d3c0d53U, 0xbdc247eabde83bf1U, 0x3df7836cbe26e619U, 0xbd8c8f30bdac79feU,
  0xbcd30edfbd9fac74U, 0x3df38f69bdbb013dU, 0x3ca0828e3c85d155U, 0xbcad4b473da1bd26U,
  0xbd0a4d6f3abb2061U, 0xbd37e0cc3d590f33U, 0x3dda4913bdc2d15aU, 0xbd85a207bd14d670U,
  0x3e2ecd77bd70213dU, 0xbc71b2df3dc31938U, 0xbded5ae7bde124ecU, 0xbd83dc80bc4d9ad4U,
  0xbe2283b43d73135bU, 0xbd38377f3d84b9d0U, 0xbdcb24c7be511bd3U, 0x3dd17cc43e4a82baU,
  0xbd5b6ae03d153c5cU, 0x3cc6911b3a29e262U, 0x3d0450f83e31baa9U, 0xbd17c9b1bd051ab7U,
  0x3ddb2bb8bdf82d06U, 0xbcb97166bd416d72U, 0xbda3ce23bdfb5772U, 0x3d63bc65be0415dbU,
  0xbe5e8733bbd9a725U, 0xbce26754bca8ea1fU, 0xbd951b0cbdc0f98fU, 0xbd1f232fbd05915eU,
  0xbbf87fa83cb53a7cU, 0xbdbb6a483d7e6034U, 0xbce9398e3e2044dcU, 0xbdad4a2f3d25cd87U,
  0x3e1775b6bdbeceb7U, 0x3e9cfb013ec20719U, 0xbd31131ebe4fb27cU, 0x3f4387303ded6062U,
  0x3d0da55fbbc15c99U, 0xbf25d65e3dcc91f5U, 0x3d2d8002be5c403bU, 0x3e0effa83ed311e5U,
  0xbd0e1b62be097681U, 0xbde1c7733ce96782U, 0xbd0026643db19d51U, 0xbd0e3f4fbd9cc1beU,
  0x3d65e1e33c8b9d0cU, 0x3d5bed523e1d282aU, 0x3d392123bd8827d4U, 0x3ccbe2583e045b50U,
  0xbe034c363c20a0fcU, 0xbe0fca31bc005b94U, 0x3d4e24643c16eb6aU, 0xbc06cdd5bceba336U,
  0x3defce1a3cc73aebU, 0x3d70c37a3d696969U, 0x3d93ed803d551760U, 0x3e38436c3d98260eU,
  0xbd3e573a3d0986d1U, 0x3c4b2bbd3d2ce824U, 0xbbb146f7bdf6fdc7U, 0x3d3663f13b310f0cU,
  0xbcc79edb3de510eeU, 0xbe0240f2be021e4aU, 0x3dc56b933c16c289U, 0x3d88dc4abd47f1e9U,
  0x3d6139303d3c6969U, 0xbdbcca643dbde0f8U, 0xbda185ac3ce7b537U, 0x3d99bad6bb92ce79U,
  0x3d301ce7bd974aa2U, 0x3d7ccc50bd125bb7U, 0xbd84c7a2bd8ee676U, 0xbe11ed5fbd04a7b9U,
  0x3d64dd3ebd8f2be3U, 0xbd9e30d83c4ce492U, 0xbdb430cfbad520bdU, 0xbd0c70b83d765a71U,
  0xbdd1b4d23d39c3e5U, 0xbd1db9393d647a9aU, 0xbdc29e163e019d28U, 0x3d81cb05bd9d5f3cU,
  0xbd2dfecd3d522028U, 0x3cc507d73d6e5e14U, 0xbd2504013d5f6925U, 0xbb9becc23e12bfb6U,
  0xbe44554dbde4acd4U, 0x3db225c33cb68539U, 0x3da129373d3bf7a9U, 0x3d7c59783c5d6de3U,
  0xbd4cf35abd5aa9a7U, 0x3c14e429be46b8b1U, 0xbdf1cf73bd4e1b72U, 0xbd2347ae3d408210U,
  0xbc6a7ffc3ba49ebbU, 0xbd4bb602bd3a1f56U, 0xbda004a2bdc35652U, 0x3d0b4629bd4ad40dU,
  0x3d30d9b13d19c9adU, 0x3c7441d1bdc12c97U, 0x3cf4bbc0bd765ed1U, 0x3d3683103c6e26e8U,
  0x3c97a0bcbe065fc4U, 0x3d7c89553c526e17U, 0x3d6caca5bdbfcdf3U, 0x3d22b0f8bd86ce94U,
  0xbd2491903b12dfc7U, 0x3cfcbe293c901eceU, 0x3d71d8e1bf3002b1U, 0xbcc159293f1f9709U,
  0xbf481f343efc8199U, 0x3cb4d5adbf0b45e2U, 0x3f32ad2a3d7d08c9U, 0xbde9cd9bbe2332c2U,
  0xbd45afedbf0bdebaU, 0xbc5b56103ee4a493U, 0xbe1a4c83bdd4ffa3U, 0xbd8c3bd53e501761U,
  0xbd597fe7bd1d329dU, 0xbd50158e3d9e7044U, 0xbbb2e9e93e186fcfU, 0x3b5e7df93d024a2dU,
  0xbd73be3a3e1d4877U, 0xbc21d783be03a61eU, 0xbe21792bbcf845d2U, 0xbd28b836be04da5fU,
  0xbc552d33bd9b177aU, 0xbdd6499abcfaabc9U, 0xbe527bedbc4d5228U, 0x3ca2852a3e391bdaU,
  0x3d8326c5be66046eU, 0x3df2f7263d84cb17U, 0x3d2224143e0cc8c8U, 0x3e03bc6a3d1943b5U,
  0xbc350c833dedf21aU, 0x3cbdbe8e3d922e61U, 0xbe3752c6bd9ec5d7U, 0xbc85028c3a9c6f13U,
  0xbbfc3bf43e6c6ddcU, 0x3c54b6bcbd4c80e5U, 0x3c79b4a7bc235ebbU, 0xbdbd7c993e06b6f8U,
  0x3d432ff1be1a3d31U, 0x3c566408bd4f028cU, 0x3d09cc603b89697dU, 0x3dbcc588be086a0dU,
  0xbd8c3ecbbd107ef5U, 0x3cda56dfbd8722f4U, 0x3cc070153dd32559U, 0x3bd624643c90ecebU,
  0x3c8d5fa0bdc2af8fU, 0xbd865790bc260e6bU, 0xbcb32c9a3de46187U, 0x3e64d1053c55f8fdU,
  0xbdaba03e3d8ce298U, 0xbcbe1e073d52c1e6U, 0x3d9aec2f3dbce200U, 0x3cba988ebd5e8b17U,
  0xbcb7ff39bc7f5045U, 0x3d8e4e4dbd1a6c28U, 0xbb3678a4bd085a34U, 0xbdda069bbe100c32U,
  0xbca67342bcb9381bU, 0x3b74b6ea3d3ff238U, 0x3da292d2bcc93d17U, 0x3d690a803d369303U,
  0x39372d643d235695U, 0x3d0ea7273decdc95U, 0xbe2871e6bdc0a1a2U, 0xbd99cdaa3da73a2eU,
  0x3d925c9bbc5becdfU, 0x3dfd6b4bbd0b1e31U, 0xbd85d76a3c81f70aU, 0x3d33b9323b8caad5U,
  0x3e034bc03cf35ccaU, 0x3d381cefbc7a29a1U, 0xbe3044073cc40216U, 0xbcafd6193d50bdbbU,
  0x3e1847cebd357b13U, 0x3e21c4efbe1292dfU, 0xbd33f876bd29a4bdU, 0xbec67a233e542790U,
  0x3dbc953e3f231ce7U, 0x3e7907b03ebda507U, 0x3d14e520bf37a0d0U, 0xbe15933dbf123421U,
  0x3dce2eb33f001e56U, 0xbe875e763e819894U, 0x3d79756e3f09377cU, 0xbe91e95c3dd5f9b2U,
  0xbe22d7a03dbce980U, 0xbd826abebe19b47dU, 0x3c844acf3cc7827fU, 0x3a769a873d17c57eU,
  0xbda9d231bd15a8cdU, 0xbe09363d3cefdc37U, 0xbdd6dfd53d9cb856U, 0x3cdcb63dbc94a973U,
  0xbea177de3d278c3fU, 0x3de9ce94bdac8607U, 0xbc6008d53e013f75U, 0x3e4ec434bcf55937U,
  0xbe2b2315bd635301U, 0xbdf4b5ecbd94b268U, 0x3cfda208bde40385U, 0x3db100fa3cf11a0eU,
  0x3e4e90e03d9874dbU, 0xbc2911a63e074038U, 0xbda106ff3e13807bU, 0x3da2eb1a3d24e479U,
  0x3d9a5212bca82bffU, 0xbe35def53d852fe8U, 0x3dc36d2cbba412c9U, 0x3c9005743bfb0aefU,
  0x3d4ab9773d0e8a02U, 0x3ddd00803d325885U, 0xbc46eca4bbba9541U, 0xbd3d54553eada9b8U,
  0x3c218f11be9222b0U, 0x3da445a1bdbeda9bU, 0xbe2df0393d9fb363U, 0xbc3e6bc5bdfda2b8U,
  0xbe2ba075bdd99ad5U, 0xbe199e3cbddd60dcU, 0x3d603cc33d8d7f74U, 0xbde7c838bd02436dU,
  0xbdb47a4e3e33a56eU, 0x3d275f52be3c2e55U, 0xbe1bf59c3e078a74U, 0x3d9ffa803dd62fd5U,
  0x3ca0ad47bda72855U, 0xbce69c443e06a0e9U, 0x3da044053dfa892cU, 0xbe5a48353dfcc5e7U,
  0x3cb7db22be55ee42U, 0xbdbd8eed3dd2cbc7U, 0xbe91639a3d0912beU, 0x3e4b2c59bb3c69c9U,
  0xbdaaf602be4332e5U, 0x3d88b05ebb1fa42bU, 0xbd9d4ff0bcf097f3U, 0x3d2abf13be142e93U,
  0xbe779a893d5dff3bU, 0x3e9169a4be3632cfU, 0x3abcc0093d66f917U, 0xbd1d14bd3c8c15a0U,
  0xbc84b8b73d02e2a7U, 0x3d7240783c198798U, 0xbe00ca38bde458f0U, 0x3d831bbbbe1d7afaU,
  0x3c732ee2be1cbd37U, 0xbe112441bcb0dbf3U, 0xbde703f3bdfb7a6fU, 0x3d4814d6bdadd712U,
  0x3ea4fdeebbe411adU, 0xbd094057be056b32U, 0xbebb69babede8edeU, 0x3c93805b3ed7b2fcU,
  0x3e8694933ee1620dU, 0x3cd8545fbe836ff4U, 0x3e85e4f6bcbf7f1fU, 0xbdd467d4bde96128U,
  0x3e3fdd603cff8ef3U, 0xbe504caebe03786bU, 0xbd4e4109bd8b924eU, 0x3d72c25ebd4623cfU,
  0x3e0e695e3dfe7c3bU, 0xbc0dff753c2f68b2U, 0xbcf4bd55bd94856dU, 0xbe098a61bd21fbb1U,
  0x3e9e72173c412fe4U, 0x3ca4f5ac3d4f62bcU, 0x3d384315bdd58afcU, 0x3dd772aabdcba98dU,
  0xbda7c62b3c660517U, 0x3dc55339bd898d29U, 0xbe47a7723ddabc18U, 0xbcd7b7ddbd64bc6fU,
  0x3e1159ba3bcbc0f1U, 0x3db16743bc256e4fU, 0x3d0ed1be3cac12a4U, 0xbdd7f33bbe0fe168U,
  0x3d137f40bdf52489U, 0xbe021e083d3a76e0U, 0xbb62dc553c611febU, 0x3cc912fb3e38f743U,
  0xbdd2c023bceef91cU, 0x3ce98c8c3e26f208U, 0xbcef90653e2b7ec3U, 0xbdcf68d7bdb4fc11U,
  0x3e3d387a3df7c8bcU, 0x3e010dc7bdfc0250U, 0x3d59a11e3e2c9d62U, 0x3ddcb9c43d99f78dU,
  0xbe0101a03d3cdd9aU, 0xbaad915f3d8b4494U, 0xbd282abfbde0f4d8U, 0xbe2743c1be2e4acaU,
  0x3e150e253da793e6U, 0xbdc31cbcbd23ff4eU, 0x3d81303f3e0f89f1U, 0xbe2c039bbe3627d4U,
  0x3e5d40dcbd03f2bfU, 0x3e1c6ae1bde2224bU, 0xbd5ba15f3e11cd60U, 0x3d257dcabca8b54eU,
  0x3d95d13abde94efeU, 0xbe1b8ab13d45b839U, 0xbc231f60bd27a625U, 0x3e59edd83c928e3bU,
  0x3ddb8586bd320eecU, 0xbac16351be0e791cU, 0xbd9bf0d63c902189U, 0xbe4dc1c7be9a8efbU,
  0x3e6ea2a3bd760cb8U, 0x3e5fba1d3d25f2d6U, 0xbdab48c0bd290083U, 0x3e10bcd53c832ff6U,
  0xbd85f9483dc8d80dU, 0xbd347a11bbf9142cU, 0xbd5d718e3d6c131aU, 0x3ad210033e0e4646U,
  0x3dbf0881be235fedU, 0x3e1cff62bc5e5666U, 0x3c8caab73e59256eU, 0xbe177f993be88598U,
  0x3e37fbc23e1b2fe2U, 0xbe8bbcadbf0ec150U, 0x3dd3d7493ebf0d7cU, 0xbf41d68abee0491eU,
  0x3d6080d63f159310U, 0x3f1c022cbea1c5b4U, 0x3cceb98f3e729abcU, 0xbe94665cbf127cdfU,
  0x3d13a80e3eb7a0f4U, 0x3e90ef42bdf11f98U, 0x3d3cd775bd8a6f7cU, 0x3d2b7deebdd45639U,
  0x3c4bcf89bd13e33dU, 0xbcb07bcfbd30f528U, 0xbb46ce02bca463ceU, 0xbc2520a33df12ff4U,
  0x3bef114a3e132b2cU, 0xbd79f1a73da5297aU, 0x3cbd1f27be1478c5U, 0x3d8e50b83ccd618cU,
  0xbd8c1decbc840080U, 0xbb71cf6d3d9fc27eU, 0x3d7607c7bdf87d60U, 0xbe1df3203e12ad8dU,
  0x3d2b8a3abdba99f1U, 0x3d011ef8bc3899c0U, 0x3d3933b7bc73406bU, 0xbdff04be3bbdf56dU,
  0x3d2f1c2c3e3e9d82U, 0x3cbc5d043d7e191cU, 0xbcca45663d36ad32U, 0xbd01e8f0bda55eadU,
  0x3e0af8dabc3ba0b7U, 0xbd554282bd7e8507U, 0xbc38d9b4bda48d8dU, 0x3d2643f53e1674f6U,
  0x3d328280bd255fc6U, 0xbb44b2cf3d15f77cU, 0x3de26024bd9bc397U, 0xbd68ece7bddd766aU,
  0x3d07a59ebd2b0e66U, 0x3cc57966bdc6d30eU, 0xbd14f3583d7afaefU, 0xbdefc8b63d87d7d9U,
  0x3c994b84bcae9daaU, 0x3ce61d99bda08f04U, 0xbd648e053de729deU, 0xbdac0bda3d818543U,
  0x3cad2e2d3e1a1e48U, 0xbd5c05fb3d09df06U, 0xbcefcd28be005105U, 0x3de7dd8c3e0aa815U,
  0x3d830dedbcb46a7dU, 0xbd07a06c3d2aea3bU, 0x3d965cd1be31cb4dU, 0x3d2aa32c3cada18aU,
  0x3e4d18703dc92873U, 0xbd64602a3de0a587U, 0xbda8a937bd270b4bU, 0x3debb4b9bd4ceafcU,
  0xbdea8db03e1aee42U, 0x3e08b97bbc36f148U, 0xbe185e443d27f348U, 0x3c28b9e83d3d2f82U,
  0xbca0bf9d3db0e78cU, 0xbdd4478cbd7b1498U, 0xba42f15a3dcc1adbU, 0xbccd12c43cd615cdU,
  0xbcbb34e33d1db40cU, 0xbd8adcd7bd32e5c0U, 0x3dd60dcc3beffc83U, 0xbe27bf65bdd4046dU,
  0xbbcc8b203da1853dU, 0xb81f3eb33e6e6cbdU, 0x3f10bd823e590d44U, 0xbd8da5aebee4df3cU,
  0xbccd38ac3ee3b0b0U, 0xbd0472e6beb38fc0U, 0x3d83da233f2ae07aU, 0xbd84b72dbf21bc3eU,
  0x3f0921283d9da1eaU, 0xbd93a507be4fbe21U, 0x3d08c5e63cfdc38dU, 0x3e24e83dbe6304b8U,
  0x3e005d3dbdbb80a1U, 0x3d18501abe0ac2adU, 0xbcce32d63e953d16U, 0xbd051ae9bcdd6241U,
  0x3ce4923fbe31a86bU, 0x3dc526063d877e4cU, 0xbde7dc1c3b9f3895U, 0x3e1a559cbe6eebf4U,
  0x3d0a9ebd3ce87dedU, 0x3cf1a4f13e7397a4U, 0xbdcf30bc3e239563U, 0x3dc31f19be1c0207U,
  0x3e88e447bdf38afbU, 0x3da1a936be7d321aU, 0xba9bc4aebd3cf9a2U, 0xbd715ef93eb571b7U,
  0x3cd2df1ebcfcea8cU, 0xbde859d43d17d915U, 0xbe143637bdb9ef5bU, 0xbd876ebebd980ef3U,
  0xbc783d3abe12e2e8U, 0xbcd711f4bd1357adU, 0x3dc3a63c3df3a2e9U, 0xbdf503f53d929235U,
  0xbe167549bd6b279cU, 0xbd82fed43df60788U, 0x3e10ea97bdbd6236U, 0xbd209ab4bcc7e6baU,
  0x3d9615efbd319302U, 0x3e186a3d3d864c14U, 0x3c20ab2abdb833c3U, 0xbd50987abd84f614U,
  0xbda400b3bbd52227U, 0x3c8c7df5be6781ecU, 0x3ca80e6c3d1645e1U, 0x3dd59350bd006aa6U,
  0xbeb4a28bbdf2848cU, 0xbd4760af3d5b7510U, 0xbd914bea3d8e8f8aU, 0x3e17fb023df0f7cfU,
  0xbd7d4080bdf6168aU, 0xbdc0ac823da48d0fU, 0xbd8b9f06bd1f41c9U, 0x3dd521dcbd49cfaeU,
  0x3cfb2916bdf5bcb4U, 0xbdd4a6a13e2a925dU, 0x3e2c9dba3dbcfa8bU, 0xbd5249663c1c7e82U,
  0x3de46a2a3aabd56bU, 0x3c9944d2be21b899U, 0x3d10aa9c3d6a96dcU, 0xbe07c9003dbeb9b9U,
  0x3e9876603c9512cbU, 0x3d8241d7be37d285U, 0x3c1c2340bd2e039aU, 0xbdd133313ca71331U,
  0x3d2ff8eabd8e7d90U, 0x3c9ef1953d0b31e7U, 0xbd3f2933bdbec017U, 0x3d2fe77abcc8283bU,
  0x3daf7d9b3e194d21U, 0xbd1fcef8bdf5d47cU, 0xbc6814ad3e1b1dc2U, 0x3ec2bbef3ef0a8d1U,
  0x3d6d12a53efdac5bU, 0x3f814cbb3da76d4eU, 0xbd043f9abddb15a1U, 0xbf40603d3f13220bU,
  0x3dd7ed03bef2f80aU, 0x3ed218563eea3b66U, 0xbc8af2ca3ef0ed43U, 0x3db4b8343e297a67U,
  0x3c878c2cbdba2fc7U, 0x3c748be2be1b3da5U, 0x3cc14077be56ef45U, 0x3d5e38a93e3bf380U,
  0x3c2c91743de8b59bU, 0x38c2c5f5bd943ebeU, 0x3d6cf8033dc70d43U, 0x3da8a3a93da73088U,
  0xbcdbeae83cffe1e5U, 0xbd2c2679bbaf32d2U, 0xbe545148bd0b328dU, 0x3d0fc2abbc98c518U,
  0xbd89a1fdbcfb1473U, 0x3d0e68eebc12a4a6U, 0xbe42d4233db98aa2U, 0x3d4e4a01be177737U,
  0x3c9aaed8bde0f42dU, 0xbd9452dc3b85fd5fU, 0xbcdcd6003cadcc67U, 0xbc2f4aa7bc96bd6cU,
  0x3b16fff8bc40ef47U, 0x3d4869c93e5fd580U, 0x3e03ca0dbdb743ffU, 0x3e422a6ebdb72948U,
  0xbe1cce5abcc2ac27U, 0xbd0cae943ca822eaU, 0x3e066396bdf9b490U, 0x3dc09b523e486b28U,
  0xbd7232853ca771a4U, 0xbde26046be627e63U, 0x3dbee2c3bd63fcabU, 0xbcd9841abd73c99fU,
  0xbdce058ebdb4333eU, 0xbe0fe4f4bd65dcd0U, 0x3d9c06013c4978fdU, 0x3d39102fbd9c3e01U,
  0x3c3d34a33bb964bdU, 0x3db38bb4bac960b7U, 0x3cb17f273cceb0edU, 0xbc499afcbd201cebU,
  0x3db9714abb907559U, 0x3d03ad893e070cfeU, 0x3db4bb37bda703acU, 0xbe42efd9be4c880dU,
  0x3cd4441fbe8d8696U, 0x3d67c3223d28c7a4U, 0xbcef68e1bda914fdU, 0xbdadc2033e2975e1U,
  0x3d26449a3bc752ebU, 0xbdd87e8bbd30c60dU, 0xbe71e8163ccf6d5dU, 0xbdcbdbb0bdd4c87fU,
  0x3d10b87bbdc04a72U, 0xbc66e9c2bd77cd52U, 0xbd8e96fcbd7497d4U, 0xbd84aa9c3d046351U,
  0xbb764d4d3d855763U, 0x3d030e01bd76c724U, 0x3cdfa1313bd483b1U, 0x3ce952a3be46a727U,
  0xbe473f15bda0cd65U, 0xbd12edeabdba2c80U, 0x3da19ac83c3ebff5U, 0xbdd2f4ecbc99eb96U,
  0x3f00f3dabf05e993U, 0x3d7506693eb6f719U, 0xbf359b583c1dc7e2U, 0x3cf7e2253d8e01b6U,
  0x3f061e823f7b3e6aU, 0xbd834c05bf6e0688U, 0x3ea3fe42bebe7dfcU, 0xbdb6c36d3ecf2749U,
  0x3cd62fb9bd7e8b5dU, 0x3c998b00bcd2cf1eU, 0xbc32f56d3c14a7cfU, 0x3e0d1a2b3c902a9cU,
  0x3ce9f6493e1c9055U, 0x3de08efdbdbc4207U, 0xbdc97f05bce72b6aU, 0x3dad623e3ce2424fU,
  0x3c8ea7513dd86ca7U, 0x3d5f6a44bd36c4f4U, 0xbd402167bcdce4d9U, 0x3d1921a9bbcf550eU,
  0x3d2e3cbc3ded422fU, 0x3d968009bcf9f6d6U, 0xbd7d2bd1bdf0baa2U, 0xbc61b714bdcbb081U,
  0x3c52f0be3d065fd9U, 0x3d31fb2a3c1bc860U, 0x3d989d62be286044U, 0xbcb84344bd8ef9afU,
  0x3dec149bbcf87d09U, 0x3defe5ee3c7d466fU, 0x3d61615dbc4d24a9U, 0x3d943ee2b7dc6331U,
  0xbbfe0fd7be38754fU, 0x3d3f4c3a3c174808U, 0xbe4f03913da499cdU, 0xbc63cc7b3dd4ade8U,
  0xbd11e8513e222f4bU, 0xbdd277fbbc8d9d23U, 0xbda5171d3d715d37U, 0xbddebb033d958896U,
  0xbe4384ba3d089d9dU, 0x3d8780b03ca7e1b5U, 0x3c80477bbe2d6572U, 0x3d3ea2f4bd913208U,
  0xbdc009c5bd8708d5U, 0x3d6185d9baaf94a9U, 0x3dfbb2d13dc64d51U, 0x3d3503073d107415U,
  0xbcc5b2d3bddee245U, 0x3cc8c33cbdae1b31U, 0xbd818961bc81bc9aU, 0xbcde6b1f3d58c3beU,
  0xbac0f2993e0c2647U, 0xbd80fddd3bcd1a2dU, 0xbd8fa43c3dfe67a7U, 0xbdd17d99bbba4b01U,
  0xbdc9a28f3d6f5137U, 0xbd2ed798bda507f8U, 0x3c9ece87bcbd6ec4U, 0x3da78a5dbcad6255U,
  0x3d24fffbbda87802U, 0x3d0bdde83c170bd9U, 0x3dc7ade9bd818870U, 0x3cf1db47bd8f82e7U,
  0x3d701a093d980a3dU, 0xbd6554273cb2c097U, 0xbcd192493d00efb1U, 0xbdc315dbbce3f579U,
  0x3b9764d6bd9c9ef1U, 0xbe4b2e45bd56113aU, 0xbdd738d43bd7b3d1U, 0x3d41d9aebdcea3fdU,
  0x3d7dbf47bc84579fU, 0xbe9aaefd3eb136e1U, 0x3d8b9793becb853fU, 0x3efad5843e8eceb3U,
  0x3d44f692beec09d8U, 0xbef59c60bf018e0fU, 0xbc2bd3283f0f02eaU, 0xbeb31f8c3e420f52U,
  0x3d8f2730be98ab07U, 0xbe850bd6bcee6e99U, 0xbd1400bb3c0a1187U, 0xbd91ce11bd11ddb1U,
  0x3e040c69bc9e7593U, 0xbda94a1bbd08516aU, 0xbd95b78dbdf97e52U, 0x3a914bc63c432bb8U,
  0x3d3233d83e0b1ac9U, 0x3e192f2b3ca28350U, 0xbdc194d63d97f31eU, 0xbd86d8a33dbca2ddU,
  0xbe1adeaf3d56530fU, 0xbd9ed90abdd0e43eU, 0x3da447f43d64605fU, 0xbdb50ac3bdef0471U,
  0x3d2f294bbd00720aU, 0x3d13d7373da6b28cU, 0x3d2d5219bd06492cU, 0x3de140f1be0af3c3U,
  0x3adea3733cdfb0e3U, 0xbe0cea22bd202b9aU, 0x3d06cc86bdb916a4U, 0xbb24b9a4bd0fc0cbU,
  0x3d96ce71bd3ef40fU, 0xbcb2cfe9be206feaU, 0xbc81dca63b188ea7U, 0xbd79b54cbcd96370U,
  0x3e178791bd979b8eU, 0xbd1a60433ca8a30aU, 0xbd5d6df23d525cffU, 0x3d949f083d20d3f2U,
  0xbd270ca83c5f7a39U, 0xbd360a20be173188U, 0xbdce47dcbdc01ccbU, 0xbdcf00b23c98046cU,
  0xbd3486c23d9d62c0U, 0x3a9971c9bbc79e50U, 0xbe12d6babdc34aecU, 0x3e252b7e3ae2e607U,
  0x3e0ead563cf10e74U, 0xbd596ec63d90f2e7U, 0x3d40d5633d534989U, 0x3d84dba63cf24a61U,
  0xbd7933eebd90113fU, 0x3de7f7c43c031ee2U, 0x3e04a0ee3b4adc77U, 0xbc9c6233bda0fff5U,
  0xbdc4f0adbcc0b0e7U, 0xbe10f2df3db2c6eeU, 0x3d3775d9bc3578eaU, 0x3c852ce03d95e684U,
  0xbc7233d7bdbfb655U, 0x3bf7f3593bb6d2c8U, 0x3d582d333dafcf55U, 0xbdafbddebc3c11c4U,
  0xbe31da5f3d952985U, 0xb96cb6e9bd4b283eU, 0xbd96430a3d695de8U, 0x3dbe6a57bcf260e1U,
  0x3d8a8da63dd8ed72U, 0xbd56a035bd8b6d3cU, 0x3dd8d0263df198e0U, 0xbd567f46be224b80U,
  0xbd9b4f8e3ba37733U, 0xbc463cf13dba79d0U, 0x3f1ec091bf262e06U, 0xbd84798c3c193c1eU,
  0xbf4d1c143dcaf054U, 0xbd3ebe54be12f12eU, 0x3f1910543f57a48cU, 0x3cd01b82bf5aa5ecU,
  0x3edc83e1bebd4a27U, 0xbdef13e33b9e4cc7U, 0x3d4f0ee2be286688U, 0x3cb807033cf15771U,
  0x3d7a5658bd30898aU, 0x3bf1d207bbdff4b9U, 0x3d1e942bbc5b3525U, 0x3c11d074bb53270bU,
  0xbd9bbe3fbe1160b4U, 0xbdac0575bd7ccca8U, 0x3de588073d0f6f4aU, 0x3bf99cc1bd41f306U,
  0x3d7fdf543dddd7baU, 0xbcf7b605bbe2a733U, 0xbd86f3283c941fb1U, 0xbceb35fabd66a9dbU,
  0xbd363af13d11e6e0U, 0x3e00832c3d49f682U, 0xbd8a669cbd36ab14U, 0x3da87835bc79c145U,
  0x3d20d6a9bb90102fU, 0xbd41d2293c92b283U, 0x3ca5f4a5bc0f5295U, 0x3d5529c13d8972a5U,
  0xbe59b1b8bd2d8daaU, 0x3d42c357bd859e77U, 0x3ca67cf13df8b88aU, 0x3df28f763bca0b48U,
  0xbb56c7c13dd85894U, 0x3c6e610b3e04944dU, 0x3d3429253e07b8eaU, 0x3c556d01bd37b9d4U,
  0x3dc7f46bbce1cb76U, 0x3d29b2c8bd4aa510U, 0xbcc4b47e3cfe79cdU, 0xbce11bbebca2d1d3U,
  0x3c80c2b0baaedb89U, 0xbd9715ebbcb14457U, 0x3b955b9f3d9cb2f8U, 0x3db43b89bbe154d8U,
  0x3af253d2bd9247a2U, 0xbcb0ebba3cc95944U, 0x3c40026d3d586023U, 0x3cd8a2e2be10f0cbU,
  0xb83567babd93608dU, 0xbbe56458bd78df79U, 0x3d751ba8bc244bacU, 0xbabce1bd3c4c0dbbU,
  0xbdba78e33db96194U, 0x3d1f923f3c969f56U, 0x3cf36cbf3d7164cdU, 0x3ad8c2053d83240fU,
  0xbd352ed53d459d02U, 0x3d20be51ba2b0dd2U, 0xbe06b8963d59a385U, 0x3d12ed753c10ec84U,
  0x3d8625b8bd575ee7U, 0x3c1f8cad3c7b0d8dU, 0x3ca321a3bbca673cU, 0xbd7a44193c8b8dedU,
  0xbbbb3bd6bdc025c4U, 0x3dc45504bbfe0c55U, 0x3d2991e53dc4d4b6U, 0x3c0dafb9bdaafa0fU,
  0x3d9a0cad3dea87b8U, 0xbd7ffdadbd8f7cb9U, 0x3d8e17fa3cb2c322U, 0x3e18f3bb3ec781deU,
  0xbd1d4eaf3d15d219U, 0x3f033bd1beb5f275U, 0xbd2be29b3ed86749U, 0xbeccb2073eb1a12cU,
  0x3deca2f7be1f0cdbU, 0x3d3befb53ee82096U, 0xbc400004bdf761b6U, 0xbd94be77bbde3ca0U,
  0x3dc8376fbdf8ddb4U, 0xbd2bc899bdc855f0U, 0x3d8e211abd3d889aU, 0xbe03e63fbe3d7b62U,
  0x3defd4bf3d93f2f2U, 0x3e24b68b3cf35b66U, 0x3dc6c58e3e41f479U, 0x3e1032e33cef2ce9U,
  0x3d90491f3e478403U, 0x3d8b96f0bea55064U, 0xbdb33834ba4df2f5U, 0xbdc87e143b9d45ffU,
  0xbe2e09ecbe1666b1U, 0xbcc35006bddf45f0U, 0x3dd31064be084b9eU, 0xbbc1eaff3d291127U,
  0xbd717bc83ddeb264U, 0xbdd32dccbe8fc39aU, 0x3d2c1dbf3e5a4830U, 0xbdcbfe263d579df5U,
  0xbe81d56abbc1b5bdU, 0x3e7ac73d3a807d90U, 0xbca6de58be2e06eaU, 0x3ce17be1bdc7b2cfU,
  0xbca837f6bd931568U, 0xbe46989c3df22da0U, 0x3e50ba3c3d7f99ccU, 0xbc832648be6bfbd6U,
  0x3d603ca23c902676U, 0xbbe2d27ebe1c07a5U, 0x3d408585be5d6311U, 0xbe54c6fbbde930d4U,
  0x3db9358d3e3fe260U, 0x3c9a6d8cbd882a9aU, 0x3cdd9bcb3d0635b2U, 0x3c86c43f3ee579a5U,
  0x3cb29169be3b4833U, 0x3e3904173e7ce8f1U, 0x3e4718733db060e2U, 0xbe3f6dbb3b315ae4U,
  0xbde75c3d3d5d2aeaU, 0x3de3a5c83d505929U, 0x3e0a4f223d80164dU, 0xbd8d92953a6926b2U,
  0xbe0f364a3d7880cbU, 0xbe30cfc6be401371U, 0x3e064dbb3d1c5bc2U, 0x3d99d419be1661b6U,
  0x3d5ad5bdbd076683U, 0xbd99c04abc5b73bcU, 0xbe619b87be088c5fU, 0xbcb4629abe93e80dU,
  0xbd89e4d73e49fae2U, 0x3e3db083bdcac520U, 0x3e1b152c3c422222U, 0x3c5efceabd6394cdU,
  0xbe1d0c9a3d34b1edU, 0xbd4f8eeb3e93ccd8U, 0xbd9e725dbc89f5f5U, 0x3e4899e33d9c07adU,
  0x3cc69b01bce9a60aU, 0xbc2929afbe122dc9U, 0x3d7471733df5c2c0U, 0xbdf984db3d6963e7U,
  0x3e8d073fbedf2d23U, 0xbda0c1293ea091ccU, 0xbf0096143f2a5d99U, 0x3ca70d4ebf3bfda0U,
  0x3eaec1ce3d28524fU, 0xbdd8605f3c922303U, 0x3df79c93becdc046U, 0xbde64add3e5d41abU,
  0xbe194376bdbb0441U, 0x3dec67793c3d578bU, 0x3cd0e703bd5d9b59U, 0xbe03c4d9be876669U,
  0xbeadba24bd916869U, 0xbe2576c4be0a4f42U, 0xbe0ac146be8c598bU, 0xbe514f5e3d7a651cU,
  0xbdf706333df102b8U, 0x3dd5827e3e4926c6U, 0x3e3ecbafbc9f8c73U, 0x3d6987e03e13d7a8U,
  0xbda635a83d97569eU, 0x3d3c35c9bb9c4f25U, 0x3d0ba31a3dd59f8cU, 0xbcfe2704be15d1ebU,
  0x3eb6bfb83c62e5f5U, 0x3e0bb80bbb5d35a7U, 0xbc5604f4bd519feaU, 0x3e58b28dbd6df94aU,
  0xbdafc9c83e333731U, 0x3d1af822bd1c7b35U, 0x3d8e18e53e04321cU, 0xbd38b1f9bceffa2aU,
  0xbe66fb6dbe007e53U, 0x3c5186d43d33060fU, 0x3dd3efe53b17a4caU, 0xbe8babb73db16c5aU,
  0xbda4b80d3d2b28e5U, 0x3ce67881be428afdU, 0xbda5b1d43e2d57b0U, 0x3c228744bdab18c2U,
  0x3e44e56f39a9b5edU, 0xbc1de647be329c83U, 0x3d132ae6bc208ebdU, 0x3dabd8753bf28b35U,
  0x3c321a833dfc8d2dU, 0x3de8dc573d85de3eU, 0xbe0e900f3e268315U, 0xba97fdc4bc96d13cU,
  0x3c77d2f7bb91ce7dU, 0xbda05d1bbd3ddbebU, 0x3d8068db3cebebf3U, 0x3dcee291bc033655U,
  0xbce43ab73da44f3aU, 0xbd8d49113c04948dU, 0xbe041a443d7d1716U, 0x3e326c1a3e1ab753U,
  0xbd52a4eabd0394b2U, 0x3cbf3027bdf82d60U, 0x3e0304603e15bd56U, 0x3dcdf7af3d06335bU,
  0xbe568f7bbe1b532aU, 0x3c8caa8cbd4bee64U, 0x3db493a9bdba78fcU, 0xbdf4412dbd9edccbU,
  0xbd097842bcecdb1aU, 0x3dc9d41a3d197ba7U, 0x3e326395be6b3486U, 0x3d0316ffbdfd26b7U,
  0x3da28663bdafcb15U, 0x3dba377e3e0a878aU, 0x3e54ec493d4b4e32U, 0xbdf22435bdaa43b5U,
  0xbd186bf43c8e5bfbU, 0x3d6c04efbe389ff6U, 0x3d43ebd63ec60c86U, 0xbf38c82abf0f5fd2U,
  0x3b11a2e43f1a8531U, 0x3f218c2d3a59db76U, 0x3e07a8613d84514aU, 0xbccdaa19be8cdb19U,
  0xbd3b9c0a3dec7f78U, 0x3e42e4ccbd5e3924U, 0xbe0552eabde486d8U, 0xbe2833c53dbf6d12U,
  0xbdb31a983d148462U, 0xbe5479a2bc3c11afU, 0x3e5c3b833e377ba3U, 0xbe8f5b003d5908efU,
  0x3de7d6c5bd9c9200U, 0x3dd5574bbd0cb0d9U, 0x3e1d55c23d5be6d3U, 0xbd3dd06cbb42f7d9U,
  0x3db375ea3ce4eadcU, 0xbdbe9298bd28c46fU, 0x3d1d9d48bd0d4fbaU, 0xbe07247e3dd24e87U,
  0x3d65cfbabdcedb10U, 0x3ca1cbc6ba8806ecU, 0xbb64e4ffbe4b183eU, 0xbe053c6f3e47390cU,
  0x3d1bbcc9bd073023U, 0x3d9ab1eebcd5e386U, 0x3d9538e3bc66e61eU, 0xbe6cf2703de870e1U,
  0x3ce021353e3c9accU, 0xbd0af5673ceed748U, 0x3de40f35bd375201U, 0xbd39632d3e66045fU,
  0xbd753ae93d5f298bU, 0x3e46a6313e406012U, 0x3e461e143b170243U, 0x3e0264a83e755d66U,
  0x3d0682de3c2a103dU, 0x3dce31a8be6e08beU, 0xbc5654423d547cefU, 0xbdcc228abdb13123U,
  0xbcc837013db54465U, 0x3e013b293dfc3221U, 0x3c7c71b93e343da2U, 0xbe40672dbe264d09U,
  0x3e8ca03dbe56a88dU, 0x3c93ae5f3d6af0c0U, 0x3c0751a13d1b309aU, 0xbd9ac3873d6a440dU,
  0xbddaaca43d1683c6U, 0xbc24e1213d5e471fU, 0xbc7a024dbcda817fU, 0x3de02afdbdc9aca8U,
  0x3d3a0ef6bcda9573U, 0x3e0722a2be671948U, 0xbd5d5a143e55d012U, 0x3deefed2bd9775d3U,
  0xbe18b2eebc83b52fU, 0xbd84dbc4bdcc95e1U, 0x3dc3d2e63c0decd7U, 0x3d1eb2853da64ec5U,
  0x3d93e03dbe620547U, 0x3d76c6303e163510U, 0xbe54cfbebbef9283U, 0xbe010c3ebbc85909U,
  0xbcad15a8bde47632U, 0xbae2be663e0651caU, 0xbe11d03cbd828d39U, 0xbdf102973e27e722U,
  0xbe27e0253d915986U, 0xbda9d71fbdf0f898U, 0x3dbc623abe91c681U, 0xbcedc701bed7222fU,
  0xbefd22efbeda9486U, 0xbd3a52343f14b48aU, 0x3e98ac3c3d7fa39cU, 0xbc9f5c5b3bcb00d2U,
  0x3e2e74983d095210U, 0x3c5b5a2cbdf8e193U, 0x3e30bc7ebba8ed54U, 0x3d94dc9bbea3ad79U,
  0x3de73e5d3da20d7cU, 0x3e8e8dfbbcf13d2fU, 0xbe20ad1d3d6dee5fU, 0x3ca9b63abc8465f2U,
  0xbd969dfabe3690f4U, 0x3e0957763c12c807U, 0x3dee5cd73df5d208U, 0x3e0ddcfc3dc3de68U,
  0xbdfbc197bd6b4e4fU, 0xbe73305dbd5165a9U, 0x3e718417be02ba43U, 0x3cd784213c269db6U,
  0xbe6259bfbc2e9dc9U, 0x3d8cca4e3e961654U, 0x3d6149803e0cf7d2U, 0x3e0313bc3d131b63U,
  0xbd0abb14bdf42683U, 0xbd5a6aaabe595d9fU, 0x3d8d2d03bd5623feU, 0x3d9833d5be05b53fU,
  0x3e3d18723e77b80bU, 0xbceedf11bd30c97cU, 0xbc6569c43e22031aU, 0xbd862052bda8878fU,
  0xbd9e0eb3bd360b69U, 0xbe71e4e53d944547U, 0xbd586afbbda473d0U, 0xbd94d0113cf6686cU,
  0xbe18c4d5bd699400U, 0x3ba54e76be7db31fU, 0x3cdd70d43e58d6c2U, 0x3e2fb50a3e7c4e33U,
  0x3d505e45bc88c432U, 0x3d9759cb3d0659bbU, 0x3da4a8c6be1a1134U, 0x3d7cfdfebc502ae3U,
  0x3e31f8bf3d8cf325U, 0xbcf713ee3e971509U, 0xbc7a89dabd0a0ec0U, 0xbe2506ecbdc875a8U,
  0xbda58141bd994951U, 0xbe18a9f1be2de2f1U, 0x3d58cd10bcf82251U, 0xbc79f3f5bdc37bb1U,
  0x3da38280bd4f051fU, 0x3e64a61dbb84b239U, 0xbd89c040be261f5eU, 0xbe3667e63b9d5a67U,
  0x3d8e10f1be0145e7U, 0x3e6229173db0ee68U, 0xbe3be6d2bdb0abe3U, 0x3de677493e395c0eU,
  0xbcd6811d3dce6724U, 0x3e2df9693d6e0fd8U, 0xbd24d2dcbd89a426U, 0xbde99983be113d84U,
  0xbce016db3e500c7cU, 0x3e9cfd503d8e93f1U, 0x3d1e39693da30200U, 0x3e253f9ebdfcea6dU,
  0x3d96372bbcc08863U, 0xbc7a58763dd2db77U, 0xbcfb65463cb1d825U, 0x3f0f94d9bf35af0fU,
  0xbd1003373ee299adU, 0xbf34b92e3c8d4b2dU, 0x3dbe50693e19a6c3U, 0x3f1f02063f3a85c0U,
  0x3d189d7bbf1e643cU, 0x3eac6b5fbef14773U, 0xbd9f4e3c3ec2c1feU, 0x3e186648bd538eb9U,
  0x39b012d93d905238U, 0xbdc116fdbab23a14U, 0xbdc6c567bc52a603U, 0x3d4c1eb9bd75ecd2U,
  0x3d47f4123d99b2caU, 0x3e1a26bd3d81152dU, 0xbb5adc7cbe3d1c06U, 0xbdebf3ec3d2ff362U,
  0xbd1e1d783c1723ffU, 0xbd1c049abe322a9dU, 0xbd44888dbce42498U, 0x3dbb177d3d2729fcU,
  0x3b08b3bfbd92f97aU, 0xbe00f2b63dee1054U, 0x3beb4fa83e3594a7U, 0x3e5a68613dbb8bf1U,
  0xbdfb08ea3dd1b955U, 0xbe1cf5873ce2aab7U, 0xbcfa9d2a3df3efdbU, 0x3dd676013db4973eU,
  0x3d7f9e173a2e16eeU, 0x3e1de992bd922ebaU, 0x3c1b6933be3d3350U, 0x3d6e7adabc13e24dU,
  0x3e2661d6bc5221bcU, 0xbdb51e663e0ce630U, 0x3e039ae83d8c193cU, 0xbdc0ac14bd4a7e20U,
  0xbdc3695a3cc30757U, 0x3dc5400ebd7865d3U, 0x3ccb46d33d971764U, 0x3c80dfc73e39b70bU,
  0x3b304881bd810959U, 0x3d2a66903da4a30cU, 0x3c2c12563cb1867fU, 0x3dd37149bd5b1ccdU,
  0xbd30b6b0be22c6bcU, 0xbce229823d278231U, 0xbe394bd13d7591ddU, 0xbc649e463dadb35bU,
  0xbd419d383c2e9289U, 0x3d97d88bbd5c0c6eU, 0xbcfc2d823d786c73U, 0x3d28241fbbf06211U,
  0xbd79e596bdd93828U, 0xbe20acd53c2a314aU, 0x3d56cf1ebca26cbaU, 0x3ce5dc563df11b2bU,
  0xbe9d0025bd52b794U, 0x3d62d0b8bcfcfa74U, 0xbe472501bacfb775U, 0xbdc3b711bd0796b6U,
  0x3d930ba23d707e8bU, 0xbd70de2bbdd164ebU, 0x3d681bdb3cbb6ffaU, 0xbe0206293e13e5f4U,
  0x3d220216bddf264eU, 0xbba63e3f3dd122f6U, 0x3d9c91713d315a15U, 0xbd860467bcd0ee0eU,
  0xbd29d7083d991d51U, 0x3d2a1c923d0f9384U, 0x3c1a34a3be5bc951U, 0x3dabf8183d448ed1U,
  0x3e4ef8e7bf063d8bU, 0x3bbfe4113e93dc61U, 0xbf46d40c3ef7f6cbU, 0xba217c7ebedb7386U,
  0x3f2377c73ea4baa6U, 0xbe16fa8fbe885525U, 0x3c0986babee24dabU, 0x3ca896ec3e478726U,
  0xbe26bdf5be28f544U, 0x3db2bc213d8a58b6U, 0xbdff21b6bde10eefU, 0xbd06c98d3d174837U,
  0xbd95ea2abca0cf0dU, 0x3ca690eebb0d52ebU, 0x3e4eda123d61c2a5U, 0x3dade789bd82485bU,
  0x3cba85d23e00645eU, 0xbc05481e3d5816ddU, 0x3dae601fbd9d1836U, 0x3df3d8893d7e4499U,
  0x3d69baa93d43fab0U, 0xb9b482e7bcf8a363U, 0xbd0396343dfb7891U, 0xbd8637813ce01f11U,
  0x3cd032aebe239966U, 0x3e0a9b01bd90ab50U, 0xbd59f6513dd3a956U, 0x3d81f4473cc81830U,
  0xbd1932643dab2a9fU, 0xbdc5d2d03d04cec3U, 0xbd9ce5e8bd0308deU, 0xbbc6c95abdbf681fU,
  0xbd7b6a7b3d2ac886U, 0x3abcf2ea3c8e54d4U, 0xbcfdc3e1bdb5e3d0U, 0xbd4ad2db3d745c3dU,
  0xbd59e8033d639728U, 0x3caba2d2bde7ecb8U, 0xbc90333abd9cba0eU, 0xbd81db17bd135b22U,
  0x3dc3ae68bc84ab3cU, 0x3e071c653e146435U, 0x3e0bbf7fbcb9151dU, 0x3bdf6aafbd55a38bU,
  0xbd574cb13ca5171cU, 0xbcc0f8c53d852a6fU, 0x3db0b1ad3db2dffeU, 0xbc806e653db2e3c3U,
  0xbdaf908c3dbaa0b2U, 0xbd7f58a9be1ec822U, 0xbbbccc25bd0cd811U, 0x3d3f8e86bd28af07U,
  0x3e2f34363d263650U, 0xbd05ab9fbdc10239U, 0x3d8f4c04bbc78b41U, 0x3dc5add53cd378cbU,
  0x3dcdeb3b3d6e94bcU, 0xbd3dfe8ebd37279bU, 0xbe34f344be0d8381U, 0x3d9226a63d858eb8U,
  0x3a128177bc89fe06U, 0x3e30b239bd94d965U, 0x3d9e52583c08ec34U, 0xbde89835bd8b58bdU,
  0x3d88f1033cb5ceb8U, 0x3db625623d09d59fU, 0xbdb52406bdd46bf6U, 0x3e1f28edbd4590bdU,
  0xbe12be0cbced5128U, 0xbcceecc3be01c2aaU, 0xbdad0b59bd32712fU, 0xbd6a8636be09f2f4U,
  0xbb4fa055be050737U, 0x3e3763cbbed6d897U, 0xbc720d47be952beeU, 0xbf71dfffbeba344cU,
  0x3d5516f33eb2d4dcU, 0x3f270be33f02ed5aU, 0xbc652f3abee63896U, 0x3eafafb8bee8da21U,
  0xbdbfe562bee3326cU, 0x3e499921be4d7127U, 0x3c1a7a47bdbfbb6eU, 0xbc7a41923e2a3834U,
  0x3d0480643da2953cU, 0x3d9ec153bd9f5896U, 0x3e07a03abe0c267eU, 0x3c7eae813d16c95fU,
  0x3d90acd43d8d2ea7U, 0xbe1b49cbbdeb5e6dU, 0x3e4cd0c33c8d0367U, 0x3e1c0770bc37f750U,
  0x3c8078dfbc608fa9U, 0x3d9a71b13d140ee0U, 0x3d51c11b3cee03d5U, 0xbdb71e4b3d763cebU,
  0xbd090362bdbd6787U, 0x3d394c4dbcb86241U, 0xbc2ecceabe0524a0U, 0x3d5417633d7a6a41U,
  0x3d0de3bfbd25f10cU, 0x3d05a7323e31553cU, 0x3dc497ad3df46ef2U, 0xbd9aa4f83da573b0U,
  0x3ca4b21c3d8d640cU, 0xbd4e622ebdbc02d2U, 0xbd771735bd6702abU, 0x3ca08b963df265feU,
  0xbda167d2bd55a4e4U, 0xbd778ddebd4197e8U, 0x3d8ef59a3e62d1e5U, 0x3d8703df3d9d72cfU,
  0x3dc4b8e3bdea7955U, 0xbdb45ae53d1714f6U, 0xbe0116cebca93963U, 0xbc3372cb3c60c8ebU,
  0x397b569e3da4bc6eU, 0xbd11fa2d3d711d85U, 0x3dc78d743e430bf8U, 0xbc1000b8be0190c7U,
  0xbd8c6ea63cdff401U, 0x3c90023cbdb6f982U, 0x3ca9572dbc48d0f0U, 0xbcee31203d061c16U,
  0x3c3edbd0bd9e46f3U, 0x3d08a79fbd87db11U, 0x3c942d27be3d30e7U, 0xbd607ee5bcbc7758U,
  0x3ddd3f0e3da07af0U, 0x3e5ed1eabe34efb0U, 0x3d0d1bbb3d1734bbU, 0x3e3d36ed3e47f16dU,
  0x3e1922cc3d2f13e2U, 0x3e5bd3093d946199U, 0xbdcf0d4cbac2f411U, 0xbcfda6b0ba4358eaU,
  0x3deac3123dc49969U, 0x3d32450a3d97b77bU, 0xbc2241afbe622b1aU, 0xbd11ade93e2a4f6cU,
  0xbde0fee33dc8e41bU, 0x3ca486db3dd2811cU, 0x3db27c323c42f384U, 0xbc89a89a3e11f55bU,
  0x3e1b8b60bd9dcacaU, 0xbd1453de3e38eaa7U, 0x3e4ad429becb23ffU, 0xbcd23bd8bf07a34fU,
  0xbe5d901a3cde8d62U, 0xbd132d4a3d2dd784U, 0x3e0878a73f05dabbU, 0x3c5034cabed555c9U,
  0x3e02c83cbe76ce08U, 0x3c3b5b57becbbcf7U, 0xbd7488e5bd1f2f96U, 0x3e364a2a3c99f403U,
  0xbdd51681bcad0533U, 0x3e3f80f23b92c905U, 0x3ccac9a83d43e596U, 0xbc49c3133dffef3eU,
  0x3df7f2463d80417bU, 0xbd901ee93c5028a0U, 0xbc75be463e540f46U, 0x3daea9663c857ddbU,
  0xbcdf17683d13666fU, 0xbe3bd56d3dad7ef3U, 0xbbe5efb7bc9f0f0aU, 0xbd938772bd0ee5f7U,
  0xbdbaed9bbd111abcU, 0x3cb4065c3cb28176U, 0xbe2cfd5c3e634b1fU, 0xbd66c2ddbd447e59U,
  0xbcb9d1733b85da3eU, 0x3cc3b0853d17812cU, 0x3d688de33c2bc370U, 0xbd2ad9f93e011fb4U,
  0x3cb7fe99b6e0b826U, 0xbd9dc6783db4d873U, 0x3d879a3b3d85bb28U, 0xbd6c1f8bbe154f0bU,
  0x3e1211e3be285b35U, 0xbc8000bebd38edd8U, 0xbdb0dd9abe21d267U, 0xbc3a3906bc8c1cebU,
  0xbcb20411be22ab4cU, 0xbc93a8d7bdb3ccdbU, 0xbcd466f03d03b8d8U, 0xbd8c1d10ba91dc6aU,
  0x3db7af773e3b5463U, 0x3d9912013da5c09fU, 0x3d7b483ebe4d37aeU, 0xbd9f1bb0bd3296efU,
  0xbc4d05563c6e40e6U, 0xbe091bfabd32d06eU, 0xbd134acdbd2da441U, 0xbe055b3cbdd05418U,
  0x3b0b24febe2fda24U, 0x3d967d2a3de46341U, 0x3d0d74a63d89dcb7U, 0xbd77f04fbd11f631U,
  0x3d851224be1724b7U, 0x3dd83df33e26a0a5U, 0x3dd36952bd7b6fccU, 0x3dd3ab70be11d728U,
  0xbba94223be2e3295U, 0xbe0911b73ca84b75U, 0x3e07d0ea3c9954caU, 0x3e101716be0ac33fU,
  0xbdd5d43c3d9e7e60U, 0x3e24b6aa3cabfe43U, 0x3dcd2dc3bd0c7e81U, 0x3e14d3363d7754d2U,
  0xba959905bc968e67U, 0x3deadf583e1af714U, 0x3d7700b03d60d325U, 0x3c37307f3d000a90U,
  0x3d9ef6b43ded3246U, 0x3e3a71f1bc1c4fc8U, 0xbd2218e53e046a6fU, 0x3efccf0f3f2dcb13U,
  0x3da21721be332e5cU, 0x3f6c25103dfd3c58U, 0xbd1f98dcbe1c7363U, 0xbf2752e93ee04872U,
  0x3dd680b7beb35fc2U, 0x3eac16e33f0818b0U, 0x3d5967f8be0d2f39U, 0xbdacb24f3e40a592U,
  0xbe22fd85bd93abbfU, 0x3ccc5908bbeceaf1U, 0x3dac9eac3d296afbU, 0xbd11e9143dcca3beU,
