/**
  ******************************************************************************
  * @file    network_data.c
  * @author  AST Embedded Analytics Research Platform
  * @date    2025-07-06T23:31:01+0200
  * @brief   AI Tool Automatic Code Generator for Embedded NN computing
  ******************************************************************************
  * Copyright (c) 2025 STMicroelectronics.
  * All rights reserved.
  *
  * This software is licensed under terms that can be found in the LICENSE file
  * in the root directory of this software component.
  * If no LICENSE file comes with this software, it is provided AS-IS.
  ******************************************************************************
  */

#include "network_data.h"
STAI_ALIGNED(8)
const uint64_t g_network_weights_array[6914] = {
  0xbf66fb3cbf178828U, 0x3da3473fbf2850cbU, 0xbf930d643ec1f7b0U, 0xbd9106b6bdd54b0eU,
  0x3f33123a3e9ca142U, 0x3d85b43dbe8786d5U, 0x3cbe39b2bed4b40dU, 0xbc6d78d9be5debddU,
  0xbeaab64ebde49772U, 0xbe5b13423b974584U, 0x3d80ae053dac4de8U, 0x3dfdde76be3cfe6aU,
  0xbe55ebbfbdcaabd8U, 0xbef21575ba9f98f5U, 0xbd411877bd17031dU, 0x3c9029ccbe64611dU,
  0xbea123c6bc9702e2U, 0x3e0ae3693dae2e08U, 0x3e00a0f13d04e5eaU, 0x3d5a031cbc84e4fbU,
  0xbd6bf2f1be0a3062U, 0x3e87ae4cbdbbd424U, 0xbe2b36a23d49a812U, 0x3e1432f03d8a7498U,
  0xbd1bbcfdbe64ccdbU, 0x3e350617bd69f5a9U, 0x3bac94fc3d81a29cU, 0xba7c744e3d80bcddU,
  0x3d705d7a3e4bfb09U, 0x3de161923dff910bU, 0x3e32f6e23c89dbdbU, 0x3d0add033e5c3946U,
  0xbe24de4e3e09feedU, 0xbcf37040be4cce7cU, 0x3cb050a03e30d4b1U, 0xbd8f9dfc3e48ada8U,
  0x3a869beebdc78c54U, 0x3df3c9fabd5e41b4U, 0xbe07f9cd3e7f1bc5U, 0x3e6a83c5bdab193bU,
  0x3de2c2cb3d1844beU, 0xbe3d8bacbe03fd89U, 0xbd4dc1bfbd792825U, 0x3db18dd63db3868eU,
  0x3dd339653e1e6558U, 0x3d3495323d298e2eU, 0xbe00ecaebdb54995U, 0x3d9adc61bc03cbb8U,
  0xbbee0343be210b24U, 0x3c47209ebda49f30U, 0xbcc049db3da81de4U, 0x3e6028d3be39e666U,
  0xbdfa9012be5093abU, 0x3c98a2343d3ab756U, 0x3d5173073ce98e68U, 0xbe4774a83ca55dc4U,
  0x3d84410f3e9a9ca6U, 0x3e1f26253df39911U, 0x3da3dc27bd7b6909U, 0x3d5760d0be1c80ecU,
  0xbd1150ca3e009cb5U, 0x3de2230dbe2d1d2dU, 0xbe1a23aabdee6d33U, 0xbd089ed33e448541U,
  0x3c86ca723d03148dU, 0xbdcbf120be085683U, 0xbdbde5ebbe3b1a85U, 0xbdadfa53bca942c1U,
  0x3da4cdbe3d8957e1U, 0xbd1be0bb3d4bb153U, 0xbca64529be81f1deU, 0x3d7aea13bc9b574dU,
  0x3e1554d9bd6f7c40U, 0x3fcb85fc3f3c4a72U, 0xbe9cc565bf63e616U, 0x3f3a70d8bdd26336U,
  0xbe8b24d4bf0b0d20U, 0xbf4adcd33dcb9766U, 0xbe846839be4cf2a3U, 0x3f1d448c3ecf3f51U,
  0xbd13632abe9db08dU, 0xbe70a7e93da81fb3U, 0xbe4fae01bd423fc2U, 0x3cc0f5113c555c9eU,
  0x3e860b5cbd7f3b21U, 0x3d6ddd583a2deb7eU, 0x3c44581b3c13b24aU, 0xbb76a691bd5d498fU,
  0xbcb763c23c28d451U, 0x3d84261a3c7dc827U, 0xbd665695bcfc6eadU, 0x3ded36103d9e4bb1U,
  0x3e0065ecbc3ea488U, 0x3d848c86bd1982e3U, 0xbc92816b3cea031dU, 0xbb4ad9333e3d4077U,
  0x3dcf16c2bd757b46U, 0x3deba17bbc5ad05aU, 0xbdeb9eedbd782d15U, 0x3dba27453d888dc5U,
  0xbd4764b6bd6eb8c2U, 0x3da3a7d2bd0d7c77U, 0x3dae9814bced398aU, 0x3dd6fe593ddf13c1U,
  0xbd4062003d7cc86cU, 0x3b84ade23acee0c2U, 0x3dd95e8ebdd0a91fU, 0x3e2116e33db52710U,
  0xbbf9f0c13d1e88ceU, 0x3da9e7e0bcdf3390U, 0xbe13fae63d9eddf2U, 0x3da942123d94345dU,
  0x3db280813c97f623U, 0x3c670b1939963ee3U, 0xbe0d52b13c30c533U, 0x3d40b075bc841a86U,
  0x3c3a3ccd3cdf6a30U, 0xbe126e7c3e3bfa44U, 0x3d88222e3bbf4258U, 0xbcbd0b96bd5a3124U,
  0xbd182d1b3d73f37fU, 0x3d20da45bbb7c31fU, 0xbd77537c3d325dc0U, 0x3caecbc83d298c8aU,
  0xbc1fda75bcaa5895U, 0xbc9d487c3d8db702U, 0xbcb6ed8c3dfd6bb5U, 0x3d95baa73ce91676U,
  0x3dbb96d9bd8b70e8U, 0x3c685e843e2ad5b2U, 0x3e21d15c3a1908d7U, 0xbe0a9842bd0c2b04U,
  0xbd218c603e390587U, 0x3d9fd6623e2bbf1bU, 0x3c81d6003d6a1579U, 0x3d575e683daa3cd4U,
  0x3e0d8913bc7665a8U, 0xbc118a253dbc1759U, 0xbc815080bccb480fU, 0xbb8720853d556684U,
  0x3dc9333bbe62ed84U, 0x3b50c8e73d2c6bc9U, 0x3c9ecb2e3dce7f16U, 0xbd34f742bdaf370dU,
  0xbd5cf21f3d7c6224U, 0xbd308ef2bdf99098U, 0xbfbd230cbfa914e4U, 0x3e0e4ef4be20183fU,
  0xbdbc22dbbf028822U, 0xbceea3133fa43c3cU, 0xbdcc5d2abedb4a9fU, 0x3d3f41733ef15e43U,
  0xbeff9a7f3dddb33eU, 0x3e231ecdbe0983deU, 0x3eaedbd1bd531115U, 0x3cc17003bdb03d84U,
  0x3d66d89fb95980d4U, 0xbe35f880bb44c6d3U, 0x3d3764bc3d10d770U, 0xbce78a22bd551fdbU,
  0xbce7a7c03d08ef30U, 0xbcb83d553d38a39bU, 0x3d1a551c3d810461U, 0xbcf6fc433dca571fU,
  0xbd813fd2bd24a9b1U, 0xbd9381c43d37a8b6U, 0xbc1009ea3cc66362U, 0xbe4016363da66ce4U,
  0xbd4005c43e2f0a27U, 0xbe24fad0be0f32ccU, 0xbda912bc3b369241U, 0x3da87725bdd67bfcU,
  0x3d426de0bc7eae5bU, 0xbd5cd231bda5a1a5U, 0x3e00116abde32986U, 0xbd80b04f3dbac704U,
  0xbca24516bc83ac3eU, 0x3c7cbcd1bdb2906aU, 0x3d040eedbd8b6887U, 0xbd6d727c3d40f1dbU,
  0x3dc00d39bd3fd699U, 0xbddff6babdd920afU, 0xbc3366083da6b7c7U, 0xbdf389fe3d63fed0U,
  0xbd9f0bbfbe25ca75U, 0xbe0418113d33cba2U, 0x3d9378303d9877a1U, 0xbd770534be2c0024U,
  0xbb80072dbd4d8050U, 0x3d59e6253c8a0b0cU, 0x3c07b9073be99b95U, 0xbb6b6daebd307dceU,
  0x3dace4813c9efd38U, 0x3e055897bd3fc3f1U, 0xbc0a68b7bba1ed8fU, 0xbded11b63c0749beU,
  0x3e25cd883d853c43U, 0xbe06d8cfbdd9413cU, 0x3d230bfdbd5861b7U, 0xbd9a8baf3df9c865U,
  0x3db19fc5bd555479U, 0x3d5441cb3dd88fdbU, 0xbd9501b6bdebffa1U, 0xbe0c8211bd5b66f8U,
  0x3dac2dfe3cfa2970U, 0xbccfae35bd8c80c5U, 0x3e823434bde5f920U, 0x3d3738e6bc257689U,
  0xbdc583053de83a94U, 0x3df97eb73d3996d4U, 0x3b9109b7bd78f084U, 0x3c58d43d3d9f36e1U,
  0xbd51f5863dcb6d0bU, 0xbe67eee93cd57bb7U, 0xbd4d2d2ebd0936e9U, 0x3e0c50db3e04c12fU,
  0x3d3620b43d30a7ffU, 0x3e43e0023db0853fU, 0xbd17ebb13cc1cfc3U, 0x3d1bf6023f0ebe81U,
  0xbd01a585bfd9d68bU, 0x3f541a0d3e8c0d4cU, 0x3c65d8f4bf18e8e8U, 0xbf6165863eccc22eU,
  0xbde4c34ebec43005U, 0xbe9271943c05dc5aU, 0xbd06432dbf04bc87U, 0xbde4f0aebb9f2c3cU,
  0xbdf76fa9bdc84e3dU, 0xbd50712b3db8cbc3U, 0xbc8badfebce88dcaU, 0xbd89d3723ceb32deU,
  0xbd97a12f3d5f0e3bU, 0xbd0f3d7dbd879eaeU, 0x3da0302ebe3ad55eU, 0xbc8042dfbbcf77b2U,
  0xbc305c3e3c72110aU, 0x3dc7e5513d7e151dU, 0xbda6cdb8bc675ca6U, 0x3bee01b3be17a6f5U,
  0xbdb2f36cbda7b024U, 0x3c662c9ebc881869U, 0x3c279df2bdf2d035U, 0x3db9c87b3d51ab4bU,
  0xbcf615fbbc0cd525U, 0xbc4ff020bd4b1c6eU, 0xbe3f730a3d56995aU, 0x3d5cf16d3d0e45c0U,
  0xbdebbc98bc887860U, 0x3dd359413d8ea669U, 0xbdb68e8cbdabbec5U, 0xbcc4b7283cc80715U,
  0xbdc1a970bd1bc3dcU, 0xbcd71fc73c2c9036U, 0xbbad8d68bdb89ee4U, 0x3cd3a7b83c83e972U,
  0xbd8b41c23d881912U, 0x3e0cc917bc36322aU, 0x3d0427b83c7f0eaeU, 0xbd959161bcc3234dU,
  0xbd6d44ac3c818e89U, 0x3da2f43a3d505cdeU, 0xbb774a443d7203e5U, 0xbd7019ea3d623a99U,
  0xbd5b2904bcff503dU, 0x3c890277bd380221U, 0xbe31adcbbb27e488U, 0xbc2b685cbdc4aeafU,
  0xbd1cfd31bccc4b47U, 0xbcb62bf03d9ef86aU, 0xbdc228c5bca28ac8U, 0x3a380e1a3d7b0142U,
  0xbd80929fbc2013bcU, 0x3ce9ab393d396942U, 0xbdeca5de3cc7bd88U, 0xbd3719f03d83be0eU,
  0x3d05a1623c7c9cf5U, 0xbe40d3b4bd5f44d7U, 0xbc3f24b63d4636a2U, 0xbdb7f8c53dab5051U,
  0x3d920482bd1255f6U, 0xbd556edfbccb4e91U, 0x3d912b82bc59d4ecU, 0xbdaa41a5bd8a66c7U,
  0xbd4029a53ca19635U, 0xbd8ccc95bc098c2bU, 0x3d46b86dbd805070U, 0xbc9b5f2dbce0dcf1U,
  0x3de1ac33bc351eb8U, 0xbddd67d4bdbe173fU, 0xbd4d9a1ebc8370c8U, 0xbcac99c4bd97942aU,
  0x3f8f568e3ff74738U, 0xbe08bd8cbfbfb804U, 0x3edfd7eb3e4a3d66U, 0xbea1159a3d46eacbU,
  0xbf456f843d872fa3U, 0xbe2ead68bd918e2cU, 0x3e3e498c3f4acc26U, 0x3ba5ee46bf224f97U,
  0xbd83fac73da47a04U, 0x3b93645cbd2a4a82U, 0xbdcca661bd617f44U, 0xbdb73c4cb9d9e8c7U,
  0x3c5b30ee3dd5fa43U, 0x3dc1cab93d1e2526U, 0xbd8e6b83bc16281eU, 0xb9645733bd791ee4U,
  0xbc3d95853c9ef777U, 0xb9eb3089bd3b8c0eU, 0x3c5760913cd732e2U, 0xbc256ac83c112a67U,
  0x3d781adb3c5f44bcU, 0x3d45360dbcb7a638U, 0xbc029239bc4a8f1eU, 0xbdd251efbba3d39bU,
  0xbc6ea9553d10e7a1U, 0x3cf5ac5e3d1ae186U, 0xbcda8fec3d491c9aU, 0x3db4f9bcbd4a6ebdU,
  0x3cab50053d0015caU, 0x3c8295ac3d5dcd7bU, 0x3ce770dabc324888U, 0xbd0613a9bc7c07feU,
  0x3ca18de7bbfdbcc4U, 0xbcdc29a9bd764f91U, 0xbcac6818bc87b078U, 0xbd21a15cbd93df59U,
  0x3d146e173c9fb49aU, 0xbdbc4d12bc6db9afU, 0x3d917edd3d69df5cU, 0x3d844c9abd13383fU,
  0x3c1b459abd3720dcU, 0x3dbf6dc03d40aaf0U, 0xbd708b39bdb2124aU, 0xbadac16ebcbac93aU,
  0x3c0c2a093d8dd289U, 0xbc2552fe3d76e10bU, 0xbd6223b13c58b591U, 0xbc942e893d4424daU,
  0x3cbcb25cbd8ab64bU, 0xbcfeeff7bc0f1618U, 0x3d41503c3bbfc205U, 0x3c66b5d3bbc586c8U,
  0xbcada6a43bf059c2U, 0x3cdb93e63d4d44fbU, 0x3d314c18bdb5993fU, 0xbd2c64f0bde12f8eU,
  0x3d2c00503dadb8a6U, 0x3d0bef623dae2291U, 0xbcd77162bd17201eU, 0x3c43ff333dc9d583U,
  0xbca86000be05c6f4U, 0x3d279e03bd31eba1U, 0x3b6220f63d1bdbcaU, 0xbd32e6d2bcab78e4U,
  0x3d14c6723c9efd9dU, 0xbdca41a6bcd2c569U, 0x3d6f7c7e3ca62029U, 0x3c882e1d3d29bd82U,
  0x3d783053bcc71850U, 0x3db16e93bc28563eU, 0x3d4649dcbb933f66U, 0xbd5eff753d32b746U,
  0xbca27666bd8bc524U, 0x3f729a543ff85e67U, 0xbd9212813dc5bd52U, 0x3f94cce6bf486247U,
  0x3d93a2df3e94ae87U, 0xbf8e9ea6be369487U, 0xbd552f323ecdd9acU, 0xbdb091123eeb88b2U,
  0xbd58bb7f3e585c08U, 0x3e06281a3e43869aU, 0xbd7f2aa83de23323U, 0x3d7f3aed3c9cc161U,
  0xbcbeec1ebd9559d6U, 0xbd972f3d3df53da6U, 0x3d149590bda2b287U, 0x3e0ed23bbcbd3ae7U,
  0x3d87e8ce3d82931eU, 0x3cda5588bd547927U, 0xbd9467c7bcbd28a3U, 0xbce3f4da3dbe5a30U,
  0x3d840487bddd1303U, 0x3d8dd088bd2dc601U, 0x3d0d3b2d3d9776e2U, 0xbca1724d3d444373U,
  0x3b9c4d2cbd488738U, 0x3c1360c43e238e87U, 0x3e083ae83d906b4eU, 0xbd86827dbbd92fbaU,
  0xbdf63c253c90b9d3U, 0xbc2230d13b0dd325U, 0xbdbd88b6be1e282bU, 0x3e098715bda371b8U,
  0x3c04c8e3bc6a6f3dU, 0xbdc8eb54bdbdea8bU, 0xbdbe53d43d02c0b2U, 0x3d792fc3bc87ce1eU,
  0xbd355a753c535e9cU, 0x3bca30913b151f3cU, 0x3c370f62bdc6f8eaU, 0xbcd107debe0bb2f3U,
  0xbe039a8abcb991a2U, 0xbd435890bdd5c130U, 0xba947808bd73bf24U, 0x3d0762f03df1d6f7U,
  0x3ccad08e3ddbd1d8U, 0x3cc9a53bbda0ef86U, 0x3d2054d5bd797a79U, 0xbdbeefb03ba353bcU,
  0xbc0e00903d2f210aU, 0xbc7cc595bd0fc0d4U, 0x3c552d003e575594U, 0xbd7ad5a2be0f5b73U,
  0xbdf746003d4dc145U, 0x3de1853c3d5d6d3fU, 0xbe2a4b5c3ce01af6U, 0x3d6f8bf6bde0e97aU,
  0x3d321a053d05954fU, 0xbe1ba45dbe0d069bU, 0xbdaa11073dbab407U, 0xbcc74fd0bda468caU,
  0xbd8a4922bce2c7b5U, 0x3e0f22c13bc5ceaeU, 0xbdc441ff3de0f3c5U, 0xbbddfffa3c427cf7U,
  0xbd553e79be17cc06U, 0xbdef25ac3d872973U, 0x3d4dfb59bca1ef07U, 0xbd9f7bca3ca30836U,
  0xbe533b79bd8c4da1U, 0xbd0628573d983440U, 0x3d468dd5bd51e454U, 0xbbd43d3bbdabc0afU,
  0x3d2fe4b8bc82b2edU, 0xbc3787dc3d13406fU, 0x3f914a9dbf11df6aU, 0xbe5273a1bdd7edd2U,
  0xbf3193b3bd8697bdU, 0xbe6b1354bdd15cc7U, 0x3f5fad063e103514U, 0xbe71ca16bea45002U,
  0x3f3c7542bf4c67a8U, 0xbd5dadfa3ec0250aU, 0xbe2e5ed2bd858616U, 0xbd3577ea3e37288bU,
  0x3c3111f43cf51754U, 0xbdbe09aabd88847fU, 0x3e12b6ca3ae38ca8U, 0xbe22ea0e3c2a1235U,
  0xbcf49ece3d504346U, 0xbde33fdf3d6f8ad3U, 0x3d5281643deea4ffU, 0x3d08a237bd9b5be9U,
  0xba791b083cff07b4U, 0xbd08bd413da91145U, 0x3d421c453d9c9901U, 0xbdb76f07bd4d9173U,
  0x3daa01da3c92e50eU, 0x3df41701bd699d74U, 0xbca776ee3d9c481dU, 0x3d8557bf3aae7bb3U,
  0x3e32ce4a3dabd307U, 0xbc37ff1b3cb5a40aU, 0xbd33e2e53ad16d2bU, 0xbd16188b3d12384eU,
  0xbccfed8c3d4a1ea0U, 0x3cb68fbcbe0181c9U, 0x3ddd701a3da2d97aU, 0xbd09af11bd3977d2U,
  0x3d82ed0a3d8272e6U, 0x3e582af8bb8c9a2fU, 0xbc94fa583c868fb0U, 0x3d73e3d4bd7d7524U,
  0x3d39b5323bce79f1U, 0xbdab5177bcd71c9bU, 0x3d9bf0643d7b9b10U, 0x3d26175fbcbb1984U,
  0xbc9c8be23deaffdeU, 0xbd015a943df2b307U, 0x3dac1b743d0d2a49U, 0x3d6bd9683c306d1dU,
  0x3d4f55c53cce096fU, 0x3e0fd94f3c9ba9fbU, 0x3d355cd03c91eaa5U, 0xbcfc4f65bc8ef3d6U,
  0xbc4b19513dd9d593U, 0xbc82c3c1bcea0e43U, 0x3d0c57463c485961U, 0x3cb6a2923e1a8bb7U,
  0xbc2fe1ad3dbe4990U, 0xbe05cd8dbd6394feU, 0xbc9dfd3e3b93e99aU, 0x3e916bae3ca7e160U,
  0xbca97cdfbd8e9bc5U, 0xbc06175dbd7c5524U, 0xbe0850283d9817deU, 0x3c715556bcefd56aU,
  0xbd429cfc3d0737edU, 0x3c2b11ff3c871577U, 0x3ce80c373d1c055cU, 0x3cd85f743d488d89U,
  0x3d5270563d696244U, 0xbcf49328be10e137U, 0xbbed48763c8fa6daU, 0xbcdec96cbd00770bU,
  0xbd4546513d911009U, 0xbb76c52dbdc84f9bU, 0x3aa5fda53d584333U, 0x3d86833bbea6cb6aU,
  0xbe5f4a56bf04111eU, 0xbeb87ffcbda2fe17U, 0xbe648e9c3ed8030aU, 0x3ebf412c3fb9e813U,
  0xbe5cc867bf9d98d6U, 0x3f460a6b3e87ab78U, 0xbea79adbbe617d47U, 0x3d394db4bd52c431U,
  0x3d528b3bbd1c30eeU, 0xbda5c8583d109580U, 0x3d83bc743c67af56U, 0xbba41a083e54b9e7U,
  0xbd6f34663c517ed0U, 0x3d59b6ddbe0375faU, 0x3e4e3ddcbacc954dU, 0xbdaca9e23b12daeaU,
  0xbcfbca993d57e701U, 0xbe81c220be1721cbU, 0xbe28bab5bdb887e6U, 0xbd97dfe43e044a59U,
  0xbdd3cf623db1aafdU, 0x3d5027253e57f007U, 0x3d608a8d3dcd8460U, 0xbd3d555bbcfd26d6U,
  0x3ced305b3dc645b4U, 0x3da285bf3cb7dc6eU, 0xbe1151723e218c79U, 0xbb97c1273e1ce1f0U,
  0xbd7499833d6ac19eU, 0x3d658e88be5fe00aU, 0xbd493cb33c8561afU, 0x3cf1f8843af3a567U,
  0xbc22b9ab3e0cc2c8U, 0xba9a0d91be59b022U, 0x3eb4e1f5bdb6744fU, 0xbd946923bdb3a55fU,
  0x3d999b183dce1de3U, 0x3e2a2e63bdf2fe42U, 0xbdb7802cbd7217e5U, 0xbca284013e8e0752U,
  0xbdda98603cc14611U, 0x3e1c71fb3d62c971U, 0xbe3ae190bd18eb0eU, 0xbddbd3a4bd9e2419U,
  0xbd0097263bdec3f4U, 0xbde7cf653d6f7959U, 0xbd07f7433da46385U, 0x3dd3859bbc477cdfU,
  0xbc95cd61bdeb9182U, 0xbe48a01f3e2f9509U, 0x3e529f5a3de6df6dU, 0x3e02669fbde38e65U,
  0xbe77ee5abd117b40U, 0xbe5191ab3d9687fcU, 0x3e1fcfd13db327cbU, 0xbeacb0aebdcd8202U,
  0xbe38efe3bcfd3a7bU, 0x3cc768743db79946U, 0xbc20b23c3dcb216dU, 0xbdf7b4bebdb678b6U,
  0x3e2a053f3c44dc6dU, 0x3c3490543d62c13fU, 0xbd07a055bccf41e7U, 0x3c332b813e028857U,
  0x3d8cfece3d242a59U, 0xbdc2bd8f3e2fa463U, 0x3dcb304c3dd9e267U, 0x3e5d482dbde74134U,
  0xbd9bd6bb3ce7552cU, 0xbd25eacc3e0337eeU, 0x3d24ca783e1696e6U, 0xbdca3ae23db0c30eU,
  0xbd9805b73f67c0e0U, 0xbc4b01973e9934dfU, 0xbfbae02bbe94bd89U, 0xbc0110753e14264bU,
  0x3f85809fbf48ee4eU, 0xbdf349973eaaed3aU, 0xbdf51d58bf0914a2U, 0x3dd60c533ed2468bU,
  0x3df847f7be923545U, 0x3d04166c3e7d5e83U, 0xbd5b30aebe2ca624U, 0xbdf4a9523c2d5d79U,
  0xbddc55acbdd53561U, 0x3c9314b4bd22fb09U, 0x3c900f65bd832076U, 0xbd6be32f3cebddf5U,
  0xbde29ce2bc282c34U, 0x3e0f116dbdac7b47U, 0xbe51fc6b3d1cbb17U, 0xbcf2ecbfbe4e7f7eU,
  0x3d2756403d8b700aU, 0xbda89d8cbe120123U, 0x3d7f1d1bbdfaca8bU, 0x3d553786bdceff44U,
  0xbe527c59bd8fccb1U, 0xbc5ba0d33d38cc7dU, 0xbe7a44abbe27d708U, 0x3e0be6333e86e67bU,
  0x3c106d25be0a8d9fU, 0xbe0fcf7fbdc6b091U, 0x3e23cfca3d9e2b6eU, 0xbe67d9443dd6fa35U,
  0x3e47b9c4bdfce939U, 0x3e0208a4bbeb61ecU, 0xbdca80d73e755819U, 0xbe2620b63b0bb506U,
  0x3d3a468b3c80a90cU, 0xbd9f9091be97e1f5U, 0x3a23d716bd55de0dU, 0x3dd9fe11ba95c861U,
  0xbcad38e03e002a0fU, 0x3dfd2ad33cd0289bU, 0xbd8431aabdaab284U, 0xbd02a20cbd157480U,
  0x3dca0b1f3ce4ca4dU, 0xbd62c4443db1277bU, 0xbe379bb9bb641ad0U, 0x3d69f6d93d296044U,
  0xbcdcefbb3ddf813aU, 0x3e2fb2f53da11388U, 0x3d2d84bebd5bffd9U, 0xbd9a6a14be438dafU,
  0x3e008dac3ddbf0f6U, 0x3e2242cd3ddb75c1U, 0xbe36b314bb1729d0U, 0x3de743b1bea695e6U,
  0xbd3e064b3e2a483fU, 0xbe7637d43e027960U, 0x3dafa1ff3e388512U, 0xbd049ff53cee0ad4U,
  0x3dc97906be923a1eU, 0x3d8a08883dda90cfU, 0x3df306363d53356cU, 0xbc0ed41bbdfa1511U,
  0xbe0947b93ccd69c8U, 0x3c1ee5f8beb010e9U, 0x3e1e5ccbbe09a7dbU, 0xbbfad04bbe8086a2U,
  0xbdbdab363c92d1dfU, 0x3e00e5ff3ddb734cU, 0xbe45b4b73d27d795U, 0x3e2b468a3d8b32cbU,
  0xbe396e743e0c4187U, 0x3fec2ce33e7d5a5aU, 0xbcb1117c3e90532dU, 0xbee479a23ea39be3U,
  0x3ae6ef58beae4c2cU, 0x3f5746343f4722b4U, 0xbd7fab04bf88737bU, 0x3f545a323cfd0988U,
  0xbdeba5473f155100U, 0xbdbd36adbdd7c748U, 0xbdd3a4a2bd56dbb9U, 0x3e3553773d401ccdU,
  0xbd1ef0d5bda22d25U, 0xbc5674bd3d19f420U, 0x3d1121763dede7aeU, 0xbe2481f03d80c135U,
  0xbce524873e118137U, 0xbe0204d83d40e510U, 0xbdf85bdbbd4455a6U, 0x3da470c2bd2a8f63U,
  0xbc4744fb3d295c76U, 0x3b1e1ef43cebd093U, 0x3cfa8e03bc3d172fU, 0x3e0d8dfbbe10fcf9U,
  0x3de34188bb3d149fU, 0xbd30a62b3e74e6b6U, 0xbca9c413bdb74261U, 0x3e69d744bcace04aU,
  0x3e4085d93c8d510eU, 0xbd648cefbe39116dU, 0x3ca77d80bd21cdd5U, 0xbd5318163d7aabbdU,
  0xbd3b300ebda02029U, 0x3e119b8ebbddb2e4U, 0xbe082d2dbd9aa36bU, 0x3c65b8573e6518f4U,
  0x3da904a73e64bc21U, 0x3c14b8833d229eb9U, 0xbde35089bd669e92U, 0x3df9c07fbdff821bU,
  0x3b3590dd3cf0ab84U, 0x3cc84e85bd06dcedU, 0xbd0360e73d913741U, 0xbd8d4adebc19e598U,
  0x3d3475e23d401bd6U, 0x3dfda4b33d6f7585U, 0xbdc3acc7bdbbb4ddU, 0x3cccf1b03dba3fb9U,
  0xbdd995ba3cb7d204U, 0x3e486eb43be4bf63U, 0x3dfb05a73c844e67U, 0xbd47d9603d42a592U,
  0xbd1b0000bcda8ad4U, 0xbd3350eb3d9a434dU, 0x3e0469703e6ca472U, 0x3db45d5cbbbea58fU,
  0x3a3319ccbe231239U, 0xbe288e5f3e277d7bU, 0x3e40f9cc3da1b553U, 0xbd55b4a0be94379dU,
  0xbd8ec120bce539cbU, 0xbd50a4463ce435ccU, 0x3e2cc1023da6aa79U, 0xbdea4c4fbd82e13aU,
  0x3d9dd3bfbdb21875U, 0x3d1d63a53e13c764U, 0x3e01dd8abd4f3f10U, 0xbd9adf95bc925e5eU,
  0xbdbde7c6bd83f07fU, 0xbde0a9e53dbdde43U, 0xbd3e9537bdb20930U, 0xbd446d78bc97ac62U,
  0xbe21b546bd670de4U, 0x3d77f1353da46225U, 0x3fd8828bbf50a3caU, 0x3e00b4ec3e27a364U,
  0xbe1ccd29bf230d82U, 0xbdf232e93f10ada6U, 0x3e146b293fb73395U, 0xbde0995bbfa79124U,
  0x3f4aaec9bd0415d9U, 0xbe944d5abe9ce3cdU, 0x3edbd1adbd995b42U, 0xbd087df8bdbc2df6U,
  0x3de9c640bc69e451U, 0x3d7434413dc5d72aU, 0xbc58e2403de04354U, 0xbdb6f70abdf79b6eU,
  0xbd7a945e3dbc28bcU, 0x3b9438ecbdb5f632U, 0x3e30fabf3cc85ae6U, 0x3dc2eaab3d809504U,
  0xbd85af533e0e2ca4U, 0xbd17d845bc68dd90U, 0xbd3307f63dab0d2eU, 0xbd9120583b3f941fU,
  0x3c85c434bdce04aeU, 0x3e0643e7bd12d2ddU, 0xbd65284dbd8bd218U, 0x3d2fbc363d9b2029U,
  0xbca3540d3de9dce8U, 0xbd99fa85bd6f0464U, 0x3df98174bd36687cU, 0x3bcbadb2bc9055a9U,
  0x3e05137b3d93e44aU, 0x3d20195e3db37c45U, 0xbdc6abe8bd9d0cc7U, 0xbe07d80f3d7729abU,
  0xbc091fe33c508f3cU, 0xbdc095e33d1c4a28U, 0x3e0c7ce63ccaadceU, 0x3cd5eced3d4e59f7U,
  0x3e12609b3d1d642bU, 0xbe1cd50b3c8b161bU, 0xbe1b85943d87db79U, 0xbba94a443d7ad79dU,
  0x3d8b987dbe0a376cU, 0xbc224a89bdfda5e0U, 0x3c9b099abdd0d431U, 0x3d003c613d63b192U,
  0xbccd05a13bff75eeU, 0xbe004107bd65326aU, 0x3e06faa13d3337cbU, 0xbe320b1bbd3ad1d2U,
  0xbd64d1463d5e957bU, 0x3e3c2b853cc12ce2U, 0xbc73ef7c3d703cbeU, 0xbc59b9a3bdbd6046U,
  0xbe07f15fbd2c790bU, 0xbc4e0d23bb2c6fd6U, 0xbcaa82333e1b6685U, 0xbc2fd6543d58d3f7U,
  0xbe1df58ebd9a6b73U, 0xbcaaa0aa3d2ce622U, 0xbdbf5f5cbd001182U, 0x3da416d93d1b4997U,
  0xbdb1f3efbdb002d2U, 0x3e4ecb103ce09ec9U, 0xbe0020643dc37ffeU, 0x3d64ace43e1df5e3U,
  0x3e2b1c7fbdbda562U, 0x3db208e7bd07fe25U, 0x3dccf3a43d637317U, 0x3d4c41eb3d2fa483U,
  0x3c196df03c8505ecU, 0x3dfdf4253df7cab0U, 0x3d9cc3253d188200U, 0xbea57dfa3fcd3b34U,
  0x3e50e01b3f883be8U, 0x3f271871bc5913cdU, 0x3ea562db3f31d8b4U, 0xbf4d3ea1bef21727U,
  0x3e382ae13efa7798U, 0xbec776863f8363bfU, 0x3de663bc3eb2da4bU, 0x3de96be53e34a966U,
  0xbe006573bd3819fdU, 0x3cc6d99f3d8c6ff1U, 0x3e089d05bd90a8c2U, 0xbdf333883d1ac1ccU,
  0x3b248c283c9764e4U, 0x3d8e4415bd76e525U, 0x3c6c50bebc836da3U, 0x3d8c7d59bd345a21U,
  0xbc9ab55e3cbdec90U, 0xbc516564bd77591eU, 0x3b1c4566bcbb6c72U, 0x3cafa643bd867bf8U,
  0xbca8d319bd1f17f3U, 0xba813259bd132234U, 0xbcc6a9053d7056f0U, 0xbdc44193bae674d9U,
  0x3d05764ebd93bae0U, 0x3cb523933d4266a2U, 0x3c43326c3ceaa51fU, 0x3c8a0ab4bd424c1cU,
  0xbd49f492bc317dddU, 0x3cc69232bd7190ceU, 0xbd85ae573dae9a11U, 0x3c5d8151bb50a907U,
  0x3d1403253c3aa45bU, 0xbdc10c2a3d08f54aU, 0xbe258f653e0d72daU, 0x3d40307cbda0478dU,
  0xbda19b18bc4c3b74U, 0xbd994508bcb20cabU, 0x3d14aa4ebd4388a9U, 0xbd41c4873d80b468U,
  0xbafc0f573bfcbe44U, 0x394339f3bd181867U, 0xbc060a823cb0a729U, 0x3cc9c30c3d5fc8eeU,
  0x3db367f13cf551c1U, 0xbd954dd0bd60c56aU, 0x3c241016bd438e3eU, 0x3cdc7dc1bcaee5bcU,
  0xbc17f0bb3d174d62U, 0x3ca12b2bbe145252U, 0x3ab3bf4b3cacbf59U, 0xbdae5d883d8924eaU,
  0xbe421f80bd142e9fU, 0x3cfe9f49bd439d8dU, 0xbdc14af2bd97b332U, 0xbbaa3be83cc78a7dU,
  0xbc8bb44a3de5e111U, 0x3c07212dbd77bdb8U, 0x3c3c86133d4a42b6U, 0x3d878f523c1194d5U,
  0xbe066bf93d89fd74U, 0x3dbf1037bd7efcb6U, 0xbccba8fb3bea21cbU, 0xbd8a7b183d00163cU,
  0xbe2a8f8b3dcae21fU, 0xbcdd0e6bbd3ee44eU, 0xbcb581413dc2b9f7U, 0xbcfcfa593c9ada3aU,
  0xbcfee6133e005b8dU, 0x3cc0fb90bcf0b348U, 0xbbf13b933df8ae6aU, 0x3bf4bae6be0b5dafU,
  0xc01ea2973fc7b98fU, 0xbe8dbb5ebef8c59dU, 0x3de6afc43d34105dU, 0xbe4c87293e5d125cU,
  0xbe200ecabf6336beU, 0xbe7303c33f6f86cdU, 0xbf9476503d9530fbU, 0x3df4f14b3e8610bdU,
  0xbddb253c3d201800U, 0x3d96c9933e1ff1f4U, 0xbcec0a46bd6ff9e8U, 0xbdfc642cbcca285bU,
  0x3d105817bced4461U, 0x3de773e0bd7d1253U, 0xbe0467f33d33c455U, 0xbcc3a3853ddf1c57U,
  0x3e080f0a3d8e6bfcU, 0x3dab0fdfbd009816U, 0xbdbc9834bdad6294U, 0x3d534d57bc45d0deU,
  0xbc88bd1abd8904c8U, 0xbe9493833dc48098U, 0xbc9f9f213d5e69e9U, 0x3de58c09bd58e598U,
  0x3d834ed5bcf2dc80U, 0xbd12c928bc05422fU, 0xbe0556d03d6d7199U, 0xbd8b9b963df99749U,
  0x3cc2b8febc3b82b0U, 0xbe17acd53d616a31U, 0xbcccc86b3da34a57U, 0x3e0644eabd23c84cU,
  0x3e58cf0b3e09233eU, 0x3d9c6bf43e14d756U, 0xbcd52f123dc9735fU, 0xbcba2cfa3c52dbfaU,
  0xbcaeb1b1bd92d5c2U, 0xbe0402033c3541c9U, 0xbce0c11a3dafbc5eU, 0xbc5733523d8e4a74U,
  0xbd50516d3d696d03U, 0x3cf782fe3e03f831U, 0x3d7c95f03da7c982U, 0x3d1cd08dbd869936U,
  0xbd7c67e13df943c5U, 0x3c3b6a5dbe7f3bd6U, 0xbe1221163d1779a0U, 0xbc3a11bb3d4223e9U,
  0xbc18faf8bd8580b7U, 0xbe02ecbcbd903302U, 0x3d8bf077bb190275U, 0x3dc3afa6bdc0ca3fU,
  0xbe06648e3d5c472eU, 0xbc0d66c1be070a4bU, 0xbc44677e3d3a1b7eU, 0xbdde71bf3ad99e92U,
  0x3d618a04be0f927fU, 0x3c5f17d1bdc9f747U, 0xbcc722e33d1674f8U, 0xbdf98888be26bef2U,
  0x3ddf8e57bbd87bc0U, 0x3c1abb6ebdf698dfU, 0xbd86459ebd0dedecU, 0xbc979c45bd84fb68U,
  0xbdbca447bde415f4U, 0xbdb33197bb208679U, 0x3cc49a823df67330U, 0xbd912cb73e49ef61U,
  0xbe5fa396bd0987edU, 0x3e84be213d89d76dU, 0x3d6f89d9bdf723eaU, 0x3d954a983d7b49f9U,
  0xbd9fe91abd95f627U, 0x3fad0b9d3eec626dU, 0xbd1120933f65c08aU, 0xbd37f916be61568eU,
  0xbd6afaedbc3a7ee4U, 0x3df608fc3fcbdb73U, 0xbe50dba0bfa9798eU, 0x3f8deb323f0bc172U,
  0xbe5c4ed53ea5b350U, 0x3df65201bd10f1a4U, 0xbdafb1943da594b3U, 0x3ddf522c3db94549U,
  0xbda76865be466ba9U, 0xbd3e2e0a3e08ebb1U, 0x3de1d716bde3d5b5U, 0x3deedc44bd986d5bU,
  0xbccf6db9bd3567beU, 0x3d1633513e21d2f9U, 0x3e59dcbfbd277f2bU, 0xbd4de3f63bed7727U,
  0xbdd58c033df24087U, 0x3c6cbc0dbca4fd3fU, 0xbd359a22bd84769aU, 0x3db2faa8bdda56a9U,
  0x3dc9c061bdd14dcdU, 0x3e2912833c00f8d3U, 0xbdfa93b63be842cfU, 0x3df40a81be14488eU,
  0x3d84d2433d134a3aU, 0x3d88eea73da27057U, 0xbd3e5ed0bde5981cU, 0xbd6d4176bd0f70a2U,
  0x3c8b34f73d5213e0U, 0x3cf80f83bde56d78U, 0x3dc702e63da38e54U, 0x3e813189ba7dc30aU,
  0xbc684fe93ddf01aeU, 0x3b69165ebbb00537U, 0x3e2ae87f3d3826d4U, 0x3ce38cd0bc18c762U,
  0xbe1499abbcc0da7aU, 0x3e10cf273db7a46aU, 0x3d8abfc3bcd812fbU, 0xbd17a5743e2662dcU,
  0x3a967ac63da2ce90U, 0xbd8a63643dda2952U, 0xbc9dbee23da6ee77U, 0x3c94bf9d3d405b09U,
  0x3bb88a52bd03253fU, 0xbdaa1e323e859f3aU, 0x3c4f2fb43dec1848U, 0x3d6bccf0bd9a7593U,
  0x3d00db453e1705e0U, 0xbdfbaf223bedf2a7U, 0x3e45abbf3d6edc6eU, 0xbd8c29cb3de78ed8U,
  0x3d0b9451bd9b9e99U, 0x3e9759023dd1e09dU, 0x3d98c0dcbe2a76d6U, 0xbb166c4a3d86ad19U,
  0x3db2f3e5bd26078aU, 0xbd5cfa44bbc50c5fU, 0x3bd05bb0be0d9873U, 0xbde56db93e49c80cU,
  0xbab1b25ebcceb016U, 0xbc2761f6bd85de47U, 0xbcaaabf13c13142cU, 0x3dc6b2873db2ba83U,
  0xbe416cba3e119e9bU, 0x3d8630183e1b7309U, 0x3c8d1cecbddd6b45U, 0x3c6af5f43e24f0acU,
  0xbdf9f9e9be122ab7U, 0x3c70e83a3e98a98aU, 0xbfcb0bd1bf34a0aeU, 0x3daf6246bf628807U,
  0xbe8f61693e66ad19U, 0x3e149361bd8fcb8eU, 0xbda410f9bfb13dd7U, 0x3e0c2eb53fa17ec0U,
  0xbe806c52bf3744c1U, 0x3e222500bf37d0e0U, 0xbcee6dafbd561fc0U, 0x3d65776bbd314cabU,
  0x3ac15c0a3c7602b8U, 0x3df6d372bcc1057bU, 0xbd9af3c0bd3a49f7U, 0xbd30fcf3bc934bbaU,
  0xbcda0036bd2858bcU, 0x3becc2bc3d009d62U, 0xbd04eb8c3b6017c2U, 0x3d9c85583e0dc6d7U,
  0x3cda56ffbd0a3637U, 0x3d80505c3d31a1fcU, 0x3d84bf5bbd781e34U, 0xbd24c2413d1bc849U,
  0xbd3b8c10bbb4c672U, 0xbdc10fc13c2f0b0eU, 0x3ae94a16bd9b5c5dU, 0xbd2e53ff3ccae34bU,
  0xbc73bffcbda68acfU, 0xbd82adbebd3913bdU, 0x3c304b66bd1b879fU, 0x3b213a203d6bad65U,
  0x3bb7fb4ebd3ab685U, 0x3d31a62e3c30d4a8U, 0xbcae4ebcbcf5b26aU, 0x3c644fa53d15b0dcU,
  0xbd911bf1bd3501b2U, 0xbce9795ebc9431d4U, 0xbd370e32bd9abfdbU, 0x3d2b25fd3e1b2f08U,
  0x3c2819eebd642f26U, 0x3d98cc6fbd269f5eU, 0xbdbbadaf3dcbd6f7U, 0x3cf7fcdc3d8e6100U,
  0xbd8c58bdbda80680U, 0x3cded3863d8444c0U, 0xbd04645cbcde0bcaU, 0x3b31b7ff3cc20747U,
  0xbc96d646bdbe9b8aU, 0xbbe3bc91bae0b8ecU, 0xbd3664a23cdf9f79U, 0x3d3564c0bd3f4964U,
  0xbd753ef63d9dac43U, 0x3d8364783dde9f1aU, 0x3d865acabd97fc73U, 0x3cf60b103c95d405U,
  0xbd25b0ab3d0e2f61U, 0xbc25ed253ddc95f4U, 0x3d5f6dedbd305f83U, 0xba9011433ca16a8bU,
  0xbd9736823d0a40efU, 0xbc09b788bda6fda8U, 0x3c85cb3b3d5f6a75U, 0xbd9fced5bbc397ebU,
  0xbd80d844bd91e5aaU, 0x3df6fb90bc9373c2U, 0xbd341664bdde4eceU, 0x3c03ac3ebcb85680U,
  0x3c7be4603d5e2f3aU, 0x3daa2641bd93b076U, 0xbd618c6f3d69e6c5U, 0xbbee88843d3041c6U,
  0x3c82c02ebd9a588aU, 0x3d13cc88bd826d64U, 0xbd8045e23c0d9a95U, 0xbf9c6f3ec0183c05U,
  0xbe920b7cbf39a001U, 0xbf6758783dbd2056U, 0xbe7a9d703d8efcdeU, 0x3f8012e4bec32796U,
  0xbe8561e63e504cc0U, 0xbed8b3febf6f5cd7U, 0x3ce01af1bd4fe96eU, 0x3d827e5fbd30d5b9U,
  0x3d7f90ddba8caa1eU, 0x3d2afebebb27f6f9U, 0x3c9734673c4b0ca7U, 0x3c6667e6baaf358fU,
  0xbd18625a3b6cf577U, 0xbca97b9d3c938356U, 0x3c8c101a3ce2a53fU, 0xbcea82e0bd4d4dd6U,
  0x3c7c99d6bd2ee2beU, 0xbaa485ef3dd6fa89U, 0x3d9bdf3c3d591d8cU, 0x3c76e6e8bc70016dU,
  0x3d71bc25bc1c9c15U, 0x3cb5d6be3c88d9a4U, 0xbdb50e2f3d39a2baU, 0x3c80054f3b659890U,
  0x3ca848003d80ac18U, 0x3c6d3c5abc1d08cbU, 0xbd0766843b48e00aU, 0x3d034e043c8602a6U,
  0xbbfec1c93c236621U, 0x3c3c6524bd37521fU, 0x3bd4cb6a3db45c09U, 0x3d2252a23d7d7679U,
  0x3db955c7bd82e022U, 0x3d911d8a3dae4301U, 0xbd9bdd583dc36b71U, 0xbc999351bc7cf0f0U,
  0x3c418a77b86fe9f3U, 0xbcf27bb639ac3033U, 0x3d2fb1ae3d8839bdU, 0xba6b67773d024b9aU,
  0x3d7777fa3dd8b3a7U, 0x3ce0c9dbbcd1da96U, 0xbd2e17093db463bfU, 0x3e01d07b3d94b4f5U,
  0xb90645043d50821fU, 0x3c7a1e5a3d28e692U, 0xbc8168b03d962d9aU, 0xbd382ed83d8e7858U,
  0xbd9815e83d188eceU, 0x3d05d1253a7e0214U, 0x3d04fbd23b24f150U, 0xbd270f0b3da42e11U,
  0x3cafe5a23d544965U, 0x3d38615f3d3d5f5eU, 0xbc385eabbc2e8fafU, 0xbc2f7dd23dc497d3U,
  0x3d0e47613dd31ee1U, 0x3cd0c411bcbd5916U, 0x3d844a91bc0acbfaU, 0xbdc4aef3bb92fa97U,
  0xbd99d319bd33b5a4U, 0x3ceab14bbc847222U, 0x3d1f253f3ccb637bU, 0x3cf563c63d120cb5U,
  0x3b6777ea3d1acd00U, 0x3c88b639bda6b611U, 0xbd27262cbc859a9cU, 0x3cb9b6703c36e1baU,
  0x3b9439fabcd6ef4fU, 0xbcbfca073d67103aU, 0x3d6a75f43cdd375aU, 0xbd805c403d26fdadU,
  0xbf04ceddbf98d175U, 0x3e0cd4e23f11dc75U, 0x3eb486b53e145a78U, 0x3e660cf73db72b4dU,
  0xbe8416b6bb3957b7U, 0x3e4335bc3d70351cU, 0xbe685700bdfd45edU, 0xbc5bbcdbbec2e94aU,
  0xbe4b5dff3e495a6bU, 0x3ea420f4baba8614U, 0x3e8ff35dbd9e81b3U, 0x3e1d3317be404202U,
  0xbe534a41bdce58a0U, 0xbdde64a3bbaf0a55U, 0x3a90e4213bca514fU, 0x3e461f29be033657U,
  0x3d7baef93e23dbe0U, 0x3e7af6d7bdbaaa38U, 0x3d875c7d3e5f4c52U, 0x3d0c7cb8bbf98064U,
  0x3ea122d6be4d2c52U, 0x3e44f1f23e1bb481U, 0xbbc58bbaba72482bU, 0xbda8c7e33d17147dU,
  0xbe1a7e5c3e49c164U, 0xbd1f9367bd52d790U, 0x3cc1012a3e10271fU, 0x3e7edd843edec5bcU,
  0x3e4b78be3bb606c7U, 0xbd8df1fa3dd0b69aU, 0x3e28664e3dcfe166U, 0x3d27cfa33ddd94daU,
  0xbe27d494bcad90a0U, 0x3e1801d23e781327U, 0x3e2dd5acbd54db2bU, 0x3d8af16bbd711e3aU,
  0x3e54fb833d87bccbU, 0x3e6752353e762833U, 0x3e4e007a3d4e0521U, 0xbcfa7cf0bddcc2b6U,
  0x3e599568bdc05a8eU, 0x3e79f1da3e2636dcU, 0xbd9be4183e228127U, 0x3db9bc2d3e2dc963U,
  0x3c3e8a3c3bcb2416U, 0xbdec20a73e4610a0U, 0x3e7d41fb3da84762U, 0xbd00fa20bde0a798U,
  0x3cca0c2d3e6c8a2dU, 0x3d0ee4c6be37e907U, 0x3bc1d1fcbdf6cc46U, 0x3e5485193c86c939U,
  0xbdb4873bbe4a1cdaU, 0x3e7de6b33d4adbdeU, 0x3e47b7ca3e2c7a59U, 0xbdbb1169bd39a9e5U,
  0xbe181a883debb8d2U, 0xbdb7bba93e80fc2eU, 0xbde6a745be97349cU, 0xbe12d7a9bdaee44fU,
  0x3ed00986bde3e3f3U, 0x3eacc7f93c9db42aU, 0xbe158af43d1ea7cdU, 0x3da4ba093e3f6e1dU,
  0xbd1938443ec51b57U, 0xbe2c2cb13ea9432bU, 0x3eb57e4dbd58b3f5U, 0x3e4a3f953e73cbbbU,
  0xbc313c503de76ddaU, 0xbe2b80553e494ccfU, 0x3ea38fa5be057792U, 0x3e96fb11bbb79519U,
  0xbe0397fc3c9541b8U, 0xbf14d8173f9a903fU, 0xbf02d7d13d82194aU, 0x3f9c8b0d3db1ede6U,
  0xbee1050cbf4e2e6cU, 0xbf812c6ebf1c2794U, 0xbe8079673f59d7cdU, 0x3e8f2dc6be23079aU,
  0x3c563a583efb4435U, 0x3da8a5f4bccc3c97U, 0xbcd4f8b63d86d19eU, 0xbcfaa282bda12501U,
  0xbdb7c1133d254148U, 0xbdb3cb7fbadf2195U, 0xbcd9db84bdd875eeU, 0xbd87120c3ae7d840U,
  0x3d51205a3ad22364U, 0xbdf0e829badfb695U, 0xbe4bb5d9bd1ef73bU, 0x3c7d5d11bdb7f9b9U,
  0xbd09d9e3bdea18bcU, 0xbd8356aabdea0b8dU, 0xbd9aab213c2659f6U, 0x3d02f01abdc5a2b1U,
  0xbc8333d43c381679U, 0xbe1577cfbd941a81U, 0xbc77e9893bfbb75aU, 0xbde1c8323d6a7709U,
  0x3c7f9be43cc3cfdcU, 0xbd026f55bdbfe486U, 0xbcaf5383bca04d65U, 0xbcd00158bd9305baU,
  0xbc354b64bbae08b9U, 0xbd8bc6073e0e5c42U, 0xbc911f16bce30fccU, 0x3a8b21f43d52024aU,
  0xbc808017bc70634eU, 0xbbcd66a63d1b91beU, 0xbd66fb2bbd2648a7U, 0xbd237cfbbde00e74U,
  0xbd86f3313c0a6051U, 0xbd85cc49bcb21534U, 0xbcb6361d3bf8baacU, 0xbe35a38ebe079e18U,
  0xbdf7c2dbbd073e7aU, 0x3bd79a38bc8900c7U, 0xbe5b1f2a3bef44ffU, 0x3d73dc8d3cd70fe9U,
  0xbcab15033c2c283bU, 0xbdfdd0e9bdb0a259U, 0xbd960b64bbed5f1fU, 0x3d0e69313d7d6849U,
  0x3cb14a01bdaa6a41U, 0xbdb965d53bfc7a22U, 0x3dbbe25ebdbfc73aU, 0xbd8942d7bd0ad9e2U,
  0xbd09960e3c9a6eb3U, 0xbd1a867fbd902431U, 0xbd0585bcbd2a1292U, 0xbc82a8093dd056fcU,
  0x3c9fe9d0be100e21U, 0xbdaecc06bd42d592U, 0x3d4c2fbbbda5fc2fU, 0xbd0d8fb83b903d53U,
  0xbaa33e15bcd8b9f0U, 0x3ca5132dbcf040b5U, 0x3cdcd265bd31437dU, 0xbda7bd1b3ddeb427U,
  0xbd14c092bdd2bda0U, 0x3d8fff653dc3470cU, 0xbd1a5fadbd98516cU, 0x3c13f3a23c84126fU,
  0xbca26aa4bd0706ffU, 0xbd9123473c80913fU, 0x3ea54dfbbda39623U, 0x3ccab3a8bfd34c90U,
  0xbe9dc772be8446fcU, 0xbe2d3ce1be52a41aU, 0xbdbd2c183eba6d6eU, 0x3b1f740ebe3fc711U,
  0x3e5cee9ebee6f217U, 0xbdb445d4bf310e4fU, 0xbe295a7ebda6a057U, 0xbcba9177bcdae327U,
  0x3d3525103de50e0eU, 0x3d1f9656bd072ff5U, 0x3d5da4d33da87565U, 0x3d18cb163da1a16bU,
  0xbdccfb713c3f152cU, 0xbcba5fe5bd7ffcb3U, 0xbba9bc3bbe835bc4U, 0x3c5eab0ebd565180U,
  0x3dd0067cbd65ea59U, 0x3d996c073b93a43eU, 0xbd9c11593ae2bbfeU, 0xbdc092b6bcd5fc64U,
  0xbb88bb1ebc954b15U, 0xbe0e89f33db91e4aU, 0x3dd735843d95da67U, 0xbb60e299be3e8312U,
  0xbcfc162bbb719740U, 0xb8dc9c3bbc8f4183U, 0xbcccd41cbdc43428U, 0x3c48f2f53d8339c4U,
  0x3d0df3353d585f86U, 0xbe2df1bfbd01391eU, 0x3dc0a4e3bc2987c5U, 0xbe0e5bb3bcbcb915U,
  0x3d17fcb9bd220244U, 0xbd6b7bfdbd806050U, 0x3c98a0ed3d0239e8U, 0x3c4c084e3d3fa5ebU,
  0x3d096680bd2b5114U, 0xbe260326bd8dc869U, 0x3d157e1a3e14a4f2U, 0xbdb4d1483dd15de0U,
  0x3dce3595bdc0d88aU, 0xbe0efd32bc84fab0U, 0x3b9868c13d080b85U, 0xbe2ceb1d3d443ae7U,
  0xbce644db3d901190U, 0xbd6b3301bd65ee22U, 0xbbfb69033e027742U, 0xbd9768ddbcb7ecccU,
  0xbd344a6e3ca3ee29U, 0xbe1a84c8bd7478ebU, 0x3d7ce8a53ddb4acfU, 0xbd9fab293e175692U,
  0x3d485153be4be3dfU, 0xbc5a26493c9de728U, 0x3c6394553e028cb1U, 0x3debea083daea476U,
  0xbe0d9493bd8eab72U, 0xbdb0542d3bf4c533U, 0xbd809c273df7d245U, 0xbe27cb66be237cb9U,
  0xbda464d03e365b7fU, 0xbdc2cd03bd9338bdU, 0x3d75e4d13de682fbU, 0x3d49a847bc4d8af4U,
  0xbd13fe543d9ccb35U, 0x3d0792b23dce9c56U, 0xbcdff1d83d3c2305U, 0xbcd4df403d3f8972U,
  0xbe3152103cffa6d0U, 0x3e11d5733d0f2325U, 0xbe0e17723d422dceU, 0x3fdd83edbedf39f7U,
  0xbdc689773e10422bU, 0xbf483d0bbcbd2256U, 0xbdbf63913f12fe5dU, 0x3f577ef23dcda5eaU,
  0xbe6f2dc8bed7f6faU, 0x3f2dd595bf295349U, 0xbe1272e53ee79f3dU, 0x3d9c248bbc4ae73fU,
  0xbe012062bd359b6cU, 0xbe0abec73dd23369U, 0xbe35c2b83d53efeeU, 0xbd7a5654bda3494aU,
  0x3dff4765bd968dd1U, 0xbd6bcf113dce796bU, 0xbd03d6f9bd8b9ec1U, 0xbdd39f0c3d2f25adU,
  0x3c0ff7473de2e3bcU, 0x3d117793be5f6cbaU, 0xbce81924be4a2191U, 0xbe3a22773d4f38acU,
  0x3d1248b63d5a8652U, 0xbc05a72fbd752e36U, 0xbe00dbfebe13b466U, 0x3daa263bbc780406U,
  0x3e681ee93cfef3d3U, 0x3d6064913cf05a2cU, 0x3d76854bbdaf0761U, 0x3d9ddf053d6b5728U,
  0xbd9b29a7bd149bfdU, 0xbbeac0893d8ae294U, 0xbe32e0113d52d10eU, 0x3e2fe73abd6c15ccU,
  0x3c88cd6e3cb9bc19U, 0xba8b9eb83da87fdcU, 0x3df5e24abd443142U, 0xbe0ea0a53c59c3f0U,
  0x3e25416c3c047c58U, 0x3e105bf13d3d2a61U, 0xbd4f5ad2bd8fd7acU, 0x3c0492dc3dcce34aU,
  0xbcff11c53dae071bU, 0x3c9ba30cbd52a887U, 0xbe5dc30ebdeefe34U, 0x3d3f4df23b7979c0U,
  0x3dc522f33c70c170U, 0xbe0e5d403ce7a5efU, 0xbc9d1077bd5e386bU, 0xbd6c2dc7bd85f408U,
  0xbe0fa3a43cf8ef72U, 0x3df88f183dde4e73U, 0x3d936536bdec1c9bU, 0x3da22b643d893bbaU,
  0x3cd19987bddaaca0U, 0xbdfb1cfebddc4a42U, 0x3c8d48543e083805U, 0xbd27a812bdbdf74cU,
  0x3d9e2613bc473e0cU, 0xbd8e1f223d80b79dU, 0xbd831fa83c8663eaU, 0xbceb0a86bcd707b0U,
  0x3c919e5abe297e85U, 0xbd9d6a06bb591513U, 0xbe2c48b13dafab88U, 0x3c165760be12d65bU,
  0x3db5bae7bca118d3U, 0xbe9b04bb3e2f8accU, 0x3e1d19d9bc91c7fcU, 0x3d9c80f5bd4009c9U,
  0xbdd1237e3c8230f5U, 0x3ce6fd453b79ecbbU, 0x3d38a8a5bd93ec93U, 0xbde70588bce8d6feU,
  0xbfc8df373faaf130U, 0x3eba4b693f904abeU, 0x3ddd2b81bea113bcU, 0x3ec976f63d81acb3U,
  0xbe25d7d33df7ec81U, 0x3ed172ed3c509d40U, 0xbeac02e83ee83d42U, 0xbd1a1132be857e2dU,
  0x3dfd5edd3cbbbc18U, 0xbc79cc543c88afd4U, 0xbb5385e63d6bf7e2U, 0xbdb497f8bcc978a2U,
  0xbbbb1a5fbb3f6224U, 0x3d8969463c1bff93U, 0x3c8d63963cb5a143U, 0xbd10e4f8bd6ce7cdU,
  0xbc8d1f383cafac16U, 0xbd12030d3b14dd3fU, 0x3c491b93bc5366b5U, 0x3d0de704bacef06cU,
  0xbc2f6135bd5401f5U, 0xbd04515dbd033947U, 0xbd87b05fbc95fc3aU, 0xbda1db663d13d1a5U,
  0x3cc4115c3c080b40U, 0x3b9062c5bd661b18U, 0xbceefd61bd6e1b74U, 0x3cf54a093d416cccU,
  0xbcfc4978bd552061U, 0x3ca6a4e9bd657788U, 0x3d526f07bc2b0645U, 0xbd1bda7d3d1df753U,
  0x3ca4db53bd8e3c8eU, 0x3cda9c89bdba51e3U, 0xbca310f53d07c526U, 0xbd5651ae3def9c26U,
  0xbc8d97babd3a4dcbU, 0xbbea3e5bbdc2bc55U, 0x3d1a0dc6bcac29a4U, 0xbdb3e3633d801a16U,
  0x3c98f6e3bd09ea9eU, 0x3cc13e203d2e6c15U, 0x3b00f624bd2b72c4U, 0xbc84eac2bd0107a7U,
  0xbcd0c2f23cd17694U, 0xbcb2ea97bd537b83U, 0xbcfca768bc42860cU, 0xb84192493a0ffbf3U,
  0xbccebeb73d0072beU, 0x3b6343d1bbace8eeU, 0x3ce4f8dfbd5e6400U, 0x3bdc54b7bd464954U,
  0x3c8e99e7bb585ddcU, 0xbd6816e3bcd7b076U, 0x3d816debbd04fab3U, 0xbd8fc266bdba5190U,
  0xbbf4476e3d937883U, 0xbde09c75bd9391baU, 0x3d298a46bbc2403cU, 0xbd65e8ecbdaf9cd1U,
  0x3d5b68eebd08dcc8U, 0x3cbda36ebcb1955aU, 0xbcd919353d5efa4cU, 0xbd39afebbd8ed6beU,
  0x3c6e33c83d381777U, 0xbc588d19bd81430dU, 0x3c69d47fbd111dccU, 0xbd3d9ef93c80715aU,
  0x3ca3caa63d2602f9U, 0x3d2c5803bcba9297U, 0xbd65d6d8bc9cbe90U, 0xbdac1876bd00f142U,
  0x3cbf30ab3cfbe551U, 0xbfa152e3bb0be6caU, 0x3e4e8d213e9af9e7U, 0xbf1e58f6bf174519U,
  0x3de399983efcb092U, 0x3e32994bbf58c612U, 0x3d8807903f5ed01fU, 0xbf9d5901be88f90cU,
  0x3e699335bd3bfea9U, 0x3e25606fbe0405ceU, 0x3d2f925f3e1e59ceU, 0x3d7eef32bd4ce7deU,
  0xbe2e686a3cee1c27U, 0x3e6b99123ebc4a1dU, 0xbe2f967fbe68c01dU, 0xbcb7e17cbe29510fU,
  0xbc58498d3daef6b8U, 0x3d79371c3dc8cc49U, 0xbdbe00b5bd1ec5acU, 0xbddfdd12bdbed7cfU,
  0xbd9c0d503d06fa4cU, 0x3e769817bdc222d9U, 0x3c24d1f93aab2d3eU, 0x3dfbbec4bc282022U,
  0x3d36d8c0bd47633bU, 0x3767d083bb99ddbdU, 0x3d0eca483dc2c875U, 0x3dc120263cbca406U,
  0xbd7bac743dd2b7eeU, 0xbce9f7eebdf15a63U, 0xbd8aa5d63d9b258dU, 0xbde04ee23d1801acU,
  0x3a7f4653bdc78703U, 0x3dd230eb3dcec2b0U, 0xbd9918dd3dc229eaU, 0x3a8dc4cbbe3f5f6cU,
  0xbe48db5a3e0190cdU, 0x3d2726adb882e357U, 0x3cbd5afcbdf0cf3aU, 0x3d81fc1c3d9ecbdfU,
  0xbde770653e264cb9U, 0x3e08105c3d422e75U, 0x3dbc80f8bde99b1bU, 0x3d863b1f3e09756dU,
  0xbd508b75bdbec9ebU, 0xbc0de6663e596b5eU, 0xbd35ec8f3e04773aU, 0xbe0816933b67e26fU,
  0xbe331ddabd391c88U, 0xbd3c555abd534b3aU, 0xbd1880413ddafb88U, 0x3d797efc3c97d0b8U,
  0xbdd65ffabd95ad11U, 0x3d4b14b9bd382b70U, 0x3dc7ede1bd2cdf5cU, 0xbdd68c2d3d88d986U,
  0x3be82da6be8b00afU, 0xbd64383c3e3e1d76U, 0xbda42e953bc999e9U, 0x3cb1b048bd6e3c88U,
  0xbcd1f54d3de5438aU, 0xbe01ad1ebe0e90d0U, 0xbc133de2be565d3aU, 0xbc566cef3dc6b61fU,
  0xbdda50cb3d2c12b6U, 0x3bdb6bccbc7e89c3U, 0x3e147513be0ddd78U, 0x3deef60ebb5e1729U,
  0x3de2f6ac3bd8c2ddU, 0xbdbe3b37be468812U, 0x3d7d57fc3dd02052U, 0xbd2ab14a3cecc10aU,
  0x3e4761bbbd8e5916U, 0xbe294b85bd15d352U, 0x3d5113793f9d8c62U, 0xbe8c883abf205274U,
  0x3e4e03ae3f0c82d9U, 0xbe2f1ffdbf44ba60U, 0xbe93fc0e3e4c0a1cU, 0xbe1cf6593dcf3b69U,
  0x3e15e1683e3d5169U, 0xbdcba611bede7835U, 0xbec5cfa83dccb109U, 0x3c9034efbea1bc0bU,
  0xbe7e7fe03dfc30caU, 0x3df743bc3e7afa44U, 0x3d9f75b4be1e455aU, 0xbb3ce1d13e38845fU,
  0x3d127b8bbdea4865U, 0x3db64d1cbe87fa75U, 0x3c98ff9dbc894697U, 0x3debee593d0dceebU,
  0xbc9902103d8fdda1U, 0x3dd2b4eebd6e3959U, 0x3c0beaa73c43b423U, 0xbe208aaebdd6ff21U,
  0x3dd2e8553b956d02U, 0xbdba798fbe378124U, 0xbe27b9063e3d7c5fU, 0xbc8efe613e1cb1d3U,
  0x3e5aebd23d0210d4U, 0x3e272dbfbdbbc0bdU, 0xbdf768d23e01abcaU, 0x3ccde7203dc1c959U,
  0x3e2266d3bd2f6650U, 0x3d508a873ec54130U, 0xbd33221fbcb1adcbU, 0x3e5ac3c9bd78b31fU,
  0xbe2f301d3d54ea2dU, 0x3c0366ee3c81b654U, 0x3db26592be161e2fU, 0xbe406e153deb055fU,
  0x3d52eff63e76d6c6U, 0xbd398159bdfd0014U, 0x3d0ecb0e3af16152U, 0xbce8f4aa3e21770bU,
  0x3d1a622a3de16af3U, 0x3e2de1e23d97d660U, 0x3cbf350d3d1ecda9U, 0x3da209493dc62204U,
  0x3d59dd8abdee9812U, 0x3d2e99673e6bd92cU, 0xbdba71693dc89bfeU, 0x3c7e877e3bcedd41U,
  0x3dabc9cdbe692214U, 0x3c80d5c0be0c794dU, 0x3d9fa9083dc8debaU, 0x3d25affd3b808af0U,
  0x3dce1b8dbd8021bfU, 0xbd5108b8be2c1814U, 0x3e2f42c33e107b3dU, 0xbdd34a15bd16f4bcU,
  0xbe6e49083e29f711U, 0xbb7f7f28bd1a2dbfU, 0xbe81cec93d68df92U, 0x3cf3bb4e3d5fafcbU,
  0xbe0c1793bd7a6c8eU, 0x3d19468d3dda89a6U, 0x3dc076903df1e965U, 0x3bb250763e84ad11U,
  0xbdd87db73d127e96U, 0xbe5f7c1b3e53cfe1U, 0x3e45925bbd9cfde4U, 0xbe45742a3c7f67a9U,
  0x3e2ac2283be7bab3U, 0x3db79dce3c8e177eU, 0x3e0c5fc3be95f6f9U, 0xbf10d9f63d39467fU,
  0xbe225e96bfaf5cd2U, 0x3e7c12f2befb0433U, 0xbd60203f3eb4440dU, 0xbea4dc1bbc424b5cU,
  0xbd66a9813e7a3d29U, 0xbe8d5e9ebde09446U, 0xbd3dc512bfb00712U, 0x3ef3f45ebc902e4dU,
  0xbd60e982bdade2cbU, 0xbcc33b9a3cba91f3U, 0x3d1b9417bc46daabU, 0xbd8f948c3d91e45bU,
  0x3d4c8db8bd8c3692U, 0x3ca8a131bcae326cU, 0x3dba2c5b3d356a9dU, 0xbcba4009bd3105d1U,
  0x3e0928833d3ce1b9U, 0xbd969279bd8f425fU, 0xbdf54dbabce8df06U, 0x3d75349cbd7cae94U,
  0x3d005f13bd5147eaU, 0xbd2c7468bd719f7fU, 0xbde745ee3d3a272fU, 0x3e0340a3bd0c72f9U,
  0xbc8b05f73ba8eac3U, 0x3dc74458bccf6af1U, 0xbdc499e6bd32fa87U, 0x3d8a8f153e104237U,
  0xbccafd0cbe2d750eU, 0x3c7e6fc0bca97c44U, 0xbcf9ae0d3d375527U, 0xbdb7b0f13c8e62dfU,
  0xbda671fcbc628bfbU, 0xbd6f5656bd427801U, 0xbd9cc386bdf34591U, 0x3d11a74abd7bc881U,
  0xbcfa48893e2e9728U, 0x3e036787be056d77U, 0xbd482c62be15ab0cU, 0x3cb49a793e0c8c1bU,
  0x3d505ecbba01c1faU, 0x3cc3d99ebd41c504U, 0x3d2b7defbc932df8U, 0xbd09d559bdd00aa0U,
  0x3d217661bd2e03efU, 0x3c4bd534bd9e59a4U, 0xbe7dc1ecbd9e5b65U, 0x3ca67da83d6aab29U,
  0x3dc3a06bbe28ff02U, 0xbd3e7593bd5d25a9U, 0x3d0da0aebdbf38a5U, 0x3db014863c4ad17dU,
  0x3e107762bdd53d4dU, 0xbbba8177bdcb6104U, 0xbd85d8663db319ccU, 0x3dc478c3ba5b213aU,
  0xbdd717a93c8dd000U, 0xbc2dbc0cbdea6511U, 0x3dc11081bd08c2e1U, 0xbb83877c3d94c00cU,
  0xbcd44c80be0612e4U, 0x3d4321aebe69643aU, 0xbc35e79f3da525c9U, 0xbdd5339c3c48218cU,
  0xbe146ddc3dcf6086U, 0x3d070f2c3dbcc2bfU, 0x3da678d03dd37ee3U, 0xbd1ea563bcbe4fc6U,
  0xbcbfc6d13cc83e7eU, 0x3d800ffe3b852a84U, 0x3e09e3e73dd56386U, 0x3d22e2e73d3e8162U,
  0xbf4b12bebfde2157U, 0xbe056ca63e3f3189U, 0x3eab0cf23f123032U, 0xbe130159bf7d0898U,
  0xbe0e287cbdc99bc2U, 0xbc99ca813e6b0934U, 0x3d21e364be8a37d5U, 0x3cbfab47bee72b10U,
  0xbf08974ebda80ff4U, 0x3dfd55f4bbae25c4U, 0xb9b2f8f9bd47d2fdU, 0x3e244c713d8ddc08U,
  0xbde491debb98879dU, 0xbd76b3bfbdbdadccU, 0x3df06169bd81329dU, 0x3d4b3c4bbd48b5ccU,
  0xbda7e04bbcf04ccdU, 0x3e76045fbd60053bU, 0x3dfbdbbd3d9681d1U, 0x3e0592a9bd22d93bU,
  0x3d665d7bbd4bee89U, 0xbc084cc33c2cdcbbU, 0xbc1792f6be5c5dd6U, 0xbe66657c3d17ed03U,
  0x3cf88d8a3d64355cU, 0x3dfb7addbd1addf6U, 0xbd2c099fbcbed7f7U, 0xbe7b35343d673cadU,
  0xbded2ef43e41bba6U, 0xbdcb15e63d103a05U, 0x3e3639333d992bc4U, 0x3d1128babb40772fU,
  0x3d4e717e3e5d0818U, 0xbd3e2e49bd2706d5U, 0x3c57d10f3b59ea06U, 0x3d94cbf5be62a72bU,
  0xbc847feabe0edc96U, 0x3d856779be0c5af4U, 0x3e511e8c3db5734cU, 0x3c8afbc5bd043c02U,
  0x3d4aa513bd24d451U, 0xbb9490293d77e5d1U, 0x3be9c2ee3e09f1b7U, 0xbe2935fa3da06812U,
  0x3e5df273ba9d9d15U, 0xbe0ba847be12afd8U, 0xbcb7ce0b3e0bed26U, 0x3e0db81b3e193062U,
  0x3d64565bbd036339U, 0xbcca4d0dbd56d3b0U, 0x3df2c044bbaac490U, 0x3cc100e8bcc21801U,
  0x3d644fe03e29dad0U, 0x3db895f3be1f741dU, 0x3e1849afbd2b3493U, 0xbdaa31403c6c0e1cU,
  0x3d07d16a3d889fe0U, 0xbc065829bc89f4e3U, 0xbe0933d93d985dffU, 0x3d9e81503d124e9cU,
  0xbe2a6b033c70651aU, 0xbd26dec7bcaa49caU, 0x3bef8a65bd8491d1U, 0x3e009c033d5ace35U,
  0x3d57ebf6bd16256dU, 0x3d8843133c878ed9U, 0x380bfd4abc600cf9U, 0x3c64a2c03d07153eU,
  0x3daa70033dab6f4eU, 0x3e56ee6a3d174234U, 0xbd97c7f3bcdb351aU, 0xbbae51c03d9491c4U,
  0x3d94af20be5c2573U, 0xbe153739401507daU, 0x3ecd9f8e3f99d27fU, 0x3ee017543e313471U,
  0x3e66c931bdd1845aU, 0xbf61ad2c3e50ddd6U, 0x3e92ae49bd7c310dU, 0x3de87d9f3f82f60eU,
  0xbd977a903daaa2b9U, 0xbd860c923d92efbbU, 0x3d316a27bbda0842U, 0xbd34d4993dfc0df4U,
  0xbd8e3f8e3c88f7e2U, 0x3a4c059cbd770c56U, 0x3d6891c93d6823c4U, 0xbd5fbf4b3da60fb6U,
  0xbd3aecacbad6b2d9U, 0x3d6a6beb3dcb113eU, 0x3da34738bbc8b29dU, 0xbd98146d3cb403feU,
  0xbd82d0473d3ddcf8U, 0x3e0e8ff03d8f1c4dU, 0x3d8135693d0a817eU, 0xbd935ea9bc823692U,
  0x3c5219823b8ab861U, 0x3d9828503db3822cU, 0xbd8305e9bd05219fU, 0xbd384a4b39cef79fU,
  0x3d6635713cb7655aU, 0x3cfec1283d1b57f3U, 0x3d993e373c9845e5U, 0x3ae3e6313d243884U,
  0x3ca7e88cbcb6532fU, 0xbd8c7f4ebcc58dcaU, 0xbd9bde7d3dd829cfU, 0x3d8c76ebbd2834eaU,
  0x3e18e477bce607e6U, 0xbd5980e63d1cb5dbU, 0x3cbc98e53baf6411U, 0x3dfc3f383d5f6c6dU,
  0xbcb86020bc8ed124U, 0xbbd9137e3d3bb4aaU, 0x3d19564d3cb358abU, 0x3d0d4d6a3d84b5bfU,
  0x3e172929bcded69bU, 0xbdc8cb90bd16af8bU, 0x3d9134fd3994268bU, 0x3c610bdabda40cdcU,
  0xbda80e94bce26061U, 0x3de758ba3c439f21U, 0x3d1cb901bd21ac6fU, 0xbd9d7b333d70716dU,
  0xbd01fb763b17468fU, 0x3d82dcedbb11b7c9U, 0x3ce31196bdb2f3cfU, 0xbc8cc0cd3d8263aeU,
  0x3a042a303dab8b71U, 0x3d90271ebd96509cU, 0xbce1e989bd66de66U, 0xbd593a7bbc746c02U,
  0xbc19bd1f3c2d5bafU, 0x3bef2f26bc673839U, 0x3dc922053d0c8bf6U, 0xbde1ecc13c5d2802U,
  0x3b874fe5bd372746U, 0xbd775e823d539d67U, 0xbbc58f0a3d88ac16U, 0x3a761341bd04c44cU,
  0x3c2bc69e3db6e848U, 0xbafebd7e3c239b74U, 0x3d1f6ace3ddff937U, 0xbdb193dcbcd6f84fU,
  0xbc593de03d53c50fU, 0x3d0f80acbd38597aU, 0x3fb2ccc13f95920eU, 0xbd7ebbbbbf64a238U,
  0x3f1f3619be5a4043U, 0xbe052a70bd94f1a1U, 0xbefc95973f435aa3U, 0xbe16db62bf24a711U,
  0x3f1adaac3ebf7c39U, 0xbe15ff3cbf465cd0U, 0x3d791cc53de7b695U, 0xbcada20bbd6ac9c6U,
  0xbd9a366dbdc4d033U, 0x3da17509bd2757dfU, 0xbd8fef8dbd46cd97U, 0xbb10f7f7bd9698bfU,
  0x3da3e7babdcdb911U, 0x3e3cb5133d824a0dU, 0x3d4486ccbd23fdc1U, 0x3e14b436bcc74007U,
  0x3d2067ed3deedb5cU, 0x3bbd94513db13c75U, 0x3ccadaf138d084caU, 0xbc9855b23c87cc97U,
  0x3cd7232cbc068a0dU, 0xbd9eef65bd9f4626U, 0x3dc8dc1f3bf55514U, 0x3d54c18a3d8a3896U,
  0x3d3065843d1ca574U, 0xbe2746c53d18180cU, 0x3d9940043d641617U, 0xbc0e29333dbdfab8U,
  0x3d032b7b3d345bf4U, 0x3d570036bd959688U, 0xbe002a29bd3a8a79U, 0xbe12db90bbc74222U,
  0xbd60bea0bd158607U, 0xbd88093bbd29993fU, 0x3c9fe7253de8ecbaU, 0x3db1b9243cf1b5f6U,
  0xbc1bde7abddb75f6U, 0x3d1de8ee3ce9a1e2U, 0xbddc7e7bbcfde1e9U, 0x3e0ad15bbd8b2374U,
  0xbc955c94be21522fU, 0x3cb33d3c3cef5da5U, 0x3d198290bd3917bbU, 0xbd6d46f33dca719fU,
  0x3d60c9de3dd2cbaeU, 0xbde2aadfbdbfce4bU, 0x3dab73a7bd3d161aU, 0xbcdae87cbc7a6026U,
  0x3e5bf296bd75f927U, 0x3e2bc8863d5ce8a8U, 0x3bafc5f5bc82d84bU, 0xbae7cb34bd0728b6U,
  0xbc15a9a13c6b9ccfU, 0xbdb8fbf83ca1c57eU, 0x3d3d5ddb3d530d16U, 0xbdec061d3c4538a7U,
  0x3de029493d763751U, 0x3b9a68cb3db9adf3U, 0x3d26e2f63cb55f6dU, 0x3d0ef236bc37c3cbU,
  0x3c2157523dd31699U, 0xbc82034b3d97bdd7U, 0x3dd2f1c43cef23c4U, 0xbddd33aebdab820cU,
  0x3dea780a3c45b362U, 0xbdec31033d3b021dU, 0x3d64cb95bc01ff5bU, 0xbd035f20bcd1641dU,
  0x3d2eb1ce3d4672b6U, 0xbdf50c1c3d7f09e8U, 0xbda2395cbe2c1486U, 0x3fe2e459bfd0d9e2U,
  0x3f0384d03e788efcU, 0xbda4ddbfbdd79d5eU, 0x3ee716c43e22cdb2U, 0x3e649391bcf2bd55U,
  0x3f0d2865be918c6cU, 0x3f14c82abea4865bU, 0xbd3c3832bf3271b8U, 0x3e5da7473d03a096U,
  0x3e2da9fc3c231a4eU, 0xbd908f60bd0b6101U, 0xbacf74e43dcfe82eU, 0x3e195ebe3e0df6c4U,
  0xbddfbee83da85d32U, 0x3e39d7bf3e6fc2a5U, 0x3e71d1ac3e0fc20bU, 0x3d9466dbbe535ddaU,
  0x3f1460213db43ab5U, 0x3af2e5aa3df5bf51U, 0x3d977f143e4d3b1cU, 0x3e57c4b2bd73e538U,
  0xbd6a8d95bc45af60U, 0x3d441d683eac5560U, 0xbe31db0a3e5c72d3U, 0x3db107ec3d441472U,
  0x3e24d425bd8a4984U, 0x3df19deebd5355c0U, 0x3c6733f0bbf61503U, 0x3d8935073e40ed58U,
  0xbd229c16be05ed75U, 0x3e214334bd5bb0e5U, 0xbd0298803d0d6038U, 0xbd3a2623bdb92210U,
  0x3c2fda043d4c0e78U, 0xba5abb2bbd9e524dU, 0x3e4d0d8e3e2f8806U, 0xbcfbea3a3bfb6290U,
  0x3d85d56dbe21fdd7U, 0xbc8b281d3daf9373U, 0x3cd7aac83cbca038U, 0x3e26bbf73e8ca79dU,
  0x3e4d8a313ddcf0d5U, 0x3e54b29fbcf1a2d0U, 0xbd415c763e0f2521U, 0x3dbd7b703dba6a73U,
  0x3ddc0e7d3c3f0e93U, 0x3cbf2148bc62bef0U, 0xbdcd4e5a3e3b9635U, 0xbd5f40723ddd92d8U,
  0xbd8de6a5bdd7e248U, 0x3d9cc3f4bdf42e5fU, 0x3e650e80bcdced93U, 0xbdc9cdd33e3260a7U,
  0xbd5f58bd3e691150U, 0x3e4e0a4abd75ec2cU, 0xbdcb15cebd1b7a6cU, 0x3e7256773e1e16d5U,
  0x3e4de6da3dea0828U, 0xbdf57598bd209a99U, 0x3e9509013e3308afU, 0x3c40b71bbcd67acaU,
  0xbc96aed73e115117U, 0xbc6163cc3d549391U, 0x3db34fa63e07213fU, 0x3db39eba3d5c3180U,
  0xbcff95743dfc4f16U, 0x3d805a483de094eeU, 0x3e97f7e63a9f92a6U, 0xbe78d4c53e77f3c9U,
  0xbdb91132bca9945eU, 0xbaf932d8bcf3d00aU, 0x3d1ab1c53d83f7b5U, 0xbc264b223dcc8251U,
  0xbfbfcedb3f8b2a15U, 0xbe8c29c0bf5a8de3U, 0x3eb7aff1bea7939fU, 0xbeb2aef53eb5856cU,
  0xbea0b11ebe628fcdU, 0xbed12bc53e3503d5U, 0xbefad14c3f165df1U, 0xbbc98d333e5f0c0dU,
  0x3ecd095a3d956544U, 0x3c4db532bdf498ddU, 0xbd953dbcbde1abd0U, 0xbcbd5f41be101861U,
  0xbd977bebbcfff96cU, 0xbd7032adbc8aa58fU, 0x3d26ac3abd9d99cfU, 0x3d1289e9bdf8612fU,
  0x3b2c7aa5bd8f177eU, 0xbdac0c7c3d2f7f73U, 0xbd16b3bf3d5ba5efU, 0xbd8ee2acbcd8fc84U,
  0xbd862a77bd514a7dU, 0x3d59ea873c5b3226U, 0x3d2ddd8bbdc71fdfU, 0x3dd32a69bdd05747U,
  0xbcf378babd024a63U, 0xbd3d4af0bd80babbU, 0x3d64ff91bd60c079U, 0x3b3a43463cc37ee1U,
  0xbc7b41b6bd96a855U, 0xbdaccd96bd6cffbdU, 0xbd392280bd86ff32U, 0x3b258959bd82a626U,
  0x3c54fadcbc77c180U, 0x3d52fea1be0b2d52U, 0xbdc474dabd5ddf6fU, 0xbbebad7bbd5e2129U,
  0xbc098eb6bd1f8f30U, 0x3c57af3fbc2feb40U, 0xbd3ac286bcfd6ca5U, 0xbc9a7db03ce2e703U,
  0x3c8d00e4bdbf20e7U, 0xbcbe75b8b9ace888U, 0xbd095f15bd830c86U, 0x3d8cd2efbe083b8bU,
  0xbc88ff8f3b305c35U, 0x3ce608febd6f1540U, 0xbd90a683bd328295U, 0xbcb8bbeabce1b121U,
  0xbce9f2e9be18e202U, 0xbd91cb1c3d5454d6U, 0x3d6f4e4ebd808969U, 0x3dbb6509bc3fd33eU,
  0xbd6dd8b5bcb84f93U, 0x3cfc37c7bb06d0e0U, 0xbcd61b56bdd5adbeU, 0x3d2afaa3bdd4be63U,
  0xbe0cfe9cbd67cd05U, 0x3d13737a3d56cd32U, 0xbd1ce378bdef3d2fU, 0xbdb2c9c63af0363dU,
  0x3d8d0297bd5eb53bU, 0xbe137b733d9093dfU, 0xbcd4bbadbd849407U, 0xbbe52cebbda8343bU,
  0xbe1732f3bc5931c3U, 0xbd78d4ba3dedb7f8U, 0xbd2157b2bd8f9111U, 0xbd81cef63d3dd08aU,
  0xbe08f15b3d1b7a48U, 0xbe0f9ca8bc43f390U, 0x3c8c6a32bcc9e3deU, 0xbd6a3c8c3da1b585U,
  0xbdaf14b0bda4d5a4U, 0xbeda4b2e3e434d43U, 0x3e86f2dabf662a61U, 0x3f9322683f5878dcU,
  0x3db6d9ddbf888553U, 0xbf97dde63c04518fU, 0x3d89ea593e20e050U, 0xbdddd1c03f413155U,
  0x3d561c29bea75c8aU, 0xbe9afbb03e227b32U, 0x3d5c1ae4bdeac099U, 0xbe7a63113e1b45c6U,
  0x3d061fc5be0ce395U, 0x3e2c62adbdca3f70U, 0x3e84c8cb3d7a1733U, 0xbdfb34cabd17ebbfU,
  0xbd97ad0b3d0185acU, 0x3c9eaf543e425b86U, 0xbd1ff8efbe761328U, 0xbe7af10e3dc8d521U,
  0xbe7085b1be0ee5bfU, 0x3dfa59f83dcc3a7aU, 0xbe136de83d2b95c1U, 0x3e7ceb2cbdd3ec93U,
  0x3eb74122be23598aU, 0xbd81669dbd478dbaU, 0x3d883e693c9026d3U, 0xbd8f1e10bcc81335U,
  0x3e112ea8be0437dbU, 0xbdd86202bd4b9293U, 0x3db12fa53df7efe2U, 0xbe1ebbf1bdb2e706U,
  0xbe132fa8bdae0367U, 0x3e0624703e30a983U, 0x3db100423d384dfeU, 0x3d0cc578bcd82dffU,
  0xbd010a993d1dc8e1U, 0xbe65d82fbe98fb85U, 0x3d5c14f8be923664U, 0xbdfd2024bd296710U,
  0xbdfefef03dcf966fU, 0xbdb45a51be89074aU, 0xbe1658e33c9deafeU, 0x3e74847fbd2117cfU,
  0x3c3a0c383e345c5cU, 0x3ddcfb89bd81b477U, 0xbea7d12b3e635a8dU, 0x3df03de7be1594e6U,
  0x3e78259e3cc32b45U, 0xbd13ec83beaebd2cU, 0x3e9079613e4ea72aU, 0x3e4de7313e6ba370U,
  0x3da86f7e3c42c290U, 0xbcf44541bdb868a9U, 0xbe0e04123e1ae7d6U, 0x3d7d42b0be365717U,
  0xbcf70e0dbe2ebb6cU, 0xbe8c6a9cbe2ac02aU, 0x3da6f3e3bd314186U, 0x3db54b4c3dfefe62U,
  0xbd93ccb93d460764U, 0x3e35287ebba73336U, 0x3eb3a1b9be0bd7fdU, 0x3e0ca745be74f518U,
  0xbdacb657be13d97fU, 0x3e17f14cbe821879U, 0x3b495b583df3d10eU, 0x3df76cbeb925f71cU,
  0xbc0203253d0e6c7bU, 0xbdfa4fb0bd7fca02U, 0x3c8008193d116d57U, 0x3d8f59b3be02dc61U,
  0xbd8d226e3c173fd6U, 0xbbd78dd5be419229U, 0xbf0ed709bded8ae1U, 0x3df5c34fbf9714daU,
  0xbeb24faf3f9aec44U, 0x3daecd15bfbc508aU, 0x3f378adabe878c1aU, 0x3cdea2763ee28bb9U,
  0xbf205134bdd71231U, 0x3e4a839bbe8a0541U, 0xbf01f17bbcd260f4U, 0x3e088e373d9992ddU,
  0xbc84f5863e4051afU, 0x3d41280ebd4ff3cdU, 0x3d7497243e14434dU, 0xbe07bc023cedca44U,
  0x3d9d1fe7be39c5f7U, 0x3db0a9a8be4d2c9aU, 0xbdfabaae3e855faaU, 0x3e3f0bbc3d2cf626U,
  0x3d8e9e753d68ba1aU, 0xbcd917dbbdd17697U, 0xbda17e47be1eebcfU, 0xbdc36ac83d6c58e1U,
  0x3c433cf83dc871dcU, 0xbccdb0e63dcd9022U, 0xbe38d5e33da20e77U, 0x3d22725e3cca8283U,
  0xbe5245ca3d8eb142U, 0xbda965163dc59028U, 0xbd7ab6d83e2deaaeU, 0xbe2f8f523dcd07abU,
  0xbe01c45f3d6a6a6aU, 0x3d3abca6bbae207aU, 0x3bc4fa653d41b911U, 0xbe2ab154bdf07af9U,
  0x3df874bbbd63c637U, 0xbd443990bc75304bU, 0x3d76e6edbdbcf69bU, 0xbd63b3d93d0718e8U,
  0xbe4f7331bdba6c60U, 0xbb64ad663d5de714U, 0x3e44d8973c5b4aafU, 0xbaf1ddd93c454a9dU,
  0x3c8b15f33e3a32efU, 0xbd2b82083d668771U, 0x3d34748b3d8c6f34U, 0xbde63e2bbdbb4e2bU,
  0xbe4348c2bd47335dU, 0xbc49e2543e341134U, 0xbddc09da3e913732U, 0xbe4e12433d9ba853U,
  0x3d844e473e0eb8dbU, 0x3bc432bfbda2d45cU, 0x3ddeb561bd62f22eU, 0xbd0140b53da6a4e2U,
  0x3d1b4790bd597272U, 0x3da6cf7f3dfa63c2U, 0x3e0d9f6fbd96c08aU, 0x3deed8bebdc7913aU,
  0xbd2169ce3d9220daU, 0x3d51b5933ce469ecU, 0xbdd262c03dee25d6U, 0x3e727db23cf60771U,
  0xbd3edc4dbd1ae378U, 0x3d23fba33cb47dffU, 0xbc875e10be8f17e5U, 0xbc9d7936bc92884dU,
  0x3de80323bd51b83cU, 0x3e0a5c433db3f788U, 0xbd48e2fdbd5c83b4U, 0x3d3a7db4bdaffd64U,
  0xbddd0b88be1e3a13U, 0xbcd61a1fbd2aecfeU, 0x3c59f055bdb186d4U, 0xbfce424bbf95798fU,
  0x3e2c9f603fa67d60U, 0xbe71d9e6bed2fe41U, 0x3e2ed8e33dc781abU, 0x3e832b74bf296732U,
  0x3e0445443f460ff5U, 0xbf7674d2beafaa1dU, 0x3e12e0693f2ff9ebU, 0x3e0db2fdbcd657faU,
  0x3da0fa7c3bafc003U, 0x3d9730ccbd11828fU, 0xbbafaf583c544590U, 0x3d9ea2b4bd5b0991U,
  0x3db52960bc15dd92U, 0xbb9ef9f0bcc1dee5U, 0xbcb73fd33d428408U, 0xbc825cc1bc96901aU,
  0xbd4d4da13d843e8bU, 0x3d039b9bbd90eba2U, 0xbd425e47bd77b400U, 0xbda0e5663cc579c5U,
  0xbd1a94dcbce821a7U, 0x3c4546693bcbb87bU, 0xbd8853b9be035116U, 0xbdaa0dd8bd2af1fdU,
  0xbde1d4413dcd7b1bU, 0xbd0b1d76bc32ff07U, 0x3dd60f4cbd42882eU, 0xbcfee2b33dd7228bU,
  0xbd404c3e3cb279b5U, 0xbd4519e4bda3daf9U, 0x3d00ea3e3d313830U, 0xbd06ccb3bd6f7260U,
  0x3d56ee613d99ecc3U, 0x3d3a4e2d3d04193dU, 0xbbdce69cbd87196cU, 0xbd88f39d3e138620U,
  0xbd241b953cc76915U, 0xbc90d7653d968de2U, 0x3c86ae31bd77d491U, 0xbdc06c90bcee3fc3U,
  0x3ddfa8023bd8081eU, 0xbd67138f3cd2de80U, 0x3d2029bf3d2d7173U, 0x3dca1585bd96b817U,
  0x3c29570a3c0724e4U, 0xbdd25f7a3d1f8e15U, 0xbdb8843c3bbb995bU, 0xbb8fd9353d80253dU,
  0x3db88978bca81276U, 0xbd102dd4bd31c551U, 0x3ca57c873c3881dfU, 0x3d909fd8bc1d5150U,
  0x3dc7466cbdb0a94cU, 0xbe3448293d82728cU, 0xbe115f1c3bfff4e6U, 0x3d3ad7cdbd9a8788U,
  0x3c675fe13cabc161U, 0xbc0ab871bc78b2e2U, 0x3de0519b3c47f8a4U, 0xbdbc934dbd99d02bU,
  0x3d08f238bd52adc1U, 0x3d0960c7bd70b8c0U, 0x3cca68103dcfa99aU, 0x3bd416e2bcb6fda0U,
  0x3d1045f7bd1cdbc9U, 0x3c61889fbd51dbc5U, 0x3d746f373c84c918U, 0xbd96bfc7bd431f6dU,
  0x3baff2d8bd2b3682U, 0xbbf6302cbd48a09eU, 0x3e0169733cdb9d01U, 0xbda7d1d3bd0ae3e3U,
  0x3faff2313fe43011U, 0x3eb205083fabd673U, 0x3f04804bbd94bef3U, 0x3eb2d4cbbe1472c4U,
  0xbec91cba3ec43626U, 0x3e27bdf8bf27948eU, 0x3f7c00663f1a54beU, 0x3ba3b9103ebc6855U,
  0xbc9fce013b5bdd8bU, 0x3b849e44bd28a45bU, 0xbd3f57773c476ac2U, 0xbc553a76bd33f5d4U,
  0xbd77c38abb50b4beU, 0x3c42ccf73c5cee2dU, 0x3b6638e73d8f4299U, 0xbcc1ad45bd8bb722U,
  0xbd0ef6a43c3ad895U, 0x3dcd76843d1c3f40U, 0xbda3139fbcca4c0aU, 0x3bb46fb1bb008ed0U,
  0x3d17e6823c9045b7U, 0xbd3bfbe83dad9eebU, 0x3d7b6d56bd2c92a3U, 0x3da3a8813d549f60U,
  0xbbfa0db73e1e1ffdU, 0x3d5a79033c975046U, 0xbd4e1c9e3dac60d7U, 0xbbb0a9b8bb99cdeeU,
  0xbc3355fa3d0c5cfeU, 0x3c52c288bda9ae5dU, 0x3dcb9b06bce8cac5U, 0xbcccd1303bc9e7aeU,
  0x3d6aa5ce3dd11fb3U, 0x3cf468993d83f891U, 0xbd80a090bd4c3b45U, 0xbd3e6eacbd96a4d9U,
  0xbb3746923d506a2bU, 0x3b68f28bbc83f045U, 0x3dc8cd80bd1bb501U, 0x3d88fd693cc2bf7bU,
  0x3cbf2fbfbc54ce0fU, 0xbcc2dde03b5b34fdU, 0x3cd73e633d695f71U, 0x3c6093cfbbf69df3U,
  0xbdf331473c4e54d5U, 0xbd02ffd3bddf9a60U, 0x3cf899f5ba01b7a8U, 0x3dbc167e3d397130U,
  0x3d36b17c3c0e702bU, 0xbcbd5308bde43e53U, 0x3c9f500b3d203789U, 0xbddb1a1abba23b26U,
  0xbbcad9c2bd348074U, 0xbcbf1b8d3b99783eU, 0x3c240121bc9d41e1U, 0xbd8e5699bc20b312U,
  0x3d84421ebd04ce6eU, 0xbd84bd6cbdbd20dfU, 0x3cfbcb09bbbc40cfU, 0x3c234a3c3c8f0348U,
  0xbb2cac5abd00011dU, 0xbd53a464bdba2697U, 0xbc4d3efb3d75f9bbU, 0x3ce19167bd5fa8d9U,
  0x3d1ff1c0bd93067dU, 0x3d39167cbd72c4e7U, 0x3caae3603dc19b11U, 0xbd96b0ae3d727e5dU,
  0x3d671d5cbcb8b0a2U, 0xbd24cc84bd02a857U, 0x3d6cc3a03df2911eU, 0xbe2b7cfc3c06d326U,
  0x3e5f49563c96b237U, 0xbf7779433e296150U, 0x3e6a04d43fa78a62U, 0xbf0912d3be0c68afU,
  0x3e9cdbf73c34df6eU, 0x3ebe49c63f5759edU, 0x3e4b5578bf1d9881U, 0x3e24ba0fbdd49995U,
  0xbe41126fbd43daa4U, 0x3e97c89bbe245b96U, 0xbdaf961cbe33e466U, 0x3d2adbcd3ddfda06U,
  0x3e3f0d353eb2853aU, 0x3d0d678dbc9f9f98U, 0xbe2d0457bc2180cfU, 0x3e3b12033e315f2dU,
  0x3e4e56c3bdcc5353U, 0x3ba16fe5bce76ce2U, 0xbdba4eec3e24597eU, 0x3e1407363cba61e1U,
  0x3cd2003ebe2c1dadU, 0xbca6d8953de7ec0aU, 0x3e74fa0a3df828daU, 0xbd23c5a2bcfc1322U,
  0xbb265646be0d8fd7U, 0xbd1946a03d9f57d1U, 0xba06b7ed3e3eb4f6U, 0x3e38c8edbd3f9278U,
  0x3d998c64bd16787dU, 0x3dde85d23c58a18bU, 0x3dc9fdee3d494ec2U, 0xbd9f4bad3d8383d1U,
  0x3d33f9bd3cb7463dU, 0xbca56c283993e5fbU, 0xbd1abc15bdf318c9U, 0xbd0b77f93df2ec94U,
  0x3db6f836bc54cdb9U, 0x3e43fef7bcff3ef6U, 0x3e2a393dbe6dde99U, 0xbd555489bd8307faU,
  0x3d8fa27a3e29fd59U, 0x3d033a94bdadfbdfU, 0xbc22b97d3de26943U, 0x3c1aa7453d6c2122U,
  0xbd2eb70cbceab6d6U, 0x3e2e13a63e1f4254U, 0x3b9f43de3e249418U, 0x3dd4ef7cbc5496c6U,
  0x3d9b6c45bd8f424fU, 0x3db543a0bc8c2dfbU, 0xbd7eaf5a3d338fa8U, 0xbcfd72c4bbe9b653U,
  0xbd84da283e24e74aU, 0xbc388567be34239bU, 0xbd854aa93e08cc5aU, 0x3e66b758bc502604U,
  0x3e735124bcb0289dU, 0xbdc9487cbba6f5bdU, 0x3d81d7853d9c6c4eU, 0x3bc587cf3d2e20f2U,
  0x3ccf45ee3e08b6b6U, 0x3e27ba093d371629U, 0xbab623a0bd6599cbU, 0xbdf6cf553dbb5f95U,
  0x3c8f47b03de3a067U, 0x3cc81a433c3df782U, 0xbd0d3842be3e998dU, 0xbd878a69bcdf259bU,
  0x3d208e06bc164c95U, 0xbe51916e3e2bf118U, 0xbdba7bfcbe153fa2U, 0xbdbe0d673ac8042cU,
  0xbd86a9f2bcf7f0b0U, 0x3d6461b43e110fddU, 0x3f1c9e26bf8ca23aU, 0x3cff4a8abf80d443U,
  0xbf4048da3f659ae5U, 0x3e1ddc61be84e798U, 0x3ec2626a3ed9be5dU, 0xbbc8b1c9beff014bU,
  0x3f191f20bf37f80eU, 0xbd43a68ebf8197f0U, 0xbe094d12bd7b072dU, 0x3d851caebe19e3aaU,
  0xbd0c3b35bdd45dd6U, 0xbe8170b1be04800cU, 0x3d8bd4e53e6cbc8aU, 0x3e1dfcd0be1f836cU,
  0xbe3b136b3dd56154U, 0x3d75145cbe33fe91U, 0x3da74902bda2c243U, 0x3e484fb2bd3cea89U,
  0xbe339c583caccaefU, 0xbdc20a3dbd122237U, 0xbe36a188ba453ec7U, 0xbd8a599fbd6db258U,
  0xbd424622bd826e29U, 0xbd0fbcb7bd564880U, 0xbab6f8203d90affcU, 0x3d93e80fbca85752U,
  0x3e85dec3be41c571U, 0xb99b50ac3d94683dU, 0x3e2e8a923cb1404eU, 0xbd92df243d37cc9fU,
  0x3cc9ab593e8ac69dU, 0xbe912529bc2946ffU, 0x3c67bd35bd49625fU, 0xbd82330abd9ab811U,
  0xbe29d54c3cc88053U, 0x3d04a04cbe70c845U, 0x3dcf55573aebcfc6U, 0xbd8e34a2be30b52eU,
  0xbdc064cebddeb75aU, 0xbc2373313d582bb4U, 0x3d1e9fc43dabc127U, 0x3ce7a7573d8f608bU,
  0xbcbe6efd3d42e71fU, 0x3e3eb078be511962U, 0xbd1ef8af3ddf4e1bU, 0xbd83f1d93c792f5dU,
  0x3c86c41a3de2669cU, 0xbd1699d03d517e72U, 0x3d031d873cb4a962U, 0xbde4bb80bd992492U,
  0xbd52e37d3d85b2f3U, 0xbd970be13c101d46U, 0x3d0d155cbd8515bcU, 0xbdc41768bd739a29U,
  0xbb9ce54c3d0bc0ccU, 0xbd60be01bd1709beU, 0xbdf97f7e3d95fb15U, 0xbe42b466bc856b6fU,
  0x3b91b1583df64b3dU, 0x3d55a0783ccc4b62U, 0x3d6d28ecbd7c4955U, 0xbcdb32d1bbafe0a9U,
  0x3d283bfbbb826be9U, 0x3d7806b03dee4987U, 0x3e6ad12cbd57a07bU, 0xbe2529abbd68339fU,
  0x3ddeda77bbb1701cU, 0xbd84b38f3d358e07U, 0x3c8b50eabd4a5cd4U, 0xbe595f913d8e7295U,
  0x3e3e1b5e3c84f3bcU, 0x3d9257863e0efc45U, 0x3e6d0e2cbbfae54fU, 0xbf549d87bf83e192U,
  0x3e65f2323e615e61U, 0xbf122dfc3e6cbe31U, 0x3e2abfeabf197cd7U, 0x3eb5e934bee26f1bU,
  0x3e09044b3ea0be5eU, 0xbe877e29bef46bf9U, 0x3d3f4e4b3d1623d2U, 0xbebe8ff9bdc7401fU,
  0x3dd953ee3d2c8a4eU, 0xbdda453abe172569U, 0xbd54785bbaaf5e5cU, 0xbe054e93bda1b5bcU,
  0x3c1350c5bcdbf83bU, 0xbde48408bdcb86b3U, 0x3bd8aa1d3e0556e0U, 0xbe327f123c06ef86U,
  0x3c9cf5eabdd17612U, 0x3d2cd6f5be402ecdU, 0x3db3e179be45c1e1U, 0xbdc091613e5a3ba5U,
  0xbd97f2b5be1aff2bU, 0x3e1984583d34a4c0U, 0xbd211860bdeadcafU, 0x3d07bee23e6a7273U,
  0x3e41f0183db7a2daU, 0xb80f9e97be0e1c08U, 0xbc15aa4c3d811b9fU, 0x3a55b683bc6e05d3U,
  0xbdd042103e426eafU, 0x3db6cb963cbabb9dU, 0xbe15b2ad3ce8d650U, 0x3d189d733e24c8adU,
  0x3ec544a3ba9b11e7U, 0xbde448833d787a38U, 0x3e06b6e8be761f9bU, 0x3e0f82b7be13d133U,
  0xbe15e1f33e323e35U, 0xbd6390603d59c736U, 0x3cab16143e7677e8U, 0x3e78983bbde886dbU,
  0xbdeab04fbd514983U, 0xbd4ab6693e1ad856U, 0xbd60a68f3c2c9bd8U, 0x3ea6b10ebda7cbe0U,
  0xbd77a5bdbd18c3e0U, 0xbd8b2bba3d9dd5efU, 0xbe387326be1df85eU, 0x3e7856593e8db5b8U,
  0x3d64aa493d4c5a4fU, 0xbda19bbbbdbc794bU, 0xbe24740ebd95d339U, 0xbc4375e13c05e5b2U,
  0xbd0acbda3db2369cU, 0x3e094c1e3d892538U, 0x3e11ec93bbb10ac5U, 0xbd5a235a3a16338aU,
  0xbdd2f20b3e57e3c9U, 0x3e0e20a2bdf28e94U, 0x3e203261bd0f3b62U, 0xbe18cb603d7de0b9U,
  0xbc9afca03cf67c1eU, 0x3e14db933d021aacU, 0x39a4529b3dea66b8U, 0xbd76d6483d0f778fU,
  0x3e240c2f3e6b5eaaU, 0x3c83904f3da5c4b4U, 0x3e1218683e8a33b7U, 0xbe2376f4bcac2898U,
  0xbc6cdd19bd94984dU, 0xbd3ee49abe0255b6U, 0x3dc145393e258b06U, 0xbd548f073c8a0fe7U,
  0xbf96f0e740192d59U, 0xbed25105bf65ae24U, 0x3c8ad7ecbcde1f80U, 0xbe8cdbaabeeab303U,
  0xbe8b2fb93ed87536U, 0xbeb661febe82b968U, 0x3e6eabd73f022790U, 0xbd9cabef3d04f316U,
  0xbe8dfa43bd8fe9cbU, 0xbe07a18cbe53886aU, 0xbcbfaa8f3e343b36U, 0xbe097733be8a4d96U,
  0xbe529cfd3e21a76fU, 0xbdd5b7afbe2f45aeU, 0xbdb859d7bee21f4fU, 0xbe876790bd6b4381U,
  0xbbc85dda3c9e8151U, 0x3d5bc028be1820cdU, 0xbde5e7b43e057556U, 0xbce2e7983e090cc1U,
  0x3d04e26a3dac41d5U, 0xbd1037d7bc99cdbcU, 0xbe25daf23ddf9d3eU, 0xbe3a100f3e8dec67U,
  0x3d4d1226bd03ff48U, 0x3e795e72bdfb2093U, 0xbcd15595bbf7d608U, 0xbcc552f33d5bae65U,
  0xbe2cd9533e7cfe7aU, 0xbe25975d3e19be4bU, 0xbe5f45c9be4ecb6bU, 0x3ba3600b3d0167adU,
  0xbd7d64923e6e02cdU, 0x3d879de5bd087c5aU, 0xbd9f7ba6bce48bc0U, 0xbe225aa1be27248dU,
  0x3e05f08abcfc46f6U, 0xbd2435d63e9373c1U, 0xbd3245e33db8d662U, 0xbca4eb48bd9a41c3U,
  0x3d6b1383be49f5dbU, 0xbebfcd8abe37c18eU, 0x3d8e1add3ddfa919U, 0x3dcc7787bd10d880U,
  0x3d27ec5c3dd4f0a5U, 0x3e0ff5dfbd2f5fe0U, 0x3b82c946be1ade34U, 0xbe46778f3dc9ddc1U,
  0x3d36bb8fb9e9dd42U, 0x3ded02f9be0281eeU, 0x3c99f4eebdc47bb9U, 0xbc6b8b5abc840e83U,
  0xbb4587f6be11fbbaU, 0x3d95f5f1bd35b05dU, 0xbc916a153e6f996fU, 0xbd7f6620bd8961e2U,
  0xbd6fdddcbcd457ecU, 0xbdd67255bdc79fe6U, 0x3cb329563def9ac3U, 0x3e110812bc9dc7cbU,
  0xbe616a7ebdeec9c6U, 0xb9a96bc33d778461U, 0x3dc120083dee7368U, 0x3d0a6f09be13681cU,
  0x3e103887bdedff22U, 0xbc8ddb713d3b3d55U, 0xbd153053bd6b07c8U, 0x3d959306be3d38d5U,
  0xbdb464bebd7844a7U, 0xbe857e883ce5cccdU, 0x3a6d138a3c5dc340U, 0xbc514a20bdc32d91U,
  0xbdc9e120bc3b27b9U, 0x3ecf7add3f24ce22U, 0xbe8a2746be906feeU, 0xbfb5e6033cc520eaU,
  0xbeb98432bede3edcU, 0x3f8845f63c2bca59U, 0xbe2d7495bef94ba3U, 0xbe1673bfbe9db6e3U,
  0x3d98ece63ecc87e0U, 0xbe6093cdbe93df59U, 0xbe267376be577cd3U, 0x3cdaf79a3e4e4ec8U,
  0x3dbb7439bd38ed70U, 0x3e370ea0be17e621U, 0x3e1290783c7904ceU, 0xbe135b80bb872157U,
  0x3e2edbd63e4f700cU, 0x3e88bd98bd5e1f24U, 0x3d82da8dbda15ab9U, 0xbc5b03ea3cd12a4aU,
  0xbde4e7853dd33571U, 0x3d084e5e3d9e6ac4U, 0x3d4827653dc9b61eU, 0x3cc4be3fbd25c5d8U,
  0xbd63e76ebe017ab8U, 0x3e0008783c23af9eU, 0xbe74272d3d2d1530U, 0x3d2032733e98ffb5U,
  0x3dd0f542bde569f7U, 0xbde19a03bd907e7dU, 0xbdb0d2e0bb8e6fa9U, 0x3d9bab0c3d162ce4U,
  0x3e156351bd31f94dU, 0xbd12a97cbddb5ca1U, 0xbd1475db3db3582eU, 0xbdb90dd6be315b17U,
  0x3e28c838beaf2e4aU, 0x3d7fd449be836db4U, 0xbda8bd453e51c4feU, 0xbdd5b7d33e052027U,
  0x3dbf5aadbd0577e2U, 0xbc8dc7e83c0848e8U, 0xbe1039e5be2354a3U, 0x3e46e1d33be67b04U,
  0x3e82605a3dd72c5fU, 0x3b6d26c63c0f05bbU, 0xbe3a1c683daab64aU, 0x3e60a2a3be81c022U,
  0xbec9737c3e4e339cU, 0x3d86d1c23ed53e2dU, 0x3e53ed1a3bb96332U, 0xbd88b6ccbeaa8476U,
  0x3db538ec3c485e8fU, 0x3df508d6be30a40cU, 0x3c8c8c253c921ef7U, 0x3e93b1733e199620U,
  0xbc96f1aa3e3f304cU, 0xbea6b100bdbc634eU, 0x3d2ce4233da253e6U, 0xbdd00e19bd018663U,
  0xbdafebd43d8c41e4U, 0xbd5124a4bd2ac33dU, 0x3cc3aa6d3c93b09bU, 0xbe92820e3dace487U,
  0x3da365fbbdcc5c25U, 0xbc99e5403d200ac7U, 0xbe2bc7d6be8b0b16U, 0x3e1ced6d3e53c436U,
  0xbd7b4e16bd60fa12U, 0x3d1a468bbe4e8909U, 0xbd7a8e413d5613c8U, 0xbd9a0f953dc9c8d7U,
  0x3d00d0c7be2c018cU, 0x3cb992b53e5b719fU, 0x3f9e7da6bfbf5bdaU, 0xbddbda8ebf771b1fU,
  0xbed45490bf3b03caU, 0xbdcbf0ab3eb33b3aU, 0x3f096d803f8b8800U, 0xbe277927bf966dcaU,
  0x3f46b7e9bf4380e6U, 0xbe512b06be8647cfU, 0x3ee4c1f8bdc56266U, 0x3d5540fb3dc05bf2U,
  0xbcd761053d3696a5U, 0x3d8436d6bd996b5dU, 0x3d81319a3d44b9a7U, 0x3dfc20793db7eb03U,
  0x3da99a4e3cae10acU, 0x3d7b031e3ae73aa4U, 0x3d10a1763da1a979U, 0x3d6b2f87bd033169U,
  0x3c90d7773d95e07aU, 0xbafcb63f3d2513aeU, 0x3de65bef3d70f88fU, 0x3d809566bda1780dU,
  0x3da9514dbd5745e0U, 0x3db1803bbda6d12aU, 0xba25f51ebcf3ef34U, 0xbdd2809c3d4a4373U,
  0x3dbd23103d7bf769U, 0x3d9d6dbbbcb87438U, 0xbc880ba7bdb8fcc9U, 0x3e03067dbcb052b1U,
  0xbc5d80efbd4d50c7U, 0x3d4a8fabbdd0f414U, 0xbd7a5260be0eb39eU, 0xbd2dd57ebd745249U,
  0xbccda2023c94e272U, 0xbdc7ffd5bdb60ea6U, 0x3af062b7bcbdd5c2U, 0x3e0dd260bd560160U,
  0xbd9ac4cbbe1a7a4fU, 0x3db0e93fbd478d14U, 0x3d561b893dae5ad8U, 0xbda098553c751ac2U,
  0xbd3e374a3db07b73U, 0xbc934f0a3db9c666U, 0x3bfa6697bc716fe8U, 0x3df647ab3c2d5b32U,
  0x3dd80f45bda96d89U, 0x3d095e10bd953c7bU, 0x3c122bcfbd4c09c7U, 0x38bff585bd89dff3U,
  0x3c2c7be63d0f9663U, 0x3db2747dbdd1a454U, 0xbdd883023dbb840bU, 0x3d0721c0bd38806bU,
  0x3d0e0bf1bbe32a37U, 0xbd443016bdc59d3dU, 0x3c8d5e413db8f171U, 0x3d1cb0613c9fddaeU,
  0x3e064104be0a4464U, 0xbd6fe585bce0be33U, 0xbc59f249bbe9c59dU, 0xbab063fa3d1ed5f5U,
  0x3ca3150c3d4a45eeU, 0x3dadfa723e1fd1c5U, 0xbe15250fbcef874eU, 0xbd65d68dbc522c6eU,
  0x3d3276d03c9126deU, 0xba6714c7bdb538faU, 0xbcc9c9133de97293U, 0x3d36745f3d519abaU,
  0xbd8e9b2d3d44fa97U, 0xbd6838703d073dddU, 0x3e1eb9293d1a6f6aU, 0x3f3de54d3fb0b23eU,
  0x3d87f6283f91aa80U, 0xbe2581b13e2029dbU, 0xbd74faa1bd68cc87U, 0x3bdc1f693f389ac5U,
  0xbc209295bef911d9U, 0x3edfa3fe3dff6c42U, 0xbdde5c6f3efc6edbU, 0xbdb2b1943c316a12U,
  0x3d6187edbe32b3feU, 0x3ce6a0873ce64529U, 0x3ca27472bd50e067U, 0x3c6061423dc876fbU,
  0xbc2aab7bbe13d3cfU, 0xbc6c15973e0a0bdbU, 0xbd1928df3e28b005U, 0x3dc52fd83c164d3eU,
  0x3e007b7cbd95bc16U, 0xbd890ba33e30492cU, 0xbe1fbf943e0f45b1U, 0xbe3da87fbd545d28U,
  0xbe235642be3d0d48U, 0x3dde6b6d3e0b62a6U, 0x3e17bb0b3b7623f3U, 0xbd830252be09d588U,
  0x3e638e16be27c335U, 0xbd07242c3df16db5U, 0xbea17dd4bc316358U, 0x3e55d6b03d6aea8dU,
  0x3dfc019dbdb3723fU, 0x3d99bc563d48ae20U, 0x3e357dddbd6b7a9cU, 0xbe20acbe3cf372fbU,
  0xbc28177f3c45bfceU, 0xbdc6eec53d6581a9U, 0x3d6ad1123e177e11U, 0x3d5f6be43db1588eU,
  0x3de00c503d2faf5aU, 0x3dacc0913d8c07b0U, 0x3ddb84e8bd13b11cU, 0xbdaafce33d62448dU,
  0x3d936896bd8fd5f5U, 0x3dae7610bdc08f3aU, 0xbda73a84be2a1aa7U, 0xbd4543a6bcbf367fU,
  0x3d12ffbc3b78266fU, 0x3c4f8a903d71fb0bU, 0xbe74a799bdd4291dU, 0x3d139c093babce64U,
  0x3e6400acbd192e7fU, 0xbd33bb933d6bd152U, 0x3ccbda313bde4866U, 0xbe0f1019be0966e6U,
  0x3d762537be4ce81fU, 0x3bd730b8bccb3051U, 0xbdc8e8e03d53a2daU, 0xbd4d40d63e035be8U,
  0x3b2cc5293d22a150U, 0xbdf410aabd0c317bU, 0xbd83fb99be0b42e6U, 0x3e23a7f03dcd20bfU,
  0x3d8006bfbd49eedcU, 0xbd2c169cbd7c1697U, 0x3e2fd86f3e37e2e1U, 0x3d6297b7be065c28U,
  0xbd9595d5bd881008U, 0x3e1d11ee3d799276U, 0xbda0cccf3dbfedafU, 0x3d179db33d51087eU,
  0xbd14a017bceb2446U, 0xbd8d0762bd6a03c2U, 0xbdb24ec93ccf80ceU, 0x3da6b9b73cc64442U,
  0xbf96666dbf214b29U, 0x3d9f156e3f30a79eU, 0x3f476da83f182a44U, 0x3e1a438ebf64705dU,
  0xbf29d2233e93dc56U, 0x3def0e55be46ad16U, 0x3e319b723eed681dU, 0xbd05a3083d2a7ae0U,
  0xbf0c6a013e8ecbc3U, 0x3e0913b5bc43754bU, 0xbe7d90293e63e7f3U, 0x3e2493fcbe03db67U,
  0x3df01ff0be9333f1U, 0xbd64e0f7bd96d8abU, 0xbdb7e08ebe1dd54aU, 0xbd85700b3e1b8094U,
  0xbd81f1cebd453520U, 0xbe1041a6be1a853cU, 0xbe2390553e9f2339U, 0xbd9a69cd3ce347f5U,
  0x3d75f04d3e294a92U, 0xba68be25bd0499d1U, 0x3c97ddd53dffb05aU, 0x3e9c11c4bd19d66eU,
  0xbdcde3733e3ccfc1U, 0xbdeee0be3e0b0d07U, 0x3e9f04923e36f9e8U, 0xbd800a343e6ac516U,
  0xbe9c12edbe687d93U, 0xbd5d490bbb590114U, 0x3ddff410bcdc59e7U, 0xbd96fcfabc993aebU,
  0x3d8f0127bc3d1948U, 0x3e3f0ab8be054215U, 0x3e3d6aac3d9c602eU, 0x3d219d9e3e1d19b3U,
  0x3d32ee97be18643eU, 0x3dc0fd9abe84ba00U, 0x3d2309a13c13429bU, 0x3c1ddecabd75cde8U,
  0x3c2e538d3df94b32U, 0x3af07ae8be166f5eU, 0x3e12bb7c3e555256U, 0xbdd8fd253e7ccce5U,
  0x3dde0e183e6b6cf6U, 0x3da04a26be3745e6U, 0xbd7447ca3dc9b76aU, 0xbe3419aa3ef110eaU,
  0xbca35a6fbda433e1U, 0xbdfb06febea31f6bU, 0x3e49d42b3cfa006bU, 0x3d0f6180bd381403U,
  0xbd2ec72bbe72d36bU, 0x3e721480bdad457eU, 0xbe3a1af73e276f14U, 0x3df29a1ebe02e1cdU,
  0xbe8b0a3a3d3e3dfdU, 0xbdb1bd84bb19bc3dU, 0xbde7d920be0ddc56U, 0xbe3391703d7d792eU,
  0xbddaa7583dccd9beU, 0x3e1fde30bd15c0cbU, 0x3df75628ba3f054aU, 0xbe4d91b9bd9138c1U,
  0xbe682a373dbab535U, 0xbdf0227cbbcad2f7U, 0x3e1490cf3e0cd401U, 0xbd3f79c4be8ebda2U,
  0x3c7e95f1beafd5fcU, 0xbe242495bd25ab89U, 0x3dcd17e5bd3562aeU, 0x3dafcbbc3b8e7334U,
  0x3cf57018be119a76U, 0x3eb4a46ebf721b64U, 0x3e60fb6a3f06e8b2U, 0xbf7d58bb3e3f0225U,
  0x3e56bf2cbf04683cU, 0x3f58389abd8747e9U, 0x3e120a35bd89f5bcU, 0x3e7217a3bf77a0b3U,
  0x3d88d8393e856ec4U, 0xbe94babebe8e7c01U, 0xbd0926b5bce9a9c3U, 0x3e39210f3e7b32faU,
  0x3dc5f4f0bca80e01U, 0x3ec6852f3d7be4dfU, 0x3e0aa7633c274618U, 0x3bf329e7bdcabda0U,
  0xbe102de43dd49c7dU, 0xbd89ec113d344d74U, 0xbe01404fbe3b6927U, 0xbd34519fbdb43281U,
  0x3dbc80273c95e433U, 0x3db59e96bd863918U, 0xbda7f4f23d108828U, 0xbd629fbf3c9cda5dU,
  0xbde0a2c9bd09f97fU, 0x3be5b18b3d8d9239U, 0xbdc76c333bbff894U, 0xbcf52ce1be398928U,
  0xbe02a63dbd7738edU, 0xbdb80c79be06b2e6U, 0xbe3e6f86bb826553U, 0x3d45dd01be86c647U,
  0xbdd89d17be08a824U, 0xbcf04d5b3dc94411U, 0xbd52ef663d9f0a58U, 0x3deec7a93dc4e0e7U,
  0xbd3ea83bbd6f3d84U, 0xbd48bce0be278efbU, 0xbe01383ebc75ffcdU, 0xbdbcbc6abb4325f2U,
  0xbd29adf7bd126f96U, 0x3c4f281f3d12634eU, 0x3dbd61f6be02cbb8U, 0xba2bb03e3e3db61aU,
  0xbd742fc03d923a6bU, 0x3e973d8dbd6c4521U, 0x3e1e1055be886e47U, 0xbdcdb5813d22e34dU,
  0x3e3ffae53d49b387U, 0xbdeca3e8bcfc4b1cU, 0xbe6eed513d9b5b64U, 0x3d51a42fbd3813c5U,
  0xbeafe0543d21dd2fU, 0x3c2f52ac3d5c38dbU, 0x3df619e73d8c7992U, 0x3c9c9bbdbdae17a2U,
  0xbd6cea25bdb58e27U, 0x3c1e1868bd7acf4bU, 0x3edd046cbdaea6deU, 0xbe108b293cc3ce52U,
  0xbe21526bbd91dfcfU, 0xbd653efe3e3e2ce5U, 0xbcbebce63d5dc087U, 0x3dea12e03dd93febU,
  0xbe6d2bd4be0e175bU, 0xbd7bdec03ccec489U, 0x3d53c833bdbf856aU, 0xbd9564c0bc83c789U,
  0xbdec013fbcf05eebU, 0xbd93eeb23e3b7ddcU, 0x3d867f73bcf56188U, 0x3d5f6219bd9cfce2U,
  0x3dd5a5c93d92fc96U, 0xbdfe0a023c62cc5fU, 0x3eb66750bfc704dfU, 0xbe4329113d926109U,
  0x3fac900c3f08a45dU, 0xbd81e3cfbf2ef10aU, 0xbf2d21773f424e6fU, 0xbc801397bedbbcdfU,
  0x3f8e72223e069005U, 0xbda0c02ebea54284U, 0xbe8b50733dc61c37U, 0xbdf568783d7d72f1U,
  0xbd954977bdae3031U, 0x3d5c8a89bc19aaadU, 0xbd4f9f0ebce38e6cU, 0x3d59b6f2be496b87U,
  0xbcb6cb263e29b9f5U, 0xbe1eac9cbd1e63e8U, 0x3c1c287e3e0151faU, 0xbd469efabcdb7cf4U,
  0x3d9242c73cd0606aU, 0x3dd89d69bdf8580bU, 0x3ccbe21ebb7deb7dU, 0xbe03520b3dc4265dU,
  0xbd89d2173e72d3ccU, 0xbe1779c3be271463U, 0xbe47a44b3e9a62e3U, 0x3cfb77fb3e345becU,
  0x3d8022143e0025b0U, 0xbce809783e1f3d03U, 0x3d9f54fc3d8ad3ddU, 0xbbb16a033e0ad70aU,
  0xbd2446d33d4ece98U, 0x3d2a6fb63e2d54e4U, 0xbaba48bcbddb977dU, 0x3c53f1293e4743c5U,
  0xbd73aae8bde8dc8dU, 0xbddbd85abe0f6f96U, 0xbd2a8abe3e54fdcbU, 0xbc461713bd1917deU,
  0x3e9550183e9306f7U, 0x3d488a6e3e0c5f63U, 0x3e1a28e53e26db02U, 0xbc587f363d7425d4U,
  0x3ba53c97bc9aa38eU, 0xbe4558383dc30578U, 0xb9b6d74cbe21c855U, 0x3d68a0c83e8c1554U,
  0xbddc232ebe651a83U, 0xbd1bd3a4bde6431cU, 0x3d62964a3d9734afU, 0xbe4ac519be252c58U,
  0x3e2acc51be1ab0a3U, 0xbd324935bcd23854U, 0x3dba9a77bcb54016U, 0xbe8199e4be247373U,
  0xbd1e8d29bbb4f565U, 0xbdabd03c3ceb6e54U, 0x3ddb58df3df9045dU, 0x3d033b6a3e1d51caU,
  0xbdbf2bd0bc800cc8U, 0xbde6d567bda679a6U, 0xbc9781853d7ca235U, 0xbd690cdf3d0dc8ceU,
  0x3caecdbe3e5ea8beU, 0x3befaa89bd503929U, 0x3d36f7163dcfa635U, 0x3df026c4bc3e7861U,
  0x3cb29de3bb03b4f8U, 0x3dc42f93bda9c90aU, 0x3ce996b5bcca0596U, 0xbd788bb5be58349dU,
  0xbd1ca4253d41ed90U, 0xbdbb1fffbd94ee71U, 0xbd92d07e3dc78688U, 0xbfcf7dd24018ed06U,
  0xbe229602bf82b368U, 0x3fa46687bd9ef7cdU, 0xbe07afa73e0007f7U, 0xbfb182ae3e5317dcU,
  0xbe0e2054be062604U, 0x3e5980ee3fb9f82cU, 0x3cfbeba9be807ae7U, 0x3dca486d3e0d5e2dU,
  0x3cf05393bc9c414dU, 0xbc5abc103cab0142U, 0x3e04e7c93d7b200cU, 0xbd2e4ababc96d2dbU,
  0x3b63d9e13b88d7ebU, 0x3e0a8e4e3dc2f791U, 0x3c5da1b13cb51118U, 0x3dbe65b43d7cc188U,
  0xbd7bbae13ca8c889U, 0x3cd5ab093dfd251dU, 0x3d922cfbbd89cc4dU, 0xbc8559a8bcb91459U,
  0x3add8fb53d656534U, 0xbc071f8c3be8300fU, 0x3d76ff9abc049ee5U, 0xbbe7d6693b04b3e9U,
  0xbe1a54343e04e1e7U, 0xbc24da303d9cf7aeU, 0xbb573606bd27e458U, 0x3d6f0e7c3d1ad39dU,
  0x3db24e433d4fb2afU, 0x3d143449bd67e0baU, 0x3d8a8c093d0401a1U, 0x3d2639363accdda7U,
  0x3d34588d3da6aeeeU, 0x3dda7aef3d0a3196U, 0x3b2803e83d7ab419U, 0x3d8ae8273d7354acU,
  0x3c9fa3d13d9fe2fdU, 0x3d4e1a313cabef06U, 0xbd83a9b63d0d8f37U, 0x3cf2aa963bcb69d7U,
  0x3c9af5a53d1a5c4aU, 0x3cc86cf33d5ca74cU, 0x3ca4cc8c3d9d7f0aU, 0x39b3ff873d43fc71U,
  0xbd67ce3e3cbb5c7cU, 0x3c9d0c353ca37ca6U, 0xbab195f43b44a501U, 0xbcae89953ce29b5eU,
  0x3e0183a13dadef85U, 0xbcedc50e3d3ced58U, 0xbd791b763dd5c343U, 0x3daf8a2a3db2a366U,
  0xbca31ea63c9cc804U, 0x3d18b1bc3cb32dffU, 0x3be24ccd3c22ca55U, 0x3d1a6e47bdcbe37eU,
  0xbceb38c83cd99c3fU, 0x3c5fb798bceeb22fU, 0x3dace6513d73264eU, 0x3dc88c583da8072aU,
  0xbcc2cdd73d0fa6e2U, 0x3d8b7ee73e1998bdU, 0xbca7129b3ce45052U, 0x3d56fef03af4689eU,
  0xbd34ad8b3db94eb0U, 0xbcd83da4bd00b76eU, 0xbe16164d3da5d148U, 0x3dc04e203c60333dU,
  0xbdbc88f53dcac2eaU, 0x3d9301f83cf54719U, 0xbdce729e3dd2eab1U, 0x3d8b040bbc703bb6U,
  0x3f392a61bed25ba7U, 0x3e8614763fac807eU, 0x3eb94d443ddd6f91U, 0x3eb5371e3df46b38U,
  0x3d87e78e3e490c18U, 0x3e548969be7b8563U, 0x3e180315be3d992fU, 0xbe35d6013eae45acU,
  0x3dfc1b7e3dfa3662U, 0x3c9f8972bcdfd580U, 0xbd9989ac3e40bc95U, 0xbe8bc6dd3ccd3bb2U,
  0x3c315b83be03c5caU, 0x3bb3f51bbd0cd6d1U, 0xbdde07e93e6e1e24U, 0xbd863c56bc0533a6U,
  0xbdd865efbcd46f10U, 0xbd2ca46abe1901a9U, 0x3e0d7ff1bc476a08U, 0x3dd6629ebd7ffff5U,
  0xbdd5b13b3dd66691U, 0xbc1f7b0fbd7b3e29U, 0x3d71658c3e50c97bU, 0x3d824e473e7de3fdU,
  0x3d406965be0a6770U, 0xbe290c65be54820aU, 0x3d30d6123e8264afU, 0xbd545d133e2cf2f0U,
  0xbd146982be72f1e6U, 0xbd175b0ebd8f4b3cU, 0xbc4b73c43e120006U, 0xbdbd6f4ebdb76e70U,
  0xbc9e84cc3dc5f1c7U, 0x3d1e2c8abd6864dcU, 0x3dc5b205bd34dcadU, 0xbe87dd433b89ea4dU,
  0xbca166033db2a267U, 0x3e4328c0be3a1473U, 0xbc068f88bb8b7988U, 0xbdaf9dfabe539d6bU,
  0xbd1bbc5d3e133229U, 0xbe28dc0fbd5de203U, 0x3e1779da3d92fb18U, 0x3b28d4e43b2134c7U,
  0x3e28fda73d078c72U, 0xbe0f7e54bc1f8e09U, 0x3ded0d58be263b12U, 0x3cf544a43e0ba45bU,
  0x3c18453abdbae013U, 0xbdc1f145bc4c2ef5U, 0x3d9327553e3bfda6U, 0x3e66baa63e7535e2U,
  0xbd47073fbd9eee3fU, 0x3d907b783e511d82U, 0xbe31ae833c485566U, 0x3d2b82a63c3e8f8aU,
  0x3e47edf4bdc1a915U, 0x3de6d8ec3e2309b0U, 0x3ad2a7aebdf55d9cU, 0xbde299eb3c573b43U,
  0xbe0efa843e347b5eU, 0xbd72f0973c1cb987U, 0x3cf926cb3dae0929U, 0x3e05d847bd473678U,
  0xbe026a323e47da53U, 0x3e933babbe3297ceU, 0xbd53d716bda53881U, 0xbe108b9abe057f61U,
  0x3e0db342bb5575c8U, 0xbda2fbed3e883982U, 0xbe0f25c33d7c5f2eU, 0xbe0dbfbbbc861f0aU,
  0xbdae3c943d2bcb2fU, 0x3faaeb993f1e0978U, 0xbe16c93bbf87c5d2U, 0xbf69f2aa3d17e075U,
  0xbe24f1ddbe377d5eU, 0x3f2893853dfcc17fU, 0xbe38d2dfbe815252U, 0x3f0795a9bef4220fU,
  0xbae24185be92bba7U, 0xbeada131beb2cb18U, 0xbd901635bbc5db0fU, 0xbdc13b1dbe279108U,
  0x3d128dcf3dfb7c26U, 0x3de3334cbe30d7c9U, 0x3de7c32fbd4baa88U, 0xbe5bf0463ea1862fU,
  0x3e35cff9be5ad05fU, 0xbdd12777bdb26659U, 0xbdd1d7f23de40787U, 0x3d087425be0213a0U,
  0xbc52813cbd74f528U, 0xbce7e8983df32166U, 0x3d400e07be2eef8fU, 0x3d496439bdfbf375U,
  0x3afed02c3cae1d20U, 0xbd824b5b3e0e1519U, 0x3d486a0c3e635750U, 0x3e0003dfbde94cffU,
  0xbc9045c3bd7cd25bU, 0x3dfb50c73da82141U, 0x3e2ba81abcedae43U, 0xbdb97824be150fb9U,
  0xbd5246ed3d89f399U, 0x3da337f23d087abfU, 0x3e298fbe3db2b772U, 0x3a9dc8173d426474U,
  0xbd56ac66be4d3f37U, 0xbd123a80bdd1733eU, 0x3df396c2bd128da9U, 0xbd800c84bcfe5481U,
  0x3b980668bd64b369U, 0xbd7ec9c2be46fa84U, 0x3db6167cbd4b6b80U, 0x3d4c3a773dd39ddeU,
  0x3de3e2b63d6c5b28U, 0x3d8667a7bda980a9U, 0xbe3f78673e66e2afU, 0x3bb7451fbdc58699U,
  0x3dce8c2dbd3d9b26U, 0x3cb8985e3e0ae589U, 0xbcf0be38be55288dU, 0xbda6ef9dbd6fd1caU,
  0x3da0c4543cdf578eU, 0x3d0ff1053d4cb16aU, 0x3e0fa6c73cadca93U, 0xbdcc58833dc4e5aaU,
  0xbd65af543e92e89dU, 0x3e012d763d4810f2U, 0xbc4400c73dc37121U, 0xbd34bf833e389b04U,
  0x3da6c5763de44555U, 0xbd0339e43dbacd5eU, 0x3c606b333e8aa90aU, 0xbdc7bc693c3edcafU,
  0x3e7f6b753df40adaU, 0xbd1b79283db0d724U, 0xba6deed83dba837bU, 0x3d06ffca3dae5d34U,
  0xbc58eb493dad245dU, 0xbd6206d73df31b53U, 0x3de0256fbc61c8f0U, 0xbd480c0b3dd32f98U,
  0x3e217fd7bdafe776U, 0xbd3e8d7abba8a915U, 0xbf71ff9dbf890a62U, 0xbe0af4bbbf900133U,
  0x3eeaca89be967b23U, 0xbe4d3b353ea5d5caU, 0xbf1f29fa3e2879b9U, 0xbd96d69b3e0ccb07U,
  0xbebe9d813eca4138U, 0xbd0f28adbe8e7b7aU, 0x3dd910df3d8339e2U, 0xbdefa3233de0d141U,
  0x3df48041be15dd31U, 0xbdbc7587be114116U, 0xbdfe49683c31f979U, 0x3e3b69aa3b706627U,
  0xbdec9e26bd10a941U, 0xbe32ca763dc17e19U, 0x3e198de5bd231037U, 0xbe3b029cbc2d8f28U,
  0xbaa5b3853da9c92bU, 0x3df9a4013dbe4d05U, 0xbd3a0e0e3dabce5dU, 0xbe2708acbdcbca72U,
  0x3defa696bcf93d96U, 0x3e6798403c5e5023U, 0x3dd4a33fbc9e0ff2U, 0xbe61db553cf8bc13U,
  0x3e05d2a8bc41618cU, 0xbe3c367e3d1b6c9fU, 0x3e156e61bdc28a98U, 0x3e0ffd98be2d6209U,
  0x3d2bde0f3c91fe12U, 0xbcba91d9bd7a789fU, 0xbc29cbe6bd99d1a9U, 0x3e143d37bde37e7aU,
  0xbdb57f3a3d96f084U, 0xbe8b1ea63dbc5aa7U, 0x3e08b34b3d7661a6U, 0xbe06e6c03dedc042U,
  0x3e7e3839be015574U, 0x3dee61db3e153c37U, 0xbda3c4273d703b23U, 0xbc3ebb863dd551b9U,
  0xbd0ab6273bbb8b4cU, 0xbda8009d3d2c790aU, 0x3c5ed152bd022ad7U, 0xbe0dec813cc13643U,
  0x3dd9dc7c3c1d2349U, 0xbd5736c6bbb31559U, 0xbdcbca3dbce16ea2U, 0xbd22baf9bda014e5U,
  0xbd7a9ec23d8e3cffU, 0xbaee5dab3e319712U, 0x3b91dca53cc19554U, 0xbe195e4c3db37890U,
  0xbdda70463ce65d10U, 0x3dda68a0bd439f10U, 0xbd125eb5be34be5eU, 0xbd895484bd24955fU,
  0xbd68521d3bd8355aU, 0xbcee4ab03dd6ef6bU, 0xbdae975abb0156a6U, 0xbd43a1243e0ffe59U,
  0x3dfa5023bdbe9c7fU, 0xbe0a4778bd2e9701U, 0xbd8d7bd8bbc47ab0U, 0x3c187a323e2c1749U,
  0x3d2fc830be055adbU, 0xbd7d71d1bdfd4fa7U, 0x3db16cb1bd1b4e53U, 0xbd56b0753dfed755U,
  0x3dac1ac0bcec5d79U, 0xbdf371f0bd3bcf99U, 0x3e2e3d743dc597f3U, 0x3fd8ddeabeaf0365U,
  0x3c3316d13f62a321U, 0xbee40a21bf03d8faU, 0x3da9fee23f0c2676U, 0x3e9aa3353f8fc3eeU,
  0x3ae724c0bf83951aU, 0x3f93c8bdbeab7b3cU, 0xbdc69b203f40a583U, 0x3ed05c87bcd3cdafU,
  0x3d9fa3ec3d508b76U, 0x3dbcacd4bd9713daU, 0xbd4cf416bde1260fU, 0x3d9ca640bd3ec585U,
  0xbde3e98f3bf6bd7aU, 0x3c0473e1bbe4abd1U, 0xbde95f6e3e3c5067U, 0x3d245a763d8fa1b6U,
  0xbcf893a5bd5d8d4dU, 0xbe01a5b8bd84c4c2U, 0xbd1430743e0fcdf8U, 0xbc1fc78a3cd5c98fU,
  0x3d06aa81be6c1da9U, 0xb9859130bd1e29ddU, 0x3d687522bc6b765eU, 0x3d2f483a3d1f254dU,
  0x3ce3da3d3e3bf24eU, 0x3d891ee23d06c8b2U, 0x3d4a1163bdfbf5ccU, 0x3e249178bbce00dbU,
  0x3d29b68abd25f04dU, 0xbdb6819e3a895ccbU, 0xbcf68fd1be00bbfbU, 0xbdbcf4133ca21446U,
  0x3dc96bd53d8b86ebU, 0xbd505f5b3d5b861bU, 0xbdf82b603e0fcfc2U, 0x3d19af773d0d5c78U,
  0x3e30ac5abc8797eaU, 0xbab56faabd1c7d95U, 0xbc23785ebe1a8975U, 0xbd04accdbcb6d37bU,
  0x3d64793e3d226b1dU, 0x3cfb4bccbd5e43f8U, 0x3cb03f6dbe718c9dU, 0x3d97c1c23cb9c3c4U,
  0xbd50683a3d556dd7U, 0xbd62b57f3cebb6b1U, 0x3b82bcd5bd15e2dbU, 0xbd75153bbc769891U,
  0x3d0c79073d970170U, 0xbd804362bd31a186U, 0xbc95d27dbdc9ef04U, 0xbb8ad7f83d390d27U,
  0xbcbd4ac03dca1254U, 0xbe0a8709be27c2f3U, 0x3ce5ca5fbe2e5d0bU, 0x3cbc1f28bd6b80c1U,
  0x3db2edfd3ca557e3U, 0xbdd88480bcf8aa4bU, 0xbc821110bda0a210U, 0x3d1450e03dcb39c2U,
  0x3a8a011f3ba70c6aU, 0xbd8e8809bdba1f5bU, 0xbce7c98abd40ea0dU, 0xbddf227c3dd4bce5U,
  0xbdd1e6b93ceedb11U, 0xbc8606eabdae9feeU, 0xbdd3ef75bc8ee02aU, 0xbd88da7dbdaa55bfU,
  0xbaa591c6be19b4e2U, 0x3ccd65863da2bcb8U, 0xbda162ddbdeed001U, 0x3d929ba13d852d99U,
  0x3ce421c4beeafbdcU, 0xbd4f77753e121457U, 0xbfa466293e07299dU, 0xbe398df1be8a0a0aU,
  0x3f6452063e792db0U, 0xbdb7bb92bef480e1U, 0x3e33d8b7bf8603feU, 0x3c7ce8083db09e8dU,
  0x3da04c13bec5494eU, 0xbda21eecbd7f6859U, 0x3e4350cfbe509a32U, 0x3b95c61dbe773a1bU,
  0x3e1b7cbbbc705f0eU, 0x3ea42418bdd8161eU, 0xbcaff18d3cb1dfa3U, 0x3c00ba263dbcc69dU,
  0xbd39caadbcd96e02U, 0xbd76239fbcbde4d3U, 0x3cbba1d4bdd734afU, 0xbe65a3d13e8ec062U,
  0xbdc98e1cbcf7c531U, 0x3b796a99bcc40dbfU, 0x3e08283cbdff93eaU, 0xbd44e9293cae1d76U,
  0x3e9dcaf23cf811faU, 0x3e08709dbde19242U, 0xbdd541303d50376eU, 0xbd9c107b3dd1a34fU,
  0x3df329e93e34c6beU, 0xbdb2f125bd811a60U, 0x3e8c2b22be2734d6U, 0x3ceb75a4bd7fdedeU,
  0xbe0c3f61be656a57U, 0xbe94f51ebe1ff544U, 0x3d9addfcbdd9439dU, 0xbdef20703e136b6eU,
  0xbe03d88c3e4caeedU, 0x3db9d522bdb9a985U, 0x3d972d983d1cb92eU, 0x3d96f8a3be0a3e82U,
  0x3ca3e3febddc5599U, 0xbc56be22bc9420a6U, 0x3c20addc3cbc145fU, 0xbe051be43cc12f27U,
  0x3e1e748bbe06505cU, 0xbeaf5b78be1b73e1U, 0x3cd47b883d376603U, 0xbc553d023d3ecf41U,
  0xbe8a668d3cb65ce4U, 0xbd0801ecbe32a832U, 0x3c9aa88b3d02a42fU, 0x3ba772f83e25b70fU,
  0xbca60a7cbe343959U, 0xbe3e63663e0df692U, 0x3daeeef33d85e002U, 0x3e02c963be46a2ccU,
  0xbeb975553d33ddb6U, 0xbcf956dcbdcbd772U, 0x3e3bc6fdbe057bf8U, 0xbe3566853c163737U,
  0x3cd4c8233ca51c2dU, 0xbd52a9dd3c9f90fcU, 0xbd29e5d2be17df75U, 0x3e1d855abd73fa8eU,
  0xbd2cad6b3db9baa2U, 0x3e8f65e73e40db88U, 0x3d04751bbe441dbeU, 0x3d46c2c03dc8c933U,
  0xbca1d517bd76bffdU, 0xbe383909beb269d6U, 0xbd4439b03e893ba0U, 0x3e480deb3e4b54aaU,
  0xbdc1f717bd62cb54U, 0x3ef37ba23f830be8U, 0x3e430c6fbf67b74aU, 0x3fbe13aebe8ea462U,
  0x3e3a2e2abec19f02U, 0xbf9d9de23f7f7e32U, 0x3d3dab08bf1c19c0U, 0x3e3413ca3f0c536aU,
  0xbdefae3bbed65ef2U, 0x3b06fc2a3dfec4f7U, 0xbdaf1637bc2ecacdU, 0xbd5d1061bdeb7787U,
  0xbd312762bd9c562cU, 0x3d5098b53e0e2820U, 0x3e1f86cf3e3c606eU, 0x3c3f8c69bcc02926U,
  0xbdfadd1abdbd2658U, 0xbd17a3a83db0631bU, 0xbdccd587bdbabd3bU, 0x3da0fc46bdc0ecc6U,
  0xbe081a5dbd3c7f76U, 0x3df896db3ddea7d6U, 0xbd0193f2bc5e19baU, 0xbc5e7be2bcd8544eU,
  0x3c4d6813bd6fe299U, 0xbc75b7b3bd6890f2U, 0xbd0f0c9d3d59702fU, 0xbe7d72283e39be3fU,
  0xbe3966ccbd892a36U, 0x3d163d8fbc8545d7U, 0x3d00d663bdde27f5U, 0xbd51dacf3d9caad9U,
  0x3c005999bd60f7bfU, 0xbd8dc4553d6f88dcU, 0xbd726e1e3d9da658U, 0x3d2d35e43d77ef59U,
  0xbd98cf0b3d973198U, 0x3d7a2932bcf03a5aU, 0xbe86dac2bdc831d5U, 0x3df10afbbe55a8abU,
  0xbde7be143bd6f60aU, 0x3ca50064bd840497U, 0xbd66252ebc4de56eU, 0x3ce9a0cd3ccf1f5cU,
  0xbe3aeed23e1cb6d6U, 0x3cba4805bd86663eU, 0xbe3b30a53d785540U, 0xbd6975fdbd15eda4U,
  0xbe32d0aabdc31324U, 0xbe40800dbdaba71fU, 0xbe272ccb3dbe452bU, 0x3dae9a803dbbbfffU,
  0xbe502a903d8fffbcU, 0xbc89ef4fbdd2b9fdU, 0xbde8c2983d2fbf69U, 0xbae554f9bd15d52fU,
  0x3d9bdadbbd18dbdaU, 0x3e29f602be04d87cU, 0x3d5f4140be54f029U, 0x3d39bc35bcbf0b92U,
  0xbe193608bcb71279U, 0x3d75b2ae3d8b8240U, 0xbd3740dd3cdfc096U, 0x3c5610123b6b3136U,
  0xbe78cb19bdfc9366U, 0x3cc5826a3d83d317U, 0x3cb2ad92bd989b86U, 0xbdc1f21dbd92e292U,
  0xbde55ea8be71fb40U, 0x3de338ca3db604c5U, 0xbdae9d0bbd249444U, 0x3d6a22373e231590U,
  0xbe7d0a1cbdfbb707U, 0x3ddd2bdbbce42119U, 0x3f8f8f853f904402U, 0xbce9bc12bf835f16U,
  0x3f11c68abeb522f4U, 0xbe44c7fc3f163d6dU, 0xbef17b4f3d14acc0U, 0xbdebeb01bd1679b2U,
  0x3e899b3f3f05961bU, 0xbaf7185d3d2b54d8U, 0x3ed0a9053e8493c4U, 0xbd27f1483d88e5d2U,
  0x3d8988a5bd9083f0U, 0xbe3e30963dae2e58U, 0x3d7840093cb67231U, 0x3d942416bcdf82a2U,
  0xbccf8c6f3e025bebU, 0xbca62dd33e2eb623U, 0x3dba1c5ebdccb49eU, 0xbc07a82fbe070a29U,
  0x3cd896e13bb3397aU, 0xbca4e5cf3d489ff1U, 0x3cb31387bd8155f5U, 0xbc840d98bdd6a35dU,
  0x3d8cacb03c7682bcU, 0x3e1569eb3dcc5945U, 0x3c97f903bdf45ae9U, 0xbbb444f1bdad895dU,
  0x3c69e950bc3bb660U, 0x3e321b70bd3ee2a7U, 0x3cff95f2bcf93bafU, 0xbd8f4fe1bd4d2c37U,
  0x3de12c233d55120dU, 0xbd0ce6adbdbbec1eU, 0xbcaec166bd983fdeU, 0x3d995ba63d1388f2U,
  0xbbc0785a3c9202aeU, 0x3d1ee0de3d20f129U, 0x3d1023013e1e29e3U, 0xbd8f8d58bce8cc84U,
  0x3e2bfca03d85b990U, 0x3dccd09cbd4a3c2aU, 0xbe44903cbdac361aU, 0x3dd93844bcdf906eU,
  0x3d91a8f33ce7f9d4U, 0xbd1df65cbce74a74U, 0xbd77df973cb5abe8U, 0xbc4a51e8bc4ff16aU,
  0x3d9bae43bd9ac8f2U, 0x3df88baabcccfe23U, 0xbd0ff7903bfb0230U, 0x3e1a022b3d05e789U,
  0x3c1e2fd2bd67bc8eU, 0x3cbd159b3dd17e4eU, 0x3c7d790ebdd369f5U, 0x3d0a51fbbe2cccd2U,
  0x3cacde713cc66db2U, 0x3da6ed563d4ee8beU, 0x3d4f7c5f3cde450bU, 0x3c60afae3ce7d4e0U,
  0xbd65e0273df5ef4eU, 0xbc9b36ac3d33847aU, 0x3d85e90c3d2bdd85U, 0xbc9c8d8cbdb6f6f9U,
  0x3dccfcfcbd29f88aU, 0x3c1edbd53d8a6abaU, 0xbd6f563c3d279278U, 0xbd4f57e9bddb540cU,
  0x3d5b5f233d85acafU, 0x3de2c85cbc46a2e2U, 0xbcc75801bd69c673U, 0xbd9894433d90f45fU,
  0x3d8746e23d996ce1U, 0x3d6b365f3d0ffa50U, 0xbe34c996bcccb324U, 0xbfb785003e4720bcU,
  0xbcda9a14bf672be9U, 0xbec8c07cbf8237c0U, 0x3de2f16d3f96e9cbU, 0xbe57415cbf0968f7U,
  0x3d13a5993f1abc85U, 0xbf2a6070bdce085cU, 0x3e2552debf062f95U, 0x3f1bdd82bda26620U,
  0xbef14498bd89ac42U, 0xbdee29f43c37a876U, 0x3e24de4fbdc63379U, 0x3c2de73c3e581e92U,
  0x3cfca163bdb0b4ceU, 0xbe54a5a4bc257febU, 0x3cbd627bbd865d86U, 0xbd1e9803be13acc8U,
  0xbe2707093e898badU, 0xbdadc3babda6d281U, 0xbc27b41e3e051ea0U, 0x3cfea614bd49deccU,
  0xbdcc8fc53c9039b7U, 0xbe32c6d6be812417U, 0x3ce3fa76becda359U, 0xbe0c815e3e05c493U,
  0x3e0649e83e92dc75U, 0xbd9bf92ebd9cffbfU, 0xbcdf0caebda491d4U, 0x3e092464bb86a2feU,
  0x3dd4f971be3f7a7dU, 0x3e5799d1bd854882U, 0xbd9181403e2fc4cbU, 0x3df8f750be4644ecU,
  0x3c9f635fbde01e5bU, 0x3da92e413d0f2b49U, 0x3d11a88e3df3dd1aU, 0x3cadd8f43c6d3d02U,
  0xbe704a8a3e074365U, 0x3e20bc2dbd0b6fc1U, 0xbe56204a3e165e21U, 0xbd5f09273cb628ffU,
  0x3d85d0d73dbec1d9U, 0xbe22f473be611a80U, 0x3da0ce9ebe76e5a0U, 0xbed30c4fbc68dec0U,
  0x3e04031f3e4f0f5fU, 0x3e1c48993dd4bd77U, 0xbd424ee5be2546caU, 0x3d641251bdb76cecU,
  0xbc2c46c9be96243aU, 0xbe4d731cbe5a1b24U, 0x3d1ae9f93e6e87b3U, 0xbde18331be08bd5aU,
  0x3d8cde973d1fd869U, 0xbd5c8fcdbe10aec7U, 0x3c30a7ccbeaa9af3U, 0xbdde47963e28c252U,
  0xbe7530d8bcbb5247U, 0xbe0545f1bdcf5eaaU, 0x3d313becbdd84669U, 0x3e193e5f3e2222f3U,
  0xbdb40f063d68d5a1U, 0xbd8ee334be336662U, 0x3da158a43dc4c4efU, 0x3dc4f4913d4c3deaU,
  0xbe24b5b83e1a0f9aU, 0xbd8656c73e125c95U, 0xbb970375bda874baU, 0xbe009fb83da297e2U,
  0xbe4aba69bdcd0146U, 0x3d3de2e03ddbef03U, 0xbe7990aabd31df7dU, 0xbd411d4c3c30c9d8U,
  0xbfbe0a8c3fc80377U, 0x3e610fbd3b0e869fU, 0x3e4604d7bf6e1f4bU, 0x3dc231583f2da477U,
  0xbf0e45513dfd70f6U, 0x3caa163d3eabdc4eU, 0xbf38e16d3ebec83dU, 0x3cd5700c3dc6963eU,
  0x3f29fee03db1852aU, 0xbe0e40613d93bb40U, 0xbd8e39a8bd90dc12U, 0x3bcf488a3d01e2f3U,
  0xbba17693bd8b4b64U, 0xbd5d49903e1df775U, 0x3d5c4271bd574c43U, 0x3e4c3e2c3dd8a4edU,
  0x3da2306bbde14a32U, 0xbeb20083bc9d3753U, 0xbdfdea5d3c717cd5U, 0xbde23d2cbccf05c4U,
  0xbc96f5e73d84780aU, 0xbb1f24843c2f169eU, 0xbe2eff6dbd77243eU, 0x3da63a31bd56e1e2U,
  0x3defb2803d258a2fU, 0xbc855a6cbd38330eU, 0x3b3d9b7f3d6c2d11U, 0xbd0ef2b0be1aaf64U,
  0xbcd13020be6feb7aU, 0xb8f42f11bc1f9f50U, 0xbdfb2d96be481f62U, 0x3dd58634bea737f7U,
  0xbe6f3229be13b19aU, 0xbd9703193dba2e7aU, 0x3e475856bdc6c630U, 0xbe2fc6e23e02289eU,
  0xbe70b4793d21eec1U, 0x3e54f5fa3b566ac6U, 0x3d04e25dbdf041a5U, 0xbe0684f9be5cf828U,
  0xbe3163f83da5e808U, 0x3d3a3653be0009cbU, 0xbc6fd821bdbd1ffeU, 0x3e065ea3bd1be88eU,
  0x3d86ff4abc30b69aU, 0xbc0a15a5bcf09b90U, 0xbc9074e53d4dd682U, 0xbcfd7607bc65fbc4U,
  0x3d3a20053deba216U, 0xbe1e3115bd810d0bU, 0xbce6ce77bd83048eU, 0x3dc57b74bc12829aU,
  0xbb49b33e3cc859e4U, 0xbb4c7ea2bd6d1bd0U, 0xbe3c4e15be903ed2U, 0x3d8f78c4bda40edeU,
  0xbe058a10be46b873U, 0x3d6a13063e3fb98aU, 0xbd4859febd106accU, 0xbe5142f6bd18de2eU,
  0x3dfa8c4c3d8be03dU, 0x3df73dcfbd1c6336U, 0xbde96819bd9d054fU, 0x3c841ebbbe18234cU,
  0xbe1ae767bdc08aebU, 0xbd5ee7b63e1acb60U, 0xbdf02e1d3ca8c26bU, 0x3e4f54ebbe2530ceU,
  0xbdabaaaabd8d1042U, 0x3d9373f6bd03d22bU, 0xbd18410ebe0ad61bU, 0x3ca665b63e0e4e7aU,
  0x3d4e4baabd0523c1U, 0x3dc7e8ab3ebd030bU, 0xbeb262b2bf87a4b2U, 0xbf8dcc3e3e77db39U,
  0xbebe07a5bf306646U, 0x3f08e0b9be60d780U, 0xbe165fa63e35fc8fU, 0xbea25b42bc86a139U,
  0x3a5e809cbe35bb24U, 0xbead5277bec6bd06U, 0xbe96ca123ec06edeU, 0x3e3024efbda234acU,
  0x3da9ab283d085529U, 0xbda0f6a63e1d1e5bU, 0xbe341585be768e7aU, 0x3cea28daba005771U,
  0x3e9406803bdc0e77U, 0xbd421660bdb42837U, 0xbcc287533e4226a6U, 0x3d1adee23e49d4e2U,
  0xbda7f6573d83c254U, 0x3dbf22f5be1bd3d6U, 0x3ce1adb43dd7ae97U, 0xbe83e08a3e1f2234U,
  0xbd1d2c69bcefb9f3U, 0xbd2d81373dd2ba7cU, 0xbcafa4143e03ade6U, 0xbe6ee08dbd9699dbU,
  0xbecc8794bde434a3U, 0xbe26c35b3d69fce9U, 0x3e12d16d3e0a73d3U, 0xbdb428a2be759277U,
  0x3ce4f57b3d5ee61fU, 0xbdbc85603e8ab47fU, 0x3c2924853e263ff2U, 0xbe15a77f3ad85149U,
  0x3d426ab9bd076ce7U, 0x3dcb9482be568fbeU, 0xbe7dbed03dec9ea5U, 0xbd8bdcb93e558dd1U,
  0xbe03a4733c28e20aU, 0xbd08b3ebbd1b0a94U, 0x3de1423d3e6a30e3U, 0x3dc5e0603b9a6c4cU,
  0xbbc188e03e3bbcfeU, 0x3de5f6e13e8c22edU, 0x3e7683183c128d23U, 0x3d19de483e6d6662U,
  0x3b51134d3e3edf60U, 0x3e25bcc4be6486d6U, 0x3c9e1154bd6fd90cU, 0xbe939a17bdffcc4cU,
  0x3d5362953e43acd9U, 0x3e2a4307bcb21b04U, 0xbedb77243de40129U, 0x3ddbe0c43d4181afU,
  0x3deb1e733de22679U, 0xbddca7a53e314d49U, 0xbea0847b3d972812U, 0x3c54078cbd751cefU,
  0x3d7992f1be3bb5b9U, 0xbe0c317f3cc5f3feU, 0x3d1cae87be07a160U, 0x3d44e15cbe128fecU,
  0x3be510853d001d10U, 0x3cbbad953cee5913U, 0xbe65e4923d9e3270U, 0x3dffe51fbe56238cU,
  0x3e0ff42c3cc270c9U, 0xbe0b22ae3df7c30bU, 0xbccb8550bd7364d2U, 0xbcb700f7bc155d04U,
  0x3deb7af4bda80a49U, 0x3cf51e4d3ddf45f3U, 0xbf53eaadbea701d2U, 0x3e461a493f1cd668U,
  0x3f58a909bdb898edU, 0xbd624ee2beffd7a3U, 0xbf25f78f3f33c22eU, 0x3d82bb34bef6bf69U,
  0x3ebd5d203f172aeeU, 0xbd0f8e193ec25cc7U, 0xbe8045ff3deffa95U, 0xbe7a8beebc54f1b9U,
  0x3d1b79e6be3f02caU, 0xbe11fe7fbe024ec4U, 0xbe0b70ac3e0bd792U, 0xbd39fc8a3e25930aU,
  0xbe1bd67abdad1479U, 0xbe779d7e3c746fc2U, 0x3debb464bd96455fU, 0x3d2b9f6cbdfd4e6dU,
  0x3e28647d3d9deff0U, 0x3b8680723dcceaafU, 0x3c1d9c6b3c23791dU, 0xbd1a0e99be5dba3dU,
  0xbdc54baabe96b266U, 0xbe9d76c1bd364dbcU, 0x3e7306a3bd462be4U, 0x3da13fb33d8d9a19U,
  0xbe99254e3e1ab28bU, 0xbd0f0b413dc8932aU, 0xbe2416bbbdb33addU, 0xbe0ddf99bd6d78bdU,
  0x3d9c18d83e13960fU, 0xbe0298853d58dc13U, 0x3e8c80dabd6f66b8U, 0x3defb3893dfbbf87U,
  0xbd9d50cabdd4cb16U, 0x3bcc27f4bdcfe5d6U, 0x3e0abb523e26a7c0U, 0x3e32c5953e5b0131U,
  0xbcd171c5be07d7b8U, 0x3dde8e08bddcab0fU, 0xbd1f0ba5bd5336e1U, 0xbd58b9d3ba9016e1U,
  0x3e42bfe4bd2be5f5U, 0xbe51dbbabe32fe36U, 0xbcba67e6bc6662a6U, 0xbd165b70bd394d59U,
  0x3e0d13a93b9eebc3U, 0xbc433eb4bc396cd0U, 0xbc87dad63d960191U, 0x3e41a0523e3514f4U,
  0x3e3193173d1cf7b7U, 0xbe67a900bcc530ecU, 0x3e31be08bc15e38aU, 0x3cf3a40b3dbb6163U,
  0xbd321dffbd7c725eU, 0x3d9d3e40bd9a7a66U, 0x3e8b26003e6bed96U, 0x3e3c1ed4bc28be42U,
  0x3d575c4c3dd79823U, 0x3e4b4f183dac49faU, 0x3c8f7672bcf34991U, 0x3ddb8cce3e1fbdfaU,
  0x3dc77a943b915860U, 0x3c9cc9e9be2c6f3dU, 0xbd8d02593e8b206dU, 0x3ced3c553cd434ecU,
  0x3d0eaac83d8df7f1U, 0xbda559c33cecc6ebU, 0x3e69d2a33d04ab83U, 0x3c9d46993e632670U,
  0xbd21c1ce3e2db3aeU, 0x3db0e5863cb03cd7U, 0x3d6ef336bdebc175U, 0xbf8af31f3fc4a65cU,
  0xbde1cd3abf6d49b9U, 0xbf50bdd0bdf15107U, 0x3cc5ade73ed21c36U, 0x3f0cb8f93f3646eeU,
  0xbba18bfdbe69764aU, 0x3e856a27beefb0ddU, 0x3c836cc9bedf0d5aU, 0x3e4a53eabd8ab8f3U,
  0xbcb0fc003d274f7aU, 0xbd28176e3d56348aU, 0xbd5e3e623c49b6fbU, 0x3c6786743d386502U,
  0x3dd82540bcb9bd14U, 0xbd4c00c1bd167102U, 0xbcce3cedbc25298dU, 0x3d85876f3ca496d0U,
  0x3d354471bc2cbcb2U, 0xbd5bd7e3bd1d74deU, 0x3db7ddbfbd75d8c7U, 0x3b895b293bdcdf86U,
  0x3bc2c0bdbc28d2d0U, 0x3c7e6696bdc6a46bU, 0x3dcf8f69bc9446bbU, 0x3c055a56bc549f75U,
  0xbc43a8ecbd9654eaU, 0x3d3d8fb73b9fd868U, 0x3d1033babd349267U, 0xbce8b5613c193bb9U,
  0x3c90c597bd367a7dU, 0xbcc6ab3ebc99dd20U, 0x3c24394dbe164f17U, 0xbda843063d0bad1bU,
  0xbd3538b5bc980d50U, 0x3d440f42bd707db3U, 0xbcfecc233c2d0064U, 0x3d68f259bd81ae77U,
  0x3d6f39353c6592fbU, 0x3d0de5643d8d451eU, 0x3d41bc3fbe308ae2U, 0xbc5fa81f3d21e2f0U,
  0xbb597994bd8f8bc1U, 0x3c45f8bf3d84d503U, 0x3cfd7d8dbc8db240U, 0x3c3e676cba329d61U,
  0x3e0743e23af6febaU, 0xbdd0aec7bd542a4fU, 0xbd019443bc92f55dU, 0xbd7919833d21c42bU,
  0x3d4e46f33b9be356U, 0x3ba89fb03db19e92U, 0x3cbcb4f23c526a5aU, 0xbcc49562bafe1406U,
  0x3e05435fbd71e2f1U, 0x3e04378cbbce5e37U, 0xbb4bf35ebe0066fdU, 0x3d4819bebc91925fU,
  0x3cbc0eed3d233e58U, 0x3db6eb503b486be9U, 0xbe2638b1bce2d6a2U, 0x3e5aa8523d4f3ddeU,
  0xbe14baa1bca109d5U, 0x3d6735be3d9ba303U, 0xbd54c99a3d95c701U, 0xbd9e2d8bbda0ee50U,
  0xbd3c44803c90600eU, 0xbd5133423d97a243U, 0xbe2db816bde834c5U, 0x3da6c44d3c75ebb7U,
  0xbd176adbbd28c3f3U, 0x3db73c0dbbf1b586U, 0xbcc051de3d270312U, 0x3d77beacbb2d98dcU,
  0x3f01b6a7bec089eeU, 0x3cc9b1ddbfa9e429U, 0xbf3cd8f3be87e204U, 0xbca50ddc3f283ac7U,
  0x3f07d2bbbdf96c9dU, 0x3dcf264a3dd15af2U, 0xbddd9fa2beceb40cU, 0x3d85f76cbf2a0b8dU,
  0x3e9829f03cce891aU, 0x3d3b1099bd75b437U, 0xbc754fb3be34685cU, 0x3dc81f643b1dfee7U,
  0xbe645357bdb592deU, 0x3d283bc9bdec5b5bU, 0xbe1564d23d16c80fU, 0x3e2e61f3bd882551U,
  0x3e3d8f84bdb90027U, 0x3e01e6c03cc7746dU, 0x3cf1d5cd3e64a4e0U, 0xbe46beaf3db71eccU,
  0xbd4252793db57964U, 0xbc24a4e8bdea34c3U, 0x3d119203bd52b337U, 0xbe0873e1be0e3d95U,
  0xbe0d0adb3dffe57cU, 0x3d1c321b3e65735fU, 0xbda74fa0be09b81eU, 0xbd947bf63cc6f987U,
  0x3bd82a4e3e27d170U, 0xbd9326ab3c6a6089U, 0x3daf47c63dc92096U, 0x3e11e645bcbef995U,
  0xbe40839cbde1f65fU, 0xbd63f04fbdb98d02U, 0x3d334fecbe249930U, 0xbdde9a853c8d91cbU,
  0x3d8a33d03dc487afU, 0x3cb25ff33c91de7dU, 0x3c8bde963e5c77bdU, 0xbdae51513e967bcbU,
  0xbe338e07be0aec6bU, 0xbd7af6433cdcbc02U, 0x3e109661be00905bU, 0xbd16a34f3d142136U,
  0xbe01ce013df1765dU, 0x3c87ac793d81db84U, 0xbdef61653d4f1d4aU, 0xbd2b7687be808987U,
  0xbbd1e8d13e1714bdU, 0xbe39f00dbd37755dU, 0x3e65d1023de96988U, 0x3cad147a3d894882U,
  0xbe082d743dd7a43bU, 0xbc889a6bbe018811U, 0xbd444b39bd7d8d72U, 0x3d8bf0c6bd18e5acU,
  0xbe4e91743e129161U, 0xbe3d88b23d66ecc6U, 0x3dd31bb2bdc79306U, 0xbd8de2233d8f1280U,
  0x3caf88eebd9badaaU, 0xbd9b8f19bda33b71U, 0x3d775ec63db2e062U, 0xbe19964fbd2d2353U,
  0x3deefc153de65ab1U, 0xbe6437c93e50bae4U, 0x3d982598bde134fbU, 0xbc87839e3d22b6f0U,
  0x3d4ebb863c10ea19U, 0x3d4dd6653cbadbdfU, 0x3ca6e002bc080dceU, 0x3c02ce0c3e1e1afdU,
  0x3e16d6b1be0b896fU, 0x3fb56b0cbebaf0bbU, 0x3d7991c13e83be46U, 0x3f25c4043d629edbU,
  0x3d8415763e0176bdU, 0xbf077caf3de17deaU, 0x3d668204bdf1544dU, 0x3ec9d23f3ef68584U,
  0xbd8734f3be6acfeeU, 0x3cb164eb3cdeab0bU, 0x3d8c7333be1cb851U, 0xbe0e0f933d930ea0U,
  0xbe0f0c1dbd4ddc0eU, 0xbde6a79d3e392aafU, 0xbdcae8883df16bebU, 0xbc7527cebd34b4b2U,
  0x3d9948e83c085ab5U, 0xbe1b334fbd9df602U, 0xbdd1dcd9bc802578U, 0xbd2c90e2bd9a8bbfU,
  0x3dd00a63bd514b0eU, 0xbe5b158abe045393U, 0x3dc034b6be0471b3U, 0xbe7f75a9bd519e12U,
  0x3c59b33dbe8d4284U, 0x3e58bd2bbe15c386U, 0x3d4e942abe11f077U, 0x3b3d7d093bcaadfdU,
  0x3d30b484bd14dfaeU, 0xbd96f9023d03e3fbU, 0xbae517fabcc31b21U, 0x3d74a431be26f3a1U,
  0x3ccf7d103c973062U, 0x3dc571b7be4a1774U, 0xbe4d9e5b3c368b60U, 0xbd55d188bdc7cd6eU,
  0x3e28e6adbe634cceU, 0x3e9163b5be3ed4f4U, 0x3e8b00e93dcbf3e7U, 0xbdf0a6c53df10c23U,
  0xbe432aa9bedc5873U, 0xbc9ffc5a3cfa0340U, 0xbd8c9ea8bd520e2aU, 0xbdf2c692be107390U,
  0xbe43e12abdea1f69U, 0x3e40c825bdaa415bU, 0x3ea89261be48420eU, 0x3dfe34dabe2fc0c2U,
  0xbe8e71283d9d6421U, 0x3e1bb0aabdf90f31U, 0x3e42743f3da02a6fU, 0x3d9a172b3dd33b34U,
  0x3cdf8bf3be0441d0U, 0xbd83a3f53e19bc12U, 0xbe9a2f183d6df0a0U, 0x3ebd6449bd76ddb4U,
  0x3e5f469cbdc3d201U, 0x3d19d4fb3d8e85d4U, 0x3db823ccbdf073eaU, 0x3e67568c3db596f4U,
  0xbe450646bdfcb341U, 0x3e41cccc3e05e270U, 0x3e78a10c3d9fec4aU, 0xbdab65353e99502cU,
  0x3e95c0063e077798U, 0xbdccf6e5bdfd93b7U, 0xbc37da00bde12197U, 0x3d7401c23e5ea45cU,
  0xbe220aca3dbb3d8bU, 0x3e2fba8ebe3b7378U, 0xbd0f0c87bd73c839U, 0xbc414afebd87e756U,
  0xbe33140c3cf8460cU, 0x3e0219533da6cf8eU, 0x3f2c9c183f6badfaU, 0xbe977bbcbf4b8bbbU,
  0x3f336df5beaf6081U, 0xbe0f496d3e22b64aU, 0xbeed9f84be663055U, 0xbe0e9c493ec2059cU,
  0xbe096b453d90b17bU, 0x3d5b99c6bd67552eU, 0x3dd6df323ddb6c68U, 0xbd5b457e3cd13b16U,
  0x3e3bddce3dcbb2c0U, 0xbe29daf7bd94d735U, 0xbdbabba93c91d2a5U, 0x3dc24739bd84a2b4U,
  0x3bcd515c3cf5133eU, 0xbd235c0e3dfc5063U, 0xbdaaaf0fbda2daa4U, 0xbe87a60cbe486ffcU,
  0x3d777eb73bd52db0U, 0x3dac99fd3d59f1e9U, 0x3d56e8bc3e085d02U, 0xbde4e002be2074c9U,
  0xbc3c05fa3c878525U, 0xbeacd9b9bb31d1ceU, 0x3e7b25ef3e135c5cU, 0x3e06c8f23d7fab8cU,
  0xbe9f7a9cbd65d736U, 0xbdf27584be30276fU, 0x3e3284b83e58e70cU, 0xbd99b289bc72170bU,
  0x3e4782c73d503bb9U, 0x3d3567603e039a48U, 0xbc2d9d953c903449U, 0x3e33db3ebe04e798U,
  0xbdc2e8dd3d0891a4U, 0xbd29413e3e53f781U, 0x3d9c35cb3dba2028U, 0x3d62cbec3c30c75eU,
  0x3d90a4003d6385a1U, 0xbe09cfafbe6f0e3bU, 0x3de1b6a93e86572fU, 0x3e730499bd4efa87U,
  0xbe51c04cbdf51b4cU, 0xbe9df1b1be343e58U, 0x3e08282b3e17a1b3U, 0xbe37befb3d5218fbU,
  0xbd45a5673b355e73U, 0xbc344310bd5824dfU, 0xbd56a7f73d4d3c76U, 0x3d54c7b43c6e8483U,
  0xbde459a5bda21917U, 0x3ce06b7b3b9236d6U, 0xb9dcfbb3bd557c9bU, 0xbe4a1725bd12f664U,
  0xbd7bcee6bd95a626U, 0xbca67c8dbcdf2d37U, 0x3e1f5160bbc0d238U, 0xbde9a637bcd80314U,
  0xbdbc7a003d8ae7ccU, 0x3df732503e048111U, 0xbd8af651be6b7902U, 0xbdfe205abe343586U,
  0x3d0b0a803d90b632U, 0xbcff54433d14c124U, 0xbd8294c23c11ea0eU, 0xbd1d18cfbe2b2ac1U,
  0x3d94e1873e89f733U, 0x3d6172003d144b38U, 0xbb64f5883dfab438U, 0x3cda6bc33cc1ecd8U,
  0xbc821bb6bc799e12U, 0xbdbaa115bbedbaa7U, 0xbccfe05fbcf01e42U, 0xbebaf69f3dad19d3U,
  0x3b660378bfd761aeU, 0xbea2f2a73e0c1425U, 0xbd1227c3be121fb3U, 0x3cb86d0b3d870308U,
  0xbdc5c99f3ddb3fddU, 0xbe3184e13dce98d6U, 0x3d5d6510bee05598U, 0xbe3ddf30bd9566b5U,
  0xbe11b7f3bdcf7720U, 0xbcd5756abe06ba05U, 0x3e31fcb03d38a0d9U, 0x3cf5e798bd453e0bU,
  0x3d9c6a22bdabb83aU, 0xbda32a04bd16e655U, 0x3d89d840bdfd1362U, 0x3cc4ca493d0971b3U,
  0x3db3dee63e6182f6U, 0xbe16c6c1be269512U, 0x3bac8a7bbd6ee121U, 0x3da724ecbd41087eU,
  0xbd710778bdcb2052U, 0xbd57b38dbce4aec1U, 0x3dde8ef8bb99c3c3U, 0x3d9e5f29bd12d691U,
  0xbce1fdf73ccdfd16U, 0xbd9ea1553bad06d3U, 0xbc5e1861bc036d4dU, 0x3b26e9e13d8555cbU,
  0xbdd6c93dbd68e1c0U, 0x3d954819bd371bbaU, 0x3ded88eb3d84147eU, 0xbdd6bba53d1eee93U,
  0xbdf19c2b3d261b51U, 0x3b173b4bbc1385e1U, 0xbe0dad253c578e6dU, 0xbbc62e91bd2b559bU,
  0xbd18322dbda47927U, 0xbe069fa23d1a774bU, 0xbe1b2f903ced909bU, 0x3dd2e477bde381bfU,
  0x3d33882d3dbb1345U, 0xbd92f0c83e30f32fU, 0xbe4391493e0c97d0U, 0xbd66273abd9e346bU,
  0xbe3c9898be0d02c5U, 0xbd51a5f53da6f7c2U, 0xbd92bc7fbccc061cU, 0xbde3e8e7bdbbd950U,
  0x3bb686fe3d512e74U, 0xbddab9513cd573d3U, 0xbdb70c0e3d964909U, 0x3d43a4a3bcc65ac2U,
  0x3c0190ec3d0d5acbU, 0x3dd9e2793d7c08dfU, 0x3cb4ccf0bc3dc5e9U, 0xbce96f2ebb184fd7U,
  0xbdb0ccb4bd56433eU, 0xbdbbc4f5bdbce2e3U, 0xbd9633a1bc9c3524U, 0xbc83da533e5fa5f4U,
  0x3e0678473d3c3121U, 0x3cd69afcbde298a7U, 0x3d5ee7e1bbb555c9U, 0x3d0e3b49bdffa035U,
  0x3d85d01abdde3b5fU, 0x3cf921f53d4db366U, 0x3e4684a93c955a39U, 0xbe78b9573c8fe08dU,
  0x3e29e824bd3ac15dU, 0x3b0fbf8e3e0aa570U, 0xbc8b6fabbe15a868U, 0xbe07e40fbdf90ce6U,
  0x3fc32b5f3eb2d798U, 0xbe226496bf91617aU, 0xbe4f45adbf5ccfdfU, 0xbe0613ca3e84c7b6U,
  0x3c9370773e699219U, 0xbe490b00becc81d6U, 0x3f26e378be464678U, 0xbd4ae4a3bec664b5U,
  0x3eda2533bd4242a8U, 0xbdb366463e7384b9U, 0xbc532cd33cadeba3U, 0xbc855116bc85ad4fU,
  0x3d8e2a1bbdcdd419U, 0x3d33b1653de68149U, 0xbd2ec5c23da929e2U, 0x3d81132cbd5bfec0U,
  0x3e0b0581bd936d46U, 0xbda0603c3c122187U, 0xbc15551f3d81cf54U, 0xbdf6f21fbce52193U,
  0x3bc76e1dbd483af9U, 0x3ba4a1033ccc711fU, 0xbc299a39be1471c2U, 0xbc3a9132bd817872U,
  0x3d705b4abb809282U, 0xbd199e63bcde5594U, 0x3de8051dbc994974U, 0x3dc406cc3ce4a9bdU,
  0x3ce76f61bdb78fa3U, 0x3c939598bd0a02d6U, 0x3d971188bd2f352dU, 0xbadc3100bb952d41U,
  0xbdb771403cd42455U, 0xbe139e36bdbf2e9cU, 0x3cc00a23bd7de721U, 0xbd1b1d793e0b33e5U,
  0xbdec45573b31e039U, 0x3d1c3069bcfd6653U, 0xbd8395ec3caded99U, 0xbd7ab441bd0ddbf6U,
  0xbd540fad3c55fc78U, 0x3d246379bd90c734U, 0x3c78ab52bba676d7U, 0x3d55869c3d3a06e1U,
  0xbd5b834dbbe1afcdU, 0xbccbdb493db1cc14U, 0xbc3c8c53bccec75bU, 0xbcf7122abd007d61U,
  0xbaa45a353dcd6269U, 0x3d3aadfabe1014c2U, 0xbd7efc013c66ca57U, 0xbd38c9ae3e2b2284U,
  0x3b9637c63c9eedf3U, 0x3d1a0bb1bc6423f8U, 0xbd3d61133d58b418U, 0xb936b93ebb4a77bbU,
  0xbccac6853c92872bU, 0xbb8b2d9f3d2e1457U, 0xbd8cb3d1bd2fd5efU, 0x3bebefa03d5891acU,
  0x3b57cb253d4fd7ebU, 0x3d48f07e3daefedaU, 0xbdb7ffae3d9c1274U, 0xbdf004fc3d33f57eU,
  0xbcfa6ff63db99980U, 0xbd394756bd91b593U, 0xbd43e0613e11d2feU, 0xbce948853d912ba4U,
  0xbd9361573dda7256U, 0xbbf409563d3d64a4U, 0xbc2fb60e3d347bd6U, 0x3e007d60bcee11b8U,
  0xbd1dd38abca050eaU, 0x3f47c6903fe512e2U, 0xbe12fa3cbf8f2560U, 0x3e31259dbe2df4c2U,
  0xbe776b12be2891f1U, 0xbedf7f4b3b68757fU, 0xbe468d2c3e015f93U, 0xbd5222d83eee4f01U,
  0xbc94e85abda2e794U, 0x3dae41ba3d640aecU, 0xbe2651e7bdef56deU, 0xbd01611c3e8ab369U,
  0x3dbe9cc83d1e09efU, 0xbdcde142be44e910U, 0x3c6d16203e219e62U, 0x3d8903623aa10a25U,
  0x3debb2263ca16580U, 0x3d8cb257bce2e89aU, 0xbdabb2883ddaa59aU, 0x3d790c303e064209U,
  0xbd5d2b6abdd57eaeU, 0x3d06f77ebd424416U, 0x3e4359fd3b1a8cb4U, 0x3d2013c6bcc80c7dU,
  0x3d928b0c3d6028e3U, 0x3d97c550bc47024aU, 0xbe5b350239afe363U, 0xbd59c7f13c108b61U,
  0x3dea2796bd85c948U, 0xbe26140abdbd6d6eU, 0x3ae8b0afbe30b8faU, 0x3d58fa56be02d010U,
  0xbdb03de2bd49889dU, 0x3b0be54cbd4f0f2dU, 0xbd1248863cf396b9U, 0x3d37351fbd36c31aU,
  0x3c91cda13e739c47U, 0xbd8d7dbe3d6b96b1U, 0x3dc93634be135a03U, 0x3d8647bebda91cb3U,
  0x3e0c1691bc82ff0aU, 0xbd07a9ddbd8f1fd7U, 0xbc7253ae3dc57b55U, 0xbd60c70dbd334b9dU,
  0x3e3050763d84a790U, 0x3c6fe4883d6d8ea5U, 0x3d7094d03d3b6e17U, 0xbd811d15bcbbcda3U,
  0xbe708859be099ed0U, 0xbda59a8f3df7c0fbU, 0x3e683a433ba6ec41U, 0xbd96e8463d767351U,
  0x3c054d553dc3c448U, 0x3d95be373e117ea7U, 0x3e0b37bdbbb1791aU, 0x3d7b38453d808b77U,
  0x3d75fc8cbbc48092U, 0x3de38b6abdf6c52bU, 0x3c92f2633da7eae7U, 0x3da5333cbdbe3d7dU,
  0x3e07e6f33d8164e1U, 0x3d6bd3ae3c8bb3abU, 0xbdaff54e3e443b44U, 0x3e03ad0ebdaba580U,
  0x3da3a7bc3d651325U, 0xbd35d0503d394279U, 0x3e0a44c53d7c04e9U, 0xbe08a8cfbe10e9a0U,
  0x3ca7eed7bdaa8fc9U, 0x3c5f5d823d8218b7U, 0x3e272aadbd0dfb25U, 0xbcbce334bd0b95deU,
  0xbbf66226bc0a81d6U, 0xbd89eac43dfb289eU, 0x3f785c883e670b39U, 0xbdbc1ffbbf3d9aeaU,
  0x3fad3a303dbc8541U, 0xbe9b484dbe286b42U, 0xbf504a863f3a900dU, 0xbd7eb6dcbf0cd605U,
  0x3ecc95e63eb592d4U, 0xbdccc74abf32c4dfU, 0xbeb5ece43e96cb7bU, 0x3ddd3a9b3e2ab53dU,
  0x3dde2974be84ee0cU, 0xbd4849ef3d222c99U, 0x3cefaf5a3dd5d69aU, 0x3e05a1e93e418f4fU,
  0x3e1fbb6c3dcd3cefU, 0xbcdb64393da08378U, 0x3df53ab33c162f7cU, 0xbbdef192be7bc90dU,
  0x3dba5ceabdce7bc3U, 0xbe3137983d73894bU, 0xbd144e823e1ed020U, 0x3e858c0abd0ffd83U,
  0xbe65bba2bb1f42d2U, 0x3cb52857bcd73c26U, 0xbde991df3c47713aU, 0x3da045af3e8814eeU,
  0xbe473698bd6b647aU, 0x3e18922a382cdac7U, 0x3db5eff73caf0428U, 0xbdf3858f3e0c4cf3U,
  0x3d82461bbda0e73dU, 0xbb65299bbd27fe22U, 0xbd9801c5bc09aef5U, 0xbd8b8b3d3cb11140U,
  0x3c95dc37be1b0bc1U, 0xbcafb0853d66c988U, 0x3da10fb8be482326U, 0x3e061ccd3e6632a5U,
  0xbe35483a3e8a474eU, 0x3e0dbe9c3ed14945U, 0x3e10d09c3d2d9216U, 0x3dbc064dbcce42e7U,
  0xbe5335273dd51ed4U, 0xbcd794eabe4e415cU, 0x3dbd30213e52ba38U, 0xbd96fd01bb1aad1dU,
  0xbdf2bafebd90a4abU, 0x3e6579dd3e05727aU, 0x3db5e2b4bd12e5c2U, 0x3e7c3c41bcbcd46bU,
  0xbdfb9773bdeb1fe0U, 0xbe4be79e3d70ccffU, 0xbd920b04be1f01d3U, 0x3d8468913e45f68aU,
  0x3dc5a8503d81cc16U, 0xbd8f6e6d3d0423bbU, 0xbcd6d412be22467eU, 0x3da7bb393e38669aU,
  0x3e0f3f203cc252d5U, 0x3e3e99fe3def4ed4U, 0xbc7dab2dbd28c800U, 0x3d466912be08b8c5U,
  0xbdd5d9e63d14a0d5U, 0x3cd7cc6ebdc058fbU, 0x3d52665c3c636837U, 0xbc94a0303d3f5bd4U,
  0xbe3436223dc4af71U, 0x3d4fb3d83e8c1207U, 0x3d12613abd26d4beU, 0x3e09efb73e8167d5U,
  0x3c0e040dbd3b97ceU, 0xbe2beb363dbff054U, 0x3e395de2bde24739U, 0x3fa80ddf3f438f58U,
  0x3e02bbc83fb2496eU, 0xbdab0d203f4e5e71U, 0x3e15e40dbf1c074cU, 0x3b216877bea27aaeU,
  0x3d0eed173deae68aU, 0x3ebfb2f23e1870c3U, 0xbd8b88443f692760U, 0xbe849c7fbd1d243cU,
  0xbe80c5213d8b96f6U, 0x3d96946c3d0e792cU, 0x3e4a9ff3bdd3d989U, 0x3d0a44da3daef55cU,
