/**
  ******************************************************************************
  * @file    network_data.c
  * @author  AST Embedded Analytics Research Platform
  * @date    2025-05-06T17:11:34+0200
  * @brief   AI Tool Automatic Code Generator for Embedded NN computing
  ******************************************************************************
  * Copyright (c) 2025 STMicroelectronics.
  * All rights reserved.
  *
  * This software is licensed under terms that can be found in the LICENSE file
  * in the root directory of this software component.
  * If no LICENSE file comes with this software, it is provided AS-IS.
  ******************************************************************************
  */

#include "network_data.h"
STAI_ALIGNED(8)
const uint64_t g_network_weights_array[2626] = {
  0xbdc54f13bd2956ceU, 0xbf0c79ce3d82355aU, 0xbd444b56bec27dd9U, 0x3d8134b1be34cb24U,
  0x3d2752d83e57f1f7U, 0x3ca2dd80be0a5804U, 0xbf0176543e95f259U, 0xbe8c16d03d4487b8U,
  0xbe1165563e549f3fU, 0xbe7e014e3c89209dU, 0x3e082e19be067795U, 0xbf3ce66b3effe4c8U,
  0x3e1c56933ba9892fU, 0xbe1348e0be3a5cddU, 0xbc38b63c3e1bc789U, 0x3e223f17be8aa948U,
  0x3ca3138e3e8933b2U, 0xbd7e5e5ebe6c0b68U, 0x3eb53ab13e15b240U, 0xbdd58f703e17c196U,
  0xbcda3a40bcb13cfeU, 0x3e7bacc53e8e9706U, 0xbc0a205d3eab5cf6U, 0xbd23f0c7bf80f9f3U,
  0x3d735ab5bd9c2d05U, 0x3e0c569dbe3dfaf4U, 0x3e6311a63e727fbcU, 0xbe2ee39a3cec7aadU,
  0xbe26d5983e2dc7dbU, 0x3e09af44bd8a2574U, 0x3c026602bdc1fd29U, 0xbd385e76bdde2adaU,
  0xbe83c836be8a3845U, 0x3d5504e3be379838U, 0x3e4b95933e1b6b45U, 0x3df6dc34be0bd089U,
  0xbd58eb6cbd1302f7U, 0x3bedd6f4bd754570U, 0xbd289ff73d1eeaaeU, 0xbdb5ab82be0e8959U,
  0x3e800d793e988686U, 0x3e6c99303e03224cU, 0x3d0db07f3dd2e73bU, 0x3940fbb13dd2f235U,
  0xbe815cb23effb2c3U, 0x3e9463303e1122ceU, 0x3eb62e1d3e27a78aU, 0xbf4d981e3d1bdd30U,
  0x3dffb133bcbba5fbU, 0x3db8e9e03ce4baf6U, 0x3ec66b85bc94cfecU, 0xbe5962a5be53ba33U,
  0xbec2a6a13e1d9a4dU, 0xbe106b983d96f2e3U, 0x3e183c833d3a7129U, 0xbecf29453c2d1f1aU,
  0x3e3518433e15eb54U, 0x3e1acc4b3d2a16aaU, 0xbe4a1b703e2384ffU, 0xbe0063803e7867e6U,
  0xbf28b89fbe4179a0U, 0x3e42e20ebe4d8cd4U, 0xbd003b25be09f12bU, 0xbebb759cbe865939U,
  0x3f0ab27e3e1a6767U, 0x3f0d0a8b3f654b64U, 0xbd24798bbcb85842U, 0xbf247b8ebd82b794U,
  0x3e8f0ce8be4c67f9U, 0x3e9476553d95a38aU, 0xbe06c3f63d903effU, 0xbe79083f3d1f98f8U,
  0xbef58ec93e19c5dbU, 0x3f343d483de4824cU, 0xbe1f486f3e704f61U, 0xbe0d4aad3ea5d3adU,
  0xbe14ae233e0ad02aU, 0x3e9340103e6ec11dU, 0x3dacb4233c0222c4U, 0xbd02083f3dc1fcf0U,
  0xbc32d3993d79c759U, 0x3e95a046be0de718U, 0xbb7365f3bd0e8967U, 0xbe068bf6be040e55U,
  0x3d42a48bbda02e85U, 0x3e79de8f3e585ccdU, 0xbd5e7e883e23cee7U, 0x3d957155bd061599U,
  0x3e3f5e2e3d3fb33dU, 0xbe8e2875bd9087f9U, 0xbd2c1a35bf0c7a1bU, 0x3e7d44c6be213a7cU,
  0xbd6fcb65bece8fd0U, 0xbe4c82a4bee8203cU, 0x3f54f2dfbdcaa366U, 0x3eecd6c13ef59c6dU,
  0x3e2417a93c960889U, 0xbd5065aabdd9edbeU, 0xbb84d0b83f15dad9U, 0xbe6f35fb3e65ecfdU,
  0xbdd3fb0c3e10f19eU, 0x3e0dc40d3d61a3deU, 0x3e857944bc314345U, 0xbef2ea68bd8bc595U,
  0x3d7069a3be6e52b8U, 0x3e8f4d06beb9f353U, 0x3f015a91be2124d9U, 0x3eec8577bedaa3feU,
  0x3e8140623e6e90a8U, 0x3ea8a093bd756e38U, 0x3dcc22bf3d1ef60fU, 0xbed0228c3e95561bU,
  0xbd6691193e4ef07aU, 0xbe1917c9bdf177baU, 0xbeab38653ea91523U, 0x3f1bc8bc3da37f8bU,
  0x3e14926e3ee6aaaaU, 0xbe0bf1f63e6ec4e8U, 0xbe8ef899bd93a700U, 0x3d5662e83d8b8a46U,
  0x3e47c6acbd9d55efU, 0x3e8bee9cbe8e66f0U, 0x3dbfcf573e228dfeU, 0xbdc1117e3df86fe8U,
  0xbdcc1a61bc98fff1U, 0x3ef5e71e3ea6c37bU, 0xbda8bc503dbd786fU, 0xbd85c6353e4788b2U,
  0x3d80fc5bbe65ae45U, 0xbde608c23e92ba21U, 0x3d98edc8bd5a8255U, 0xbe8b2862bdddd483U,
  0x3e0c84d8be316043U, 0x3eaf0667bd237dc8U, 0xbe2d05cdbe485db9U, 0xbe760ef7bd2e6dafU,
  0x3e96afb4be42436bU, 0x3ee2cccc3edacbbdU, 0x3e66cb64bbe5d546U, 0x3e7e2ec33eaf7cd7U,
  0xbe51c3a13c54f0e8U, 0xbe310942bd1dc1f8U, 0xbd410c513dbc159eU, 0xbe9339c73e2d4580U,
  0xbd566c14bdccbffaU, 0x3eab23cb3d088acdU, 0xbdc06f2cbe9054dcU, 0xbe50fc0fbd858fb9U,
  0x3e6c1ac23dbe06d0U, 0xbeaaa1debe78a8ceU, 0xbeafb4463f18bab0U, 0xbe962ecd3e4c08b0U,
  0xbdb203c13ece9227U, 0xbeba35c23e30c123U, 0xbf11b79abd28fb76U, 0xbda0d49a3e2492ccU,
  0xbe861a77becd9b00U, 0xbe011dd63e018469U, 0x3c2af52fbe9f040dU, 0xbdc3907abebf3f0bU,
  0x3e23fd5cbe08555fU, 0xbe279b43be0a5adcU, 0xbe3237763ed67257U, 0x3d29418cbe63ac9fU,
  0x3d7ee87d3d81ae05U, 0xbe4bab803e3822f7U, 0x3d94d8afbe20840dU, 0xbc3f0053be2557e5U,
  0x3f7139263e486568U, 0x3e022797be64bd51U, 0xbb3a0d5f3d1273bcU, 0x3ea4d9d53e3a81f7U,
  0xbde2fbbcbdba3f80U, 0xbe17ba48be4a460aU, 0x3f1583793f0e93bdU, 0x3d082ac83ea0da3cU,
  0xbe0fe6dfbd15c666U, 0x3e717a8a3ea90f7bU, 0xbd5c5a833d0c58bcU, 0x3cb5d07bbe3a1296U,
  0xbc7c1e1cbdb6b150U, 0x3d6e1718be83efd1U, 0x3e558665bcd87970U, 0x3e8a055d3e7ad7a7U,
  0xbe76a03bbe1e728cU, 0x3ea9a2f73e056c28U, 0x3baa7b44bdac4c99U, 0x3cb0e3c9bf0a9d91U,
  0xbe2522fcbdd5bc14U, 0xbe369eeebe2328f1U, 0x3e8c0c5ebd9b2fa4U, 0x3ee4c3153d8e9c43U,
  0xbd35e5f8bd518a67U, 0xbd8aab1ebca5a315U, 0xbe5e42033e36a614U, 0x3edfc5f13ea07db4U,
  0xbd2aa7833d339a08U, 0x3e83835a3e417436U, 0x3e07a215bded2addU, 0x3f0087813d3da956U,
  0x3ec08248be3bc0f0U, 0xbe121b6d3e33aa06U, 0xbeaf5bb83df3332fU, 0xbe2236cabdc7b540U,
  0xbc9feb99bcd94684U, 0x3edee0073d61d312U, 0xbd2ab8b5bf011b77U, 0xbe63dae03d678c82U,
  0x3e8eaa6fbb0e2596U, 0xbeb97fd0bec9aeb0U, 0x3ce9c9c4bd3c6061U, 0x3d506829be5aaa5eU,
  0x3e8735a9bed895eaU, 0x3ddb8318be9dd2e3U, 0x3d9ff0ddbd7094baU, 0x3e5006763a054202U,
  0xbdc1b503bd762f6aU, 0x3dbf9411bda80a9dU, 0xbe5329c1be25a6f3U, 0xbdbef5c93dc7fdcfU,
  0x3e7f5352be22933dU, 0x3dcf06ffbcba69d5U, 0x3d805b4ebda81140U, 0x3eece6263dcf4848U,
  0x3eac1d96be4fce89U, 0xbbe507d13e322615U, 0x3eecc4af3d5a11efU, 0xbe8763463ef3e760U,
  0x3ca66844bc9f8920U, 0xbece57babdb4a6f6U, 0xbe728fb43e045ac8U, 0xbb0f9fc93d79f9f4U,
  0x3df713ec3e4c1307U, 0x3e6adc1cbdb0d8faU, 0x3d7b9923be6fd223U, 0xbede9f42be0e72b9U,
  0x3e00ef793f3eddc4U, 0x3e5f70563ea8996dU, 0xbcbd8dac3e7d8133U, 0xbd7e1b1b3dfbb92dU,
  0x3ea1950e3efd4d81U, 0x3dcd401bbecd307bU, 0xbe1192de3dc39df2U, 0xbd68cd883e316b5cU,
  0xbc9685aabdf58f5cU, 0x3f053a223f77f520U, 0x3e7d93d9bd5d687fU, 0x3f01fd8f3a4a7e84U,
  0xbe50c233bf029410U, 0xbe3318723d3951cdU, 0xbbafb2fa3e9aefaaU, 0x3d81bfbf3e1bcabdU,
  0x3e0f4b6b3ebc79b5U, 0x3e598e793d7d4675U, 0x3e1a75283d9b8564U, 0xbe20c7fa3db3bc69U,
  0xbf732677bd645b23U, 0xbe6d8477bed215abU, 0x3c71c23f3da31987U, 0xbd70bba63d1db155U,
  0xbd0787753d2de4eaU, 0x3eb7a08f3e457445U, 0xbe4d351f3d989c7bU, 0x3dfb92483c43d692U,
  0x3d714bd1bd3179a2U, 0xbe847658bded8514U, 0x3da5d0ea3e1196c6U, 0xbd465cf4bdc9a907U,
  0xbea96a23be2d6ac9U, 0xbd57d7e93e2049f0U, 0x3e8ace163cb523bfU, 0xbd51231bbd5925d6U,
  0xbdadd1d0bf22b322U, 0xbd7a9f00bc9437d8U, 0xbeebedb83deb2d6bU, 0xbf0cf47e3e002829U,
  0xbd91b1e3bccfcc91U, 0xbee0d5233e2139bdU, 0xbe2989713ea14021U, 0x3ee3c6d2bdcc2b90U,
  0x3e93bda93d3dcedbU, 0x3e29fd18be640ccdU, 0x3f1a01b0bedf1ef6U, 0xbd92ac4cbdc04d02U,
  0xbd7cb39c3d273935U, 0x3ebb5a7ebedf65f9U, 0x3ef694ec3eef156eU, 0xbe6be5e6bea71533U,
  0xbca88a0dbafec30aU, 0xbd513a96bd59578cU, 0x3e1503093d7acd1cU, 0x3e034e9fbecb1db2U,
  0x3e88a2593d9301c3U, 0x3e582955bd9c4edcU, 0xbd0d01393dc6d9bdU, 0xbead21103d603b7aU,
  0xbc987a4c3e2226bcU, 0x3e4ea6303dc17da4U, 0x3e0ec5bfbd677cc5U, 0x3d7370e5bd604998U,
  0xbe92da283ea001aaU, 0x3d063e22bd9d522dU, 0x3ddb67e73da74f0aU, 0xbcd290aa3d9dbc0fU,
  0xbf77875a3e010c64U, 0xbe818cb93f6bbc81U, 0x3d3bf6aa3e9249e4U, 0x3ecda91cbe84111cU,
  0xbf0332c13e0254c8U, 0xbe3a08fa3da132c0U, 0xbb6311233d8ca207U, 0x3e136f95bd61da02U,
  0xbbb3cfe7bdfad94cU, 0xbf49aababd9af653U, 0xbdb63377bf1252c2U, 0x3dc5d573bd70f1bfU,
  0xbdb50bc33e752d86U, 0xbdf9e70d3e25765cU, 0xbca8d9cb3d8f30b1U, 0xbcea882cbe5f7d55U,
  0x3db1b705bb8b5f14U, 0x3e0253b5be101fa5U, 0xbe2e4c30bdd7f4acU, 0x3e23491ebc10f9f8U,
  0x3ecab5313da29294U, 0xbea29c16bde5a030U, 0x3e2bf5b53db4abb8U, 0x3e8834fb3ed0542aU,
  0xbecc52b1bd08fe07U, 0x3ebee72fbefb188aU, 0xbe8a68e8be7c2304U, 0x3c1d04c43c922336U,
  0xbe9a713f3ec90b80U, 0x3e1a839e3e655fe4U, 0x3e5a26993e45d823U, 0xbe08c99ebab1f552U,
  0xbe88e971bcf60b80U, 0xbe88f4b93ef2a658U, 0x3d69cf48bdfaae57U, 0x3ea3d51e3dcf1676U,
  0x3dadd97b3d92e46aU, 0xbf32e04d3f4429c3U, 0x3e18112a3e96a19dU, 0x3eb1b131be04a6e0U,
  0xbecec0fabe1ea417U, 0xbdbc87653e175094U, 0xbdc4059abdc03a76U, 0x3c441313bdde0847U,
  0xbea1ac72bdf2e5d4U, 0x3f0535b13cd299d5U, 0xbe575c1cbf0335eaU, 0xbeb28142be0120bbU,
  0xbda6d2843d7dcfcfU, 0xbaf882db3d3f9c88U, 0xbeb187873eb98bcbU, 0x3ebd036c3b8bbce1U,
  0x3eb3b55dbe1d8ee2U, 0xbe4ca542bdf973dcU, 0xbcca25af3e28b88cU, 0x3debcf693dd29124U,
  0xbd6ce16ebd13e409U, 0xbe1e86d2bd9d259aU, 0xbe466e793ec2fe38U, 0x3d849fcd3f01240bU,
  0xbe373fac3d3f2d50U, 0x3e93392b3e156394U, 0x3da8dcbb3dbedc5aU, 0xbecbbd8d3e764143U,
  0xbe04df133e4b6eedU, 0xbce489bd3dacf25eU, 0x3e166fed3cd5f503U, 0xbe24c5eebd63a4e4U,
  0x3d4fdc85bd249fceU, 0xbee792023e4e1b2bU, 0xbe81a9cd3ec5d9f7U, 0x3e007796bd8c2381U,
  0x3df58f14bc65f04fU, 0xbe490e533df51e06U, 0x3d70284bbe2d2987U, 0x3da009243e69e802U,
  0xbc2fbc683e693a22U, 0x3e51e90c3e2e6761U, 0xbdd4a7f83e241b77U, 0xbe0736063d9566a3U,
  0xbe917c2b3d90dfb2U, 0xbe1108d43daa66f3U, 0x3d919a353e0a9fc1U, 0x3d69294e3e38760bU,
  0xba9c72903e119d70U, 0xbda13330bdb6e2f6U, 0xbda4a4703e158e47U, 0xbcfdc96e3d2e2258U,
  0xbe5959b63d6971afU, 0x3cdc6a333e24f00bU, 0xbd12f34bbc17af3dU, 0x3ddb442d39fb5e17U,
  0x3db9ec893deb987fU, 0xbdf324e2bdf0c0eaU, 0xbe332720bea31a97U, 0x3c81203bbe3ef13fU,
  0x3e0099fabdb2bab4U, 0xbdbe3b313bc1a0b4U, 0xbd4b1769bd6fcda3U, 0xbda5f2283db6bf7fU,
  0x3e600e98be3e20beU, 0xbd6aabfcbe0bb80dU, 0xbdf21a61bddad20fU, 0xbee89b77bd1db0beU,
  0xbdee9d363d57dbb6U, 0x3d73bcb3be9f5113U, 0xbd608c07be398c8bU, 0xbdd2b60dbe81d4e5U,
  0x3d393ca7bd45ab6cU, 0x3e651c7a3e4c7abcU, 0xbd384865bd8da576U, 0x3d408667bd5b3a75U,
  0xbdb93b103da4c370U, 0xbdf921b33c653e31U, 0xbdb5c35e3cd2510bU, 0xbe6ffd723dbf76ecU,
  0x3d8f1633bcd6a4bdU, 0xbdd1210b3d20bbc6U, 0x3d12180a3df0d93eU, 0x3d22f69f3d07916cU,
  0x3cb38fdebe03ff14U, 0x3e125e1d3c848c0fU, 0x3dfec465bd8b833bU, 0xbe31d6c7bd06bee4U,
  0x3dc1062cbcd87332U, 0x3e814c24be5a2b4fU, 0xbd998eb5be0bd2b6U, 0x3d7adbf03aa4fd6dU,
  0xbe0af83fbe36bd46U, 0x3dcde78dbd40efa1U, 0x3be9b9b43d343446U, 0xbd64ad343dac8ea3U,
  0xbbf0f8473db90a4fU, 0xbdbdbaffbcfe1804U, 0x3d2ee8a63d4a371dU, 0x3c9e0955bd35065dU,
  0x3dffad243dee93c8U, 0xbbca045b3e01210eU, 0xbdae856bbe0e6548U, 0xbdc38da5bb4cb12eU,
  0xbe155a95be4c4079U, 0x3e0b3dd4bb754b47U, 0x3e3e0b493d941bdbU, 0xbe24a9203d9a9f26U,
  0xbe7fe469be1c5c2aU, 0xbf79a672bd9d8fbbU, 0x3d31883fbd511a7eU, 0xbe5328dfbdcc9530U,
  0xbdae6da13c28e403U, 0xbd6c3137bf0bc061U, 0xbe0059c73bb04b3cU, 0xbef908e7bda46f0bU,
  0xbec0824b3dde52bcU, 0x3e42ae61bdda323fU, 0x3caa874d3c8b644aU, 0xbddca9c73ccb7389U,
  0x3d1d2b84bbccf2dfU, 0xbdd4e83fbe4aa616U, 0xbe949690becfd3c4U, 0x3d3eea8bbc768fbeU,
  0xbb8ed2abbd031e40U, 0x3c0545e0bdc5ac68U, 0xbdd269043d91953aU, 0xbd61fbabbd93a3edU,
  0xbd64153bbcc8bd28U, 0xbe06c98cbf339e0bU, 0xbe25addc3e15710aU, 0xbf499d45be4739fdU,
  0x3c1c7a74bd9be581U, 0xbd1f77c5bed40974U, 0xbcc1899abbde51b9U, 0xbe3d2311bed6107cU,
  0xbdad0527bec67029U, 0x3d3f3b643d94881eU, 0x3d55914e3e45819bU, 0xbe0adbb3bdadcb1aU,
  0xbd83a2b93e3acd24U, 0xbd1678a2be1679e8U, 0x3d7617c13de540a4U, 0x3dd7c9d23d130998U,
  0xbdcc977f3ddd676dU, 0x3e0521033e4e9213U, 0x3a23e574bbcac1e0U, 0x3e92c6b3bdc9cdd7U,
  0x3d610d283d33d267U, 0xbd5a2f343e6035a8U, 0x3c7c38fabd119686U, 0xbd83e66dbd60ae04U,
  0x3cdaae9abe059ffbU, 0xbc7427f63d0286feU, 0x3c9860fe3dfed538U, 0xbdda12a13e629bb1U,
  0x3ca4ac6e3e0a9b1eU, 0xbe0a5b89bdabb381U, 0xbdeedc6d3d1cb5efU, 0xbd5154fdbd6ed590U,
  0x3dbd82fb3dcb3216U, 0x3da613033d339531U, 0xbdc7f4253d85266bU, 0xbc8ce0f93df9e2d9U,
  0xbddbdf713c5de8c6U, 0xbdce94ce3c0e3304U, 0xbe006074bdaa02e4U, 0x3db88e103df10020U,
  0x3e6f6d66bd551868U, 0x3cebe3273c1da0f2U, 0xbd97863bbd7e17eeU, 0x3db940b7bcae18a5U,
  0xbe265ded3c811fb5U, 0xbc9f76873d9e874dU, 0x3d8e7e24be00b386U, 0xbddca8613e099395U,
  0x3df84f2a3d9b3044U, 0x3d03e598bdb8e22aU, 0xbd61e3be3db1d6f5U, 0x3c23c1623df22a54U,
  0xbd2f1971bd23a815U, 0xbdc3e6663d9202cdU, 0xbc99c2e13ce7b901U, 0xbd7994db3dc9f312U,
  0xbc9107d73db9e4d9U, 0x3d511f0fbe1230d5U, 0xbb2c6563bc7bb408U, 0xbdeab8d2bdec677bU,
  0x3e017a94bd9f291eU, 0x3e10d9133e0185efU, 0xbe19feac3d9bd149U, 0x3d40f1573d861f6fU,
  0xbd877cbdbe00144aU, 0xbd5f4dc4be09581fU, 0x3d2610733d096c4aU, 0xbd7d30633ce6a192U,
  0x3da670013d0d235fU, 0x3da090643e299bc2U, 0x3e30e9c3bd7b7c5eU, 0x3cd6afbfbdbea033U,
  0x3ca13eb23d20524bU, 0xbb904d56bde1f1f0U, 0x3d3197653c9b9fd6U, 0x3dd3dd1b3dbf14afU,
  0xbd4cfee5bd1f7371U, 0x3d1f2dfebdcf1880U, 0xbd17f4453dad07eeU, 0x3dc06602b9a5d1a1U,
  0x3a4af9523c80bcaaU, 0x3e087040bc2fe5b8U, 0xbc53ca8cbdf99246U, 0xbdaeebaa3c2cff83U,
  0x3c825b4cbd99a105U, 0xbbee2bbdbdf23b14U, 0xbdf93b7dbdd804e7U, 0x3dee11283d85cc96U,
  0xbd808738bc937b46U, 0x3da469fdbcac606cU, 0xbdc381b3bcfa0810U, 0xbd960b5f3df36fb0U,
  0xbd31835bbca8c1cfU, 0x3dff62d23ce74eafU, 0x3df95940bd841707U, 0xbca5c2e33dc5b8ecU,
  0xbc2d9a983d3b97b7U, 0xbd58385e3e561f7cU, 0xbc14972cbd4499b2U, 0xbd409efa3da47e37U,
  0x3d59352f3d59f949U, 0x3e135e09be0c0266U, 0xbd366430bd96ec7bU, 0x3c82493fbd93473bU,
  0x3dbd11943d83b8e7U, 0xbcc4694b3cfbc040U, 0x3b8f25b53d0d236fU, 0x3d82a1913cb7d552U,
  0x3d9938453e23ff5dU, 0xbde574473d8ffb3dU, 0xbd7a0a793dd3405fU, 0x3c8c8e1e3d6eba17U,
  0x3df07005bda79b82U, 0x3ca9e7aa3db47b9fU, 0x3d524ce63a46a7bbU, 0x3e6f394d3d264867U,
  0x3e2a5e113d8d84ebU, 0x3ca3970a3dce5ebfU, 0xbdbf55bcbd439593U, 0xbda5f49c3ca6c08bU,
  0x3e1412bf3d77b668U, 0x3d40f7563dc354f6U, 0x3e0971973e2a6a8dU, 0x3ca271f6bc9d53b7U,
  0xbdb1a923bde90dacU, 0x3ae5a877be0a9564U, 0x3e7adbf93d43d414U, 0x3d8804583db245fbU,
  0xbe11ae2abdcdfd30U, 0xbda88f45be63934cU, 0xbc62c418be0a1f52U, 0xbda6a879bc817f64U,
  0xbc2e09233e0f0dceU, 0x3db40dd2bcf0088fU, 0x3def58903d411b0fU, 0x3e6820b83d023e3dU,
  0xbc94003e3d74ac2eU, 0x3e2db2f43dd664ffU, 0xbd60aa013ce219dfU, 0x3d293f403cc9ffd2U,
  0x3d593062bddd1382U, 0x3ba1fa29bd973c56U, 0xbd8e070fbe1db582U, 0x3c94e3433d4c7c7dU,
  0xbb7e6ec4bda3fde4U, 0x3c4b1877bdf435beU, 0xbc63bf9a3e22d2b3U, 0xbe272d93bd244b25U,
  0x3c1dbb323d9edf07U, 0xbdbcc134bdcdfa80U, 0xbda6f6763cf80d71U, 0x3d972c343e229f61U,
  0xbd7440cbbcc2eacfU, 0x3d359c2a3d13f9bbU, 0xbe0541e1be1b4c92U, 0xbd1edc46bd11066fU,
  0x3d02b929bde595faU, 0x3ce625c8bd9916aeU, 0xbde9e7383dc55fecU, 0xbad444a7bd035039U,
  0xbde8d7903e055f79U, 0xbd1844acbd8fe0d7U, 0x3cb8ab5cbddf3b24U, 0x3e0de10bbe333d9fU,
  0x3d0adf7d3ce9ff22U, 0xbce6707abd8170feU, 0xbda3e0353cb82e67U, 0xbd0407ef3e02946dU,
  0xbbdea88d3df8cf2dU, 0x3dc852b1bc7f24b5U, 0x3b0af102bd14581eU, 0xbdfeeffabcb9931bU,
  0x3de9e0b53cce4f85U, 0x3c1fadd3bd8e9a06U, 0xbd0efc30bd0d2a37U, 0xbe00f28f3c1be7baU,
  0xbc2247cbbdb8467cU, 0x3df3863fbd3fe2d2U, 0xbe01d3d73d24dc5cU, 0xbe5d25583ca43919U,
  0xbc75fcdebbdc4972U, 0xbcf3e7b2be2357ebU, 0xbe0b491f3d840479U, 0xbd9a445fbdf534e3U,
  0xbd46a8f6bd995be3U, 0x3d84902fbe038ac4U, 0xbba6d12a3d0d775bU, 0x3ddc94923c451118U,
  0xbe05cec83cb4bbcdU, 0xbd58871fbe94b04eU, 0xbd81f2633d5b7965U, 0x3e6300e33de057e3U,
  0xbdceb51d3dd94304U, 0x3dae5745bde66b37U, 0xbe217f233dc50341U, 0xbc91bfb03de9460aU,
  0xbc8cb9ae3ddf4e4dU, 0x3dc865b43c99cc2cU, 0x3e2913493e016b7fU, 0x3e0e59e53e8e890eU,
  0xbd33f606bdc1b3fbU, 0xbd00461cbe45de53U, 0xbe1f5c113e2ff96dU, 0x3d9b7df93d87da3fU,
  0x3e48c7b53df6fda2U, 0x3e5047adbc681165U, 0x3dca965a3d64924cU, 0x3e9649a33dfa3b3aU,
  0x3cc78e28bc476a80U, 0x3e0a98e43d86c53eU, 0x3b96a1a5bd268cb2U, 0xbbd6092bbac8f124U,
  0x3bc525a83d4f3f03U, 0xbdbab397be30f6baU, 0xbbfdf613be504009U, 0x3d7f18cfbd19cb6dU,
  0x3c0f95593d646f96U, 0x3d5f81063d525186U, 0x3d47b8693c3aa609U, 0x3c8bc4ebbd99d54cU,
  0xbe18675c3da2e094U, 0xbe046605bda8689aU, 0x3c9ad4b7bd13b098U, 0x3e891ab93dbac098U,
  0xbe2fc9ca3e65dfc0U, 0xbdc38c99be369817U, 0xbe1be30e3d5eee15U, 0x3dbd6ebf3dc49806U,
  0x3d362472bdb06a3fU, 0x3d9ca453bd1736feU, 0xbe630ff0bcc711daU, 0x3e3ff7103cdaee31U,
  0x3d52186f3e0025f5U, 0xbe7672c7be3a6406U, 0x3b58f19c3d2cdd30U, 0x3d7a00d53e786cd1U,
  0x3db924af3d9333c0U, 0x3cb16f8bbe33276fU, 0xbccd1c57bcae3f5bU, 0xbdc299c4bc650445U,
  0x3cc86ea0bc9a93fdU, 0xb97b9623be984d90U, 0xbdf33052bdee0893U, 0xbe35685abcefef8eU,
  0xbe83cc30bd1f3481U, 0x3c72c3b93bbfabfbU, 0xbcd88ef3be08d9bcU, 0x3d599da43dd11dedU,
  0x3da034713e0ccf0aU, 0x3d4b895cbcdfceeaU, 0x3d08b0a8bdcda92cU, 0xbc64204ebd834c42U,
  0x3cd5e36dbe287480U, 0xbe038956bd3e0ac4U, 0x3d43b2ab3d87124fU, 0xbae01fffbd7ead59U,
  0xbdbf0dfebe3b7478U, 0xbe3b7630bcbf8494U, 0x3d1555c1bcbd439eU, 0x3d54461cbcc5b2ecU,
  0x3da83fb1bdd26724U, 0xbd3ba4ecbe19f565U, 0xbd61e540bd85d5d4U, 0xbdce20073d165fd2U,
  0x3d0530153dda8436U, 0xbcc0f5afbd28827fU, 0x3dd67c98bde5cb4eU, 0xbd898c893d611d14U,
  0xbdb7adf6bc5d44caU, 0x3da17172bd94b260U, 0x3d503cd03cc62c20U, 0xbd2907543a5c9f54U,
  0xbbb92819bdcc2de7U, 0xbe9fbdc73e4a55feU, 0x3d14e2933dd8efabU, 0x3ecb54c0babc5062U,
  0x3e326147bd0f2028U, 0x3be682da3c813583U, 0xbd5e50cb3e40fbfaU, 0x3ba679fa3dcbe06dU,
  0xbe3edcfbbd30c60fU, 0x3e43f86dbc855ca8U, 0x3df950ff3e1df91dU, 0x3d0e8e27bdaa674eU,
  0xbcc62bdabde1d590U, 0x3c8913d33e87e9e0U, 0x3e023ba9bd827b8cU, 0xbdf0e25dbc8b03f6U,
  0x3e2bc6f03e1a8a4cU, 0xbde73a213bc3c9a1U, 0x3e2be427bca1cf7fU, 0x3e2cec14bd4b253eU,
  0xb9dbdf2cb9ab5e35U, 0x3e2d1e013d06f63eU, 0xbdd77f70be27a6edU, 0xbd0d54bfbe50e49dU,
  0x3e2694d4be03b181U, 0x3d00dcc53dc646f4U, 0xbc895cbfbdaae555U, 0x3d0c36c9be08f8b3U,
  0xbe10b9e13da40068U, 0x3b5c01553b911e0cU, 0x3de3f3143db77869U, 0x3db6c8a33d642505U,
  0xbd8c609c3bffc839U, 0x3cd2e0d33ce03c2cU, 0xbdafd297bc48dbffU, 0xbd3c40cb39f28f51U,
  0x3ce72f8cbbe07927U, 0xbdee35a63e31e062U, 0x3df0ce083d9cc2edU, 0xbd14c5873d03b24fU,
  0x3da488723d034ecfU, 0xbd5f6bb63d9283d4U, 0x3ccb4e053ded32d4U, 0xbd11bee53d0f3230U,
  0xbdcd03163d143470U, 0x3d1f978cbd11849eU, 0xbdd478f93b4ab5c9U, 0x3cecae84bdaea2d7U,
  0xbdbb1eedbd3c4925U, 0x3d1bce90be27646fU, 0x3df2a0f1bd183672U, 0xbc46e5583bec6f69U,
  0xbe03f0d43da358ffU, 0xbd9b9d503dc5c60cU, 0x3d0714e9be0910d0U, 0x3c5ffa6abded69baU,
  0xbb9b75d3bcf796b2U, 0x3db029373c9c975aU, 0xbd43b7093dcfeae3U, 0x3d1f32073cf8a9edU,
  0x3917e62a3d3a493fU, 0x3c398823bd5bf862U, 0xbd85f255bcc02960U, 0xbcd6dd9bbd88bcbeU,
  0xbe09e7f8bde5d600U, 0x3d8e96c73d91efafU, 0xbdcbe8a4bcd988e1U, 0xbd13211abda6eca4U,
  0x3de1c481be214572U, 0xbc549ec53dff5811U, 0xbdb970893dbe2282U, 0xbda5407ebd5e28c0U,
  0xbe1a3c233d14e413U, 0xbd793aefbc82980dU, 0x3e06a2933e3caea5U, 0xbe3e23c4bb5505eaU,
  0xbd8595a23d9c4277U, 0x3d70fcfcbd1017f2U, 0xbda3b57abdabc5b0U, 0x3d1adf56be1e36a0U,
  0xbd236e1b3da1623fU, 0x3d8254b63dda4a47U, 0xbdb052e1bd931ba5U, 0xbd83a578bd8d5f96U,
  0x3d0d6d8a3d6eb226U, 0x3d5507e0be0e6ec7U, 0x3b01b611b9b98a2eU, 0x3e8b7f33bdb517a3U,
  0x3ce403ba3e29b7c5U, 0xbd0d281d3cdf9db6U, 0xbd7443d2bcb0efc5U, 0x3c1c88813d1f27f8U,
  0xbcbc9c8ebcd043f4U, 0xbd1322febe2c2d69U, 0x3c2f408cbdcaf6feU, 0x3c6894c33da9caa4U,
  0xbcc58f9dbc618478U, 0xbda07a6bbb00720dU, 0xbe12e0abbe262375U, 0xbdb0d6913e2c8a4aU,
  0x3b670e8dbdcbd585U, 0x3db134bebd61283dU, 0xbcec9aab3c66b25bU, 0xbcaa34903e0375abU,
  0xbd44865e3e3cb125U, 0xbc170465bde995c6U, 0xbde2c67b3dbe3b53U, 0xbb1d1525bda68bbfU,
  0xbd875b00bd1ec715U, 0xbdb4c4f43d1e1582U, 0xba82dbbe3d926e10U, 0x3c966afabdb10e31U,
  0xbe4dc55ebda0b531U, 0xbd9179b63e247facU, 0x3d46adf6bd5745f8U, 0xbd4e68e83daf4990U,
  0xbc58c126be1cdceeU, 0xbe41830d3c91f42dU, 0x3d9bb509bc8b2d87U, 0xbde44c783d2ea236U,
  0x3ca8ae53bd0e90e7U, 0x3baa59833c3c0089U, 0x3d065b7cbc70bfceU, 0xbdd136623e3e34a9U,
  0xbd9f187bbc3c895cU, 0x3ca8fbabbc2000a7U, 0xbe6be6813e4f494aU, 0xbe6d7d83bdc18a32U,
  0x3e2d1be63eb32baaU, 0x3e8f090d3d083955U, 0xbd86275bbeaf31b4U, 0x3cc01a73bdcb638aU,
  0xbd65f6123df2a78aU, 0xbdd0177dbc8a034aU, 0x3cec052b3e6b1ba1U, 0xbce6debdbda01ad5U,
  0xbe0ba719be03de2dU, 0xbdbbbd813d18c3c6U, 0xbe8785013c4a940aU, 0xbdd646c23e850a17U,
  0x3e8ed84bbdc4f284U, 0x3d9efd7a3b8b4768U, 0x3d0a10eabe493c93U, 0x3e7318ccbe32ac96U,
  0x3db5c88cbe27646bU, 0xbd96f3123dd70deeU, 0x3e867f133e85db5cU, 0xbd1e02c2be6509d5U,
  0xbe5e73e8bd69dd18U, 0xbe764f0e3e7188c4U, 0x3d815b653e2a14d6U, 0xbeb3cb133e92c11bU,
  0xbe6dae00bd2ba317U, 0xbd01ab14bd7d806aU, 0xbe89bebcbcd3e4eeU, 0x3d985530be10d5ffU,
  0x3def86ac3b5cba54U, 0xbc0c6e33bdf14638U, 0x3ab4bfd13d099b9aU, 0xbe06ef14bdc287d3U,
  0xbd2e27f93c31edecU, 0x3d14a1c4bd2e6f17U, 0xbbdb708b3d94a81cU, 0xbd8f3db53d54e566U,
  0xbd732c73be168f9eU, 0xbdc3ba7d3db19ee0U, 0x3dba042bbdcf2a2fU, 0xbb68fcd3bd41fba8U,
  0xbca0c4a8bc09a72bU, 0x3d862ae6bb5375b4U, 0x3dc0f0c43d0a524aU, 0xbc544f373c813ac9U,
  0x3e1bd6e5bc68ebd3U, 0xbcd419f1bd9b4fa2U, 0xbdaa918f3d129a01U, 0xbcc7437abb067140U,
  0x3ce039e4bb28de05U, 0x3d8d88a6bdafa414U, 0xbe4f2cd4bcc49889U, 0x3ca20b35bdebebd8U,
  0x3d5cdecdbc57b0f4U, 0x3e146a2f3d739008U, 0xbc25e28d3dd9e62bU, 0xbdfc64d6bd07aedeU,
  0xbc567b58bdde8c45U, 0x3b8a5834bdde5bc9U, 0x3d5e8c143d502275U, 0x3cf633973d3a554cU,
  0xbd8921a93d9b59e8U, 0x3d4f2c74be12f6f5U, 0xbd0d4c7cbe0279d9U, 0xbd455fa7bcc569b3U,
  0x3a840b183d95ffa2U, 0x3d83a433bde6326aU, 0x3c0cb01a3d9c328bU, 0x3d0d9fb9bd832348U,
  0xbd59be97bc82b390U, 0x3df419693d7b5ad7U, 0xbd011193bda5165cU, 0x3decec90bd4c49edU,
  0x3929c3ef3c848edeU, 0xbd8773c83b6162f7U, 0xbda0ad3a3d9968afU, 0x3dfbc501bd7e57e9U,
  0x3ceb31293d726965U, 0x3d9dab85be0d092eU, 0xbd50c9e33def29f0U, 0x3cb91ad03c935c06U,
  0x3d0760003d860dfcU, 0x3cf0a9cc3baace33U, 0xbdc7cda83d6470b1U, 0xbdaa3e533dc23446U,
  0xbdddde14bdd01d4aU, 0xbda253bfbdc44554U, 0x3c11c95a3ca1c379U, 0x3c3b0154bdf7b695U,
  0x3cbd9bfebd224278U, 0x3d9ada13bd962330U, 0x3db989c5bd8d2652U, 0x3bceaf76bcc2e0e9U,
  0x3d8157f03d2e3578U, 0x3cb99d663ab1cce5U, 0x3daf0a49bdf121a5U, 0xbd271d55bd574925U,
  0x3d27ec88bbf9523fU, 0xbd68ddf73cfbe4f9U, 0x3d822314bda36efaU, 0xbc839c7abdc3ac87U,
  0xbbd32fa4bcea1aecU, 0x3dcd3b5abdc11c1dU, 0x3dd76aa2bce7737cU, 0x3ccafdbd3d745840U,
  0xbcafcd123d8eef98U, 0x3ddf8e73bc5f2df7U, 0x3bbccf55bd472111U, 0x3d8a64b23e030333U,
  0xbca4190bbcf953c0U, 0xbd976166bc723646U, 0x3d75efdebdc4ea52U, 0x3d4e1cca3b0ceca3U,
  0x3b72377a3be46573U, 0xbda1bb2b3e1553d3U, 0xbd5521c4bdb338f7U, 0x3df67e57be01719dU,
  0x3b96263bbc051a8dU, 0x3d7bf4653d56eebcU, 0xbd1f71e9bb5b7fcbU, 0xbdab71fc3dee05d4U,
  0xbbe3fafb3d28871dU, 0x3d5a920f3b5fb6f0U, 0x3b7a0f593df8e5e4U, 0x3d71b5823de6635aU,
  0x3e0360c53d4df17cU, 0x3e44838bbde4e5d5U, 0xbddf59473b1a5457U, 0x3dae1a7abeab34b3U,
  0xbe0a94573d752a24U, 0xbe5ee3dabf21e38fU, 0xbc813d5fbdfc531aU, 0xbf105d1f3ca753f7U,
  0xbe89fe27be32283dU, 0x3e04fba6be092b19U, 0x3e3422c3beb94ed8U, 0x3d9e2a5fbe9b0e5dU,
  0x3dc83ed73e00fdcfU, 0x3db1e3253e5f49f7U, 0x3e0d13bebe28d659U, 0xbf1eed36be4740acU,
  0x3d5de1fabe9503dbU, 0xbe30549a3e9ebdf9U, 0x3c8ba654bd5a8034U, 0xbe095504be833c88U,
  0xbc3fb815bf154941U, 0x3d19a5b3bd9306bdU, 0x3e75aca03c6ef35fU, 0xbe25ab66be413cdcU,
  0x3d191f51bdbf7bbdU, 0xbe35159cbde4e436U, 0xbdc0bf653c2cb556U, 0x3df68288bdb964a3U,
  0xbe78333a3e8ba659U, 0xbe71e9763d65e0e8U, 0x3dcd2ab3be24b178U, 0x3e2e0c1c3d3e70c7U,
  0xb988cd5a3db66452U, 0xbe8de8c93d909b33U, 0x3de7e52abd9be7eeU, 0xbc53e9d8bcbbbe3fU,
  0xbcf33272be2b7bcfU, 0x3d099f9b3d1921e7U, 0x3da007e1be11c31cU, 0x3e5a8ed93d00c3e3U,
  0xbd2dd69cbc818088U, 0xbca4e3df3dc2ba7fU, 0xbe0d9d57bd86fe20U, 0x3db9f6113d6a0c9fU,
  0xbe557a663e210589U, 0x3d6956bb3ea5bc1eU, 0x3d375fefbdf305daU, 0xbd61fa68bda573cbU,
  0xbd197284bdd4d65cU, 0xbd47af903d1a2121U, 0x3d9f294ebb8c85aaU, 0x3d571dd7be1e6bcaU,
  0x3dbfe231be74d1b3U, 0xbdd35a83be69a4d8U, 0x3dccfd0ebe0bb4fbU, 0x3dee6d2ebd456dc2U,
  0xbb04995ebdabdd54U, 0x3d515f7cbe88aa32U, 0xbd784d0c3e2175a7U, 0x3e632aa2beb33c77U,
  0xbdbc27413e077f53U, 0xbdd1d5e93e791914U, 0x3cf680ab3cebc02eU, 0x3e41f2ccbd949864U,
  0xbcbfb2d53df096f9U, 0x3edd7f543e25635cU, 0x3e30ba2c3e80ba87U, 0x3d5b102abdcfeafdU,
  0x3d1559e4be18295bU, 0x3e43dd2b3e7e62d7U, 0xbe084d793dc4447bU, 0x3eb96203bc213808U,
  0x3eb2d9edbcf887b5U, 0x3e3cccad3e1137c8U, 0xbd7eb090be741b8bU, 0xbe8a1a79bd47d11aU,
  0x3e606d7b3dc9d84dU, 0x3ea458a93da9496fU, 0x3e0051583e812c12U, 0x3e12bcbfbd97c0a0U,
  0x3dd5c8b4bdb0ff86U, 0x3dd9b74f3d8fe2e5U, 0x3ec817753b9d9bb7U, 0xbd82da303d435090U,
  0x3ddf8f383e4af5e4U, 0x3d5cd7713e00e6ccU, 0x3e5d3565be14b586U, 0x3ed6e1fe3d643d39U,
  0x3db113863da1296aU, 0x3e255bb63ea78df4U, 0x3e56bf413e5c910cU, 0x3d5b7a0e3f09e1c0U,
  0x3e3679ae3d53aaf0U, 0x3e0f238c3cab86fbU, 0xbeac25b73dc0e3f0U, 0xbdf36d7dbe4bb559U,
  0xbbce1a7b3d220ba7U, 0xbd0861c6bd65bb43U, 0x3dcc2ee0bd28a5abU, 0xbcec1ed0bdfc6de5U,
  0x3d04274abe0db70aU, 0x3c0de37bbe0d0bf8U, 0x3cbdae24be695a33U, 0xbe5cf60dbc5f3d62U,
  0xbe4d07aebda01df1U, 0x3e0544c9be06bfa7U, 0xbcb40cfd3d40407fU, 0x3ca5a19abca92b00U,
  0x3c081d6c3dd9898cU, 0xbdc70b17bd263627U, 0xbd53b4cbbd894fd3U, 0xbd290019be3ef243U,
  0xbd6c1220bd82fff0U, 0xbdd258443d77f444U, 0x3d32bbb2bd2961cfU, 0xbde48f513c8d2804U,
  0xbdb75564bc87b2f5U, 0xbdcbb5b73dc1c38cU, 0xbd59a295bd833577U, 0x3ce7eee9be03b99cU,
  0xbd3c31023d07b204U, 0xbddab8c8bb9dd2f5U, 0xbd0cf518bdd1cb5fU, 0xbd32345bbd873737U,
  0x3c52c0373de4f604U, 0xbd992998be02ff04U, 0xbc906f35bd2dcd3aU, 0xbd03fdc73d52a5cbU,
  0xbd3caf0bbc583c87U, 0xbe031c6a3c449a9cU, 0xbda9f91e3b4066b9U, 0x3d374a29bc90048fU,
  0xbd355878be09bbc0U, 0xbde877e63df89636U, 0x3d4b53b9be06e63dU, 0x3d9a2b28bc8ae133U,
  0x3dbdd5a0bd8accd8U, 0x3d951c2cbdc6eb4fU, 0x3b1c23353bcec0a7U, 0xbcec487ebd7fb4ecU,
  0xbd370abd3e0d817fU, 0x3db7a994bd9561f2U, 0x3d89fc963d876866U, 0x3c6098513cfde7a4U,
  0xbd82997cbc34620aU, 0xbda99116bd30f26cU, 0xbca3956cbe181a5eU, 0x3cbba3cebe0bb9d3U,
  0xbd5e466b3d9c9384U, 0xbd81cbfcbdc64a2bU, 0x3d2bc493bbdb6674U, 0xbd89d897bd1ec732U,
  0x3c2a6ac53d7004c6U, 0xbe1797313d2a355aU, 0xbdcd12313ca6cf8cU, 0x3db50af7bd0a4853U,
  0x3c1b883fbcb3a19bU, 0xbd871793bcd982baU, 0x3b87740d3d741e92U, 0xbc341450bda882a5U,
  0xbe106f2cbcf24446U, 0xbacfd8d6bdf49993U, 0x3d0231abbc3a6fa6U, 0x3d4962e8be147ffdU,
  0x3e0fff833bdd2594U, 0x3df343b03d37bea6U, 0xbd346e19be42251aU, 0x3d97faccbe35e976U,
  0x3cdaf6d53c06f793U, 0xbde1e7dbbd00441eU, 0x3e1aef6dbd6b2f8aU, 0xbc2db359bcd34d9dU,
  0xbd37cdea3da1060cU, 0x3d6357f5bd2b4805U, 0xbd73c45f3d4c4ddbU, 0x3d941080be4d4363U,
  0x3d060a2dbdad065cU, 0xbc02ebf03bba8986U, 0x3df785123d430e19U, 0xbde628f23daa38b5U,
  0x3e29c3b83e9a1c04U, 0x3d279647bd998929U, 0x3e3eda8d3d19af0cU, 0x3c9b1940be5b690dU,
  0xbd8e87f0be0b6675U, 0x3e38745b3e687170U, 0xbe0aa8153d6020f4U, 0xbc9f7379bd65b384U,
  0x3dc66f7f3c6ec85fU, 0xbda3aa033dfcaecdU, 0x3dc338eb3e2a2a9eU, 0xbd87062fbdd8e2ffU,
  0xbd8994923e549b39U, 0x3dc5f8223d6da89aU, 0x3d664025be3a9712U, 0xbc8dbb82bcda3159U,
  0x3dbeda6ab9e55462U, 0x3e685153bd444ebcU, 0xbd6fec7bbeb7f6efU, 0xbd5c1358bddce7f8U,
  0x3e7f9042be1c0285U, 0xbede1766bdc8ecbcU, 0x3df6b165bd0cf82fU, 0xbd5aa4dfbc2ffb92U,
  0xbd8c0e3a3dc57bf2U, 0xbe3779433d8df718U, 0x3d76a83e3d70728aU, 0x3d94dd98be470fa7U,
  0xbdce8f8b3be0d991U, 0xbdbea9a93e37d9abU, 0xbd288e1f3e03b46cU, 0xbcadf4423e409051U,
  0x3da3dd843e89f88eU, 0xbd8b108abe4ccb3eU, 0x3e6eceb1bc99ce91U, 0xbcc037e23cef8e9fU,
  0x3dae3ae5be054fedU, 0x3e10312f3dc491ccU, 0xbdd954a53ea26f78U, 0x3dbbf685bcbee32cU,
  0x3cbf1acf3d478f4cU, 0xbe98d88b3e2d02f4U, 0x3d3df07f3cdf5d79U, 0xbd3bf8483d97b2b3U,
  0x3e9fced7be376066U, 0xbdc65f4f3e84841dU, 0xbb472b993ca4b113U, 0x3db9b710be9091e7U,
  0x3e8c06b13db866aaU, 0x3e0104903e0cb157U, 0x3e0a2ef5beac43fbU, 0x3d20fd62bd2fd484U,
  0xbe7078243d8e0672U, 0x3b977098bd80a03bU, 0xbe9df33cbe35dfa8U, 0xbdef1d243ce549f0U,
  0xbd97256d3dee2cf0U, 0x3e1d2446be238635U, 0xbdc392c73da06382U, 0xbdcc1236bef21502U,
  0x3c480002be8756c5U, 0x3d9cd896be361adfU, 0x3d5683eebe37675cU, 0x3dd329e7beb06402U,
  0xbda9e95abe0ac135U, 0xbda4ec82bca07cf5U, 0x3e6f62ff3dc90f1cU, 0x3dbc4468bec6920cU,
  0xbe57ca56beb26671U, 0x3d5e706f3dc62428U, 0xbca1591e3e3e0f47U, 0xbe7be2d9bc8d2e5cU,
  0xbd32dcc63d85f753U, 0xbe628775bdc8b5afU, 0xbde862d7be233782U, 0xbcbefc31bdc54813U,
  0xbd7533fa3e11c04dU, 0xbe22693a3d74c4a8U, 0x3e225e77be20dc10U, 0xbeae12e33d529c5cU,
  0xbd4a8df23c619115U, 0xbda8e4b63e13cb4eU, 0x3c19dcf1be96fc57U, 0x3eb18924be247914U,
  0x3eaa71abbe6931a8U, 0xbe85e629be4c5681U, 0xbe1aab20bd68a7d7U, 0xbe049e143e32c972U,
  0xbe1b8ac73deb02c0U, 0x3d7a50a23d90865dU, 0xbd7b2a81bd99ee28U, 0x3e535996be581ebeU,
  0xbeacd7bebe0ac2fbU, 0x3e56dc0d3e09d8c8U, 0xbc3513223ddbb030U, 0xbea57afebcd86d78U,
  0x3d9eb425bdc45db6U, 0xbdbdf70cbeaca8bfU, 0x3d3694ddbd544850U, 0x3b4d8a863ae22bdeU,
  0x3dc9fdf93d60d785U, 0xbcfa2bb6be40fcdfU, 0x3dd5e5b03db29127U, 0xbe6fba95be98798fU,
  0xbe8f5729be5dc338U, 0xbdade3f1bde79775U, 0x3c801061be5dce5aU, 0xbe82e491bd95b4fcU,
  0xbc2a7061beb06c99U, 0xbb2d699f3da9dd4cU, 0xbe1891373e5c80b2U, 0xbdb34ca93a8efa9dU,
  0xbcfbe24b3e25797dU, 0xbdf8ad373dd72da3U, 0x3d3238763ea48f73U, 0x3e14a5033dcc7682U,
  0xbe6839dd3e6976f6U, 0x3e0876513bc50157U, 0xbe9791b53ec250cfU, 0x3cde7e4f3e729f88U,
  0x3dabaa203dd3c104U, 0x3d74861fbd213008U, 0xbd7b3d4d3e0ce333U, 0x3be7d5ea3de533f5U,
  0x3e150450be5a3516U, 0x3d6fca343da440c8U, 0x3e859854bdf73bccU, 0x3e89455ebe8b35d0U,
  0x3e4245dcbd241015U, 0xbd4e16db3e10a5dfU, 0xbdd59bcebd26151dU, 0x3e278181be92b1d7U,
  0xbdf259823dc51a44U, 0x3dd79636bd5e84e4U, 0xbd563729be67aaa6U, 0x3dbea4c3be092428U,
  0xbe1461a1be955587U, 0x3e01c013bdbcafadU, 0xbe9bf3013dba2db2U, 0x3e4ae290bd6434e3U,
  0xbe85d22ebd3e6e3eU, 0xbde1e9953d583e3dU, 0x3dab15593d1def62U, 0xbd70c9fdbd8db070U,
  0xbe09d655be000f2dU, 0xbdeabc86bd8fd12cU, 0x3af7baebbe3dd983U, 0xbc4decfa3ac5e34bU,
  0x3e0a23cd3e000e49U, 0xbd383a54bdc64327U, 0xbe451a3d3d7acecfU, 0xbe7434b13d1fd116U,
  0xbea1002ebda0448dU, 0x3d6fd3df3e8065b4U, 0x3d27c9a53d7c957bU, 0x3e1e59113eaaa4f0U,
  0xbe4229ec3c9f354bU, 0x3ccd6e86be24e069U, 0xbe2276c8bd1f7f1fU, 0xbab6c9a33d9eb63fU,
  0x3e22329ebccbf117U, 0x3de6aab0be945ba9U, 0xbe5b3d0b3d4856f6U, 0xbda9bdc7bd1a39afU,
  0xbe55cd94bcec5f70U, 0x3dd90249be8bae70U, 0x3e69d4063d546301U, 0x3dcc5159bbc977bdU,
  0x3e191a52be964bcfU, 0xbe65600fbceec6c9U, 0xbe89f0ca3d41f718U, 0xbd8a3889bd549fbdU,
  0xbe913b7dbe43708aU, 0xbd8e60003c82a148U, 0xbc1cb5513bc1aafcU, 0xbed2c0113d09db9bU,
  0xbc4f423bbd671647U, 0xbe51a3a5beb1f05cU, 0xbd82adfb3e12ecf5U, 0xbf2ff701be558088U,
  0xbd5e48d23e3186b1U, 0x3e8b44d3bbda44b9U, 0xbe042e7e3e25e3eeU, 0xbe66641ebdab3c85U,
  0x3e242b07be31b721U, 0x3e44e7e6bee73509U, 0x3d24942c3d34ee3bU, 0x3e2a42213d83c05fU,
  0xbe6a7169bc49fdd8U, 0x3c30d1dabe35b0ccU, 0xbe24fc193e0a9432U, 0x3d1756a13cea59feU,
  0xbe2ac20c3db242c0U, 0xbd408703bde3b03aU, 0xbeaead813de150f0U, 0xbe7dbabbbe34c1b8U,
  0x3e14db22bc6b1c0bU, 0x3d1505913df9a5caU, 0x3caf57f0bdb1e7deU, 0xbe53e8103e8c0a58U,
  0xbe10d826bf0738eeU, 0xbc71323cbe4799d5U, 0xba5e41ee3e837a17U, 0xbe42373dbe7cfb56U,
  0x3cba4e9e3dd75042U, 0xbd80ea7dbd49f68bU, 0xbcf134cd3dacc2c7U, 0xbb5a61cdbcd6f4b5U,
  0xbb177f0b3da1e384U, 0x3d8d13b4bd0a4583U, 0x3de50ee03de12d87U, 0xbc9035be3d442722U,
  0x3d98311b3da4f932U, 0xbe2e65d43d3d3987U, 0x3d1d5191bddc8a40U, 0x3d4e803d3cb95d78U,
  0xbc5e6968bd728adbU, 0xbd38db91bd086ffaU, 0xbadd765cbdb83813U, 0x3db19d3c3d8eeaa0U,
  0x3df5af6ebcf3bfc9U, 0xbdc993943db14ecdU, 0xbcf73c49bd066dcaU, 0x3d86e6ca3d2e6d92U,
  0xbc99fc11bcae5d41U, 0xbd054331be390e7cU, 0x3d78478ebd478f2dU, 0xbc8a109e3c712fefU,
  0xba9a978b3b6a8840U, 0x3caddc193d77a01dU, 0x3d63473ebdd85f3eU, 0xbcb12ceabdd41822U,
  0x3d77b52bbd227c37U, 0x3d8759e5bc8a3e03U, 0xbd22e2813c5bce89U, 0xbca44b393d52fee7U,
  0xbd24eed9bbd2aa81U, 0xbf272863bde8d8e9U, 0x3e0091bd3d31c56fU, 0xbe7423343d267ebbU,
  0xbe926c35be4a7b03U, 0xbec360a83dc6a22aU, 0xbda6525a3e9be031U, 0x3e74a65dbcbaebfcU,
  0xbe4babccbd9af9c7U, 0xbdb0ea5abe97b5d1U, 0xbe2fbcf73d8aca59U, 0xbda60b283e454d87U,
  0xbe2fd7183e07cc12U, 0x3e1d11883e2fede1U, 0xbeb7eca2bef5e364U, 0x3e943b533dd6fc55U,
  0xbe76561cbdc66e94U, 0x3e50eb673d00b79eU, 0xbbe02ef63e52acb6U, 0xbe6f2a43bd6465f0U,
  0xbe33b3853e3c6940U, 0xbd3ce268be937f07U, 0xbdfda1c03b09d8b2U, 0xbe926ee7be7d8eaaU,
  0xbdb3d60a3d2e4830U, 0x3d9aa6e6be3f3128U, 0xbd1c41b13d9630f0U, 0x3dcd60e2bebb73c1U,
  0xbe66df0abe662366U, 0x3db64e853ea9c615U, 0xbe437e83bd7483b6U, 0xbe34c4d6be427e72U,
  0xbc9448aebd6ea4c2U, 0x3dc115a9bd6075adU, 0xbd010f883ded011bU, 0xbdb4a8613cc0a05aU,
  0x3dcd220a3da4bae8U, 0xbd06bb7c3d8bc2f3U, 0x3d6805683d82053cU, 0x3e2c63d23d5a9aceU,
  0x3d51db513da43210U, 0xbad9ac213c3dd8a0U, 0x3d2c59bebd32d407U, 0xbcb564c33c322669U,
  0xbcb5590cbd3b7107U, 0xbcca6c913c5692c2U, 0xbd9bd9783c853cd6U, 0xbc7b1bd93dc12065U,
  0xbd0eb13e3d971c49U, 0xbcb2a63a3df18b21U, 0xbe0c5670bd377709U, 0xbd62a335bd828481U,
  0xbd2fa93d3d388411U, 0x3d3d8e21bd943cfdU, 0x3e01d62d3cd7e50cU, 0xbbf7baf53dd8bfabU,
  0x3dc1eb8f3ca7691cU, 0xbdaffec93e27b27cU, 0xbd036e0bbe03cab3U, 0x3d709df53ccf9232U,
  0x3e07f5583d51dffbU, 0x3d90cfb93ccc35b8U, 0x3e0af136bd47d616U, 0xbd2a10d33db4e66cU,
  0xbd511695be21ef8dU, 0xbe68bcf9be8872caU, 0xbcf98cfebc22843eU, 0xbf0c05a23ce5892fU,
  0xbea2eb2abe616a84U, 0xbe3f8ba6bd371a22U, 0xbe0e1edfbe5c6c9eU, 0xbe240c03be6e6900U,
  0x3e9794e93c0e7297U, 0xbd1c5e4dbdf0740aU, 0x3be5ae663e2c1c76U, 0xbd1dd6fd3d974cbbU,
  0xbed51e383ca22a56U, 0x3a1bf12fbe6f084bU, 0xbd1fd025bd8235f0U, 0xbc3bc8c23e51c335U,
  0xbe7e827f3c4df9e9U, 0x3e72e72cbdc7ecfcU, 0xbd728c083d59fab5U, 0xbdb7f2c1bde61c24U,
  0xbea57ddb3b9d9cb7U, 0xbe4575bfbeb52183U, 0xbe2770e93b65cb3eU, 0x3d28a0e03a8e7326U,
  0x3e07925f3dabc4caU, 0xbd938a0b3e65a30bU, 0xbdf4e843bcba21b6U, 0x3d9602fa3dadcc97U,
  0xbe8cb31ebf0db27eU, 0xbdfcb2ddbe80832eU, 0xbdaa063e3dbfdfa1U, 0xbe461930be037861U,
  0xbd82aadb3d8827c6U, 0xbdda40fb3cbae0d1U, 0x3e0d1bff3d8db8b5U, 0xbb4845b5bd11e471U,
  0xbb2115c93dc3aa38U, 0xbd45de693e280241U, 0x3df323c0bb3e86dcU, 0x3e81738bbdfb70deU,
  0x3e0ccf043d285bf9U, 0x3dca13043dd4675bU, 0xbd541c5f3ccbb0e3U, 0xbd64e5e7be0ecdf3U,
  0xbcb742c63db73e35U, 0x3e143ad5bda6b8c0U, 0x3c1abee2bce27eb4U, 0x3c7d593bbe54b8b5U,
  0x3daf3d733d20e00bU, 0xbdcfce2e3b1110cdU, 0xbd0a5a30bd8ba77fU, 0xbd12630c3de65883U,
  0xbbb20d033d3d58c8U, 0x3d5b308d3db99d8fU, 0x3df97e0abca98b7dU, 0x3d0e4a8f3d779afbU,
  0xbd108b74bd860970U, 0xbd3c9e8e3e333d85U, 0xbcc26ababd93b1e3U, 0x3ddc0abc3e76669bU,
  0xbd6f39543d3cb700U, 0x3ce801efbd4a227fU, 0xbca3faacbbe4c980U, 0x3d28d65b3d074119U,
  0xbce037afbd7829d8U, 0x3c8b5291bdcbb8e0U, 0xbd55b00f3dfa5cd0U, 0x3ddb24aabdcdac4bU,
  0xbc08b35bbd00cfa6U, 0xbb9d42df3dabd65fU, 0xbdabc1ffbc84ad9eU, 0x3e43bdcf3d476aafU,
  0x3db61076bdd149c5U, 0x3de07fdabd56e5c3U, 0xbd9ba4d5bdb8e75eU, 0x3da709d23d2e46efU,
  0x3d814c3ebdb86589U, 0xbd88fa5c3d78a083U, 0xbe0a19b1bb2af1a7U, 0xbd97d78cbd43389cU,
  0xbd07ed56bd86d194U, 0x3b9b4d673e2453faU, 0xbddc20ab3d9bcf1bU, 0xbd857e53bd7705c8U,
  0xbdcbdf633e2f2616U, 0x3d03330e3e1f102aU, 0x3ddf71adbce4120cU, 0xbd456f7b3d7f0771U,
  0x3e44714b3c96c6dcU, 0xbd8267693ccd49f1U, 0x3da8e4e8be179451U, 0xbd239ad13d16cf4eU,
  0xbd24c2d93d46a7b8U, 0xbe32d680bdda9337U, 0x3bf2c874bdaa44c4U, 0xbcbb5415bc96eb49U,
  0xbdaa2ee93db6a505U, 0xbd6b5500bdb17a4cU, 0xbde839bc3d9faa85U, 0x3e137ec5bd4954e5U,
  0xbbe21da93d694901U, 0xbd4d0d233dfa84d6U, 0xbd930a4b3d3d2491U, 0x3d9609de3d149cdfU,
  0x3a1789d5bd5e490dU, 0xbe2d8a453de4cf2cU, 0xbcec15f0bdb48bfeU, 0xbda3e1a93c09a4a1U,
  0xbc9963ec3cb4a30bU, 0x3be1fb983e40b81eU, 0x3dc586ad3d90946fU, 0x3d396930bd82a56cU,
  0xbdb874573cc64e1aU, 0x3d01b16bbdd28f63U, 0xbe0ae784bd7b7905U, 0x3e04df0ebd87365eU,
  0xbb0dba713d980240U, 0xbcd0581bbd4fd3e3U, 0x3d87266d3dd0e026U, 0x3da9f2313df616e2U,
  0xbd1f284cbd81224dU, 0x3d9e9020bca4cb32U, 0x3daf8baf3d1e61e1U, 0x3e617c4dbe2ea692U,
  0x3dbcdd3ebe0afdbbU, 0xbdadb2113e35a3ceU, 0xbe0933693ce1b69dU, 0xbaee06d5bd77c175U,
  0x3d58c587bb3319e6U, 0xbb541258bd40bb48U, 0x3dcea7493d7a3dadU, 0xbd4c325a3d91ad1aU,
  0xbd07eca23b1e20d5U, 0xbd0fa2bdbd2cd9feU, 0x3e139046bd8536b8U, 0xbc64c5b93c9bb1d6U,
  0xbdc944123c917607U, 0x3c29e2783bc6c69aU, 0x3da246d13cdef51cU, 0x3cadd4b83a6c2e64U,
  0xbc31510dbda3ac0eU, 0xbd3e83073cc271e6U, 0x3d9419afbcb92c96U, 0xbc6f20e73d2aaa17U,
  0xbb653c813d4192ddU, 0x3da24a72be1ab25eU, 0x3e025b9c3ddb00c5U, 0xbd46d00e3b4b1ffdU,
  0xbd885c95bdf63973U, 0xbe09714c3d512391U, 0xbd0c71773c9f79d5U, 0xbe344ac6bd971e1dU,
  0xbd7c759e3bc0ac4aU, 0x3d42e5e4be1717eeU, 0xbd80cebb3da6121cU, 0xbd83dd73bd72f4b8U,
  0x3c5c2476bd4ce06eU, 0xbd6b5472bcd49adeU, 0x3cd899253c9ca21eU, 0xbafb4a2c3d662a21U,
  0x3cf356bf3dc27daeU, 0x3c1578e0be0674b4U, 0x3e33f7f53cdb4efeU, 0x3d2565f93d08a177U,
  0x3d9386b7bd98a0b1U, 0xbd80cb1f3d8315e3U, 0xbd847db0bc384d29U, 0x3e09e952be122c1fU,
  0xbd0275c7bd37c259U, 0x3c955e583db0b359U, 0x3c3230d83c13f5d7U, 0xbd3a39eb3cc61141U,
  0x3caa2f1fbde65002U, 0xbcc5765fbd620deaU, 0x3deaec343d9a8be2U, 0x3de666d33d9a27f4U,
  0x3d9ea5843d7bc6c1U, 0x3cc4d1a6be12c40fU, 0x3dc33463bdafd04cU, 0xbbda6e183d11dc2bU,
  0xbd0db478bdf288a6U, 0x3d0480213df1f932U, 0x3caeacc0bd673a0bU, 0xbdc1dce63d286f92U,
  0xbcccd7f3bd28153aU, 0x3d0e932fbcbbc1d2U, 0x3c5e0e1ebd5c0d4cU, 0x3d068a023dc5a939U,
  0x3b6af77dbc534c30U, 0x3c6c720e3d781da0U, 0xbd59f61b3be347c8U, 0xbd226d7c3d8941e3U,
  0xbc8b4944bd12ac58U, 0x3c9cf65abe05bf81U, 0xbcf501d0bd96e634U, 0x3d99354d3d8b0ff6U,
  0x3d672b45bdacbabbU, 0xbd85a539be12f6a2U, 0xbd3082d3bca2a0d3U, 0xbd55bf583d5196b8U,
  0x3d9f4868bbb978f9U, 0x3d331707bcfc6eb2U, 0x3db547d63d4b81d0U, 0x3dcb56aabd1e2217U,
  0x3beca07cbd00b652U, 0xbd9fa4173e58f56dU, 0x3d6fe160bd7cbf26U, 0x3cdfb2f43e115466U,
  0x3d55f74fbca372e7U, 0x3d2ffd563d1d8576U, 0xbc97bc7d3d1337ddU, 0x3d41c643bd9d1770U,
  0xbdd6ca7f3dbc1e98U, 0xbd9b76e9ba0cf3d5U, 0x3d11b2be3e1a4cbbU, 0x3a4f10d4bce17875U,
  0x3d2231e83c71b933U, 0x3d299af1bdc57f54U, 0x3dd200b7bd4fb2c1U, 0x3b84d321bd715922U,
  0x3ca3b53d3d4f6394U, 0x3bd3b44c3d48691bU, 0x3dd830b7bd685e91U, 0xbd5b0e253c945d3dU,
  0x3d8e61c03e266c8eU, 0xbe0abac93de2d1e7U, 0xb8146f903dc43955U, 0xbde04be6bd23e3e4U,
  0xbdb7f2933d3e260bU, 0xbd1bc4413e85eed4U, 0xbdef6d70bc8a902dU, 0x3e04620a3c58bf35U,
  0x3e011f8f3de4539cU, 0xbb3727423e20844cU, 0x3c71a53e3c2b93f4U, 0x3d1db6eabe2f892aU,
  0x3bbb77f1bd7365f7U, 0xbd11582dbd8e1b6eU, 0x3da41bd13db2deb4U, 0x3cdf5d69bc2c2dfdU,
  0x3db9e66a3e0b27acU, 0xbdb0cf36be160975U, 0x3d634813be1d2533U, 0xbdb52fcf3e104171U,
  0xbc819ca0bdb93d91U, 0xbb80082f3d4f9810U, 0x3d5f5b843d87c90eU, 0xbccb9e663db7bb27U,
  0x3ce93797bdbd41b5U, 0xbd80d18abd1a7e3fU, 0xbd120698bda26a44U, 0x3d6cf1323e216338U,
  0x3e216054bcd7247cU, 0x3db4e1623dd81f07U, 0xbddf8e1bbca3b6f9U, 0xbc7a85ec3d50e587U,
  0x3d5a7cb73d01939fU, 0xbdc8dcb63d767bf3U, 0xbcaea546bcb3e176U, 0xbc1bf738bd29aef5U,
  0xbd8db9733d5c8210U, 0xbd39498bbdc6a50dU, 0xbc09b48d3e3226a9U, 0x3d87d609bde98087U,
  0x3c89fce9bd42566cU, 0x3c5cfbaf3db1650dU, 0xbd9ce82cbe3daeefU, 0x3b99f811bdf12f89U,
  0x3daeec22bda737bdU, 0xbd0824753e7b6f50U, 0x3e86a64a3dbdceedU, 0xbd4e5ec03d62ae3aU,
  0xbdc292c2bd94157fU, 0x3ce35ad6bd9f2516U, 0x3e13933f3cbc8809U, 0x3db7d898bd508e75U,
  0xbd0b38393e042391U, 0xbd4736ea3de33905U, 0xbbbe24cebccefbd3U, 0xbdbea6b1bdab9f9cU,
  0x3d9052cd3d464cf7U, 0x3d8a4c20be34d05eU, 0x3cea53d23c0fb1bcU, 0x3e45d8173d96ae5bU,
  0xbe298af23db08c82U, 0xbd1e0f893e15ed8cU, 0xbe174dca3d499234U, 0xbd913b793d5447bcU,
  0x3de7e4fd3df18b5eU, 0xbca74df3be241873U, 0xbdc3764dbe0ae802U, 0x3bffd65bbda8a0ffU,
  0xbc49d0b5be000d23U, 0x3e0b5784be497506U, 0x3b40b15b3c6cf2b3U, 0xbde5b9d9bdbbbdb0U,
  0xbdc7fe38bb21ba1aU, 0xbcb083c4bd8b01b5U, 0x3e062bd43c0d8d63U, 0x3e032a8a3d9baf56U,
  0x3df96e973df7edbbU, 0x3ca56dcb3d8ad7f1U, 0xbcf460b03d294a7aU, 0x3d6d312b3d5b099fU,
  0x3c7e7f0b3ccc7928U, 0xbdfa7e40bd9d3c67U, 0x3d01a396bbaf5b5aU, 0xbdf08615bcf0a841U,
  0xbc0f1a263d129e5cU, 0xbe0bd8ab3db5738aU, 0xbcf7d17e3d8866f2U, 0x3d4f30223cdb730eU,
  0xbd3cc2ffbc85b1a7U, 0xbd553cb3bdd51e60U, 0xbcf7fa8abe450b60U, 0xbdf9bdbebe05601fU,
  0xbe06f5ebbc872ba7U, 0xbd6d667ebbb0128dU, 0x3b939c10bd9640a0U, 0x3addb07a3d3134d2U,
  0x3de5d8f7bd0fa7d9U, 0x3df139da3d149757U, 0xbca00392bcb199b3U, 0x3bc4aa9fbc1c1fa6U,
  0x3db5e39ebd81a23aU, 0x3d9b6ed53c5df7b4U, 0xbd7c16ef3db7c2b3U, 0x3da7c785bd8c9151U,
  0x3d933ff73b2b359eU, 0x3dc686de3b8758e9U, 0xbe0232573d4fac9bU, 0x3d96cc0cbc829e9dU,
  0xbda8b8e1bd99b2e6U, 0x3dcd0393bdb6cba6U, 0xbe30f72fbd27455eU, 0xbcd5960cbd19db1fU,
  0xbd8049893dee4cf8U, 0x3d2218393d977e54U, 0xbe073bbc3d9bc5b8U, 0xbd65605f3a599abcU,
  0x3d8fc6603d23ba29U, 0x3a5d466c3d2f03feU, 0x3d688efabdbdce30U, 0x3cc019bebd082006U,
  0x3c8383a43cb802bbU, 0x3c7989c43dc4bd2fU, 0xbc2461f4bcb4106dU, 0xbd2fa6943d9e3409U,
  0xbd8a70e23e0af70fU, 0x3ccc3f9abcbbe0f1U, 0xbdbf4446bda86373U, 0x3e3546373d301a83U,
  0x3e287dd4bdf6ab69U, 0x3e4b2f013dd3f7b0U, 0x3d9ae98a3d8bfcb6U, 0x3e0f3feabe4dc482U,
  0xbcc336bdbdbe204fU, 0xbca9249b3ee55f76U, 0x3ce28ae7bcc33ea6U, 0x3ebedc273e20bd2fU,
  0xbe062c883d868149U, 0xba898bdbbdbd2afaU, 0xbe313ef1bd2e9cb8U, 0xbc9de5b73ddce762U,
  0x3dea64bbbc3ae1d3U, 0x3d72fa713dcec8fdU, 0x3e69407b3ddae689U, 0xbda25cb43d0a5e58U,
  0xbdac43cdbca51b1fU, 0x3e124899bddf309fU, 0x3d7fc9883cf026a9U, 0x3e8ae183bd33c628U,
  0xbe776780bc8ce035U, 0xbd6134b03db9b518U, 0xbe2419143e04a130U, 0x3e8c9a98bcd0f929U,
  0xbd21fb723d533147U, 0x3dab4cae3dc10ffaU, 0x3d1127123e064826U, 0x3e33b91d3e31f1b7U,
  0xbe0f0da53d5bfac8U, 0xbe4a7c643cba7121U, 0x3dd8322a3d8a49aaU, 0x3e1704f73d52d4ceU,
  0xbe072d49bd838e9eU, 0xbdccab8ebe7b0eaeU, 0xbe115207be5527d2U, 0xbd8f6527bd7bddeeU,
  0xbddac25cbe15cc56U, 0xbe02f4c53d0cfb40U, 0xbc5d3e20bd48310fU, 0x3af1b470bd99fabfU,
  0xbd4d4de4bdbe3ae6U, 0xbcf838433d8fdf97U, 0xbd20d088bcb61c24U, 0xbda0b498be21ea04U,
  0x3db28cdcbde9948dU, 0xbe1e5a4a3d09dd39U, 0x3d89c654bdfba496U, 0xba269a083c8b2a21U,
  0x3d727038bddb8f61U, 0x3d239137bd20526aU, 0xbc9aa1a73e0d8ae4U, 0xbe0261cbbcf69daaU,
  0xbe539f9d3d90c748U, 0xbd5a6fad3ca9787cU, 0xbc2852a23bfa99e6U, 0x3d26ae223c188cdbU,
  0xbe1c767dbd7fb49bU, 0xbdc759d03dd7742bU, 0xbdab381bbe282760U, 0xbe1c49e63bdbfbf4U,
  0x3a5b8632bd31bfe2U, 0xbe19f2f1bdffadeeU, 0x3deca3a23d542bf0U, 0xbd2459223d5d4904U,
  0x3c12f343bd5d301cU, 0xbd616649bdd6a34eU, 0xbc91eef2bd88cd8cU, 0xbe3188ad3d76109cU,
  0x3d8b4498bc1ba70fU, 0xbd13ce0f3d92390cU, 0x3c947fff3dd7424cU, 0x3d9ddc23bce22136U,
  0x3d2211933cecc7c6U, 0xbd9e7a0d3de3827cU, 0x3d3639963dc4d349U, 0xbddefc953d96c9b4U,
  0xbc18459ebc65647fU, 0x3e8da025bdcb0e3fU, 0xbe494254bd25dd4dU, 0x3dfc71bfbd4c5ce3U,
  0x3e04b8a73cefaf94U, 0xbdeea2cebdc7cfefU, 0xbdf0ef89bc6eb488U, 0x3d97f6983e1390ceU,
  0x3d69b989bdade792U, 0xbda48fb5be4a465aU, 0x3bb74b123d3d8287U, 0x3de435c6bcc0d594U,
  0x3d6cb3e13d05b6f5U, 0x3d2d0bbb3dadc990U, 0xbdd62e853d4c01dfU, 0xbded5df63e59651cU,
  0xbd0306f8bdf30b2fU, 0x3df2559bbd9b2f92U, 0x3e1300af3b68fe9fU, 0xbd14159fbe2fd324U,
  0x3e1cf7f63e091434U, 0x3bd57113be8a44fbU, 0x3d6dbe743cda30dfU, 0xbc367482bd1620e9U,
  0x3e10a3913d11f53aU, 0x3e0f6ff5bda869c4U, 0xbd09de22be881d9cU, 0xbe26aa8f3d0af7caU,
  0x3de6b97dbddda4d7U, 0xbdaa6ea8bd9f1e9eU, 0x3d930ff2be4978bcU, 0xbd5d2a48be0b1e89U,
  0xbd94e8213d3d3a33U, 0x3d464e893ab24263U, 0x3d2090a73e150259U, 0xbdaddd0f3e04cd12U,
  0xbd90e999bdc8409eU, 0x3d54a3b6be431904U, 0x3e0ebdd63cbc8a8dU, 0x3d895879be355d4aU,
  0xbe34749bbd6d33e9U, 0x3dc2c9c6bda52758U, 0x3dac493abc9a5d5fU, 0x3d0013a7bd3e2290U,
  0xbd726b06bd0c5d3aU, 0xbd86c39c3dc087b0U, 0xbd4b49153e42177aU, 0x3c8360103e421d46U,
  0xbe61656b3d857548U, 0x3e0212b3be90c130U, 0xbb37a8083d411cf1U, 0xbd836c013d8c23adU,
  0x3d6d2a893c28fc98U, 0x3d529009bc987530U, 0xbe0ca6963d44c687U, 0xbe16b785be4622eeU,
  0x3cea4c5dbc515fabU, 0x3b4dc2cb3df2446fU, 0xbd2b9a983dc1e291U, 0x3de8033cbd81f8beU,
  0x3dbce034bdbff2b3U, 0xbd43cd633c8135b7U, 0x3d9cdc873de7d6fbU, 0xbd9601f1bd776a5dU,
  0xbd66a324bd6df0d8U, 0x3dd745c53df8a524U, 0x3d637bed3e0eb836U, 0x3c93e9993c2f1bd4U,
  0xbda94ebdbb4357bfU, 0xbd7601793e4b8488U, 0xbdf4f7823d431caaU, 0xbd4c9cdebd9d5abfU,
  0x3cf4addd3e93b36eU, 0xbdb8ec01bd6cdb90U, 0xbe27cd0e3e102257U, 0xbdadb6a03d3936dfU,
  0xbd9cf229be123a47U, 0xbe0462593dce1bb9U, 0xbcee0f44be12155eU, 0x3de87c113db76802U,
  0xbdaa77b73deaf4c2U, 0xbdc8912a3d24e4f7U, 0xbcbaed90bc25ba35U, 0x3e044e0f3df58cd8U,
  0x3d22e281bc62847aU, 0x3d9ad2e7bda58267U, 0x3ca88c0ebd08880fU, 0xbd0f39dcbdb0e732U,
  0x3d3e9969bdac2a8dU, 0x3ddb3066bdc29d08U, 0x3db34e953d83f6e3U, 0x3d8613593c6e62edU,
  0x3ab8ebe63da8c14cU, 0xbe1a8e393e0a88d4U, 0x3c6b6dfe3c5f5838U, 0x3d12d70d3cfb7d95U,
  0x3c39f2893d9d2736U, 0xbdb484de3d06b93fU, 0x3df3e0b93ce513dbU, 0xbd24cd393d356514U,
  0x3c9b7460bbc9dc5bU, 0x3dd9da4f3de0d1c0U, 0xbe6eb331bb90e294U, 0xbd580e643d1f475bU,
  0x3d8140573dacec56U, 0x3db0f472bbdb3103U, 0xbe38646d3ddc29baU, 0x3ce8e7d4bdf24170U,
  0x3da0649a3de08364U, 0xbdecdd973d91dd3cU, 0x3db6bd7bbe47f032U, 0x3e2013173b648e03U,
  0xbd09fcd73e2033e5U, 0x3baf2bc83d1b9cdeU, 0xbdcb102fbd8dd902U, 0x3d2d48df3d96ec56U,
  0x3b614fe13d40d444U, 0x3d678656bd648ea2U, 0xbdc46ad23abb704fU, 0xbd9d8f9e3d84dd9aU,
  0xbe01022dbdd82965U, 0xbcf58d333d5d0280U, 0xbde3d0d5bc6a88f2U, 0xbc781dcb3db00037U,
  0xbcb1b1763daf551eU, 0x3e01cb61bda1a479U, 0xbd5173d5bd932a90U, 0x3b8178ca3d363baeU,
  0xbcc000d5bbc88d29U, 0x3dfa2ca4be0f202aU, 0x3d33fc48bd838893U, 0xbe020de33d19600cU,
  0x3d6857283d87fe96U, 0x3d690950bd8583faU, 0xbd716ff8bbdf1e87U, 0xbc2979853d152103U,
  0x3d97984ebd1c0b73U, 0xbda06035bc4c78d7U, 0x3dc99df43d5b3a29U, 0x3db1a7853d71cf8bU,
  0xbd2dd4673d3b3e33U, 0xbcf538d23d225631U, 0x3d3fe8763d12416eU, 0xbd2868a3bc5ada6eU,
  0xbce9088c3c02acd2U, 0xbdf02055bdaa4a37U, 0xbdd65b43bdcfc1e7U, 0xbda3be3d3d19b9abU,
  0x3c78d0e93c31620dU, 0xbe04db353ddc5784U, 0xbd05a61c3e044b0eU, 0xbc96c876bcb2c867U,
  0xbe036bda3d84df62U, 0x3e0a3242bdc12849U, 0x3d2094213d89fa35U, 0x3e1c3cd8bd4b2bcaU,
  0x3e06fb133ccc1fb0U, 0x3df57cbe3e0077abU, 0xbd2a41cfbdd6b38aU, 0x3de9db01bd30ba10U,
  0xbd1e403e3d848ed1U, 0x3cabd2663d8fa120U, 0xbd07a4813b867812U, 0xbe2ec2c63c7ec421U,
  0x3d3ded6c3d9cc3ffU, 0xbdfa23c7bcf842caU, 0xbdcbbc3dbe168a41U, 0xbda1b8cabdf0a4dfU,
  0x3d83ee993e27c181U, 0x3dc10712bcd9e2e4U, 0xbcf0e0113d4a452fU, 0xbb6f13143cf69d05U,
  0x3e200caa3d15e7beU, 0x3c046998be2abe8fU, 0x3cc3e0823db9c392U, 0x3e0f05d6bd8414b1U,
  0x3ca3b6a63d2aa5abU, 0xbd1a75043c203ce2U, 0x3c72ad2dbdb8def2U, 0xbbc890803c0fa071U,
  0xbe699b4ebcef2117U, 0xbe0fa9f5bd916219U, 0x3c95ceaf3e19f306U, 0xbe8e777dbe2fe855U,
  0xba87f425be2d8cd0U, 0xbeb29dd8bd94baf4U, 0x3d04f4b93e3c0154U, 0xbee1445ebe624910U,
  0xbe2b6b0d3e04f70fU, 0x3e2bea1c3c9f318fU, 0xbd19d7ba3e5c5323U, 0xbe1de7cf3cc2e270U,
  0x3dda2cd1be3d7142U, 0x3db64726be0a6c4bU, 0x3ddcb91a3d13a490U, 0x3e9501ed3e040f55U,
  0xbd9bcf753ceff050U, 0x3d851b16bea90709U, 0xbe5ae656bd2a7965U, 0xbd7685803d0ae197U,
  0xbdb61a1a3e8f571aU, 0xbd00227cbd7a7f7eU, 0xbe3a4c94ba7d34cfU, 0xbe48c6853ba5c21dU,
  0x3d1df89fbdfbcf44U, 0x3e77d237bd15c5afU, 0x3da9e61b3cba2fefU, 0x3dd121023cb3b675U,
  0x3de138dcbe9905eeU, 0xbe7ae53cbdcb3a29U, 0xbdf467243e11d0dbU, 0xbe2682c7bd12f594U,
  0x3d4289eb3b9aac3aU, 0xbd860639bdabb840U, 0x3df220043c0b9403U, 0xbaa5c6203d9ecc36U,
  0x3c4de6b3baf50f89U, 0x3cfdab95bca8c093U, 0x3d4f7dd73c8d9052U, 0x3defc4a7bd7330acU,
  0x3c53b951bd84b1b2U, 0xbcd839b63db0b7f6U, 0xbbf12cca3c86dac5U, 0xbbd9a1b9bcb8bba8U,
  0x3d7d7e96bda0e01bU, 0xbd88656dbd075f85U, 0xbd61243d3d5b20b0U, 0x3d09debdbe04916fU,
  0xbd250a45bacbb826U, 0x3d05a50dbd02cde6U, 0xbc96bf8a3d5f5927U, 0x3d621c6d3c2d06c6U,
  0xbbac8f3abd8fe562U, 0x3d82be283c93cb2aU, 0xbd3e58393d54a96fU, 0xbcc26624bc36a29bU,
  0xbda0f1ccbd04844fU, 0xbd428b443c8561d4U, 0xbcf7d27fbcc70b37U, 0x3a2ac903bbba89b8U,
  0x3d0a09c9bdeda894U, 0x3c95134abdb7d5dbU, 0xbdade07b3ca04fadU, 0x3d5200b1bde075fdU,
  0x3e01da1cbce94ac0U, 0x3d6e3901be060224U, 0x3dc367863ddb6586U, 0xbe94f989bda2e2ecU,
  0xbed8f4aa3c974cf1U, 0xbe0eef3bbdded694U, 0xbe2f97c43e098194U, 0xbe55caee3d154c50U,
  0x3d833de93b9c3287U, 0x3d595d4dbdff82beU, 0xbde386b3be0e95e8U, 0xbe90e146be1eacaaU,
  0xbe064ab23be837ddU, 0xbdbc5a8d3ec6ee26U, 0xbd8ac440be2de825U, 0xbcd9030e3e4adb1aU,
  0xbe0bde39be9f9d82U, 0x3bc0aec73e397227U, 0xbe6648c63df3f44aU, 0xbd85a563be2858a0U,
  0xbe23edffbd7a25f9U, 0xbdd6d961bcf61cacU, 0xbe2f2f263d82a9e0U, 0x3e1568ddbc6df3c4U,
  0x3d8e814e3be863bdU, 0xbccaf2bbbd7a2717U, 0x3dca6da83e4f83a0U, 0x3e7a4970bdd6fc64U,
  0xbe56f45abeaccb11U, 0xbe7e3ec43db16071U, 0xbe07703d3db61489U, 0x3d7dbc3ebe307e74U,
  0x3dc6c0a5be14cbacU, 0x3c14ef76bdd2e2f5U, 0xbdcf0aaebe8179e7U, 0x3ce91020bdafa4f9U,
  0xbd9da413bb491d1bU, 0xbdcb400abe19d2cfU, 0x3d732fbcbe289dd9U, 0xbd9266733db5ecb5U,
  0x3d38eaecbd0f06d3U, 0x3cc199203d956f0cU, 0xbd1b3138bdb59401U, 0xbdd910a7bd6b7041U,
  0xbe394d1bbda2daf0U, 0xbe126dd8bd4c793bU, 0x3c6ce4493e023eeaU, 0xbd61b685bd009762U,
  0xbde2da4b3bd2df21U, 0x3c97c2c73d7c3792U, 0xbda1e509bd13916dU, 0xbca2cacbbe3af106U,
  0xbc88e6c23e807f3aU, 0xbd9f2ab0bdf93475U, 0xbe0099e6bdbe8597U, 0x3bfddcffbe1aef5cU,
  0x3c06f9413e78e455U, 0xbe36bf813e8257d1U, 0xbd35a020bd3df6e3U, 0x3ddf4000be4a45aaU,
  0xbda189373e4688d3U, 0xbe2843dbbcef76f8U, 0x3d972d75bdb0c53dU, 0xbda683503e17ab5bU,
  0x3e2c16c03dc29430U, 0xba2b8c11bdf1f3efU, 0x3c498872bcf837ddU, 0xbdf7984ebd4ba5e3U,
  0xbdcb4e85be0fda48U, 0xbdb590f73d195cfcU, 0x3d06db2d3d4dc09dU, 0x3e321cdbbd7eb72fU,
  0x3d1a435a3d4e4b6cU, 0xbd70eb09bca1525aU, 0xbbf30aa53d9dee0eU, 0x3d84fd65be02dd30U,
  0x3db39f033d92fab9U, 0x3d072a6c3d7d12e8U, 0xbd818c963e01c4aeU, 0xbdb3894a3c86d1deU,
  0xbcdac869bdc04b81U, 0xbd27c82fbcfca65aU, 0x3dbca841bdc4bdd8U, 0xbd6d442bbb399a3fU,
  0xbdfd90e13d697eb7U, 0x3d386238bc4eceebU, 0x3d5327ef3d6ad182U, 0xbd5e24713d1f9feeU,
  0x3c8829ddbcabc28cU, 0xbc0d949e3cabb7beU, 0x3d93328cbe11bde0U, 0x3da181d23d9e7212U,
  0xbc81f3463dd5e77eU, 0xbda619f6bd2499f3U, 0xbe0edef1bd254009U, 0x3cfdc924bcb1b80fU,
  0xbd777a36bd45b492U, 0x3cf3604fbabbf73cU, 0x3ccb2b86bdc368d7U, 0xbd02ec313dc67203U,
  0x3e13d32a3c75933aU, 0x3d9d41aa3b821f15U, 0x3a4a7137bcd2501aU, 0xbd26743dbd87f70fU,
  0xbd91da063d7d460dU, 0x3d82f93a3dcc3b82U, 0x3dca26f6bd8a7e03U, 0x3c33b8a33d1de797U,
  0xbdbee1863d85283eU, 0xbd8baf37bcb7c484U, 0xbd603b28bdf166e4U, 0x3dd6748cbde6de2fU,
  0x3d350aecbd573f7dU, 0xbdf08462be203c76U, 0xbcfb7aa3bdcf2fe9U, 0xbdd2b0e63d976d6bU,
  0xbc4b9b73bd52d335U, 0x3de1a8aebdbe02ccU, 0x3cbed1093d94345fU, 0xbd061323bd980f8bU,
  0x3d5f37febdd3b71aU, 0xbd47134ebd41a059U, 0x3d6559e8bdadc2a0U, 0xbcd3cf9abd3e41d5U,
  0x3d20496abdc66362U, 0x3dc74d493d213246U, 0x3ca662e9bd96f51cU, 0x3ca63ccf3de7a314U,
  0xbdc12c92bd38ba6dU, 0xbda1d1e3bd8cdacfU, 0xbe373b443b03808aU, 0x3cbbc169be0cf1b4U,
  0x3ac3977d3db26edaU, 0xbd70eafc3db1b282U, 0xbe28b3a9bc073b6cU, 0x3e2a3d5cbca607caU,
  0x3dd78939bda61c4dU, 0xbd37e7d33d84b153U, 0x3e1b2a51bde46e1eU, 0xbd89a6c0bd3511baU,
  0xbe0065bebca1313eU, 0x3cf3beee3ddb7ce3U, 0x3cf576373bd0805fU, 0xbe60e0183dcdf3c8U,
  0xbe13013ebe103ff7U, 0x3af997803d057e23U, 0xbe3029debd4ce27cU, 0x3d4ff5afbdf4e74aU,
  0xbd8089443dbd49d1U, 0xbcdb7cbf3c6502cbU, 0x3da1e21abd69c014U, 0xbd8f62c4bd597835U,
  0xbd8e52743e1f1a77U, 0x3d8711be3de87c4dU, 0xbd5af961bda43664U, 0x3e5ddd6cbd5f24b7U,
  0x3d56053ebd2f3b6aU, 0xbe26f3cabd8c952fU, 0xbc26551b3d0e801bU, 0xbd6723673cb88a40U,
  0x3d98ab03bb566ec9U, 0x3d2176adbe2284b0U, 0xbe37131dbd255ee7U, 0x3d6b0079bdeda05bU,
  0xbc0077a0bda8f41cU, 0xbcd87942bc39b73fU, 0x3d8cf674bdd63060U, 0xbe51dbbd3ca7dce8U,
  0xbd1c546ebc8c7b7bU, 0x3c386113bdb84672U, 0xbdc542353c6d2d60U, 0x3c8e7ca03deb10d0U,
  0xbda1b0623d557565U, 0xbd41ff82bd574a96U, 0x3dae3456be6802c5U, 0x3db17df43ca07128U,
  0xbd4ab8c5bd1af62cU, 0xbd902228bd62faeeU, 0x3d09b4f63d33e534U, 0xbd291c9ebd877b46U,
  0xbe0ffc433cc12d8bU, 0xbda950ba3d66c356U, 0xbcac358fbd257045U, 0x3e24cee13d5b8c31U,
  0xbdf1b85dbdd9c73cU, 0x3d36133d3973d5e9U, 0x3c01273a3d99c881U, 0xbddfd987bc8d37e7U,
  0xbd749d2dbd8363bcU, 0x3cd9af473cddc65dU, 0xbcdb675cbdd341c7U, 0xbd4ee3aebc8815faU,
  0xbea727dabd05d663U, 0xbe67b4633e230584U, 0x3c81e6703e0b4eebU, 0xbec88429bdab6198U,
  0x3ca21c283e130dacU, 0xbe018aa23d9ef232U, 0xbe187c7b3d2c3d80U, 0x3d16e6f3bdd546b0U,
  0x3dec3de53d68866aU, 0xbe0a9cccbc4ae5abU, 0xbdde5fb83ead0ed7U, 0xbe675dff3e45af05U,
  0xbe3576f2be455b97U, 0xbd8dea06bd878307U, 0xbe5162293cbf4defU, 0x3e73192ebda0467cU,
  0x3d40df29be0822bdU, 0x3e59c222be851fdaU, 0xbe90859d3c9c9fffU, 0xbd11b8d93e01ca4bU,
  0xbd24f2163e3cff0dU, 0xbd83eddbbebced08U, 0xbe6cb2c8bb8faee9U, 0xbe64f77bbe7c8ef1U,
  0x3df7aa1e3bbc97b4U, 0x3d414569be774132U, 0xbd37376bbd84bf29U, 0xbc5a5b52be2ee99cU,
  0xbe125affbeb3f0c6U, 0xbe388e17bdcaa70cU, 0x3d4090153d02cc13U, 0xbe54d38dbda2ba17U,
  0xbf096358bdfa20acU, 0xbe5e9d463d1e7520U, 0x3dab44b43d3a9bbcU, 0xbe882bf9bd04f57dU,
  0xbe26f5e4be106ac3U, 0xbda68804bf2e7dafU, 0xbc7d9253bf07e45eU, 0xbea9b9cdbc0f93a2U,
  0x3ea3cd69bc492c18U, 0xbece1922bdf4e544U, 0xbe394e543e40757cU, 0xbe2b90c33dad01d2U,
  0xbf04e16dbd706fedU, 0xbd587e8cbdd949c2U, 0xbdb6afacbce11ef7U, 0x3e110dbb3e374634U,
  0xbd151bf8bd0532b4U, 0x3e644260bdd7c5d6U, 0xbe27e0093c475feaU, 0xbc5b3e29bdd7ddc2U,
  0xbe05d8b6bea1a139U, 0xbda72af3beca4770U, 0xbea35b81bd15d201U, 0xbeb1d3253dcaf06aU,
  0x3b6f3f4b3d54b289U, 0xbde79a24bf26591bU, 0x3ce14da93e106615U, 0xbe00a057bd2bf8efU,
  0xbddb4909beb2ec8dU, 0xbeae50c6be816fdcU, 0xbddaa66e3c45fe51U, 0xbcad015fbdf7b251U,
  0xbdaa525bbd9b60e7U, 0xbd560ffd3d2f990eU, 0x3cd791f3bdb01f4aU, 0x3bb353123dff94d9U,
  0x3d13fb37bd6ee314U, 0x3dbaf553be47efd4U, 0xbe56c392be64ccc7U, 0xbea156893baa6ff2U,
  0x3d007a913e5d9faaU, 0xbe326fc6bd32a126U, 0xbe0e88bd3d6a620cU, 0x3e1871233d8ec54fU,
  0xbd17ab6abdf48709U, 0xbd5921983d3364ceU, 0xbb8425503c924b2aU, 0xbe4295833ca30a56U,
  0xbd6f9266bd972c93U, 0xbdc8e2533c810394U, 0xbe301fc83d8c2660U, 0x3dbe12e0be0c57a4U,
  0x3d7596e23c97feaaU, 0xbd3167fdbe19716cU, 0x3de4e5c83c11a489U, 0xbd2469113d4dbc07U,
  0xbe004e233d378112U, 0x3bcb6e413de6c175U, 0xbddd1bbcbcd070b9U, 0xbd546d2bbe24c329U,
  0xbdf0914abc601230U, 0xbe394f5cbd480ec6U, 0x3e20834e3db20dfbU, 0xbda8e0e23b909f24U,
  0x3d427e88be3c4ad5U, 0x3da3b7f43e180312U, 0x3c8fbee9bd6a90a7U, 0x3e53959a3d70f92bU,
  0xbdb8b1733d0f3e38U, 0xbe724f11bdbfb6bcU, 0x3da208e33e73a78dU, 0x3d5e35193ddb80c1U,
  0xbdffab233c56187aU, 0x3e7ce85e3d8c1e60U, 0xbe13cacb3d1170e2U, 0x3d741f893e1b3094U,
  0x3d9baa1b3e229134U, 0x3dbfea3cbdeb5f5fU, 0x3da6c65d3db7fa04U, 0xbcd45519be301fcbU,
  0xbe0a5830bd361e3eU, 0xbcf585acbb2ef557U, 0x3dd094553cfa9f9aU, 0x3e71b74e3d195911U,
  0xbd8630bf3de25ff9U, 0xbc04cf253df16316U, 0xbe327c2abe21cbbdU, 0x3d2327643e00ff46U,
  0xbce3e3b8bd8226eaU, 0x3e65902c3db5f8f1U, 0x3d2e0b1fbe31f83fU, 0x3e9f01c2be05e574U,
  0xbc84bf8c3c91bb05U, 0x3d86114dbdc112d7U, 0x3d9df6f33d91965fU, 0x3dee24b33c3b3592U,
  0xbe1eef113d6c1888U, 0xbd91705e3bc4b229U, 0x3cd4a249bdc728f6U, 0xbbaf265e3c8f5fddU,
  0xbe0c63513bc4a4b4U, 0xbd3efa563df42aa4U, 0xbca7038abbc0e9daU, 0x3c4a961ebd8742b9U,
  0x3deb7186bdea1eaeU, 0xbd64c174be52d128U, 0xbdb849283e55f95dU, 0xbda8f056bab6f692U,
  0xbeae249dbdd636a3U, 0xbe164f67bd5d5351U, 0xbe6e4241be04bc8aU, 0xbdda90eebda72b55U,
  0xbec83d073da16ab1U, 0x3d38961b3e05f017U, 0xbdbf54d13d9b6ab6U, 0xbd5bf354bc5347d9U,
  0xbc53b51c3d332987U, 0x3d923a15bdbc3ceeU, 0x3cdbf2adbe4b130cU, 0xbba3de043dab98efU,
  0xba19409a3dc5ea97U, 0xbd8ca96a3dafb6ddU, 0xbc2f4bfebe43463cU, 0xbd14a070bec8fd54U,
  0xbdd2defc3daa35f6U, 0x3d7b8d753dbf914aU, 0xbdcad1a1be671cc7U, 0xbccb06afbe4011dfU,
  0x3e3ab7cf3d2d1f62U, 0xbc776a4d3d197abeU, 0x3d91f6133be8b9abU, 0x3da32014bc3b0cbeU,
  0xbdaabd04bd8cbef5U, 0xbba8303c3d87aa26U, 0xbc053d57bb1fac9aU, 0xbbba4dc83bdc441eU,
  0x3bcd399fbb491953U, 0xbd6befaebeb3703aU, 0xbcd9b78ebdbbd7fdU, 0xbd11e79c3d13f16dU,
  0xbcb3957c3c694dd4U, 0x3da70de73de7cad8U, 0x3dc498303e3d0d75U, 0x3e2ac83d3b0d9c60U,
  0x3e6ae3dd3cd1197eU, 0x3c5578383d0bff27U, 0xbb07ab343d55f990U, 0xbc0de7333c6f12efU,
  0x3c7820583d08c377U, 0xbb0e2f0fbd012ca5U, 0x3c596146bc8f3c2bU, 0xbcd15b713d742ee3U,
  0xbc0ce28b3cbfca7cU, 0x3a6e180abbd8d536U, 0x3c2a7a5f3e19261dU, 0xbb838b91bc93a9b1U,
  0x3bca1e4d3caa5205U, 0xbc8f2f6b3c3dcf25U, 0x3e88c63a3e55d738U, 0x3d7ea28fbd3fade6U,
  0xbe0de460bb5ae460U, 0xbb1bc301bbcac312U, 0x3c079e913b8410daU, 0x3d0a59833a0e0d2bU,
  0xbb56cedb3d4f755dU, 0xbb135160bd80bdf0U, 0x390324b3bb642deaU, 0xbbd362e1bba740afU,
  0x3b4f45a93ad41fd4U, 0xbc1e8f5a3c0399e4U, 0xba6f56babd1ecc57U, 0x3c08d5c63a56220cU,
  0xbc4b2daf3da485b9U, 0xbdfda3ca3cdce1f5U, 0x3bd3e6053cddf1e7U, 0xbe1335bbbafb11d7U,
  0x3c11c1203a22ff64U, 0x3b91a3b53b842139U, 0xbaa5dcf2bbcb1658U, 0xbaf004a73a91fcb0U,
  0x3bc8333ab9599017U, 0x3ba53ad0bb30e510U, 0x3a7648473d225af3U, 0x3d5704a23c0d6b54U,
  0xbb52d165bb712fb3U, 0xbb07cf533af3f447U, 0x39f553d3bc4958f7U, 0xbb3e5510bd5755eaU,
  0xbb3953d33b3f3b67U, 0xbb078107bae5bdd0U, 0x3e96bde13c458d90U, 0xbd94a30f39d64129U,
  0xbbf4f35dbbbc9fd4U, 0xbab7e03b3b5f7c5bU, 0x3c45d2bc3b5f6a7cU, 0xbdbb6a5dba7154d6U,
  0x3abfce4fbdab726eU, 0xbbad1a6f3d77d584U, 0x3a6bd0cd3bf92acaU, 0x3bd0af833d8419e0U,
  0x3b2fbc99bb568846U, 0x3d48e04bbd16a5b9U, 0xbb91f37f3d54ba2eU, 0x3d6171a23bd00168U,
  0x3c9e8c053dc816beU, 0xbd8c648b3e374081U, 0xbe646e66391f80edU, 0x3dece9333ada153aU,
  0x3c17aa37bbb30b08U, 0xbb0dd88f3af613cbU, 0x3b82b1bbbc25c59aU, 0x3b085ed53b831a48U,
  0x3b9157883b9d95d3U, 0xbbcab13cbbb4a45bU, 0xbb8897aebdfbae9fU, 0x3d02f7023afc20b9U,
  0x390e002cba9bca16U, 0x3af15e29ba1404ddU, 0xbb3d85d0bde3e3f1U, 0x3ae3fc9d3d94a457U,
  0xbb129d0dba4c1986U, 0x3b07e359ba02700cU, 0x3cef9e6c3b812d77U, 0xbe0a4250bd1c576fU,
  0x38d1a601bd6f1228U, 0xbc3271c63c15257bU, 0x3c35dede3b79c31aU, 0xbbe28f77bb2c0886U,
  0xbcfc05a23df6a6dbU, 0xbb97858f3d8f661dU, 0xbb4335353c8d74c7U, 0xbbb140e8bec537aeU,
  0x3ba316ea3c4ac4e0U, 0x3c80a8c3bd3ff249U, 0xbbe3a08bbd28a828U, 0x3cbf1a6f3ca22082U,
  0xbde981ea3e35ae21U, 0xbd771a38bd958408U, 0xbdd2fd913d9201e2U, 0x3d809923bc121c79U,
  0xbe03a27abc3ed61eU, 0x3a7410d6ba82e7a7U, 0xb9f6337b3d74c5dfU, 0xb9d76d853c880fb4U,
  0x3c5f386b3be2e370U, 0xbc176a8abc0f8e42U, 0xbc0bd5993d423840U, 0xbd2fa165bd3d5b5fU,
  0x39edaa353bf6bf0bU, 0x3a1dfc02bb2ec6e7U, 0xbaa64c9c3df77b9dU, 0x3d0e6e233dcc3e75U,
  0xbc25c0853b282dffU, 0xbb09a29ebbbab62dU, 0xbceadd6ebce831c8U, 0x3de5f66c3ca0e5c4U,
  0xbd7be4e8be7240cfU, 0xbbf8398e3c76b0b4U,
};
