/**
  ******************************************************************************
  * @file    network_data.c
  * @author  AST Embedded Analytics Research Platform
  * @date    2025-07-04T12:31:10+0200
  * @brief   AI Tool Automatic Code Generator for Embedded NN computing
  ******************************************************************************
  * Copyright (c) 2025 STMicroelectronics.
  * All rights reserved.
  *
  * This software is licensed under terms that can be found in the LICENSE file
  * in the root directory of this software component.
  * If no LICENSE file comes with this software, it is provided AS-IS.
  ******************************************************************************
  */

#include "network_data.h"
STAI_ALIGNED(8)
const uint64_t g_network_weights_array[6914] = {
  0x3dafaa503e316ed3U, 0x3dd2a6acbeca5c9eU, 0xbe30e9e63e2d71b7U, 0x3da38fc6be91bbe4U,
  0x3ddff5babe55f1e6U, 0x3d6703003ea674daU, 0xbe33c741bdadeb58U, 0xbcc4564ebf0e1d42U,
  0xbe5eca303c2edfdaU, 0x3cd0bd9e3c9fd36bU, 0xbe079defbd8e7dafU, 0x3d9486dbbd19a2b4U,
  0xbc9ab274bd302c96U, 0xbcf4f1503db04ec2U, 0xbd8ce7abbdf61a90U, 0xbd9998b43da448c1U,
  0xbd443df83d8723f1U, 0x3cd310f63d625a48U, 0x3db11eff3cd0fd5dU, 0xbc2e1598bdb95571U,
  0x3d08e0883c8c9d71U, 0x3d7d0df5bc8e49f8U, 0xbdd388c63e137203U, 0xbd6c41f3bd199a4dU,
  0xbe090a38bdc978b7U, 0x3cb71a53bc27c377U, 0x3d8c8f713bab7cb2U, 0x3d1324dd3e46c35fU,
  0xbdb8a2d1bb80309eU, 0xbe0ace373c6dca20U, 0x3d8d5eb3ba96eb03U, 0x3d71548c3cb1ae4fU,
  0xbd144c0d3da296d9U, 0x3d8e43203e4322dcU, 0xbdae0d7dbda3b1fdU, 0x3c3a88103e1cd9c5U,
  0xbe1cf2373d373ef2U, 0xbe3cb830bde7ab96U, 0x3e5a310abd823565U, 0x3d7a64a4bd4e823fU,
  0xbdbd8ceabc872a4dU, 0xbd2079d23c6b9596U, 0x3cce02e73b2f6353U, 0xbd4534683e1eeb88U,
  0x3c5703febd5d9f1eU, 0xbd5c7ba7bde93f6dU, 0x3de48303bde24238U, 0xbe307ef3bd25af1bU,
  0xbd86c2ad3d0d39a1U, 0xbe151508bddebc15U, 0x3c6a8aa7bcb5e7e1U, 0x3e2a312bbcf249c4U,
  0xbe5f2a6d3e3cd864U, 0xbcc7bfa5bd52c183U, 0xbdf630e8bdbe00c6U, 0x3caf97c83e0fa234U,
  0xbe3aa9f13b669e3dU, 0x3ca6ed54bd8ce524U, 0xbdfd65933dfe819eU, 0xbd4e87b3bd6bb996U,
  0xbcb8ac5f3c8e0ea3U, 0xbdc304383ce93eeaU, 0x3a9eb89cbdf2511cU, 0xbd872011bc368338U,
  0x3b0535293db5ec3cU, 0xbd86f9b03d9eb428U, 0x3e1b6fd2be0bdfa3U, 0xbdbaeef3bccca03dU,
  0xbdecc866bcd02088U, 0x3cbadcf23de389d0U, 0x3c98cb4f3dcd7d42U, 0xbd7c2c433daddf73U,
  0x3d356200bd4584b9U, 0xbef129c1bdad1998U, 0xbda9287bbf0fabdaU, 0x3ea647db3ea6ab35U,
  0xbd94604dbf262373U, 0xbefc6cfebeb1b562U, 0x3ab432b13eed8eedU, 0xbef4cb303e4a8b54U,
  0x3d54729ebf85b067U, 0xbef470123d6bf7ebU, 0xbe1102bdbe5548bcU, 0x3e286e633d12bf11U,
  0x3c6a4ebc3e24443cU, 0x3d4156a3bbeec897U, 0x3a8bd66d3cddf28bU, 0x3d6895c5bde4b965U,
  0x3d087bb2bcbe178dU, 0xbe339fa13e556f12U, 0xbb76f7e83d3e4beeU, 0xbe16dc7d3d7c526eU,
  0x3ce5520ebd87daf0U, 0x3d258b683daa53afU, 0x3db583673d8bfef6U, 0xbdc7b1e6bd89e071U,
  0xbb551af7bdca97c4U, 0x3d8631c2bdfb3f8aU, 0x3b13e3e63e1d5302U, 0x3dde692bbd19ef8aU,
  0xbdb2572cbcb13d7fU, 0x3dd7b56cbc73d296U, 0xbe2eaa7a3d78a85fU, 0xbdcf5a7cbdb7f03dU,
  0x3bde00833c011207U, 0xbdafc1abbdb597cdU, 0xbdc4b900bd5e001fU, 0x3bed249e3deb2416U,
  0xbe028294bd9ca4c5U, 0x3d480b953da24047U, 0x3d95e33bbdd01ec4U, 0xbc1bc79d3e2895feU,
  0x3c53f646be45fca1U, 0x3cc4b4ee3cafba03U, 0x3e3dfbc53d09fce3U, 0x3cd8c29dbd7f76baU,
  0x3e3432343d5cf604U, 0x3e0811013db110a5U, 0xbd61556d3e12bf75U, 0x3de531e8bdddd80eU,
  0xbd07ec40bd4ed718U, 0xbe0278b23e10771fU, 0x3bbd6ad83da0963cU, 0x3d59c5203cc58f89U,
  0x3d58838f3df6448dU, 0xbd8eaa62be683f2aU, 0xbe03b3ecbdad1aceU, 0xbc6352a83cd6ca32U,
  0xbacc5e3f3b2c4615U, 0x3db6e544bcf71210U, 0xbe5b8095bdb5d832U, 0x3d1389923dd02d1bU,
  0x3de6c421bd37fafeU, 0x3d90a13c3da29aa3U, 0xbd8b19ee3d207d02U, 0xbd3207ae3d9ee5f7U,
  0x3e0bd7243ddec73dU, 0xbd1fb318bd07131eU, 0x3d3d85513d336e6cU, 0xbe11781b3dcbc380U,
  0x3e0ee08b3da8a133U, 0x3e1e7220bd0f71e2U, 0x3d992aa63c815371U, 0x3e31e3a4be2a7eefU,
  0x3ce58cde3e3d5fd9U, 0x3d0e7d9fbc8a41eaU, 0xbddb4b653ddd4c09U, 0x3a079d5abed4a996U,
  0x3d52e70c3eac6a31U, 0x3d19ab7dbf01f88eU, 0xbdd8f1913dbdbe6aU, 0x3da1db82bdc7784dU,
  0x3cff1fe5bd19ef9fU, 0xbd210f0bbf4c55d5U, 0xbe903c6cbd802d80U, 0x3dbcffae3d0987fbU,
  0xbd7f251dbdcae88dU, 0xbda904583e0bfff2U, 0xbd3807193d94c430U, 0xbd1d74cb3ce33df9U,
  0xbda2aa6fbdf2b1bfU, 0x3d87bcce3db284dbU, 0xbe266573be4c8bc1U, 0xbde1fab1be066fd6U,
  0x3cad30b2bdcf500aU, 0xbd80bc313e074a2aU, 0xbe0f7ea0bbb96b69U, 0xbe2f29f5bd49a437U,
  0xbd9ea8fd3cba2b54U, 0xbe1f8c02be26fefbU, 0x3a6a9a223e2d0a65U, 0xbe616e8dbe6a5962U,
  0xbe3e757dbcb5b5adU, 0xbdc55cdc3e5f8e03U, 0xbdc6de02bd396d52U, 0x3e82d5643e83c585U,
  0xbdbd735e3d65aa00U, 0x3db0a1cebd65213cU, 0x3cc18ebb3e0bae8cU, 0x3d20a38cbd7e72e8U,
  0x3cf471aebdf47938U, 0xbdbfea6a3d4ec055U, 0x3de50eb73dc2ad57U, 0x3c0988a13d923514U,
  0xbc4026a2bdd7d629U, 0x3c91309b3dd6d4fbU, 0xbd277cb7bd6aef39U, 0xbdd38b1ebdd1d5b1U,
  0xbd6234253b01e351U, 0xbe5a5dd53e3321bbU, 0xbd0b3b2fba5d3879U, 0x3d2d3cedbcdcacdbU,
  0x3e377e08bd1224adU, 0xbd5a1068bdf0f14aU, 0x3e163b0c3d94416bU, 0xbadf06aa3deea429U,
  0x3d18b4d63e3fe49aU, 0xbe057b57be1365d4U, 0x3c95203cbe087708U, 0xbe22b6473e6ac5a4U,
  0x3dc53701388f30b8U, 0x3da00a10bde5fb8aU, 0xbe2ccd1bbd80d363U, 0xbd08975cbe129c9eU,
  0x3e277e353dd9226aU, 0xbe2d36fe3db7c68fU, 0x3d8c4b1c3d86b3b4U, 0xbd64a24c3d24853bU,
  0xbba8c9f83b67acd0U, 0x3bdfa59abe7e570eU, 0x3a37e2833d57e213U, 0x3e00e1c3bdf4b606U,
  0xbd016c2b3da51faeU, 0xbde2851dbe00b5a9U, 0xbcad2026bd271091U, 0xbc1ad6dfbaa5e2faU,
  0x3dcfc15a3d88ee41U, 0x3e00444c3da6f478U, 0xbd39d0f2bd585169U, 0xbe272cdb3aab9fd9U,
  0x3df0e238bf0e35feU, 0x3ecb82af3cfddce9U, 0xbc949fbf3e134b24U, 0xbe8dc233beadc940U,
  0xbc1ca80e3e9ca0e7U, 0xbe25b9fd3e66288cU, 0x3d85aa77bf800eb1U, 0x3db593e43ca7b287U,
  0xbd47b4f2bde20c93U, 0xbddccc833c442ad1U, 0xbc7fcaa03d3c308aU, 0x3ce5e15a3cf92651U,
  0xbc80bd42bd11d3e5U, 0xbdcd59ee3ca247ebU, 0x3dbf07383de03c89U, 0x3d70d8ea3dc5da36U,
  0xbd5ba303bd04857eU, 0x3dc527edbe305f96U, 0xbd705e55bd55882dU, 0xbd1c9441bc644e24U,
  0x3d4fe31d3bb92d21U, 0x3cb6a595bdf980c1U, 0xbdadb67d3ce02cb1U, 0x3e0257773cc4fcefU,
  0x3d66974e3cec8cd6U, 0x3d50998f3d35093cU, 0xbb00eb923cee5c1bU, 0xbd6543173c98444aU,
  0x3d2e3a00bd93e77cU, 0x3c82c926bc3f716bU, 0x3d437297bc82a194U, 0x3ddec5663c121978U,
  0x3d1da4823d58c29aU, 0xbbfd51f7bc6c3bf3U, 0x3da62f6f3d3a51a4U, 0xbe52de46bd0caf3aU,
  0xbe373d2b3d21019eU, 0xbd42b02ebd939612U, 0xbda5e78e3e176d64U, 0xbd86867e3d8e48a3U,
  0xbc1eb748bd417dd4U, 0x3e1eee2e3d58a49fU, 0xbcb48aa13dc26ec3U, 0xbd8306b13c958f8bU,
  0x3a616e4cbcae18f8U, 0xbcd8654f3cd95995U, 0x3da5dcd4bd91555aU, 0x3b604e9439a29f1eU,
  0xbda0ce38bdc6c26aU, 0x3d68ee08bd93f4c9U, 0xbcd3e6ffbe2ac7a1U, 0x3ccb0ff6bd456ee2U,
  0x3d68b81f3ded4f43U, 0x3deb04eabc195e80U, 0xbc1004e03e0a673fU, 0x3d244e0f3c0e328eU,
  0x3b8b978ebdb7e462U, 0xbda71c74bdd602aaU, 0xbdbfd5433e15cb85U, 0x3dece1703df70bf2U,
  0x3dc5a31c3d98616dU, 0xbb9eb62bbd9f52f8U, 0xbde2881cbe01aa1aU, 0x3c8ad024bca13ed9U,
  0xbda819d23d93ac92U, 0xbd95a6e2bdd594a0U, 0x3ddd0f0d3c011e16U, 0xbdcfa0083d9ef3dbU,
  0x3d01d6e33d893989U, 0x3ac27c593c331fc6U, 0x3d4a7fc63de4aaf7U, 0x3d48cc9c3d512df1U,
  0xbe49926ebda590c6U, 0x3c7138473eee25efU, 0x3e2bc83dbe49828dU, 0x3daeddb13ec2fd39U,
  0xbe27babb3d92868dU, 0xbc94afa2be033894U, 0x3d5f71c13e18cf67U, 0x3ca317f43f63716bU,
  0x3e985a2e3b0f14e3U, 0x3d485db1bd900dbdU, 0xbc6f7954be1087adU, 0x3d71b2b5be298b52U,
  0xbd6539c43d3c0c7fU, 0xbe3d20713d8db40bU, 0x3e2869e3bdae45a0U, 0x3e14a330bc3d7514U,
  0xbbf8996a3c5c8801U, 0x3d991ff0bcc49245U, 0x3c42ad26bdb0ee29U, 0xbd9c9e92bdcc4a52U,
  0x3d38cc41bc83ed26U, 0x3d98a50fbde39a16U, 0x3db3af1ebd0ac043U, 0x3d36129ebdb37910U,
  0x3db245803da8d596U, 0xbb714527be0d2f60U, 0xbd20f1ec3c4d85a2U, 0x3cdb4f73bdcdba13U,
  0xbe0c76babd9ff20fU, 0x3e009bfb3d540b05U, 0xbe40533e3d5437baU, 0xbdad6f6e3d34330dU,
  0xbcb8aeb1bcd471e5U, 0xbe05f7573e1c1115U, 0xbc0e01893ddc6e75U, 0x3d404b073d03b5aeU,
  0xbb8dc62e3c33ba3dU, 0x3de191a4bd9d98b1U, 0xbb9031b1be7a9df2U, 0xbc279f14bd962ad9U,
  0x3d895b043decf035U, 0x3c513b293d526340U, 0xbd90bb2a3d105622U, 0x3c140874bb93f369U,
  0x3dac3e7b3d574158U, 0x3d73668bbd67f7feU, 0xbe0a4d263e09ce1fU, 0x3c7b5f89bddb61c4U,
  0x3d38b5793ceba988U, 0x3d76810abe001bdeU, 0x3af94b343c8900d8U, 0xbd8625e0bc90e102U,
  0xbc9668c7be49dc3cU, 0xbcd4db8dbc97f3eeU, 0x3de4c6393cf9960fU, 0xbbcddcb23ad4e923U,
  0x3e2cb4893dbb61f7U, 0x3e215e39bd103ce2U, 0xbd763d42bd10e23eU, 0xbe06ebf8bdbbca0fU,
  0xbdb905883df7f9d1U, 0x3de5d9183c8a2870U, 0x3c5cb829bcea5d50U, 0x3d683b21bc0ba295U,
  0x3d65aa7b3e149ce5U, 0x3e36ff953da4cfc0U, 0xbe1bff72bcc1d7b6U, 0xbd63a05cbcbfeb7fU,
  0x3b578eed3cb9be31U, 0x3d9d53be3d7982fbU, 0xbd657bbfbd606b04U, 0xbdf3b73a3c23bebeU,
  0xbdc2c4a1bdf975b9U, 0x3e0d5f1dbe8f821dU, 0x3d06ae5bbbbbb6b9U, 0xbe9fc2333ee71287U,
  0xbd64b556bf224e8bU, 0x3f00017e3f30da4eU, 0xbc4c2204bf17d87dU, 0x3ead213bbecbc94dU,
  0xbe3dddfb3df11113U, 0xbf0ae7d9bd9d2c18U, 0xbdb38b5fbdc94715U, 0x3dc2587cbc79e604U,
  0x3d8f705ebc80ce91U, 0xbded3a833e39280cU, 0x3e1fdf1abe12f62fU, 0x3e0266143d5de684U,
  0xbe0446c2bc4365bbU, 0xbce7bccebd70c4d2U, 0x3d50d779bd13cdbaU, 0xbdc0c0773d9a024fU,
  0x3dd1fda4be4314c6U, 0x3eaba91ebc2bf174U, 0x3c7236193bb2a810U, 0xbd3c5b30bd94aa72U,
  0x3db5ec15be5889f1U, 0x3d9942963e0dcaa2U, 0x3c0b896bbd8119bfU, 0x3d4fb1b73dd34033U,
  0xbd3754b6be539ff1U, 0xbe6106553e06cb49U, 0x3dcc7d48be27d699U, 0x3b832bb73d903b77U,
  0xbe1fa2e23c823200U, 0xbd1902fc3d98fafdU, 0x3cd14679be205426U, 0xbbd6c0e4bc3066f3U,
  0x3da4b63fbc51de7bU, 0x3e05cc95be05515dU, 0xbd9b922e3d2c5ff5U, 0x3e0688303d3015ddU,
  0xbe0ea81c3e1108b7U, 0xbd2ce16c3d4d54b0U, 0xbe1170de3e62a039U, 0xbdc96e3c3d344914U,
  0xbddd9fc73e127a34U, 0x3e4aea5e3d076752U, 0x3dc630693d776f78U, 0xbd91b4c3bdc94d5aU,
  0xbd8ca412bdacc2c0U, 0xbdb081fcbd86d99bU, 0xbd0ee541bdc1ad82U, 0x3e14bb41bd353da7U,
  0xbc62579abe9543baU, 0x3d8f548fbdab7f4cU, 0x3d49b2b7bc0df1aeU, 0xbd5c99edbd9d27c9U,
  0xbd99dade3d5d1192U, 0xbe5a0519bdbf73ffU, 0xbd7bae693c017a3eU, 0xbbee00dd3dab403dU,
  0x3e2ba6dc3cf6dbbaU, 0xbcb62a6bbc70252aU, 0x3d9959f0bb88077eU, 0xbdb63366bcc66b7cU,
  0xbdb1cf3d3e029a61U, 0x3d12039c3e475305U, 0xbc70dc23bd15f6edU, 0xbd17f16d3e2544deU,
  0x3c17c2273dd28487U, 0xbd0579413d2f3ba2U, 0xbe44c76d3c5d7142U, 0x3e58562bbd3505d3U,
  0xbd200dcfbdb983cfU, 0xbd5b94a33c13166bU, 0x3e3affcabe916a19U, 0xbcc387e93ccd0eabU,
  0xbeb13c5fbe028a52U, 0x3d5c70f33e720f1fU, 0x3efa0b573f012bccU, 0xbd4ab3cdbebbddf5U,
  0x3ea55f45beebf765U, 0xbdb95f55be1a204fU, 0x3dc31389bdc0a8acU, 0xbd03f63e3de5826cU,
  0x3d007242ba33279aU, 0xbd271857bd1d7441U, 0x3df2f53e3df04e20U, 0x3dd206153da7fdfaU,
  0x3e0c483b3c9f6475U, 0x3d811318bdf3b76fU, 0xbe07bd68bae475abU, 0x3d95b577bd571308U,
  0x3dee096a3ddf632bU, 0x3c87125a3c7ef240U, 0x3d68a1d0bda5eb37U, 0xbbc9ffd5bc43b4f9U,
  0xbcf327f1bdd0e627U, 0x3bd64ba3bd269cdbU, 0x3cf7e92c3deaf324U, 0x3ce2304fbd2032cdU,
  0x3d7b7d113d2cc2c0U, 0xbcc637353d424110U, 0xbd850411bbbbd70cU, 0xbdb8a69bbd801954U,
  0x3c8a2cbd3c751ba7U, 0xbdacef883cc05844U, 0xbdb8661dbd924816U, 0xbe554585bd918136U,
  0x3e16f9ebbd996430U, 0xbc4ad936bdd37c6cU, 0x3e042e36bcf64df4U, 0xbd82c09e3c66dacaU,
  0x3c170bd53e4a67caU, 0xbc8de3423de9bbcaU, 0xbd3f6ce6bd7d952aU, 0x3bc4ec3f3d638b13U,
  0xbd303403be0b33e0U, 0xbcfeec51bd9fa4f4U, 0x3e5cbe5ebcb96262U, 0xbd0426873e2cd34dU,
  0xbd79c5633d872a5bU, 0x3d54528d3d69b463U, 0xbd80402a3db64ed2U, 0xbdabd7f33dc024acU,
  0x3dfc3da6bc2d8f06U, 0x3e41c92cbd47ff8fU, 0xbc97c6bc3d11072bU, 0x3d9f47513cef2d07U,
  0xbcd465c8bd12223aU, 0x3d4ee968bd98a293U, 0xbcd6c6f83dfda2cfU, 0x3c097937bd5d9873U,
  0xbdeb6d10bd24084eU, 0xbc9af5063d5fe066U, 0xbcfb0a913cb8a274U, 0xbd9ce4c0bc19cddbU,
  0xbdc20f5c3d850c05U, 0xbccb1fa5bdf138e9U, 0xbe030910bdee3096U, 0xbcc09c86bcc32d3bU,
  0xbd32bc9e3a6e5ae8U, 0xbd9c25c23cb0cee5U, 0xbcad3db9bbcfb606U, 0x3b5e81433ca78829U,
  0x3be7afe1be05c5a9U, 0x3d828a06bcaa78b9U, 0x3d43c0f3bcc43efcU, 0x3e365dffbdc08ccfU,
  0xbcf152263dc741fbU, 0xbe2fe973be5d04eeU, 0xbd7f8f463e0292f9U, 0x3df7f23a3badacb7U,
  0xbdf375c8bd053ee3U, 0x3d0028acbd3d8950U, 0xbcb142acbb52d56cU, 0x3d8ba12cbcf3c050U,
  0xbd68e907bddbd0e3U, 0xbd10159e3c060c2eU, 0xbe09a534bd8ca539U, 0x3dd19ac93d6c84faU,
  0xbe0594a1bd6d30b9U, 0x3dee6d993cac0543U, 0xbc1cbf2fbe4b679fU, 0x3d0563db3e3f5048U,
  0x3ccc74dbbdeeb396U, 0xbe0596f3be166ad6U, 0x3db2eb643d9728c6U, 0x3dff81f53dec36ecU,
  0xbb06bce6bd115b7fU, 0x3d91966fbd7a7a62U, 0x3c334ed83e3d1d1dU, 0x3db912b23d790258U,
  0x3d8167dcbd85a45eU, 0x3bbe7dccbd25f962U, 0xbdbbf5debdcf9d8bU, 0x3d69fcfdbdc2e77fU,
  0xbe42e6cabdab5832U, 0x3ca05bdcbd810083U, 0x3e2068873baa1a94U, 0x3ca5928d3d93b069U,
  0xbdf04d66be280bb2U, 0xbda3c17b3e2a61efU, 0x3cd9308d3ba2a7f0U, 0xbcf149b73dbe61e0U,
  0x3b0d487ebe13892fU, 0x3e0a98ae3e021dfcU, 0x3e7b0284be3f0095U, 0xbd84aa9ebd61c6bbU,
  0x3c986815bde6fea8U, 0x3d09ad9b3c81543eU, 0xbd81ac8cbd87eb3fU, 0xbc8d56febd21a833U,
  0x3dcb4e9b3d9d52d0U, 0x3cbbfefcb9f27668U, 0x3e1b1ff73d752aacU, 0xbc56a53a3d7e6277U,
  0xbdf2321fbe201af0U, 0x3a51ebf33e3a2ac3U, 0x3dcf85be3d5f93d1U, 0x3e397b263d653ec2U,
  0x3d9790623e0ea907U, 0x3d775c45bdca1f44U, 0x3c2b921c3e3f6dd6U, 0xbe05ce613d39bbc0U,
  0x3da771183cdcc87bU, 0xbd08ca8cbe309dd5U, 0xbd1119a5bdcc8b13U, 0xbd256d7d3e0d5f9cU,
  0x3da3acc73de29229U, 0xbd1e0ae2bdb26406U, 0xbe27ddc43df6781bU, 0x3e49ed7ebe56e0dcU,
  0x3c179c813bce1758U, 0x3b839cdfbdb0592cU, 0xbd4535363ddff99bU, 0x3db96fd8bd13c312U,
  0x3d43d79dbdb5a857U, 0x3b5263303dc5912eU, 0x3d9eb832be2d19e4U, 0x3d30af463da2ce6dU,
  0x3ed88dcabd2a3f2dU, 0xbc5014dd3c5964e5U, 0xbe33d1323e640eb8U, 0x3d81e1f3be32bcecU,
  0x3e95f8d33fa71432U, 0x3bc1baebbf8e4a01U, 0x3f2d550ebe539269U, 0xbe6cae233d94b1f2U,
  0xbe752acdbc531f3aU, 0xbe09c54f3da350b6U, 0x3d89e8ef3bd79808U, 0x3e97eb66be9a96ddU,
  0xbde71d82bd2302bbU, 0xbdc32eb0bdf4459fU, 0xbd8adaf4bd9860e8U, 0x3d5c2bf8bca8b1e4U,
  0xbd2229afbe552362U, 0x3dc649633dd53470U, 0xbd72a84bbe1b6a7fU, 0x3cf84f8fbe71be05U,
  0x3e14b1a5bb7d392cU, 0xbe3074543e50f513U, 0x3e3af2403e271badU, 0xbd4c7c6ebd7f057eU,
  0x3e3812ba3dac379dU, 0x3d7289203d12ae42U, 0xbd1e2fcfbdb9372dU, 0x3d297c313da1432eU,
  0xbe6c1cd83e8490c4U, 0x3dc6d50f3dc1c97dU, 0x3d5cd342bd0cc11cU, 0x3da4e2ad3e1b93d9U,
  0x3aa6e7b83c30d1c9U, 0x3d7505fcbcf5acc1U, 0x3ddd9af0bd65a188U, 0xbb06b422bd88b608U,
  0x3b29da22bc26be84U, 0xbdb7c1e93c4b3edeU, 0x3c4f98e2be02e5b2U, 0xbe3f4adfbd8d30eeU,
  0x3d3ae5f0bd317bf8U, 0xbe1aa8bf3db9a0d4U, 0xbda6e7473d34f468U, 0x3da22a5ebcd50df2U,
  0xbcd0b96b3e0b19eaU, 0xbd35b0bebd182083U, 0xbc306d8c3c0ea9b5U, 0xbe0bfd31bd81edc4U,
  0x3e498d893c022671U, 0x3d32c859be040fd6U, 0xbddbcf1dbdbe960bU, 0xbd3015273e284643U,
  0x3cde4bbdbd158d8dU, 0x3d8647e0bd055b34U, 0xbcc618733e7fb076U, 0xbdadeb8b3d2e6603U,
  0xbcd78366be7fa2c0U, 0xbdd464fabe39d884U, 0x3dd8c0043dbb6ef3U, 0x3d65ffc43e5144fcU,
  0x3c1453cd3d95a804U, 0x3cc24c433dd86ef5U, 0xbd4f2724bd3fe2bfU, 0xbcb5464cbdde3f21U,
  0xbe19f29abd505732U, 0x3e101bc5bdc1b870U, 0xbce46a2c3d94cdefU, 0xbd616b44bda23797U,
  0x3da85db1bd893c4dU, 0xbe3d39ecb966cb36U, 0x3db0cb333e020390U, 0xbd771e2f3d56425cU,
  0xbd831a103e1c4b72U, 0xbecfaaf93ddd4e6dU, 0x3d28d40cbe7044cfU, 0x3e8af2543ea84032U,
  0x3d316568bee6b6f1U, 0xbe88bba0bec9bfd6U, 0xbcc243ac3ead49feU, 0xbec6ed3c3e4cd605U,
  0x3db4ea4cbec411d3U, 0xbe9596383b9a1bbbU, 0x3d6b2839bc8e1e8fU, 0xbd9702ee3cc9b080U,
  0xbda87c263d19ddd7U, 0xbe1fa5703e36be5dU, 0xbd59ea09bdc75c73U, 0x3d767be53c870180U,
  0xbe0b1c043b3717dcU, 0x3d13ed26bb9ff7a6U, 0x3d9474adbda56df0U, 0xbe070563bd19698fU,
  0xbd13f5043d7175f2U, 0x3dfd3d693dd76555U, 0x3e350898bd0faa15U, 0xbdbfb66d3dcbae19U,
  0x3e24bc63be2020e5U, 0x3cd1ac6fbe4a7904U, 0xbda76b0f3d7584c3U, 0xbc206d75be19ca80U,
  0x3d52c64d3daa8e78U, 0x3e3a5cc93dad3ad4U, 0x3c6a7e7cbdd5ac15U, 0xbdce12413d810f7aU,
  0xbc3424e43da99236U, 0x3e8437253e3beb28U, 0xbde952093d08a2b9U, 0xbd6403ad3d84ced8U,
  0x3dbe8df63d51e8f1U, 0xbd376aba3cd014d8U, 0x3daf69ed3cd269deU, 0xbcca6dd2be4064feU,
  0x3dc1d1263e11e0cdU, 0x3d7095a5bcf6c742U, 0x3d5008eb3c060e19U, 0xbe3df146bdf54cb9U,
  0xbe1f64593d9fbf29U, 0xbc6dbd1cbdd379a7U, 0xbcc15072bd1e4340U, 0x3ca79d5bbdb61120U,
  0x3cd04ba53c895ebeU, 0x3d41cb91bcfa7bf2U, 0xbc147d1c3b44a0a3U, 0xbc917e37bd6459bcU,
  0xbd8a8f9abe4f2733U, 0xbd6173b33dc3dce8U, 0xbc01a28cbd389cc9U, 0x3d527f093dc873a0U,
  0xbdf10aa4bd7df06dU, 0x3d89a23e3d1e4835U, 0xbd9b5562bda1a7acU, 0xbc3c1be13dfa6514U,
  0x3de0f1af3dd28c63U, 0xbc0ba695bda4dc0cU, 0x3e05b38f3e29d04bU, 0x3adbc9b7bd2e81f2U,
  0x3d40e9cebc0313f9U, 0xbe0ff5d03bcda259U, 0xbd37376fbd324e84U, 0x3ded2fb83cce4b09U,
  0x3a7b2e07bd3fe963U, 0xbe31583ebb6e9450U, 0x3d562d923dda6c61U, 0xbd50894d3d648a83U,
  0x3d8e30edbcb47e35U, 0xbc8f66a1bc635ae9U, 0x3dfdaddc3d01e2d7U, 0xbb85bc03bf2c06baU,
  0xbe08f9a9be8c590aU, 0x3c6d310b3f1299d5U, 0x3dd78519bcd4c312U, 0x3d5df20c3da11c1bU,
  0x3c8968d5bd0b3f8eU, 0xbbf910c8bfb215d6U, 0x3ebdaac6bce40678U, 0x3dc1bf543b74186cU,
  0x3e40f93fbdf8ba94U, 0xbcf5b944bc46a2dcU, 0xbc3f3948bd84970eU, 0x3e5861ecbc3dde97U,
  0xbd6d2814bc566ea3U, 0xbd830afbbe0d8662U, 0x3c42783c3d81b690U, 0xbd897531bd078c42U,
  0x3dac53093d80e7feU, 0x3df96ba53d29f3c8U, 0x3c7dd362bd0d01d4U, 0xbe02d9273e192522U,
  0xbd9a81af3dde8646U, 0x3e262857bd87a436U, 0x3d2e5a763d94f521U, 0x3d3165a13bde79e7U,
  0x3d227af8bdca3e8fU, 0x3b410f983c0fa37eU, 0x3ddc2c7fbc95d705U, 0xbaa366153e0258bbU,
  0x3cb91e6b3cf6fa65U, 0x3d261ce53e27a69aU, 0x3b32a3143dd5ad2cU, 0xbd148d3a3ba19eb1U,
  0xbd40c03a3c87c2dcU, 0x3dd323323e812652U, 0x3d91dad63d7de40dU, 0xbd08c23fbe035423U,
  0xbd80ff48be02b192U, 0xbd855f8cbd1179f2U, 0x3dc42d17bd03fafcU, 0x3d122678bbd58b1dU,
  0x3d618714be0515c0U, 0x3b19e23cbd71011fU, 0x3b29f9c2bd950dc8U, 0x3d13235639db8f4cU,
  0xbd51804b3c8d8c56U, 0x3db5a6913e063db8U, 0xbd9aceb5bde6e761U, 0xbda28873be23c7a6U,
  0xbd91eaa13cdce32dU, 0xbce274493e1787e5U, 0xbd5a4ebd3e3371b0U, 0x3d618e50be392dfbU,
  0x3cd5c3a93db155e4U, 0x3dae9fde3dbb51e2U, 0xbdf300d7bdb69a5dU, 0xbe0c7e003dc8d1f0U,
  0x3e0a7b22bd060aceU, 0xbd3ab6073d623196U, 0x3cdca5fdbdbd356bU, 0xbc4016a6bd50ff4eU,
  0x3cd653cf3e06883dU, 0x3d92c164bd6163d5U, 0x3e2fb75bbccaa058U, 0x3dfaff2ebc6d494bU,
  0xbda8d8493d802f04U, 0xbd88374f3ddd3963U, 0xbdcf8b5cbcab94f1U, 0x3cc273373d2cdbb0U,
  0xbcf69cebbc017e20U, 0x3e08fea1be03840fU, 0x3dd30920bb01778fU, 0x3e5b2de53f05174bU,
  0x3d4fe123beba9a21U, 0x3ee73e3bbd552a24U, 0xbd8267cdbdf3846aU, 0xbee73ea6be3e72fbU,
  0xbc1b45c83e3635f2U, 0xbe3baa503ec20efeU, 0x3d0ed94cbf1f4ff4U, 0xbc0e69c33d8d7b19U,
  0xbd117c77bc2ba535U, 0xbd88a7103dc203b1U, 0x3da78eee3dca6fffU, 0xbcd7a48c3e1343c1U,
  0x3c7a5cfabcac3cdcU, 0xbe183eaf3c850a96U, 0xbd425298bdb2a086U, 0x3df9e5e63d24abbaU,
  0xbd79c07c3b627815U, 0x3cdc4beebe1c87cbU, 0xbd7e6c58bcb9fda6U, 0xbd8ded643de19370U,
  0xbde166113d017135U, 0xbd6a9781bbe21f15U, 0xbc6b9d58ba69c936U, 0xbd2f3fa2bd749820U,
  0x3cf678293daf3555U, 0xbdfb9832bd2b54f3U, 0xbd57e5b0bd8c5088U, 0x3d0d4b02bd68fc62U,
  0x3caba2a7bdc55456U, 0x3d3ef0b1be39b4d4U, 0xbd8cc2e2bd8a043cU, 0x3ccb8e89bb713252U,
  0x3d85ddf9bd9c9325U, 0xbc1afe393e087ee4U, 0xbd504f07bb89857eU, 0xbd3794a33d38c98cU,
  0xbc760c0abb75a930U, 0x3d938d973c9e5f1bU, 0x3cbf72003c87a7bbU, 0xbd2c55d3bd37b1f1U,
  0x3cb6f017bbbfbb56U, 0x3d07937ebacdb543U, 0x3d16e2143e2a0991U, 0xbc00faefbd91805fU,
  0xbd391dba3d4a23d4U, 0xbaf0d9a9bbfb691eU, 0x3d60fbdc3bbf728bU, 0xbdcff9b03e3a8949U,
  0x3c811d49bd490e03U, 0xbda543253dc1ad9dU, 0x3e1164e43cf6fc1fU, 0x3d9907de3d856d6eU,
  0x3e001a923d178e86U, 0xbdeb6f863cd4d618U, 0xbd4359823cdf174cU, 0xbd88d981bcd45441U,
  0xbc93f814bd95f47bU, 0xbd6bc174bdf6911eU, 0x3d68734fbd38d8b3U, 0xbdc416ffbd6e2417U,
  0xbde5b7183dcb295eU, 0x3d0b5d22bd191dbcU, 0xbd61f3373ca5d95dU, 0xbcec15db3d36962dU,
  0xbd4d85a33e624118U, 0x3de7e358bd84e292U, 0x3cc065ff3df436f9U, 0x3e07d2dcbcaf5dd7U,
  0xbcab1b973de25f8eU, 0x3deb772d3da287f7U, 0x3c831292bd1401bbU, 0x3e2388aa3dfb7ca7U,
  0x3cc1326d3e6dab7bU, 0xbd2ceb65bee6576bU, 0x3e8624dd3efd7252U, 0x3d88e495becbaf90U,
  0xbec5d81f3e88a0cbU, 0xbd37f68abecb72bdU, 0x3d78d8003d1e452fU, 0x3d361b8bbf2f4ad8U,
  0xbe9c67bf3db04295U, 0xbc0bbacd3e20b61eU, 0xbdde6d99bd5056f2U, 0xbbc4816fbd810a3bU,
  0xbd143098bda9eeffU, 0xbd37dac63ddd9f36U, 0xbd6f4d133de8eb54U, 0xbde5772cbc2e9878U,
  0xbe0bc274bd6af208U, 0xbd14359c3d61e96cU, 0xbcc48f53bdcce7cbU, 0xbd97caebbd2c8935U,
  0x3e09ddbabe3b0659U, 0x3dcfd76f3d83068dU, 0xbd49ed50bd445b67U, 0xbd3a0b91bce444d8U,
  0x3cbac4cdbdb65640U, 0xbd620ce7bd4c8138U, 0x3c066f9f3d8a30fdU, 0x3c93ade9bd29fe76U,
  0xbccfe04f3e97a5b4U, 0xbdae6b0a3d8780cbU, 0x3d4c0f88bd5965beU, 0x3e36a2aabdf6f1ccU,
  0x3d8175b0bb4b7e61U, 0x3dc3c1c3be28296dU, 0x3c17781cbe6dd153U, 0xbc7c054fbc36cdc7U,
  0x3dd374863d2b9261U, 0xbd6480893e022c92U, 0x3e2e0882bdaf31a9U, 0xbd260b33bc902d7bU,
  0xbe593510be10919bU, 0xbd9adba13d8f87cfU, 0x3d8505bf3cd19f25U, 0x3dd577f03e233152U,
  0x3e3782b3be3357aeU, 0xbdb3d4a9be607120U, 0x3e13dcadbd75e962U, 0x3c9a9848bc7fcc01U,
  0xbd5d101e3de9d516U, 0x3d4b6f603df30033U, 0x3d20f7293b04c9f2U, 0x3e08eb663da6b35cU,
  0xbe15bd9abdfa51deU, 0x3d99f0f5bd76b4b8U, 0x3dab12ac3e1d8526U, 0x3d4281ca3bb2aaa5U,
  0x3d9394b43d473f4aU, 0xbc71f7183d87a519U, 0x3d97b7ef3e177d3cU, 0x3e15270e3bc418a2U,
  0xbd0325653ddbfb11U, 0xbe16db4f3c14e635U, 0x3a2ccae53d6dde73U, 0xbdef54993a3fedbeU,
  0xbdfba2c4bdef92f6U, 0x3e10d8523be5b0b7U, 0x3befa09cbcdae7f2U, 0x3de81a723d2c3b40U,
  0x3a04bee3bdbd5015U, 0xbc928391bd36debbU, 0x3d5ec0be3d3f6646U, 0xbe07a68c3b49b58cU,
  0xbd86e89abde287fdU, 0x3d9c37463d9d692cU, 0xbd9420ae3f395caeU, 0xbe097005be61767eU,
  0x3d03412a3e8e3e00U, 0x3e524d19bdfeb7a8U, 0x3cfc53563c2399b3U, 0xbcd05b56be0e612aU,
  0xbd55edd73fa0d940U, 0x3e0b1d2ebd88c0cbU, 0xbbcab08d3c8b9c1cU, 0x3c367858bd9e48baU,
  0xbce9e545bd021fdbU, 0xbd9a58b53d75f27dU, 0xbdc3f6893da56a78U, 0xbc8f64053dd009d5U,
  0x3e0ed84e3e4edd51U, 0xbd11cab33db401f5U, 0x3e0a7e71bdd5612eU, 0xbd79490cbd4b671bU,
  0xbd3010e3bc460ed0U, 0xbd8047583d8c97ccU, 0xbdd635953e4189c8U, 0xbdd794a93c0278f6U,
  0xbc8d40963d8acee4U, 0x3d383bb9bd929898U, 0xbce883e83e13f658U, 0x3d8472153d69defdU,
  0x3d9b6ef23ba6e4e7U, 0x3c62ef38be129aa1U, 0xbd5a0ae83d986080U, 0x3d1cd4053d26cf6eU,
  0x3bee9b493da5c507U, 0xbd2dd81cbd888cb9U, 0xbce2280cbd6efb00U, 0x3d3617a5bdb849b3U,
  0x3c33ca3fbd965e47U, 0xbd9f9f733c812cd4U, 0x3bfe14b63d3434b3U, 0x3c1c6c7fbd9ed2caU,
  0xbd21332ebe03c3f4U, 0x3d57ee413c39023eU, 0x3c825d393d2293b9U, 0x3d967846bd2088b2U,
  0x3d1178133dc229deU, 0x3ce412ea3ce1ac6cU, 0x3c2d22e6bb6cfb74U, 0xbbda7b1abd7831dcU,
  0x3c97c5e7bc737fa1U, 0xbcec4b2fbdc33ba6U, 0x3d3a4964bd9592f7U, 0x3cdfd74cbbff8d29U,
  0xbd685fc43d16b313U, 0xbd9fceb7bc934290U, 0xbdee565eba9862f2U, 0xbddae87abdc7a434U,
  0xbd1e10913d3d2b17U, 0xbdd342c53dcb4ec8U, 0xbd9fef4f3d1aa198U, 0xbcd665c93d1230bdU,
  0xbd0896233d3667b7U, 0x3d654f06bbd9b523U, 0x3db6cfe7bd7fc5f9U, 0xbd0212b43d6011d5U,
  0x3c5c5fca3daa2ca0U, 0x3d84c092bb9463f8U, 0x3d807c783cdc0fbbU, 0x3cf47f9b3d152975U,
  0xbe1c39a4bdda1030U, 0xbcd0627e3d1e6434U, 0xbd89029ebdab9d49U, 0x3dc8f876bc727631U,
  0xbe2e15e9bd1f0cd6U, 0xbe024a42394c9f4bU, 0x3f06cb3dbdd2534dU, 0x3d0d3cc7be8645fbU,
  0xbec2dc88bce2e896U, 0x3c54b34d3b510cabU, 0x3ec7d23c3f8f1828U, 0xbd8436d5bf880703U,
  0x3f172183bea19ce6U, 0xbe9169b2bec533d9U, 0x3e99663bbda3587cU, 0xbd0253e83db29de0U,
  0xbd19bbb23d9a447eU, 0xba9a2721bca0065dU, 0x3df0b76f3da6ed04U, 0xbd161e06bd369691U,
  0x3d9aad27be610be3U, 0x3aaaf3dfbe4b19b3U, 0x3ca437acbd9540f0U, 0x3c9eddf5bcfec3feU,
  0x3cbcc7cebd2c4370U, 0xbb3c9a46bd9eee2eU, 0xbcf31d3e3c402983U, 0xbdbc5ea9bd5bce5eU,
  0x3c973858bdb73d32U, 0xbcb880933c0a842dU, 0x3d14bf33bd7b1417U, 0xbd4c14553cc870c3U,
  0x3cec044e3e103cf9U, 0x3d7d789fbd51ce21U, 0xbdaa837bbc8badcbU, 0xbe0fac9f3dcaae34U,
  0x3dca408d3da65e98U, 0x3ccebcffbdc99045U, 0xbd0c818bbdcff30fU, 0x39b702a63db1f1fbU,
  0x3c99d50f3d2766acU, 0xbda049223e2040d9U, 0x3e16d8d93c8836c2U, 0x3c97baab3e0fd539U,
  0x3d38a9773e5cfac4U, 0x3e26e9a63e1c699dU, 0x3d57969c3e07b904U, 0xbe6a07f13caf310fU,
  0x3ca57a753e438613U, 0x3dbde439bd9a44bdU, 0x3cc4686b3c82b708U, 0xbd360c1c3e0bb6eaU,
  0xbd165a93ba0d3668U, 0x3cdea807bd0bc6ecU, 0xbe0ef0853d76c93aU, 0x3e2f35053daa6a39U,
  0x3d3ecbd03e6f9ed9U, 0xbe06d5213da36eb0U, 0x3dc9915dbcceefaaU, 0xbcb957b53a9abe64U,
  0xbc752dc7bdf8305dU, 0x3dc74ffa3d306940U, 0x3ce2a4973df5b8f2U, 0xbdecfc79be065fc2U,
  0xbe34157ebd768a1dU, 0xbbbb0a73bb2b5ac6U, 0x3d9e21043dded8deU, 0x3d3c16b8bda9c0caU,
  0x3d9c0f60bd970ba8U, 0xbd217b25bde29fd2U, 0xbd65b8b9bcfeab70U, 0xbc780bb83e2f553dU,
  0xbc62f3f83db5fd9cU, 0x3de9adb03b3c5b1cU, 0x3dbc91953e0258c6U, 0xbde325d6be3088c0U,
  0x3e04e2a1bd9dd880U, 0x3c6c9731be23e512U, 0x3db51d8dbc0af814U, 0x3d2ac4903eacc14aU,
  0xbd4e43b7bf2f284aU, 0x3e56d4bbbe68516eU, 0x3be478dc3e87f993U, 0xbe8bdc0bbebd4613U,
  0xbd4655cd3ebf0bc7U, 0xbddcf1f43ea56e93U, 0x3c03cac4bf8b3bd5U, 0x3f0909f53cc6fe48U,
  0x3b9199afbd172e46U, 0xbe0eec00be6772eaU, 0xbe5c6907be0f8b6fU, 0x3e034964be023061U,
  0x3dda8049be0db97dU, 0x3d9514df3b9ef9e0U, 0x3d0903483d387f4eU, 0x3e0c8108be1dd2b7U,
  0x3d9a783fbe2d2c65U, 0xbd9cae673dd1efd3U, 0xbd21a6523ea43619U, 0xbe46d0e83ccbe74cU,
  0x3d4a9e72bcec6e98U, 0xbd8bb0aabc9a53e2U, 0x3e87d3ad3e8f3a38U, 0xbd8af5b4bdac90ddU,
  0x3d35e5883d50c8e6U, 0x3d881aa03e09c1f6U, 0xbaa6c4e43d9b64e3U, 0xbdd643d6bd415404U,
  0x3e677d9b3e3e77f0U, 0x3e40e0963df83640U, 0xbd84fd1c3de01671U, 0x3e65c8f63e5d753dU,
  0xbd495a9e3d86ebe5U, 0x3d308b3fbe018475U, 0xbde5a7f3bd844313U, 0x3b524e223d5e6ca8U,
  0x3d0d04d43e3e7f1cU, 0xbdfcfbc2bbdc49eaU, 0x3e79f6443db53bafU, 0x3d24e8583e0790f5U,
  0x3c5a0061bd25f826U, 0xbe028b293d8c40daU, 0x3c8c09d13de9bc43U, 0xbc03b5333d9b2f89U,
  0xbdcc45123da5631cU, 0x3ddc3e93bc4f0342U, 0xbdc9bcff3c8d9378U, 0x3cd882353dbd3331U,
  0xbd908a30be6cdb8cU, 0xbc496471bd83802dU, 0x3db89ea23ac377c4U, 0x3d0f1e293defb1ecU,
  0x3cb245afbe6d3d3bU, 0xbdc2acdfbded6d02U, 0x3e21bcbf3cd01daeU, 0x3ca60b0cbdf57a0eU,
  0xbd89a530bdc41c42U, 0xbdaa02143dad3ddeU, 0xbdb697073dcdd27dU, 0xbe6c156b3d9dd52dU,
  0x3d6dd76abd9f0499U, 0x3d1b9bb03d644a46U, 0x3d9fc31e3b603d6eU, 0xbc9c1437be2096bbU,
  0xbc034e513e096d8dU, 0x3e3c29d5bd44b84dU, 0x3c84ae1cbb245f48U, 0x3e1a3b8ebcdf93ccU,
  0xbc00f4553e2bfd8eU, 0x3da6cb09bd2b93f5U, 0xbcbb76cd3ce0722cU, 0xbd3fc510bd76270cU,
  0xbea4d5763e1575ccU, 0x3ca20ffe3e68afbaU, 0x3e9281df3eda6a04U, 0xbce40128bec8e94cU,
  0xbe83e786bdf4a16fU, 0x3d2215ee3e20c724U, 0xbe78056c3e676ae8U, 0x3de7e8bc3e8f5363U,
  0xbe84caf03db807e8U, 0x3dd5559bbc343410U, 0xbd1c47423d9feff2U, 0xbc104a163d1be179U,
  0xbd28c3de3d89183fU, 0x3ca8e87e3dcce42bU, 0x3d8137663e211757U, 0x3dafdcb13cca8698U,
  0xba36283cbe8da12cU, 0x3c717dac3db67fa9U, 0xbe03afbabe26f8f1U, 0x3d3b3466bdbceb95U,
  0xbdb28ea7be287955U, 0xbe458d54bdbb4953U, 0x3dd616723d9b3103U, 0x3c464318bddb1354U,
  0x3dcb15ccbd8aacd6U, 0xbdcdb4153e3aed3bU, 0x3cf673243e01675aU, 0xbd6c45dabd72ad37U,
  0xbde7675f3bb04414U, 0xbe8339abbe60da05U, 0x3cf1a77ebd535d5aU, 0xbdbe74233b5b0018U,
  0x3c54fb5ebd30961eU, 0xbc919d8abd1adc73U, 0xbc8703543dd2b2bbU, 0xbe0caebd3d351a3fU,
  0xbcaa9677bd3f5f6fU, 0x3dd1be35bda8fea2U, 0xbdfc00e43df7f7ceU, 0xbdb48744bdb9d0acU,
  0x3e06d366bdd29054U, 0x3dbb760ebdab62cbU, 0xbdbd3b43be38d5ecU, 0x3dd15d09bd0bff5bU,
  0xbbd1367a3e18be3fU, 0xbd97d6a63bd6b1eeU, 0x3dc41d603da66c12U, 0xbe477fc53bf04aa8U,
  0x3e0127f8be1500f2U, 0x3e7fe8a53c993f43U, 0x3dc9c975bd7ac467U, 0xbddc161a3d1ed457U,
  0xbd9845edbe026636U, 0xbdd16c1b3d3bd0b4U, 0xbd6463973dc9746eU, 0xbd3a3cb5bd370162U,
  0x3d536b5d3c1ebd75U, 0x3d7b32173c6a38d2U, 0xbd9b6b16bcb6b6c2U, 0xbd921ce5bc966706U,
  0x3e317a363ccfbf4bU, 0xbd3ff13ebce41bffU, 0x3c56be4c3d4eb731U, 0x3e75d5da3df1a27eU,
  0xbe0a4a393ce8c1bdU, 0xbda399403dd8ee85U, 0xbc4ee3d3bb9929a4U, 0xbd848d833d36541cU,
  0x3d0e87f73c07dcd3U, 0xba34b51fbd1eb297U, 0x3e0027643bf0b2eeU, 0xbdcde59bbc98393fU,
  0xbd4b46f6bb3c3aedU, 0xbe0eaddb3ed5aa36U, 0xbd8cf4debe594a46U, 0x3f0cdbcfbe9a5b15U,
  0xbc152f763ec8ed0cU, 0xbeeb9bd3bf0daf92U, 0xbd9c30893ef956b9U, 0xbec4765f3eed5dc6U,
  0x3e296594be544ac1U, 0x3e70f7fe3e259108U, 0xbd16ac8b3e2b4920U, 0xbe2413c03cc00da3U,
  0xbe33dfc33d8215cbU, 0xbdc91654bdbbf51eU, 0xbdb1d53ebc8f6f48U, 0x3d948958be21818aU,
  0x3b1be9fabd8f9623U, 0x3d697afc3dea3e5eU, 0x3d4450593ce11653U, 0xbd7ca5183e70f275U,
  0xbde629c73dba8596U, 0x3e59fff1bc28c20cU, 0x3c24d4f9bd58b3b0U, 0xbe1346d03c98f088U,
  0x3bdd62bdbba344b5U, 0xbdcfeb4fbd825634U, 0x3ce32f35be0a0daeU, 0xbcb4eade3dd3a98bU,
  0x3e42b2683e17cb57U, 0xbcae9e2fbc5f5ebeU, 0x3e2da9873bec4d28U, 0xbb5bba223db56287U,
  0xbd4aa65cbc594e6bU, 0x3df8cc3cbdc74b91U, 0xbc25a61abe57337eU, 0xbdcd45773d6f7205U,
  0xbda436d73e23d3d0U, 0x3d7e2e5bbdbc5479U, 0xbca534ae3d963093U, 0xbdb91d2abc2e3235U,
  0x3d4574b4bd1de380U, 0x3cd7b2703e5467a6U, 0xbdbfc5923bca69c2U, 0x3d95b0c6bcccc7a6U,
  0xbd302be33c0e11d2U, 0x3c4a18b4bba4b251U, 0x3e2e9491bd286622U, 0xbe0b8f3c3e584c1aU,
  0xbdf60a523da857a6U, 0xbd268ad5bde9ddadU, 0xbb3ef9e43d220bb4U, 0xbdd4d6fd3e27e909U,
  0x3c0eb6003c71b875U, 0x3d988211bc86e426U, 0xbdd4b3013c8c4a90U, 0xbc05f109bd8efcf1U,
  0x3d3fa90c3d829a32U, 0x3d67add8bd4a6347U, 0x3d746738bdb334a5U, 0xbd2e49d93dffe54aU,
  0xbb9be946bc176caeU, 0x3d230dd7bd6498d3U, 0xbc810bd3bd9a3bc0U, 0xbb9af41b3e0488d5U,
  0x3d5250d03cfd2c59U, 0xbb7ee1e23d12f5c5U, 0xbd6674a43dd91e78U, 0x3e16561abca5595fU,
  0x3e01b2c93d93fa47U, 0xbd3fea003d99d643U, 0xbe40909b3d60988eU, 0xbd08b8c8be31ae1cU,
  0x3dd2f7f5bd160919U, 0x3ddaf47dbd592c87U, 0xbea067583e500335U, 0x3cee1cc73da5f6d9U,
  0x3ebeba033e102508U, 0xbc61fe20bdf1dbc7U, 0xbe93dd013d939954U, 0x3e075200baa3bf45U,
  0xbd9260fd3e645ee2U, 0x3d2e58273c529c55U, 0x3d348403bb0bba93U, 0xbd9045cb3d485c2eU,
  0x3bce69da3ce52281U, 0xbc827b4cbe152760U, 0x3cf630a93e2e6defU, 0xbd8a80893c013772U,
  0x3bbf78073d3347c5U, 0xbbb0b2763db3bc85U, 0xbd87e6593d16aec5U, 0x3dabd673be2fd2b2U,
  0xbe37bc7fbe1a1071U, 0x3dab6ccabdff5381U, 0x3b092282bca93ec2U, 0x3d1a30723dc68af2U,
  0xbd0b102bbcd8d79cU, 0xbdc6427fbd0ad4c1U, 0xbd2d6ec2bcfd38cbU, 0xbe30c85a3d97e028U,
  0x3cca84643de3d513U, 0xbd64c050bd92ebbeU, 0x3db5a378bb918f01U, 0x3db6c64cbdb51a46U,
  0xbc06a323be25b057U, 0x3b8590e13c19b8b5U, 0x3d8386d53d49969dU, 0x3da2a8283e674865U,
  0xbe0cd527bdc267e8U, 0xbd54540cbdefb3b6U, 0x3d2c77233e8cb32eU, 0x3cfeb5ffbdff7706U,
  0x3bb0eeb3bd501c9aU, 0xbdce9f883d2c51b0U, 0x3a9927c73d189a38U, 0xbd04520f3d5cc3f3U,
  0x3d5d335dbcfcf6aeU, 0x3d1edc343e71fdafU, 0xbcd80f66bd99bd05U, 0xbd8d5d1dbd7e57f1U,
  0x3d59b24b3d10be81U, 0xbd0f29f23d521a0fU, 0x3d52b9603d0d27fbU, 0x3c573179bdf1ae60U,
  0xbcc8ddb93c677009U, 0xbd930c483d1520a1U, 0x3da80cec3bb78ea5U, 0xbcd9f0343d8a69e6U,
  0x3d90708cbd560326U, 0xbd0ea0513d0c51d6U, 0xbc0d6e343ca630c3U, 0x3c8c529abdc814b3U,
  0x3ca4df32bd0f348cU, 0x3db01d62bd81e11cU, 0x3d83c8b1bdbf1543U, 0xbd6bd1b53df4f24cU,
  0x3d01f47d3e12afd7U, 0xbd28db1dbc314145U, 0xbcf325813d9483f4U, 0xbc6cbba73c4943aeU,
  0xbd140ece3cd2a41fU, 0xbae31e98be4c7dc9U, 0x3b9be9c3bda705d5U, 0x3d6136cabd7f9a0bU,
  0xbdd9c8f0bd8b1783U, 0x3dc317c7bbde97f7U, 0xbd1c7e99be6950f2U, 0x3e462a11be781402U,
  0x3d20fbb5bec32794U, 0xbefa9c67bd99b097U, 0xbcdbb35d3c971d39U, 0x3ed28e663f2ade73U,
  0x3d4945ffbf131cedU, 0x3ec35f0abea71352U, 0xbda77615bf0bac2dU, 0x3d6f6d60bded45caU,
  0xbc9ae0b7be22f611U, 0xbd89a68c3cda3ebaU, 0xbd260b6e3d37da93U, 0x3c7b13c53d9c26a0U,
  0x3e39d9bb3dcc9b3aU, 0xbde6518b3d6b2fb6U, 0xbdce49c9bdcc9c46U, 0xbdac4236bcf0dc00U,
  0xbd1fbe33bda65d04U, 0x3d008c51bd017a27U, 0xbcf93f66bd20f9f0U, 0xbda91b2b3ba1d887U,
  0xbddca48c3dd2e4e8U, 0x3cc0069cbd1cfb1cU, 0xbdd686913d1a22deU, 0x3daddb32bd852e5bU,
  0xbcbdf258bd62455eU, 0x3d032c0cbc1d3477U, 0x3d4a0607bba0413dU, 0xbd87c2d73cf98556U,
  0x3ded1545bd0e0d56U, 0xbd3572a5bd900ccdU, 0x3b6d41c53cff2c61U, 0xbdbe4eaebdab5df0U,
  0xbd5a75f93d0dbfd8U, 0x3d8c9bfe3d73ff10U, 0xbd08d2a4bd4df302U, 0x3dc0c49e3d80ec27U,
  0x3c6afa473c53c3e7U, 0xbc8c6bfcbc95c3f1U, 0x3c7fde0ebd0048bfU, 0xbd8846fe3dd8212bU,
  0xbd13aaef3db96966U, 0xbca91a65bdd27382U, 0xbd05bf4abc98c3a1U, 0x3d7f053c3e24a360U,
  0x3ccf88bbbd5420e6U, 0xbd22164fbca0d51dU, 0x3d8111783d78a3b1U, 0x3ce7127a3b9a2616U,
  0xbd3aa6a93cefcce1U, 0x3d720fce3d0b367cU, 0xbd24a957bd039db6U, 0x3e068572ba8c6bdaU,
  0xbde55011bced7fe0U, 0x3bfc4f5cbd87e9d5U, 0x3de065dcbd49da95U, 0xbe0757473d8eb3f6U,
  0xbd08dd75bd6abbcbU, 0xbc0f7164bc5c0833U, 0xbc94ee57bc5b6b45U, 0xbd70888dbce8b01fU,
  0x3dc6437f3e021aabU, 0xbd05fd923d688df9U, 0xbc39731fbe584304U, 0x3df614bfbc452efaU,
  0xbd3946fdbb714b1dU, 0x3d627d88bd8e8e66U, 0x3d91e7e03c402e93U, 0xbd8a0ec93c9ed6daU,
  0xbd4d94d1bddcc203U, 0x3d7c0cf5bb2c06b0U, 0x3e11cddbbdef00cdU, 0xbc987b073d3cf29eU,
  0x3e3ca5f73efd9086U, 0x3c2917f3bdaa12e8U, 0x3f56d0453cfd642bU, 0xba6760c2bd72ad81U,
  0xbf3caf333efd35c6U, 0xbd658159bf119e25U, 0x3ed8004c3ecfbab6U, 0xbdc887f6be64a39cU,
  0xbcb5f7683e900757U, 0x3ca0be6f3da52281U, 0x3e4a0bfebe42880dU, 0x3ea97bcbbdc12241U,
  0x3d97a85e3e0724a7U, 0x3d2ae705bc89e98eU, 0x3d7174843ecc56caU, 0xbd82bd213e2a08f8U,
  0x3e08da303cb72a31U, 0x3da92ce4bd2c9f73U, 0xbdfdf4e5bdad3dc3U, 0x3e12a81a3d6fbba8U,
  0xbe07292bbe54e545U, 0x3d2820eabd5805bfU, 0x3df6fcd1bdaf3674U, 0xbe6451e83c5854c7U,
  0x3e61ab19be5079acU, 0xbdd3c963bdb0aa1fU, 0xbe09c4fabe17576cU, 0x3db225773d61dde4U,
  0xbe279c583da3ef22U, 0xbd755f683abec0dcU, 0x3d466893bc9b5cfaU, 0x3d4ae2753e3438e9U,
  0xbe0396d93c9cb51cU, 0x3cf4e369bd69cc75U, 0x3d02667c3db00014U, 0xbd97063b3d3472fbU,
  0xbe5ac343bde9e45cU, 0xbc2cbfb43da04300U, 0xbd92a28fbe3c0f57U, 0xbcc93020bc718c11U,
  0x3e36058f3cc3841bU, 0x3b98a2a5bd848b81U, 0x3d141499bdbd1713U, 0x3c9b56c3be0ce442U,
  0xbde1ef95be0d11faU, 0x3baee47fbc8f682eU, 0xbd2aa5c1bd84d364U, 0xbdb2aa00be0ea10aU,
  0x3d8d41fb3d132592U, 0xbcde6d42bd1c7908U, 0xbd0576ddbe2c32a2U, 0xbd721cab3dff21fdU,
  0x3c376ceb3d9236e5U, 0xbb63158f3e08a635U, 0x3c7c0d73bccce70aU, 0xbdf8fd1fba80b131U,
  0xbd72412c3e3023bdU, 0xbcb4535a3e0724cdU, 0xbdac528dbd9cfb01U, 0x3e03030ebe6bc300U,
  0xbd064d6d3e352941U, 0x3dc00ec63d2e5307U, 0x3e0a85a0be35d75fU, 0x3d99bb043ddd24d0U,
  0xbd9362ba3d2b14c4U, 0x3e5144e43e11ac57U, 0x3e1706ef3d9608bfU, 0xbd367b7f3d6391ffU,
  0xbd414f0dbd7813c1U, 0xbe26e7a0bda62330U, 0x3cdc3b2dbdf8e2f1U, 0xbdd513d1bd8dff29U,
  0xbd15437fbdcb0416U, 0xbe458c0c3e559b8cU, 0x3d410fd43f2beab3U, 0xbcddaf80bc3067c6U,
  0x3bfdcc48bd763ab3U, 0xbaab54833ebadc8bU, 0x3d098149beaf8e54U, 0x3e8afb8c3db0509fU,
  0x399947813f859bc9U, 0xbe90ec28bcbc52d0U, 0xbd5acacdbdbcbaeeU, 0x3dba83f93d2c8f67U,
  0xbdc5084abe43a3efU, 0x3d8a34923d8d2ff9U, 0x3e39770abe1a083bU, 0x3e040af03d51395fU,
  0x3e529daa3cb8fa56U, 0xbe3f470b3d93facdU, 0x3dc6b7943e70dc0fU, 0xbdc3d8a83a5f3f92U,
  0x3d463dfabccb7c1aU, 0x3d768b96bd83afb3U, 0xbdd18893be15804fU, 0x3d553a4e3d839e87U,
  0x3dc69fe43cd9167cU, 0x3cb7d116be4e0923U, 0xbda5c085bc615f6cU, 0xbb48a7463c7d18a4U,
  0xbd333493bd7716a9U, 0xbd9e0b4b3e134f83U, 0xbddbefd43decef75U, 0xbced4004bd9f691aU,
  0x3e23cacdbd374f90U, 0x3d7111bebda1002aU, 0x3d8f0c323d97fdfdU, 0xbe007387bcd4bda8U,
  0xbdb7d9133e3c8d6dU, 0x3c03f2873d0e32b8U, 0xbd6ebb2d3d2555c8U, 0x3d10d0f7bd5c6e9cU,
  0xbd5b0b9cbca9c9deU, 0xbd7619c33e10bdefU, 0x3d8b24d93c19d1ffU, 0xbe2572c4bd8ba502U,
  0x3dcd0e4abd0fc0cbU, 0xbd42edbd3e10d6ceU, 0x3cd71e223e04b6d3U, 0x3dc901593cece699U,
  0xbc6dce29be2e1e69U, 0x3db02abfbe84e66bU, 0xbc07f07a3db58bb6U, 0x3db5e017be1b2aacU,
  0xbdde6b7b3d9cf4f6U, 0x3d7162cd3e01a75aU, 0xbe171d253d867f2dU, 0xbd0f94e93c193e7dU,
  0xbe686fda3da4ed24U, 0xbca4c5da3d89cd37U, 0xbd3adaadbe056a00U, 0xbce2d6643e1297e3U,
  0x3d1995573aa92a51U, 0xbd8e14873e172e03U, 0xbde154873c048bc0U, 0x3d910c503c9265dbU,
  0x3d09ffb4bc337d47U, 0xbd3c5ab6be239911U, 0xbe4b9221bc9cc2a7U, 0xbdb82c5dbbfd090cU,
  0x3d43b86abcddc625U, 0xbbd95fbf3d96f2bfU, 0xbd970aa9be3cd1a5U, 0x3de779053e2f1f0bU,
  0xbe0f8194bd541a24U, 0xbdab39a33db9aeb9U, 0xbd4eb7ef3d674ba2U, 0x3e0a60a3be329f97U,
  0x3ed3df58bcbca041U, 0x3d0c49c73e81b494U, 0xbe9b530c3b0c3359U, 0x3ba01120bd148363U,
  0x3da4aa2f3e3fa523U, 0x3dd5179ebeeed8c5U, 0x3ead3cdf3cdb1ebcU, 0xbda7ea483d1c44c5U,
  0x3d03a557bc8c6d43U, 0x3d5afa4d3c8f74e1U, 0x3e05b54d3d73aca4U, 0xbdcb1243be40206bU,
  0xbd7b9047bd9c6545U, 0x3d983c36bdc2a773U, 0x3cf276603c07ee3bU, 0xbd35f25bbd76958eU,
  0xbcdae8243d05a314U, 0xbddc2ecabcd60f47U, 0x3dbed1a33d541cd3U, 0x3e16682fbd9c517cU,
  0xbd465c8abc925711U, 0x3d56993ebdb83a85U, 0xbd979ffe3dbf0f1fU, 0xbe2ecc7e3d4dc55eU,
  0xbe1f0ebebc96def9U, 0xbc611ebc3d8b3e8eU, 0x3e17313dbdfc5ad8U, 0x3c284671bd57d40bU,
  0xbc2d9e98bd5eea3aU, 0xbc31c96cbd3c1f49U, 0x3db6978fbdfad0edU, 0x3d888ea7bcb8e0a1U,
  0x3be574533d51f4f1U, 0x3beb44463d4615cfU, 0x3de2f205bc542280U, 0x3dcb4846bd2254c0U,
  0x3d4ac45a3db536daU, 0x3e0976f6bdd897fcU, 0x3b844dd03e03784cU, 0x3dea779bbde5a848U,
  0xbd814be1bdcce3bfU, 0xbe73b14cbba652acU, 0xbe49fc71bd914e40U, 0xbcfc9c98be1d0aeaU,
  0xbd32e93f3d6b34c3U, 0xbc58db04bb5e327eU, 0xbd094db4bc53d232U, 0xbd83c0423e42d269U,
  0xbd94f98f3d8522f2U, 0xbd808908bd11b706U, 0x3dcda7f33de8283cU, 0x3c8f62f13d11bb5eU,
  0x3e1bb5b2bdce574aU, 0xbcc027a0bda27743U, 0x3c8ab8753d17c80dU, 0xbde321eebdf3390cU,
  0xbdce64ab3e29a89fU, 0xbdd3f4f43d9c60bdU, 0xbc603def3dd79350U, 0x3e1c71ac3d8137f4U,
  0xbd8b5b6a3c417a10U, 0x3e459b55b9f314e5U, 0x3d9d48c4bb9cc525U, 0xbd1ef7ad3dd01673U,
  0xbd531faabcff8bd0U, 0xbd2f2028bd12d626U, 0xbd9ef6353d2ba45eU, 0x3c76862a3e009012U,
  0xbd05bca53d1db407U, 0x3bf06f7f3d233644U, 0x3ae17ca8bd29b9a3U, 0xbc5c5a99bb6a80c1U,
  0xbd7705e7bdcd5e65U, 0xbe5a4ee5be39e141U, 0x3d41b3bc3dcd115eU, 0x3e53faf5be481337U,
  0x3c38214d3e8173b1U, 0xbe605d58be44090cU, 0x3b6765a5be3e8b88U, 0x3d8eca1fbc4cb540U,
  0x3c3d7618bd84d607U, 0xbd368a053da3628cU, 0xbd371a1a3d6867f4U, 0x3d8e48143dfcb045U,
  0xbc336720bdcca1f1U, 0xbcb3d5cfbbb655ffU, 0x3d8d6a5abdcc6de5U, 0x3c97fbc7bb0d3560U,
  0xbdaf31173c41048eU, 0xbd51da113d6418a2U, 0xbcf529ae3be331f9U, 0x3ba3ce663d60d9c2U,
  0xbc56b8a0be18d1ecU, 0xbd619a19bd025d30U, 0x3d1f997bbd362222U, 0xbe1811b1bcdede94U,
  0x3d7d57523d248d96U, 0xbd096230bda49533U, 0x3d38c0983d47f293U, 0x3d7a4767bcc49379U,
  0xbc8a3387be0cb958U, 0x3e3d240d3d5572f5U, 0xbd2e4a823e0d0801U, 0x3d0caa443dce24c6U,
  0xb9259ffa3d8008cfU, 0xbc21e22f3dd8e6b1U, 0xbd9b9b0a3e3a1d6cU, 0xbe344ea2bd7bb955U,
  0xbd2459e13d0b17d8U, 0xbca5d483bd551262U, 0xbda361ab3c79ebefU, 0xbd33ddd5bd290c9cU,
  0xbdeb81c2bd3819bcU, 0xbdd1de0ebe0da866U, 0x3d7650793ddffa41U, 0x3bb221a63d8309abU,
  0xbd370d763d6abc86U, 0xbe1959063b8a76e8U, 0x3d07a77dbd0306daU, 0xbddbc1623bcbd889U,
  0xbdac0832bd830366U, 0xbd3dce8a3e2fe654U, 0xbc085fabbd5b3325U, 0x3d17c39e3cb53897U,
  0x3c4682143d82576bU, 0xbe01b612bde75d18U, 0x3d8c03973c3ce4b5U, 0xbdbd19cfbd14ca1dU,
  0x3cdf4c80be14509aU, 0x3da607fb3e025d3eU, 0xbb08de27be02f336U, 0x3b814857bdb8eaadU,
  0xbd8817cd3e2de403U, 0xbde5e8633c10044bU, 0x3e21d2bf3e404a4dU, 0xbda979773ccb9301U,
  0xbe3ca467bc976211U, 0x3dd1cfa1bd59f7adU, 0xbd987acb3d298b00U, 0xbdd1a8343dc4aa95U,
  0x3c13e49c3e3cc8c2U, 0x3d381bf33cc71934U, 0x3d22cd38bda48fb0U, 0x3e081b39bce7fcabU,
  0xbd012dab3d88ea97U, 0xbd8fbdcc3f0b382bU, 0x3c7bccf1bea58dd5U, 0x3c1d7e5c3e6874d6U,
  0x3df28ca1be9949d4U, 0xbdb3c4963eae8003U, 0xbe809904bd5a4143U, 0x3ae108bb3f2b121bU,
  0x3ea38f1d3ada905fU, 0xbe053570bdbd713bU, 0xbbb5caf6bd05f18fU, 0x3e353c333ced590eU,
  0xbd3eafa53c8daf7aU, 0x3e2faeaebe545504U, 0x3e540e573e4119abU, 0x3d8b13673e23e116U,
  0x3ca224a1be3b3ffbU, 0xbd83d92d3e883b3cU, 0xbc3e2f2e3d8d43e7U, 0x3d514487bdf5ad1fU,
  0x3bbf8bd2be1cfaa5U, 0xbe275be4bda0449bU, 0x3df45365bd93bdf6U, 0x3d1f47b63e23120eU,
  0xbd635350bdf6813eU, 0x3e21d5213d78f1baU, 0x3e06b12abd7a243bU, 0xbca2810fbe0b8f3bU,
  0x3c7afd65bc3d6197U, 0x3d965074bd98143cU, 0xbd2d79253cf1ba18U, 0xbd92be5cbdb6425aU,
  0x3e357ebc3d8f53e8U, 0xbcec9a93bda7eb71U, 0xbe03788e3da7a32dU, 0xbcbe897ebcc1bdd1U,
  0xbdd446bebe16d79dU, 0xbd7c23253db1de5dU, 0xbb7f1078be046862U, 0x3d818d253c904eddU,
  0xbd8157eabd5d3458U, 0x3cb186613ccf5a68U, 0x3e304a99bcc0c8c5U, 0x3d8f708d3de4e25fU,
  0xbd3e019d3e738778U, 0xbdfffe123cacc214U, 0xbd436f85bcc7b788U, 0xbced21b9bd858091U,
  0xbe072af13da333e0U, 0xbd7c95f0bd00e5cdU, 0xbbf70b843cda125fU, 0x3cf0c2be3d4c8342U,
  0x3d53cf51bc90effaU, 0x3de20db839f66745U, 0xbd4ada81be53e669U, 0x3dfaceffbe1eef41U,
  0xbda15d5ebe00873eU, 0x3e1c4fbf3d71145cU, 0xbc47687dbe7a3d04U, 0x3d235982bd9f11dbU,
  0xbdaab78cbd292135U, 0xbd86b7b33d07995cU, 0x3afe2adcbe331804U, 0xbd9fefdb3d8f67ddU,
  0xbdba78093e57a584U, 0xbb29ff993e33994eU, 0x3e241dae3e7a9bc6U, 0xbe3e5177bd4923f2U,
  0x3cf60b9fbcb2002bU, 0x3cf4ec10bc9b407fU, 0x3d195b25bcf89c5eU, 0x3d78adc6bcb2e6b0U,
  0x3dd3d48a3d4ef807U, 0x3d5874033ec93e4aU, 0xbb4d06f4be59d660U, 0x3cf5158f3f000df6U,
  0xbcff560abf026df3U, 0xbcdff059bd413acdU, 0x3b0bc6133e20e997U, 0xbe24d4babd2967fbU,
  0x3d647b7dbeb11069U, 0xbed024bb3cdc8fccU, 0x3e119958bde6795dU, 0xbbd47abd3df9872aU,
  0xbe015f253de92572U, 0xbd542eda3d9d8922U, 0xbd7607e43d11467fU, 0xbe5651ab3d322954U,
  0xbe414185bd3d825dU, 0xbc6626c5bd967cacU, 0x3ce6c4433cc8e048U, 0x3d9f75a33ddb6395U,
  0x3da399b6bd880699U, 0x3d6029023dbd6592U, 0xbdb7c2333d89d894U, 0x3d6d54363d967cacU,
  0xbdfc654ebe1faeceU, 0xbd4593c7bd9f5d58U, 0x3ca0b68c3d25c3ceU, 0x3caa6792be0675baU,
  0xbdae15a63c67344fU, 0xbe1760df3cf676f9U, 0xbd24b56fbe2d365eU, 0x3d8c77603da03298U,
  0xbd99ee58bd3e9a1fU, 0x3dbdb63a3d925fc0U, 0x3dd2901abd988b88U, 0xbcfddf49bccf881fU,
  0xbd70a195bc9770cbU, 0x3e022cb2bd62b106U, 0x3e3122a7be5415f1U, 0x3cdd7dde3e21d21bU,
  0x3d8beb75bdc11f74U, 0xbe169abb3dd8a453U, 0x3baea5dc3d10c875U, 0x3d8f48d83d41aefbU,
  0xbb3ae8573e11b983U, 0xbd936793bd3a071cU, 0xbc9f1ea93c8904d5U, 0xbc16147cbdb3e5b6U,
  0xbdc8278b3de454aaU, 0xbd2b2b69bcc7653fU, 0x3e0953e4bd020539U, 0xbd4fc85c3e3a5717U,
  0xbda05cbbbb0145bbU, 0x3c59c96abe64ba38U, 0xbc6b4e3b3caac076U, 0x3b335ee33e040b33U,
  0xbe1ab931be06c601U, 0x3bc59ffd3dae70f4U, 0x3e5c732d3d8af388U, 0xbdac36e13db6d747U,
  0x3e2651c53e70ac06U, 0x3ded6606be100cf0U, 0xbc8aadbb3d8432c3U, 0x3d9a2996be2aa240U,
  0x3d85fd233d5ad055U, 0xbe016e4cbc8996eaU, 0x3df48098bd99027cU, 0xba98257b3da9774eU,
  0x3cbf04433dad06a4U, 0x3e0f88edbcbab4f9U, 0xbdb1a0073c8ccce0U, 0x3d989fc23d3ee075U,
  0xbda81920bdcd853fU, 0x3d768562bd98b6dfU, 0xbecbb9a43f0c8cffU, 0x3d905a8abdb30627U,
  0x3eff2e1d3e8fbde1U, 0xbd9a50d53daba0b4U, 0xbf1ddeb8bea319a3U, 0xbd5322e03e717f1aU,
  0xbdac660b3ecc408bU, 0x3e3f5d18be49ebffU, 0xbdeef2993da9fd44U, 0xbd8fdbe4bdad66f7U,
  0x3d24dd013d651557U, 0xbd827346be72f79cU, 0x3e11481bbd8f42a9U, 0xbe1ff694bda1bdf6U,
  0x3e7044133d8157b8U, 0x3d951997bdacd972U, 0x3da4ac93bc3ccdc2U, 0x3e3e207e3e309d1cU,
  0x3c00851a3c1da515U, 0xbd01ead83d65fa41U, 0x3d0942983e2af9b1U, 0x3e131a2cbe2a2689U,
  0x3ddce9d0bdec44c0U, 0x3ca42e3b3d981d0dU, 0x3e04f942baaad857U, 0x3e298a6abe41d66cU,
  0xbdeb4497be10f038U, 0x3dec7d383e42d4a9U, 0xbd2eac86bd0f8ea5U, 0xbc2eb09dbe8cb098U,
  0xbdd09fa4bd691871U, 0xbbcf3fae3e094a4aU, 0x3e867a02bd2ea618U, 0xbd1913493d6a5b4fU,
  0xbd0d02bd3d6064d8U, 0xbd240ed9be28205cU, 0xbdc8bb61bd46c88bU, 0xbe140303be56ec94U,
  0x3e0a8f30bd7a6edcU, 0xbdc1ae04bde7106cU, 0x3d4845043d477a95U, 0x3dbf03ee3e46a8bdU,
  0xbe15ec363dc54cbbU, 0x3d88ac0abbf2d57aU, 0x3c81a1f63db1b077U, 0x3dd1c2d4bdc3c59eU,
  0xbda54609bbe7cdd9U, 0xbd31d8f6bd563c94U, 0x3ccbd83f3d7b29daU, 0xbcc4ec203e02decbU,
  0x3c8802bfbe56a5c3U, 0xbdc4684bbc8e9aecU, 0xbd04fc6f3dac27c2U, 0xbd843c3eba755812U,
  0x3d01cc84bcb2702dU, 0x3b0bd14a3b9a435fU, 0x3d80c5253cb7fee0U, 0x3daf5f803dea2268U,
  0xbdab88613d51d466U, 0xbcffc8f83dfac50fU, 0x3d974e313cfe5b71U, 0x3e6b4de8bd733027U,
  0x3dc1db603d3513caU, 0x3df6f6223db4f688U, 0xbd916e763ddd0278U, 0xbd85b998bc7116faU,
  0xbe0974b73c863d97U, 0x3df4f8c9bd83ae71U, 0x3d7c9954bd07a4ddU, 0x3c9b410c3e1e39dcU,
  0xbce2c8dabca0d96fU, 0xbdb43276bdf07944U, 0x3c6ed390bdfdc255U, 0x3dcff5333e8fa7aaU,
  0x3cf81b96be0273beU, 0x3ec6faaf3ee6ba04U, 0xbcb9163fbea153deU, 0xbea59fa13eea45a5U,
  0xbd26373fbecaef48U, 0x3e9e648a3e80a6d2U, 0xbca561b3be99b9c4U, 0xbea6d8e53d030e8fU,
  0xbd294e013db0a597U, 0xbdfb2142bbb9e44dU, 0x3d820527bddf46f8U, 0x3d4bab65bdfd794eU,
  0xbcffe6653daed120U, 0x3d1efaca3dbe1f1cU, 0xbd101f39bdd4af45U, 0x3cb566ddbd48bcb4U,
  0xbb0991f4bc297e9bU, 0x3cf2456f3ca8d0a4U, 0xbd037f41bccdf3a2U, 0x3dfed4283e521003U,
  0x3ded7d1cbd9327d0U, 0xbdf3e0ffb9bd4082U, 0xbd829bdbbdad03f1U, 0x3dbb7f38bddf677dU,
  0x3d3a433b3e01bf4aU, 0xbdd614a7be00f8b9U, 0x3ce531933c5bc005U, 0xbddbfc09bd87d91aU,
  0x3d2de2c43e1e4a5dU, 0xbdd29ef0be099d8cU, 0x3d9f0bbbbe629be1U, 0x3e1afd2b3da3b255U,
  0xbdf2c04dbdc941acU, 0x3d84ea4a3da038cbU, 0x3bfddf18bddb31b3U, 0x3e066d55bd2eb40eU,
  0xbd054dfc3cd9d172U, 0xbdbfd7073bd70f69U, 0x3d2fa3263d9c9b28U, 0xbd30cc91bd9596c6U,
  0x3de206c3bdc57c70U, 0x3d9f43623d78dff3U, 0x3d3d193e3d95fe5bU, 0x3da59c2dbdc01733U,
  0xbdb146c7bd0b28bbU, 0x3df59fe13be8b651U, 0xbdb7d6aa3d55c96cU, 0xbd13c32b3d51a517U,
  0x3d281c803b25b759U, 0x3dfe6c53bcc94521U, 0xbd7908953ddbbfcaU, 0x3cabad54bdbd4ee1U,
  0xbca52b903cd08667U, 0x3deb0a343dad86e6U, 0xbc3379c7bd948d28U, 0xbca17552bccdb8a5U,
  0xbd8fe692bdefc149U, 0x3b1a21cd3dba9c09U, 0x3db7f5043dbe9566U, 0x3dbce1443df6529eU,
  0xbe278f39bd5aa2f9U, 0xbd8b4a8f3d97e711U, 0xbd8dd23bbb0b52f9U, 0x3c9b6a22bc5a2c7bU,
  0x3bead728bd94a19dU, 0xbd01d34cbd1c31d4U, 0xbdbbd6f3bcd940a9U, 0x3dbd11b7bd742ef3U,
  0xbe172a923cdc54daU, 0xbc2934143da21284U, 0xbdd424103cc2b22bU, 0xbd9b997cbbc25f34U,
  0xbe807f92bea6fa6dU, 0x3d0959663e696acfU, 0xbc3499203bd5de5cU, 0xbb6cd412bdd10f78U,
  0x3dbb9dfcbe9aa103U, 0x3dbefa2d3ea7a057U, 0xbd7618c03ca0ace5U, 0x3e009c233eae7681U,
  0xbd435c79bce225ddU, 0xbdff97eb3daf9affU, 0xbce4534cbe3e717bU, 0x3e84d96d3d2e6b6bU,
  0xbd2a8a2cbe5dfd15U, 0x3deb3d95be4441caU, 0x3e096589bd45307dU, 0x3cffb1e7bd875be6U,
  0xbcdf66eabb8acabfU, 0x3dfba8febd8a132bU, 0xbe86ac11bbcb9624U, 0x3b489dd5bcb8741bU,
  0xbda9e3273db19333U, 0xbe7436253d0b492bU, 0x3c5bd4a9bd132bcfU, 0xbcb4ee39bddddabcU,
  0x3d76f5dd3c124e72U, 0xbd23d109bcf38397U, 0xbdedf7483e1ee02cU, 0xbdca15a73df85074U,
  0x3ba34c823e0f1a3cU, 0x3d9059c93d8b11b8U, 0x3da3bfbf3c9a1161U, 0xbdd21f4b3d882016U,
  0x3e0bf596bd497047U, 0x3c391ba43e0c664dU, 0xbdd14410bdab5f97U, 0x3d135d713e0d977cU,
  0x3cb0bdaf3d1d5744U, 0xbae51dafbde7b1cfU, 0xbb1bd8723dae842aU, 0xbd94d3ea3cefa86cU,
  0xbdd10ec9bd5b1586U, 0xbd4cab4bbbbf3592U, 0xbcc6051bbd591777U, 0x3c8f4e723d769820U,
  0xbe038e9ebdf93990U, 0x3de5bfe0bd801f9dU, 0x3dcf6e523db9dec5U, 0x3cf58437bdab74d7U,
  0x3d8b1721be2e42b1U, 0xbd8699bc3dba3536U, 0x3d7caf6cbe2a4af6U, 0xbd94747e3e3dcb6dU,
  0xbd625b493dc1d63fU, 0x3e0afee2bdc768f3U, 0x3e0bca193ce5906aU, 0xbe4a8981bdf6f7ccU,
  0xbb6b580bbd979604U, 0xbe86049abd32a598U, 0x3dbb6ea33d5f4376U, 0x3e86ebccbc3b9efcU,
  0x3cfd3e21bdd0f23cU, 0xbdcf4fbabbd2c060U, 0x3e00527bbd681216U, 0x3e1b065b3d3a2f8dU,
  0x3d3386123db0de6dU, 0x3e02f3703df08687U, 0xbdc9f4a0be069abaU, 0x3d5f65fc3dc83d7aU,
  0xbe5fa0ffbe79dd47U, 0xbc94bff7be0b6f5eU, 0xbd6cc859bd1ce334U, 0x3d0f8a433c9b95d7U,
  0xbdb47f103d271e35U, 0xbe31e0393edebc15U, 0xbd5da77e3dcd467eU, 0x3f3d149abd4f38feU,
  0xbd398ca63e84c8e8U, 0xbf39e9eabec50b42U, 0xbdee486e3eb28264U, 0xbec121253f10b931U,
  0x3c7b31843ec873d7U, 0x3e05bbc33e816a0cU, 0xba939c3e3dac97feU, 0xbd0f0f18be022b28U,
  0x3ce06998bc8dcd76U, 0x3e2b9887bdd7a358U, 0x3d5d39a8bd917569U, 0x3e21963bbe04e01fU,
  0x3d9d2d813d644d8fU, 0xbd5ee074be1f8471U, 0x3c877f07bdf7536fU, 0x3d63c9b0bd433a0fU,
  0x3e048330be117bbaU, 0xbcefba703ccb45a0U, 0xbc6698273dea53afU, 0x3d61ee233daa9e7bU,
  0xbe1f0fd83d6dc77aU, 0x3dadee243c4e4de6U, 0xbd4ca3013e08b1a6U, 0x3d6492d23df212e1U,
  0x3db4200abd706ff7U, 0x3dc705f4bc8787d1U, 0xbda6adffbd4af0e7U, 0xbddea9ce3d320162U,
  0x3c57fa0cbd75f269U, 0xbc85f760bd6c14c4U, 0x3d436c94bd5d7999U, 0x3cc13ac83d75c748U,
  0xbd43d27bbe0ac120U, 0xbd6d46923d07eb3bU, 0xbd0700673db56d84U, 0x3d3a06c1bd8b99c8U,
  0x3de4e2fbbd438d77U, 0x3cf4fa6dbb8ae928U, 0x3dd23288bd9966b1U, 0x3db92b6b3d2352fdU,
  0xbd4040813dc5ba69U, 0x3e1df0863e758c0dU, 0x3d91f8c33cca92b4U, 0xbcad282fbdff6d3fU,
  0x3e495256bce141e9U, 0xbe3033cebcccac0dU, 0x3d878df33d236fb8U, 0x3d01688fbc343f94U,
  0x3b89434a3cfd07b8U, 0xbda4610cbdad8e46U, 0xbcd80d82bdcad400U, 0xbc8013c03d8980c0U,
  0x3e638f143c177b9aU, 0xbc821965bdd8f049U, 0xbc9f7f95bd0fedd8U, 0x3dd0a42dbd7ad6dcU,
  0x3ca33b57bd65fe2aU, 0xbce500413d397abfU, 0xbdfbc0943e5cc86cU, 0x3bbe898ebe194561U,
  0xbdd8d609bd918b2cU, 0xbce07670bc2176daU, 0xbc25e4293ddc32a9U, 0x3dd71851bbbe3f09U,
  0xbd88d9cf3cceb96aU, 0xbd3099c1bd82d04fU, 0xbe1f7bb2bde75d07U, 0x3d4590b9bdc0eb8cU,
  0xbe0c247c3e3e0805U, 0x3d068ce3bd1b98d7U, 0x3d8f625d3ced4768U, 0x3d813f13bef8c76eU,
  0xbe5994b2be03d7acU, 0xbb9dcf993d1537d3U, 0x3e30fbfdbe5c9299U, 0xbd6321fc3e20f904U,
  0xbe552d57bd44d661U, 0x3d39912cbf4f3678U, 0x3e4eb2213d2121cbU, 0x3df7bfbcbcde60dcU,
  0x3cd20077be7b82eaU, 0x3d5d690ebe453de6U, 0x3d6933e0bd76b2d6U, 0x3e49ad7b3d883f20U,
  0x3e20b44fbd98477cU, 0x3bf5aa2c3d828aeeU, 0x3df407963c2d8f31U, 0xbe333d413a72cfccU,
  0xbe191b5c3dc1f91cU, 0xbb86cbc73d0ee500U, 0xbe0e46cbbdd32ee2U, 0xb8f65534be09c854U,
  0x3c9402d13de64623U, 0xbd3fa23b3d616aebU, 0xbdc2bd9abd66de32U, 0x3df296e3bc4171c6U,
  0xbda58c1f3bf96cc0U, 0x3d822ec1bdbd99b2U, 0x3cb50b1bbdc293c7U, 0x3d2fd7453d4a7788U,
  0x3d6da8ad3d2ffb22U, 0xbdf9b0963bf3b093U, 0x3db27eee3e2059eeU, 0x3e5551153c4edc8eU,
  0xbdd4558f3da53697U, 0x3d878671bd111251U, 0x3c92fb46bb8583b5U, 0xbe18ff38bd4d3e65U,
  0x3da21a5bbd210257U, 0x3e3c2f70bc98d110U, 0xbd1a09f6bdc43b59U, 0xbcf791bebd957a09U,
  0xbc074d0dbcdac3e5U, 0xbcccd953bcbf13ebU, 0x3d69f0793d28cf5dU, 0xbc3574cf3df158a3U,
  0xbd25b7afbdb5b07eU, 0xbe0580683dbe31caU, 0xbd410f79bd15fe73U, 0x3e06ce44bc2f4d37U,
  0xbe372510bba24bc1U, 0x3dd2052f3d54b3a2U, 0xbcf2977fbe220399U, 0xbcac6e823d742beaU,
  0xbc327675bd9c8473U, 0x3d00bb94bd5cf512U, 0xbd638ccbbcf14bf8U, 0xbd07a7d23d6405e6U,
  0xbd08348a3ddffcb2U, 0x3dd5d2833c38a6f9U, 0x3d0ba827bc33e597U, 0x3b870b6f3d664283U,
  0xbb409760bd7c1262U, 0x3db259b43c682167U, 0x3c93c1e0bde9aa5fU, 0xbd406967bdb03da3U,
  0x3db514b9bb24106bU, 0xbd75d25bbb745086U, 0x3cbf6b523c6f3edaU, 0x3c203ed33d2e99d9U,
  0x3c8e14cabc9b6bfeU, 0x3cf0639c3baf6d2dU, 0x3d817e6b3cfa63d5U, 0x3ca7f0d8be290156U,
  0x3d27a6373e463ba6U, 0x3dc73b513d3ce0acU, 0x3d9336cc3e4483e7U, 0x3c65ecb03eedb2f0U,
  0xbd93531fbea14369U, 0x3e63ea67bd31298aU, 0xbb8388673e5c5d0dU, 0x3d18ba913d424c42U,
  0xbde39a283e0aa422U, 0xbd13024e3e0232acU, 0xbd274b1dbdbb6f7eU, 0xbdad16f93ca7c51fU,
  0x3dd703b5bd85c4dcU, 0x3da6b263bce8faecU, 0xbc94909cbd9a777fU, 0xbcf84495bda1a30cU,
  0xbcd638d0bd03c392U, 0x3db293003e0ccd97U, 0x3d538c8b3da2ca12U, 0x3d8671b53d493f60U,
  0x3ce4f7f23da153c2U, 0xbc0827893e2e9629U, 0xbe3a80d73a55954fU, 0x3d3b277e3e3b2650U,
  0xbe1a2935be493d15U, 0xbe13e195bd78dc1fU, 0x3e295597bcc529fcU, 0xbda9706a3e33600dU,
  0xbdc2ba5b3d556d0eU, 0x3c74ea023d38bc36U, 0xbd692546bc5b35c9U, 0x3da8a1263d66610fU,
  0xbdd2649abd173f9cU, 0xbd45be5fbe1dc802U, 0x3d9b75fdbc8c1e4eU, 0x3d9a27613d1449d4U,
  0x3dfd275ebdc2bd0fU, 0xbdb4249ebcbc4c98U, 0xbdc610403d627b13U, 0x3cef9b8abdf41b97U,
  0x3d0e955b3c82a19aU, 0xbda916b5bcc3c63aU, 0x3d0daa76bb8c3dbfU, 0xbc921ad03e068292U,
  0xbdab5652bd21e3dfU, 0xbde28a34bda28c2fU, 0x3cdcd9d2bccf2804U, 0xbd60b53a3e0d51ecU,
  0x3cdd3edd3ce1002fU, 0x3d7e5b0c3d75c4b9U, 0xbdf8fa35bc488274U, 0x3df0efef3d6f6442U,
  0xbde6d2f9bdc6c795U, 0x3e32e6fdbd453b5aU, 0x3e43037c3d8eebbaU, 0x3dffc4a7bdd4e6c9U,
  0xbd00c4b63e49b111U, 0xbd9287d13cca7600U, 0x3e4a4c29bcc8945eU, 0x3df2cc743c7238a8U,
  0x3dcded243d89bed1U, 0xbd386f633bd9f54bU, 0x3dbb1cf0bdd7a85cU, 0xbd33d7993ba0d5c7U,
  0xbd919ee23c47f9f6U, 0x3b9659f6be58b6c7U, 0xbc8f5ea03db0a47bU, 0xbdffda3fbde61396U,
  0xbe18e4f7bd967f80U, 0xbab2d0fa3d83b23fU, 0xbc507ad5bdd4347dU, 0x3ca12acf3ce70871U,
  0xbef492bfbe32ff8bU, 0x3c55e4413cf0c169U, 0xbf195affbda08591U, 0x3ccfb6ae3e6226f6U,
  0x3f044b66bf928125U, 0xbbe8c4123f8a0a3cU, 0xbf32324bbeafaa3cU, 0x3eadd9b5bd18d342U,
  0x3e15f819be6611bcU, 0xbde79bfd3ccb4f96U, 0xbd6c49b03d1b0290U, 0xbdf8aae9bd9c0640U,
  0xbcd7944c3d1d5b6aU, 0xbe03e3c23d32fabcU, 0x3dcf1a1ebda31878U, 0xbe052afa3d2cb223U,
  0x3d2de0d83cd76127U, 0x3db8855e3dd3cf84U, 0xbc6bb0123cdf0dadU, 0x3c4a6b7a3cbde0e3U,
  0xbd0d6011bd368a27U, 0xbbf1a71cbde2c51fU, 0xbcd14957bb5ce7acU, 0x3e22ca053d9f9a90U,
  0xbcaa10303d1157efU, 0xbd5a20863d10d23aU, 0x3d9782ab3c5b7b9fU, 0xbce2b9283d153fb1U,
  0xbdbe3395bc9c2bdcU, 0x3d2e1059bd6ad970U, 0x3d16a8f83dbcb64eU, 0x3d56cfa6bdb6f770U,
  0x3d574a843d05ce45U, 0x3ddbceed3d54fe73U, 0xbc50b21c3dac52b7U, 0xbcc11b1cbc67b027U,
  0xbe0b0e9f3d9457d0U, 0xbdc48df8bda30c12U, 0x3cb9b6bbbdd86642U, 0x3d9d357b3cb4cb89U,
  0x3e0f660fbded21eaU, 0xbdf75c903dae9006U, 0xbc4fb84dbcb12055U, 0xbcd07e78bd9ec083U,
  0xbd82e6533d869c8fU, 0xbdc8a6d83d4219b6U, 0xbcb6da84bc965f68U, 0xbc780f65bdcd2c14U,
  0xbc3ce826bd0a7662U, 0x3df00888bce80042U, 0x3cebb725bdb86d7cU, 0xbdae78e9bd099639U,
  0x3e35e8993da09eaeU, 0x3e15b7b0bcff8fb8U, 0x3d8bbf4f3dd4f9fbU, 0x3b65fce03c859004U,
  0x3c8fcc5d3b4bbd80U, 0x3de430a4bded99e1U, 0xbd2dd69e3d3b7fa5U, 0xbd8f43dd3d5dfd07U,
  0x3db90fedbd62cd22U, 0xbd3c7110bd4dad87U, 0xbe09fb3cbc3e98bdU, 0x3dcbda0b3d95fc3aU,
  0xbd9338f33dc37154U, 0x3d8b20783d66d580U, 0xbd889433bcae5168U, 0xbc90b26e3c8e4258U,
  0x3ca798e1bd2cc8c1U, 0x3de8935abd1acccbU, 0xbda4a7afbda53ef3U, 0x3dc5730a3d8ed25eU,
  0xbe0d35ee3d2907f8U, 0x3e5882a93f3969d2U, 0x3b61ed70be8720a6U, 0x3f8fb0213e09c0d4U,
  0xbd60ae813aede833U, 0xbf846a583e480b21U, 0xbe052409becf31d1U, 0x3eb5b2da3f2ff031U,
  0xbdcb359ebe5487e4U, 0xbe1cf1c93eaa0233U, 0x3de6ba2b3c02f7e7U, 0x3cadac26bcc74b66U,
  0xbd652e74bd9dec3fU, 0xbdc9d889bc6b8275U, 0x3de961aa3e06d5bfU, 0xbcef51763d4cce08U,
  0xbd02a881bd21626fU, 0xbc7e39643cbc7cdcU, 0x3c0ab7ad3df1a8f9U, 0x3d2dceb13dc947ecU,
  0x3d848d20bd38100eU, 0x3d65f54f3c0ab13eU, 0xbc9bc78abda72108U, 0x3dc38d0e3d7a9388U,
  0xbcd68ea93d61c0fcU, 0xbd0b3cbc3e3aa114U, 0xbcfd9aa03c11ae60U, 0x3b859aa43db6a915U,
  0x3d6d58cabd602a1cU, 0x3cbe82a8be1016bbU, 0x3e2166cabc4774d6U, 0x3d1ec2fbbd742f05U,
  0xbc17c6263d2d40dbU, 0x3cae267e3dbf4855U, 0xbdc98f90bcfc258eU, 0xbc422dd4bd7ad3e2U,
  0xbd47d5473d27f0b3U, 0x3e040bac3df2bd33U, 0x3d1e35863cd1716cU, 0x3d641c693cde41f6U,
  0xbd274cf03d2be920U, 0xbdc4c57bbc888882U, 0xbbc42c47bd622567U, 0x3d38608abcdf5459U,
  0xbcc50320bcdc8f92U, 0x3d5c5e313dbbcbc4U, 0x3ba05c363b53f9afU, 0x3dbee4d53d6151f4U,
  0x3c805687bae6edaaU, 0xbd4c8e213d81b495U, 0x3d3434bfbc575edbU, 0xbd838178bc480c9bU,
  0xbd620b5bbdf2b92dU, 0xbcb5b68ebd0b32a1U, 0xbd5a6a9e3dbdaa83U, 0xbcfe92873cd62e1cU,
  0xbce0c5cd3db4185fU, 0xbdde8ddd3ccf32e3U, 0xbd12eb67bcae9aceU, 0xbdcc1f56bce55769U,
  0x3d9982663de482c2U, 0xbdaf3a1abc39cbfcU, 0x3dc3c3153bf737a5U, 0x3d0c516c3e2bd93cU,
  0xbc4a8c92bc5cd7a9U, 0xbd1c7ab53c57f63bU, 0xbe29faf6bd4f0d77U, 0x3cfc9249bdb70750U,
  0xbd87d8a83dd6fe78U, 0x3a0517a5bc14c407U, 0xbc53361c3df7d097U, 0x3c7c4d9abe281e64U,
  0xbcf739853db0d147U, 0x3e0bc09bbdaab967U, 0xbd2314863eaa8555U, 0x3e330180bd476389U,
  0x3ea77ebf3d5042fdU, 0x3e2b57e73bada5ddU, 0xbed1aa213e34c107U, 0x3e433822be542a33U,
  0x3e02c7da3e8d7121U, 0xbcc8d27bbd76035eU, 0x3e1dfe6b3d3abe89U, 0x3a48abb7bdce42bbU,
  0x3d1c1d2dbd01aa89U, 0xbd9c0d6ebe2a9ba3U, 0xbe442d65bc1345b7U, 0xbcd1ceccbc3f852aU,
  0x3d06a42d3e1e26bbU, 0x3d8e84963c2d4b0aU, 0xbd971e31be1e80ecU, 0xbda990e3bc2633abU,
  0xbd857c30bc737d3eU, 0x3d11407c3d1d6ca4U, 0xbd1999813d1dbb96U, 0xbd40d6aa3d617985U,
  0xbe2c94b0bddbbf98U, 0xbd1464a7bc9dbe2cU, 0x3d7cd5793b96d839U, 0xbdff7580bce41442U,
  0xbcab8cd9bd55bf1fU, 0x3d54aef1bd9b37cfU, 0x3d80ef5d3d3aedd9U, 0xbd6857c2bd817f40U,
  0xbd5af0f2bd90f905U, 0x3d9432db3d073e75U, 0x3d0b5fddbe092023U, 0x3d87c3bbbd14dbbeU,
  0xbd4654aebd1e380cU, 0x3d1d8f16bd83835dU, 0x3d88b22f3d7f40aeU, 0x3d09252abe7855fbU,
  0x3da90115bd46c9e2U, 0x3dfd1f4dbd9c321aU, 0x3dc618563daf45daU, 0x3d8cc466bcef1502U,
  0x3d0d34af3d4f9addU, 0xbd7de9c63c8f510bU, 0xbe478447bc9aa57cU, 0xbd74f199bd07e10aU,
  0x3dbcc012be12beabU, 0x3cb2e06ebe381cf6U, 0x3d1749483ca093adU, 0x3e18b965bd52fab4U,
  0xbe33128ebe0d26a4U, 0xbdd941553dd8139fU, 0x3dac0ec63dcec980U, 0xbe0a3a29bdf4b2efU,
  0xbb7431973c384b70U, 0xbda5d8973bbbe7e2U, 0x3da2e1cd3d85dc66U, 0xbe45d8333e1fa682U,
  0xbce330c43b7493fdU, 0xbdcefaaebd9b15f8U, 0xbdb7ee983de99280U, 0x3d9854743c933864U,
  0xbd66a3df3d3f96baU, 0xbd01fb6abc044fa1U, 0xbd43e37d3db9d39fU, 0x3d9fb820bdaa63a8U,
  0xbe05b4d4bda9d785U, 0xbc82df1a3d84545cU, 0xbda794f9be57ed75U, 0xbd709b8bbc50894aU,
  0xbb0ff0d33e0a4886U, 0x3d86c1403daf3dc7U, 0xbdb94e1abe36e4c7U, 0x3eeb0ec4bd7d4d14U,
  0xbc4c54713e6be663U, 0xbe925896bed27fdaU, 0x3d8314bc3f0f87dfU, 0x3ea8f7703ebdb694U,
  0xbe047282bedc49a7U, 0x3ec44111bdbdbc35U, 0xbe0f11e93e85995eU, 0x3edf4ac1bd44eda5U,
  0x3d317c7cbd65186cU, 0xbd1848a33d80a7fcU, 0xbd8e5db53d4c89d7U, 0x3e32dfcfbde9ca76U,
  0x3db33efabd7609ebU, 0x3d58de3f3c2b431bU, 0xbdbb7c85be07c2feU, 0xbd0872aa3e662bc0U,
  0x3d481e783c7a49ebU, 0x3e4d09cfbb07a0deU, 0x3db7f7473e08bb11U, 0xbd87b6c1bcb7fe77U,
  0x3d7fd8523cdfbc25U, 0xbd83edf13d86029fU, 0x3dd206b53dc60024U, 0xbdc254e63e08edf6U,
  0xbda2a197bda39991U, 0xbd56f8cebd901507U, 0x3e36c7c63dd91650U, 0xbe769ae8be7f74baU,
  0xbd6f0e33bc1745cdU, 0xbcd0d2c43e7d835eU, 0xbdf69e793d96632dU, 0x3d2524f83dd48108U,
  0xbda19358b9981765U, 0xbd2bc91f3dfef4c6U, 0xbce02993ba2699a6U, 0xbdc99e3b3d406179U,
  0xbddc8e14bc368d62U, 0xbd1d2534bd26b096U, 0x3dd96011bd357bb6U, 0x3c0126f73dc5a8d0U,
  0x3d9a0e233db45566U, 0x3cd9e62bbd834cb1U, 0x3d70fd3e3dcb5b5bU, 0xbe05b6223d8a8a9bU,
  0x3d83b03abc3f3df6U, 0xbe02723f3cf9c56bU, 0xbe18e1de3e4d4de6U, 0xbce0d3ae3cb3271fU,
  0x3d5f29adbe596e45U, 0x3b8e3bb73d89916aU, 0xbddf89343e6d6874U, 0x3d60f9643de4e126U,
  0xbe482e8c3d0e8721U, 0xbd080ea8be2d5b01U, 0xbd0651fb3e2f151fU, 0xbe1ffca63dc1a893U,
  0x3c714da5bdbf45c8U, 0xbdb45040bdb49145U, 0xbd05af55bd64a409U, 0xbddb7710bd3cbed0U,
  0xbc4cc756bd04a476U, 0x3d604c11bd8f51bdU, 0x3da04b853e22344dU, 0x3d24fab9bdd29dbbU,
  0x3d5ef8243de6d3d1U, 0xbbc6f733bd9de658U, 0xbe00a790be452b7cU, 0xbdb242e23e0f58b4U,
  0xbe1bd5d6be18ff85U, 0x3db70ac9bcefef63U, 0xbbdee0cf3dd8a478U, 0x3de6752d3e10e58aU,
  0xbe8cd8343dd1d3eaU, 0xbd999ee33e2aaa11U, 0x3d27377c3f0f12fcU, 0xbdca8810bf1a7694U,
  0xbdd14bd53dbc1bf0U, 0xbd89b5f6bd9b6bc7U, 0xbdbcb6d23c6c1ed1U, 0x39cd6cc93ea18788U,
  0xbf06dc2c3d44c402U, 0xbcb635273e4d3ea5U, 0xbe28429dbe92acd2U, 0x3d3c540e3d0fb857U,
  0x3db07ce8bc17cec3U, 0xbd6f536f3d98a275U, 0xbc9d029f3e0b19eaU, 0x3e4199a33d423232U,
  0xbdb94c19bd235623U, 0xbbb6ff14be01ef24U, 0xbd5da3c23e239ad4U, 0xbcc7b729be516978U,
  0x3c96e8c8bdcfc123U, 0x3db4c2133d17e07bU, 0x3bfa3b0ebe0af819U, 0xbdb776e1be098e28U,
  0x3bde1d3bbd82bc86U, 0x3dcd6136bc7faa64U, 0x3d6136b33e2538b6U, 0x3d0150a63e4e9058U,
  0x3d8ddbdd3da116beU, 0xbe6282f53e7120cbU, 0xbdb7560bbe4fc53fU, 0x3d5d03593d83f5d8U,
  0xbe0a635c3d3838baU, 0x3e317e11bb057f77U, 0x3d334415bdc04fa5U, 0xbe2f6e6a3b766780U,
  0xba3209623d688753U, 0xbd8b9eccbda9caf5U, 0xbe2a2376bc9e1e02U, 0xbe9e58fb3db932c1U,
  0x3e3ca7693d2221cfU, 0xbd82da09bd90a6d6U, 0xbdeede5bbd4219bfU, 0x3e0811c3be121f28U,
  0xbd00ba03bcf8e797U, 0xbdeb36243e474053U, 0x3e201cab3dc7e52dU, 0xbe67e52b3e1c99f5U,
  0xbd0c672ebe894befU, 0x3d861f5b3d9725e4U, 0x3dd840fcbd5367f7U, 0xbd877705bda024afU,
  0xbc03e2e6bd3482ceU, 0xbd6b7ab33d98c8e0U, 0x3da092da3d95c2f5U, 0xbe08265bbd611605U,
  0x3d092de23cc56086U, 0x3d02672e3c06960aU, 0x3e4a58183e58d986U, 0xbd9bdc763db502e0U,
  0x3d16d295bdce3c4fU, 0x3d6e2eb8bd513b29U, 0x3e0cf3e73dc5b712U, 0x3dc1352cbe2d3244U,
  0xbe1dfca93c94a412U, 0x3df792f13e037f87U, 0xbcd160ebbc35f24fU, 0x3c8fafe03daee061U,
  0xbcf07e78bdc68b8aU, 0xbc7db8dcbc5f0a0dU, 0x3c736409be290ef5U, 0x3cb327323e41664dU,
  0xbd4ad30abcc7614fU, 0x3ee4a344bd61a177U, 0xbd5c7970bebf782cU, 0x3e2410713e6846e2U,
  0x3d967c54bd78f329U, 0xbe5d42a13f86ec21U, 0x3ccab03ebf6ab6cdU, 0x3f057c1c3e6d7412U,
  0xbe9b668fbef3401eU, 0xbc6d9070bd44dfcaU, 0xbcd386d83e2e8cbbU, 0xbd5ff7c3bd868929U,
  0xbdbba990bceb9008U, 0xbb7d5f84bd5dd8c4U, 0x3c8e0f51bcacb3d5U, 0x3dc226813d23bf6dU,
  0xbd55ea27bc54fa1bU, 0xbc8bf727bc50ec27U, 0x3bd4cc243d7ffba1U, 0xbe1e0f09b6116742U,
  0xbc8f56763d844b06U, 0xbdc396fcbdb895c9U, 0x3dcd66e13d79799fU, 0xbd08f290be203bb3U,
  0x3d7538343da94890U, 0xbc8afc873d4f71c8U, 0xbdabd4ecbc4d1809U, 0x3ca46203bd370973U,
  0x3e0b2241bd55b3feU, 0xbd71ab86bc7aff66U, 0xbcc11e4cbd73690dU, 0x3d7ddc45bc846c87U,
  0xbb600ca93ce41f76U, 0x3c01d8aebe17ca92U, 0x3d8f00ffbe02bf20U, 0xbd03deed3c5035adU,
  0x3ce516f2bd6e8d6eU, 0xbd5d1f993ab1632aU, 0xbcf998c4bd8d74aeU, 0xbc091005bcadb034U,
  0xbda17d0f3e49cba5U, 0x3da8aadebde8b283U, 0x3df97392bd28a52fU, 0xbc920b85bdcb0c6dU,
  0x3cd6c968bccc93daU, 0x3cf358c2bc536259U, 0x3d9b0acabd95e51eU, 0xbb57f08c3d156699U,
  0x3d1ca3d83dfb3c97U, 0xbd6b6b343cab0efdU, 0x3d6609f13c225340U, 0x3e350ba7bc940eadU,
  0x3d05b7d63dd6ab85U, 0xbcce181bbd87e647U, 0x3d597d9a3d50c081U, 0x3c10c4f83d19df47U,
  0xbda5145cbd5767f8U, 0x3ce5eb07399b7f8dU, 0xbd44dbb93d0280fcU, 0xbd0f16fdba2a815bU,
  0x3dfa3bf83d668003U, 0xbd21ff9cbd6d1f35U, 0xbd136ff3bd2e04c3U, 0xbb656df53d984ee0U,
  0xbdcb0302bd9bfcbfU, 0xbda0852c3c337801U, 0x3dba79e13dfc3748U, 0xbc6069c33ddbb3baU,
  0x3b1c227ebb7a16adU, 0xbbc4045d3df5a688U, 0x3e070cc4be1319a3U, 0xbd8c314f3e0f3649U,
  0xbd3094b8bd046109U, 0x3e4b19673e2ea4c2U, 0xbdc4f8493e6ce3c1U, 0xbcd4549c3f0cc620U,
  0x3eb74af5be8257a0U, 0xbda253663dbc8a7eU, 0xbec279a8bebbf0a8U, 0x3d256bf83e953f97U,
  0xbe634b153e9cd76fU, 0xba43629e3f462e99U, 0x3e130b493d9327b2U, 0x3da276e1be0dc390U,
  0xbe2c3e0c3dad4cbbU, 0xbd0583bc3dc0fec6U, 0x3d7db4703e2397a0U, 0x3d8823c63d8ceb94U,
  0x3b8df67ebdcf4b56U, 0xbdd83f863db0c011U, 0x3d3c5cfcbcddf6f2U, 0x3bb170783e2637afU,
  0xbd8cd74c3d3ea366U, 0x3d2967aa3ce15ff4U, 0xbdaede56398b115fU, 0xbcc4e2df3d058689U,
  0x3d74472f3de6d904U, 0xbc7010203d3abef3U, 0xbb9bbf18be016328U, 0x3daf14f3bd6ab9c6U,
  0xbd1cff0a3e08bbb3U, 0x3d09765d3c6cfda6U, 0x3e03bdc03dffc3f7U, 0xbe0f6ae73e08a77bU,
  0x3e275e5dbd0b0aebU, 0x3d038b34bd743f3bU, 0x3d67e9b73d803c7fU, 0x3d9154013cd2916fU,
  0x3e10f54abd8b74f5U, 0xbe1183903d9b58edU, 0xbd071d97bca4d286U, 0xbd3a12463dc29e68U,
  0xbd44a5c73d542144U, 0x3bb6e1413e245d14U, 0x3b8e4e7a3da3e8f0U, 0x3e0735e4bc9c4ccbU,
  0x3d0f7b7b3d33f9e5U, 0x3dce6ef53c891618U, 0x3d159ab6bcb593acU, 0xbc921b7fbdb4dfccU,
  0xbd97aa6cbddc415cU, 0xbd82e94d3d89a67cU, 0x3e23ff77bd128f14U, 0x3c25002abdb2ebecU,
  0x3da7eb51bd84079eU, 0xbd134260bc10f690U, 0x3e15f4a93c0911d3U, 0x3df32094bd7f26cfU,
  0xbc0b060cbc2c988eU, 0xbc7225eabe0af5a0U, 0xbcac2ea3be5a5200U, 0xbe26adf7be2f48e3U,
  0x3d23a3b5be122b79U, 0xbca240693cd83e57U, 0xbd0364c93d9dcb96U, 0xbcd6b41e3c56f90dU,
  0x3cf9a6cbbdfe5c96U, 0xbd6c03ddbd71b57eU, 0xbda5971cbd0ef814U, 0x3c0f6781bdd76188U,
  0xbce3c57fbcdc20b6U, 0xbd0f1cfabe096577U, 0x3d8376fdbd8b1ae5U, 0x3c8e3e52bdba0f95U,
  0xbcb834fe3d184438U, 0xbe0c13e6bc289b20U, 0xbd9e8d9a3c312a71U, 0x3e714334be1b2ae3U,
  0x3d8d8753bea9f298U, 0xbd81eb4cbeef5f37U, 0x3d12b36c3ed5e497U, 0x3e05df39beabc1b3U,
  0xbc7966103e80238dU, 0xbe5e893e3d1897ccU, 0xbc8a2121bef26b47U, 0x3f0fa0ccbd034cffU,
  0xbd2ca04dbddfc3b4U, 0x3d2c93353e5acc3fU, 0x3e6d97c93d9b0c4aU, 0x3e179d523dc2464eU,
  0x3e61802f3e24fdc4U, 0xbd857219be186a08U, 0x3d16b7443ddded39U, 0x3bb8970d3df641feU,
  0xbd89d6503dac3c2fU, 0x3debf04ebd7b5b9eU, 0x3de6b33cbcc374b2U, 0x3d5bd237bd5f977cU,
  0x3df0013b3cd43ed3U, 0xbde2e7b73da3a8faU, 0xbdcae9dd3d62e4a7U, 0x3c7de0f63e1632a5U,
  0x3bfb78193c3440e5U, 0x3c2ece60be392a0dU, 0x3e0fbaef3e305b7eU, 0xbb73fd1b3deee054U,
  0xbe4041aabe3e846aU, 0x3da77c263dea6d1eU, 0x3ca69b1a3d785c06U, 0xbc6456253db0b535U,
  0xbe76d52a3e02af21U, 0xbc95412d3c3f6e12U, 0x3ce6cdf33c121590U, 0xbe2ecedfbd7965e2U,
  0x3db16d833d037094U, 0xbe577d463e3e15a7U, 0x3e07af3dbdb01f3fU, 0xbdc3b0243e20a0c0U,
  0xbd8983e23d9eb382U, 0x3de8965a3e3e43cbU, 0xbe2ee225bd86436bU, 0xbdd6e5ecbd1c92f5U,
  0x3b9456073d92f18aU, 0xbde08d5a3c7ffd25U, 0x3b620a233de1b6bfU, 0x3b90af32be143f58U,
  0xbd8dc282bda44764U, 0xbe60f64cbcc7a426U, 0xb9f90df3bd0dcf12U, 0xbe1eb76ebda23582U,
  0x3e2ce2efbce2b2acU, 0x3d53d5973df45960U, 0x3ce5b6d1bd138e93U, 0x3c89009a3e064cd1U,
  0xbe02ee393c2aad50U, 0xbdc7ea2e3d4b8377U, 0xbe198ec8bd85f2ebU, 0xbc808f563df0c98eU,
  0x3d8c55d33e4fd0adU, 0x3d5ae25abc427eaeU, 0x3db1a6203deee188U, 0x3d8a7cc93cb022a7U,
  0x3dbd65e03dacaab5U, 0xbd4aa2983d3fe5faU, 0xbd762e0fbbe41d9bU, 0xbda5096a3e15e7beU,
  0x3da41bc63d9525e6U, 0x3d62e2d0be11ab6bU, 0xb8d7b9dcbd0b48fdU, 0xbd97a69a3d6c5a07U,
  0x3e388e8abf186a41U, 0x3d6c7923bc06e51dU, 0xbf6d7f27bd68c79cU, 0xbd7f8d9cba1cf55fU,
  0x3f5f126d3e19dafaU, 0x3e0d94133dc4f238U, 0xbd9cedd4bf089726U, 0xbde60b443cc00642U,
  0xbd3a74bebe75c3f7U, 0xbd9fa5823d96441aU, 0xbc392b9dbe1046abU, 0xbd2e78aabe27e56dU,
  0xbddcfca5be007b60U, 0x3e62707abd55255fU, 0xbd8cb7c5be2d48efU, 0x3d89d2ef3e2016e4U,
  0x3c2f3c833d35aa7eU, 0xbd0d0d2abdd18debU, 0x3dfbd29a3d97d9c9U, 0xbdf8e35cbdbe6533U,
  0x3e191e9f3e5eae55U, 0x3dd37dc0bc5f05b7U, 0xbc366da6bc784bacU, 0xbcf7f7a03d30c9b4U,
  0xbe04f40dbe1eaecbU, 0x3d973273bc349c7cU, 0xbc851af4bd42f9a9U, 0x3cb68738bc9d361cU,
  0x3e4f0fc2bd857807U, 0x3de8ef053da695eaU, 0x3d0950c83ceb1eb3U, 0xbe093d623d534ccbU,
  0xbce97a3e3e2413c3U, 0x3cbed315bd77ee79U, 0xbd978df63e183cceU, 0x3cd98e563dd19d0fU,
  0x3e316870bcff41d1U, 0xbd31d3a13e152dceU, 0x3d3dd21dbe4cf60aU, 0x3b194e14bc45eea6U,
  0x3d11ce90bdd9d9e5U, 0xbd2d0f4d3d16d6bcU, 0xbbd1d07c3ca4f86dU, 0x3df0b4d0be1f3481U,
  0xbd1b9817bd3b4563U, 0x3e1c07053b02e712U, 0xbd04c3133d3a19c3U, 0xbbfaeaf03df2bc2aU,
  0xbd9d86e5bd3a4881U, 0x3d95dcb3bd47e566U, 0xbe36cf7e3d8c1208U, 0xbe04bab83b292958U,
  0xbcd3ada9be2fa4e7U, 0xbe1169d2be3cc2ceU, 0xbd8bf3463d8c6e7aU, 0x3c8870023d43de40U,
  0xbd9cced2bc00f34bU, 0xbc50efd03d49d6b8U, 0x3da2ce553d8c5d65U, 0x3dd6d4afbc46539cU,
  0x3d190b1cbd976ef6U, 0x3b903b823df88e1bU, 0x3dc3650cbe549b3eU, 0x3dd658e2bdb016bdU,
  0xbdd1b9b93b2329a6U, 0xbda51a9abc25cef6U, 0x3e414e4fbc95371bU, 0xbd26f592bd9e41c7U,
  0xbdccb272bb3b1542U, 0x3e0a2a4d3aed06ffU, 0x3d06f4cd3e669b63U, 0x3e103ffdbd882bc3U,
  0xbdb7d60d3d3d9705U, 0xbc9509123c4d28e6U, 0xbd8c8ecebebab5bfU, 0xbea058193e7db23aU,
  0xbd0594a8be967fa3U, 0x3e1f597abebadc14U, 0xbda04a8b3e8978cfU, 0xbebe2376be8a31fcU,
  0x3ba67537bf491c3eU, 0xbe8f99b2bca8aa53U, 0xbdf5a67ebd4a87eeU, 0x3dc60d413d832681U,
  0x3d336beabd158e42U, 0xbd918a073d3cb42fU, 0x3d0ae37cbc787ac4U, 0x3b206251bad5669eU,
  0x3c3e17c7bd1f6c03U, 0xbd99fd583cbab6edU, 0xbd6c3a293d327416U, 0xbd03ac42bb520df1U,
  0xbdcab3b6bd596335U, 0xbcc1e1233d5e1190U, 0xbd1763bfbdfa8eeeU, 0x3a528dab3c08adc3U,
  0x3dac08b7bdf784acU, 0xbe20b8ebbd80e445U, 0xbcd1018d3dc06332U, 0xbccb60a4bd5b67d7U,
  0xbdb3bb613d922a52U, 0x3d3e9eaebd08bab9U, 0x3d90a0e9bd710eb7U, 0x3db3b6c9bdc8ff56U,
  0xbcd5f5743c37fdedU, 0x3cdefbec3e113124U, 0xbe15c8843c3bd02eU, 0x3d1955afbe2b0a2aU,
  0x3d8c132a3e102bcbU, 0xbd5ec4aa3cb92788U, 0xbd14704ebcaba4f3U, 0xbd886fcebc157f77U,
  0x3d98391fbe0a2d00U, 0x3d3f1b6f3e09172bU, 0xbdedba89bd05034dU, 0x3e1f667c3ca08f7bU,
  0xbd3bf69c3d8b6ff0U, 0x3d8b614c3d8d8a9eU, 0x3d9f9427bcb0ce53U, 0xbded72863d0d2772U,
  0xbcfdba973e7aa34fU, 0xbdc04dfabe10df95U, 0x3d759d07bd5321ffU, 0xbd74b5503d880061U,
  0x3dfbfde63d89eaedU, 0xbe023b333d954ed6U, 0xbd64f09cbcb38ec0U, 0xbc6095dbbc332a72U,
  0x3e06a2e13bc94280U, 0xbe6c9a453d59f330U, 0x3d670a6dbdd42a9cU, 0x3c77113b3d8ff314U,
  0x3db2da833dedf0a0U, 0x3db513633da03e4dU, 0xbd43fa543d977cecU, 0x3e3f20333e15c468U,
  0xbcfe010a3c9eb233U, 0xbde3a7bbbdb7f6b6U, 0x3d95397ebd785c78U, 0x3d8115443caf1ab8U,
  0x3d007de03d610e15U, 0xbd2adc6bbd8a5333U, 0xbcb96202bc03df00U, 0x3da87d293dcadcadU,
  0x3db91836be1af1c0U, 0x3bc2b8f6bd4fc791U, 0xbf0234eabe6f28eeU, 0x3cee390dbeac490dU,
  0xbf73e627bd8d4529U, 0xbc8b0cc3be34409dU, 0x3f3abc44bf29aff3U, 0x3c0d8b963f42e5a8U,
  0xbf0a1465bf0a4837U, 0x3e24ac6abf1f0889U, 0xbc18c131bea2654aU, 0x3dea25833d5451c6U,
  0x3dd13ab4bd64dc4dU, 0x3d4afce5bca26a53U, 0x3d63918b3c35a098U, 0x3c62f3743cfa7e0cU,
  0xbd079d55bb07c285U, 0xbdfd9c2abdcbec0aU, 0x3ba720dbbc32c8e5U, 0x3bf9453a3c2b7c80U,
  0x3d37a65cbda628d3U, 0xbd85e8373c9249a3U, 0xbba0b7d1bc40c14dU, 0x3bb39a743ceebea6U,
  0xbbe4015abd7d74a1U, 0x3d770bd5bd195394U, 0xbd9cb3debdc67083U, 0x3b57e71bbd19b2ccU,
  0x3d888af8bd741357U, 0xbdb5bca33dab9282U, 0xbe2858a4bcb83c69U, 0x3daf87a93d5d91f8U,
  0xbd6649c43b90503cU, 0x3dd6f6fbbdb005e9U, 0x3d0244d03ce1292aU, 0xbcd9149a3e0f2c81U,
  0x3dffc1afbdd18d56U, 0xbd63a6babe149cb2U, 0x3d8fb20e3c663eebU, 0xbcc72404bda6adc7U,
  0xbd9b14fabdcf6e6cU, 0xbbe867c6be51a70aU, 0x3cb89035bd0c9759U, 0x3d1c10af3c275926U,
  0xbd9046773e0f6ee8U, 0xbcb10329bd47e779U, 0x3d8a3875bd865450U, 0xbd7e42283deb925dU,
  0xbd833a7e3d9fffd7U, 0xbdce34783e020b52U, 0x3d57a7a5bd4395deU, 0x3d904991bdb1c2c7U,
  0x3ca1e1e1be547acdU, 0x3d6a1d533d81fc6dU, 0x3d83923abd210091U, 0x3c4760cf3d94be1eU,
  0xbe0d4bf8bddbc3ccU, 0xbe51400d3dd1755bU, 0x3ddea98dbe0e7b5aU, 0xbd4165b8bdaf3ff6U,
  0x3cf652e93d89f833U, 0x3bc91046be16eb0cU, 0x3b25ce553d46d107U, 0xbbb513b43d7aeca5U,
  0xba0517a53d60acf5U, 0x3dc128b73d12e823U, 0xbd00af5ebcf78f51U, 0xbd0d39f9bc76a9daU,
  0xbcf259943d9c1ef9U, 0xbcbe490abc7ce3faU, 0x3d9f4a143c07c590U, 0x3c93a968bcf9dee1U,
  0xbd2b11e13d13dcadU, 0x3dd6ee733d802101U, 0xbd3b8727bd8117f5U, 0x3ddc03d73d181acfU,
  0xbd240a79bf06e020U, 0xbe31dbbdbe883307U, 0x3c9a364b3e84ac40U, 0x3e543f8f3ca2952eU,
  0xbd8406cb3dabd593U, 0xbd8eb6c0be591cd9U, 0xbd664729bf232aafU, 0x3ecfc28cbd1b589fU,
  0x3cc16715bd42fe99U, 0x3cc9df573c877d40U, 0xbdee55fa3cb7a8b4U, 0x3d37faa3bd1e2090U,
  0xbe1a37473da85630U, 0xbcf0be57be08b171U, 0x3d42dd92be04ce4dU, 0x3d3f6022bd235726U,
  0x3e16f5e13dbf91d7U, 0x3dcb6f83bbae36d0U, 0xbe3440ee3cc743fcU, 0x3e0feb823e14993cU,
  0xbe8bddee3db6412aU, 0x3bd49c623d253e55U, 0xbd04caa2be1184fcU, 0x3d698e56bceac7acU,
  0x3dfe2f00bdcac2e2U, 0xbd892fb63d5301fcU, 0x3e04db9ebcd3aa82U, 0x3b90bc5ebc1dc13fU,
  0xbbb725483d0b8d86U, 0x3dd5f4d23d718864U, 0xbb6268263c46d3f1U, 0xbd4d6b9b3db7c780U,
  0x3c1a2edbbbd4963aU, 0xbd2e48c13e1ff034U, 0x3d45215d3bbadcecU, 0x3cf19508bd728583U,
  0xbe1d4fd0bd85575bU, 0x3dd2790abd348f0dU, 0x3c19af0bbe32f522U, 0x3bd53f493d76e2c3U,
  0xbd017c72bbb5dcd7U, 0xbe1c39d3bc40f604U, 0x3d8921bdbd3cf5d4U, 0x3d4886743e68fd6eU,
  0x3de0108f3d16d318U, 0xbdff76fcbd959a57U, 0xbe06a3fbbc56c692U, 0x3c9a77123e1099edU,
  0xbdb62006bd878642U, 0x3d67d67ebc165924U, 0x3ccf0ec33c809226U, 0xbd228fa03c9b2857U,
  0x3b0811723d84367cU, 0x3c8f5c413cd93fb4U, 0xbd29906abde46c35U, 0x3da363dabcda0f52U,
  0x3dab750f3e03289bU, 0x3d9f485dbe0b5ba9U, 0xbd10c284bd1144fcU, 0xbb0134123d5716eaU,
  0xbd04d7c2bc8dd821U, 0xbe212b7b3de8ec54U, 0x3cc8eee63dbf1152U, 0xbccbf6923c86ed1dU,
  0x3d2946253d0775c9U, 0x3d38a2363d5e9f5eU, 0xbd78a2b63e0c1ec4U, 0x3ca39470bd1efb64U,
  0xbdc9a7393dc1dcadU, 0x3e273e6e3da8fe25U, 0x3e37bd0fbe0b20b4U, 0x3e024ee0bd379cb1U,
  0x3edc01a63e89b18fU, 0x3cc4e9443ec2d1f3U, 0x3f1ef9b3bc882444U, 0x3de7beccbd7bbcb1U,
  0xbf078e433f8aade1U, 0x3dc46b2cbf8d4089U, 0x3f2d711a3ed096d0U, 0xbeaa42803f1b7998U,
  0x3e04f0ed3e3564b4U, 0xbd07c97fbdba4245U, 0xbcddf7883d6a8879U, 0xbd1aa24b3c7fcfbdU,
  0xbd120784bd17455bU, 0x3aec8e23bdc446acU, 0xbd7265e13d9acc12U, 0x3c8a35b53d859ff3U,
  0xbcd7c5e43c262833U, 0xbc4c40803cb5e395U, 0xbdbc6f703d75e3f3U, 0x3e0197db3c23938eU,
  0x3e120330bcedf2c7U, 0xbce366e2bc20b906U, 0x3d39b6b4bd672fffU, 0x3c92d1ef3de59c08U,
  0x3d1908753d1b00a3U, 0x3cafbaf23c0a83e5U, 0xbdf884e0bd96ffa8U, 0x3b9cd297bca4379fU,
  0x3cc637eabc9bf0e1U, 0xbdc81e71bd7a7501U, 0xbd7045723ce7e120U, 0xbcdc9cf3bdbf9938U,
  0xbd44a697bd763f9aU, 0xbe1f6cdb3d085452U, 0x3cd5cb73bd585f2bU, 0x3c5f4d70be159abcU,
  0xbdc0dcdf3cd436e2U, 0xbc4650e73d091eeaU, 0x3d822aafbe26424cU, 0x3da6c0bcbdc1d66cU,
  0xbcaaa008bb6376faU, 0x3c5c2f643d85f2a2U, 0xbd0ebd203b688c61U, 0xbd119277bd8cac87U,
  0x3bad74e93c965c28U, 0xbd301897bda763acU, 0xbc6c3fe0bd316afcU, 0xbcabeab03d925d7cU,
  0x3d55e709bdaf6966U, 0x3c6583d73ca71693U, 0x3d2dc3e4bde2484cU, 0xbdb954493e193c0bU,
  0xbda1689d3d4447d4U, 0x3dbc46bfbd5f7ab8U, 0xbd993e913cc79da3U, 0x3c199836bd8225c1U,
  0x3d6290b1bd9d94c4U, 0x3de11478bd8ee257U, 0xbdc1d37c3ce789bdU, 0x3b2bcf2abd59f7e8U,
  0xbc96a512bd8ef47aU, 0xbbd45918bc6ac47cU, 0xbba8e5943d976ed3U, 0x3dae0286bca6e751U,
  0xbd6b9b70bd00cc89U, 0x3d62be1d3cb49942U, 0xbe0ddb78bc8e8ad6U, 0xbe2eea0fbbfc33edU,
  0x3e12b20b3d86744fU, 0xbe36f9173c72ec31U, 0x3d9109233d309efeU, 0xbdb1c4f43d53a7cfU,
  0x3d8715c73d6ed612U, 0xbdde34e1be580670U, 0x3bfd88473ec82cdcU, 0xbd8dd24e3c24b0d6U,
  0x3d30d34f3e2eb9a1U, 0x3dc3be893e36c28eU, 0x3c374c2fbe863256U, 0x3e2ef7d5bcc3bfa7U,
  0xbcb5e8303f4a309eU, 0xbd6e870e3c8c91edU, 0x3d151cfb3b7150f4U, 0x3e29e79ebdf11716U,
  0xbd09105b3dfe3cfdU, 0xbdab1f48bc2750ecU, 0xbc6b1ebebd752c8bU, 0xbd9bd43cbc24a526U,
  0xbd6f0003bd806811U, 0xbdcaebebbe7572d0U, 0x3e417bebbe0e9632U, 0xbdc2c9493cbec03dU,
  0x3d9447803d0015b7U, 0x3df6e96a3d8ed230U, 0xbd69cbfe3d0bc804U, 0x3e3670813baccf48U,
  0x3dcb6857bd38e249U, 0xbd5dfa2c3e73f2c8U, 0x3d13143dbdfbce77U, 0x3cf37629bd082814U,
  0x3dfd8a80bd0186b5U, 0xbd83f304be0aaf53U, 0xbc961dfe3d8d0a1fU, 0xbc92816dbcd77d25U,
  0x3c1037ef3dc735aeU, 0x3cb3fc763d94302bU, 0xbe324cd53e2002a3U, 0x3dbd47bcbc7b474fU,
  0xbc9b802fbdddc254U, 0x3db461033dace380U, 0x3c7af4b2bd608159U, 0xbdb0b40ebd494df2U,
  0x3b3abb59bc6ff59dU, 0x3dd14493bd579bf8U, 0xbd80830a3ccadc4cU, 0xbdf5b8a03de8b65dU,
  0x3c93cfa43cb07a14U, 0x3cb37b033e2e60b3U, 0x3d8824f23cb57f14U, 0x3d3f07483d365ee7U,
  0x3debf1603dcf9d73U, 0xbca54f1e3d848656U, 0xbcb07bb73d86b6a6U, 0x3cecbdbebc946840U,
  0xbe2e740bbca1a846U, 0xbcc5ac79be3dbd3bU, 0x3d5855e23d9a8ee3U, 0xbd97ca203dc95010U,
  0xbd8246debdc6f14bU, 0x3e0333b2bdcb6a55U, 0xbd9198b2bd4ef3faU, 0x3d62cc3ebc8bf494U,
  0xbcac68fcbe1aedd7U, 0x3d240170bc95e27bU, 0x3d7c2bdcbd8e1e20U, 0xbb076347bd6597bbU,
  0x3d42ec91bd5ee596U, 0xbc985aa6bb6da8e6U, 0xbc7ed8bdbd1a4233U, 0xbd55c4aabd54a207U,
  0x3cfdccb7bbddb649U, 0x3dea4a2a3e053ebfU, 0x3dad4bcfbdb60864U, 0x3d2cfe8cbcc881ecU,
  0xbd9fc4bebdfd16aeU, 0xbd260ef1bc8ea646U, 0xbe77f6e0beaffb50U, 0xbd301c023ebcf079U,
  0xbf06b0793eb38e48U, 0x3bbe53f8bebe7cd6U, 0x3f09abdc3e9ed237U, 0xbddef983be8df814U,
  0x3e469c06beeeda68U, 0xbc12d7f13ed07fbaU, 0xbeb856bebe0dfabcU, 0xbdb749f03e21a2dbU,
  0xbcb504863a5a3937U, 0xbdcb9f3fbcca489bU, 0x3d9f8bcd3e1cfd7dU, 0x3e6ebae7bd8edee4U,
  0xbcda49ac3cfef7a6U, 0x3e1ce1e73c43adebU, 0xbce898d93e014753U, 0xbdec1664bd8b0b9cU,
  0x3d8105cdbd92be6eU, 0xbd523474be166c99U, 0x3cbff1c93d9928bcU, 0x3b6fe406bb9607fcU,
  0x3d9793323c77d891U, 0xbbf756163dcac99eU, 0x3cc6925e3b2ab260U, 0xb99bb8a13bcf5650U,
  0xbe0468e23d2c25beU, 0xbcf824d43dad3b7aU, 0xbc4da0ffbaed435fU, 0x3cb87e6d3cee9cf1U,
  0xbc7f47c33cfceae5U, 0xbd402b603e440e28U, 0x3da2827b3d7429baU, 0x3da8e2e4bd5d9cffU,
  0xbc4a270abcd3e627U, 0xbdd934edbc3da3a4U, 0x3d92ac1cbd83fbd4U, 0x3d8b1628be40d829U,
  0x3b906038bc95383bU, 0xbdc643ab3c7d849aU, 0xbbb84a4b3d8bc30dU, 0x3dfa61ce3c81e6ccU,
  0xbe008d24bd3d24b3U, 0xbc356863bd81836bU, 0xbcdc2572bde5f9ccU, 0x3e30cb943d5174a4U,
  0xbced1d803c18c412U, 0xbd9e7560bc67c0f2U, 0x3d0a7f993d653667U, 0xbc82772dbd08043cU,
  0xbd180097bc8db457U, 0x3c94e33fbddd3090U, 0xbd432ec0bd85bb67U, 0xbe4f220dbde7151bU,
  0x3cac4431bd582b68U, 0x3d09539bbe09d14cU, 0x3ca3b6353ce6222dU, 0xbdbac78e3dc1fcd5U,
  0x3d734b453c57ddbaU, 0x3e85be373deec22eU, 0xbe1aa2f8bc984c31U, 0xbd233073bd845387U,
  0x3d8b411d3d2bf5feU, 0xbc94a27dbd2a5639U, 0xbdf4ef1f3d2fdf13U, 0x3dd5a4303c86cb4cU,
  0xbc629260bd84306bU, 0x3d1536dfbe4a18c1U, 0xbd5e76d93c746534U, 0x3b28a1e33dd644cbU,
  0xbd186714bdf32ff7U, 0xbcb30bd5bd5ee6e6U, 0xbcad85403d238aa0U, 0xbe4c11223ef8a9ecU,
  0xbbfe868f3e8b2016U, 0x3e1bf8c93e6b27abU, 0xbcdce14ebefc2860U, 0xbe8f1d6bbec27ec4U,
  0x3d41123b3ebfa7e1U, 0xbec1a6d03e830f67U, 0x3c8efade3e971f17U, 0xbeb7c1b53db64b6dU,
  0x3e286d69bdb3ccf7U, 0xbe88c844bd9e6b94U, 0xbe3e31343c5936d7U, 0x3b2b0a2f3dfed37fU,
  0x3deba4e33de2fe58U, 0xbe32787cbc2d61b8U, 0xbe2b4be0bcb788aeU, 0xbd74c7d6bda56a68U,
  0xbdfee27bbcb4b965U, 0x3d56730d3dd9b96aU, 0xbccf75b73dbb0eb8U, 0x3e0976c53d77ca88U,
  0xbe0a4288bd4b3743U, 0x3ca2f1e73d957f5cU, 0x3dbdce96bd9bf141U, 0xbce9e01cbda690d4U,
  0x3e2f1d09be457b5eU, 0x3d60246f3e0b00d5U, 0xbda5e48ebd92a48cU, 0x3e26cadfbd38d304U,
  0xbe31b3d53da1d3daU, 0xbceea658be62c583U, 0x3d1a42353d59ff54U, 0x3dd854cd3de9647fU,
  0x3ce92359bc35e7c8U, 0x3df8edddbcb4e068U, 0xbd94eabfbd81eea8U, 0xbd34c6d43d9c6632U,
  0x3db85375bd7919f9U, 0x3d5abfa93d1f846fU, 0xbe36069c3e0bd13dU, 0xbd85145bbdcd8ef3U,
  0xbd26f75abdfe8e17U, 0xbe22e613bdc25017U, 0x3d6b31033cc44355U, 0x3b26899abb6f12a7U,
  0x3ce507023e2bdcaeU, 0x3d4bd452be21309eU, 0xbe1714ae3e4c0aceU, 0x3d8937063d155d6dU,
  0x3deacbe2bdad1405U, 0x3c1925413e526cf0U, 0xbd440da6bcbc4090U, 0xbe89030dbdcc6e8dU,
  0x3d87b8a63c5156d4U, 0xbd9b920b3e415637U, 0xbdada445bdd056d2U, 0xbbae12f33da12b41U,
  0xbe56715d3c3d4112U, 0x3ca26406bd7083f6U, 0xbc81be9bbd3eef2bU, 0xbd70af87bd8f3369U,
  0xbe582fb9bc9a8518U, 0x3e0bad10be7f836eU, 0x3da89deb3e34accbU, 0xbc96605fbd72bb89U,
  0x3e57da663dd0686aU, 0x3de7a2293e95392bU, 0xbd8e7d8dbd6e9212U, 0x3e22c9d7bbd2ff3eU,
  0xbe1e33bbbdefb5ceU, 0x3d56c56bbd8c36ecU, 0xbe437ca5bcdb8084U, 0xbceccea23c5f5c5eU,
  0x3eebe0653e15b4f3U, 0xbd63528cbecac828U, 0x3e1d535bbf01018cU, 0x3cb642c33ee3ff39U,
  0xbd510f143f36a834U, 0xbb0f74e1bf1845aeU, 0x3f1b2d113d9f3adaU, 0xbe024bcfbeffe624U,
  0x3ea6e73c3be87aa9U, 0x3c225768bd50a137U, 0x3d9135e5be231130U, 0x3d75e73cbe1a92f4U,
  0xbd004c26bdcec2c6U, 0xbebe493f3d5e4170U, 0x3d1442983c69eaafU, 0x3e06d5cf3e91db4bU,
  0x3d7dc33cbc6d26e3U, 0x3dde1bc8be8b0dffU, 0xbdac1e423d7acb91U, 0x3d6c67113e675f32U,
  0x39f0aeaa3d43570aU, 0x3e77694b3dade5dfU, 0xbce2d2f1be60fe57U, 0xbd8c659a3e314cb8U,
  0x3ca9f7963e0b2a3dU, 0xbd8d9219bde69ff7U, 0xbd32de183d452849U, 0xbd9b3ef93c5fcd5fU,
  0x3d0300e5bc06bee1U, 0xbb8e9031bc12c68eU, 0xbd0b740cbd0388cdU, 0x3cf297483d385e81U,
  0xbc2edc17bba2ab9aU, 0xba833828bd83e3fbU, 0x3ca7e980be26ef9cU, 0xbde175f3be1af102U,
  0x3e3096ba3d071204U, 0xbd9176b43ded3d8bU, 0x3e30f825bdf8bc12U, 0x3dcda91b3cf7ff48U,
  0xbd9b3426bd52b8ddU, 0x3e4e70a6be09f932U, 0xbdc354a3bcd96a16U, 0x3d1e852dbd823bd7U,
  0x3e3fc14e3c8ca1afU, 0xbdd1466cbde9ce24U, 0x3cdcc3103d767aadU, 0x38b4e423bd25c159U,
  0x3e169fd93db5cb1aU, 0xbdedb6d8bdc51710U, 0x3cd3b6a23e310ba7U, 0x3d7644563e674aa6U,
  0x3ddf3f75be2f6c01U, 0xbd7b11f03e5b7482U, 0xbdec76b1bd23de53U, 0xbd91fc7c3db13eaaU,
  0x3c662b9c3cc4f5a9U, 0x3d9549b63c4c1a59U, 0xbbb3abacbcec5959U, 0xbe806dffbcc80aa4U,
  0x3c753ecc3c90466bU, 0xbd9899d73da1f7c5U, 0xbd25997f3e0c51fbU, 0xbced5b7cbca42201U,
  0xbe2a7be63e191e1fU, 0x3d841d3c3bf568d4U, 0xbda1113bbe2dad87U, 0x3c83f4f53df13332U,
  0xbc3f36693d54899eU, 0xbdda5fdf3cb41090U, 0x3e1d2c383db65589U, 0xbdcf2ac2bcb9fad2U,
  0x3dbcb1d13df7cefcU, 0x3ddfee7ebf0c82e3U, 0x3d66bfa43ee0fca6U, 0xbea62b46bef0ab4bU,
  0x3d09a51c3f02fd0cU, 0x3e6e41c7be9e4d87U, 0x3d48e2843ebe5395U, 0xbd7459ecbe179f69U,
  0x3cd4e20d3eeec4f9U, 0x3ee75dd6bda7d59aU, 0xbd2fd0763c916629U, 0x3da0dd843dc3bcb7U,
  0x3afc1dec3d724013U, 0x3cf90ff8be0225f7U, 0xbd9e44b6bcaef45fU, 0x3dd740de3e3c15b3U,
  0x3d80f2dabdf5db61U, 0xbdb0c7373d16869cU, 0xbe0965c0ba178beeU, 0x3d20c708bdf6efc0U,
  0xbd0933483e143696U, 0xbe0a64debaa6ff31U, 0x3df282f23d1d88a3U, 0xbd61bd7cbe22add1U,
  0x3cf2be4ebe2e326dU, 0x3e2aa5afbe2b6297U, 0x3d2bd6ddbd5a2095U, 0x3dab554abd11b4e8U,
  0x3cb443ee3d352bddU, 0xbddc0c633c527677U, 0xbdd567a6bd955defU, 0x3cba7e58bc2458f2U,
  0xbcc6ee53bc725098U, 0xbe2a836e3e430313U, 0xbe161f5f3dd17073U, 0xbe09a2fcbe0af1ebU,
  0xbd1bcf2a3cdfbcfcU, 0xbc2ba98fb4ceb461U, 0x3e56b63dbd8d672aU, 0xbe85bd68be010a2eU,
  0x3e0d68803bbd823eU, 0x3e2cc21e3cbb9879U, 0xbe1d8c793db3e042U, 0xbe1d9db73dbb2445U,
  0x3dd23f87bdfaa657U, 0x3cc745613d334879U, 0xbd96d5003e3d254dU, 0x3d1216db3c96c8a3U,
  0xbd3773c53d928865U, 0xbd8e699bbdb6ac4dU, 0x3e36fb71bdf13ad2U, 0xbdddf7953e12ea87U,
  0xbd691e87bda3dc09U, 0x3dc195fa3d6cf994U, 0x3db01663be0096d9U, 0xbce3d4b73de874efU,
  0x3e37d8d43e0695adU, 0xbd30bc0d3e335e53U, 0xbe522851bdb56e00U, 0x3d86f7debd93a499U,
  0x3e049beebb2a4c34U, 0x3d724148bd83d0bfU, 0xbde71fa43d8e1dbbU, 0x3d02ca46bd99b74cU,
  0xbd494cc93d93aec9U, 0xbc1df8a63d897123U, 0x3d3ea9c7bd1ea9acU, 0xbd384b733c6b8d6dU,
  0x3de51a0abcad5c34U, 0xbe531c503cdf99f4U, 0x3de171cebdd9e07dU, 0xbd756958be044e59U,
  0x3da9e13d3d478e45U, 0xbde3fd0f3dd6eddfU, 0x3f1597dfbc91bca0U, 0xbd839d983e64252aU,
  0xbe5a5c46be8eb4cbU, 0x3c21a3433eea12a1U, 0x3e8560ce3e8f411bU, 0xbcb2aeedbe875665U,
  0x3e4f5b10be7336fdU, 0xbe0c43d83e8f0777U, 0x3ea70aaa3cfa89feU, 0x3d7276ffbdc8bea0U,
  0x3c96670fbdaac0acU, 0x3dba4bf1be208766U, 0xbd4f73cc3d2dd49bU, 0xbd344eb53cf24848U,
  0x3c02351cbe331106U, 0x3e16739bbde82888U, 0xbcc5ad253d2f36d1U, 0x3e2ebf47bdc17589U,
  0x3e048cc7bd7c0adcU, 0xb989c0293e0c78abU, 0xbe1ec820bc956f49U, 0xbe08a2a93d5a157cU,
  0x3d9feedebc94be3cU, 0xbe269adfbcf71a28U, 0x3d893b7d3e1be1b7U, 0x3d5d9ad13e000914U,
  0xbe0073f53c88e422U, 0xb9bcca3bbd54150fU, 0xbcc8193ebdbbc62cU, 0xbc452b68bd1b607dU,
  0x3da83faa3c3cf9a6U, 0xbd94b90ebdd0568cU, 0x3d9fcd233d86cac5U, 0xbe039b12bd4ca1cfU,
  0xbd8a99863dd2a248U, 0xbc94dab73d44dfd1U, 0xbbc46a91bc96f9a6U, 0xbdaed2c6be03e85aU,
  0xbd9cb61d3e0938b7U, 0x3d06233f3e564f73U, 0xbdb1f32abd774d75U, 0xbda5d85cbca3a4c1U,
  0xbcaabba6bc0c26efU, 0x3d9a6cbcbe3ce3d1U, 0x3e820784bdb7f8beU, 0x3d259cfebcfbeb85U,
  0xbe0b0636baa5730bU, 0x3b5dea353dedeb31U, 0xbd1e285f3e8071c5U, 0x3def14a43e0ad5f9U,
  0xbe3fa2b73da83da1U, 0x3d8743d33c2a4bb2U, 0x3d81b2d5bd112204U, 0xbdf31a17bd4c1bb7U,
  0xbd3490313c901ed9U, 0xbe38c62f3d80c718U, 0x3e105a4fbdfa768dU, 0x3d79754a3b5e7b80U,
  0x3dc0c42fbde799a5U, 0x3dc16040be5f5b6dU, 0x3ddb41fb3d684955U, 0xbd988219bd2bd9e1U,
  0xbdebca773d60b3b3U, 0x3d07538fbd155026U, 0x3d480d863d978093U, 0x3d3c548d3b1d160aU,
  0x3d6bca39bd4a6accU, 0xbe0272f5bcc8cef9U, 0x3df04a2c3d8109a9U, 0xbd23a90a3def6f0cU,
  0x3e1501ff3de16cd2U, 0x3cf18010bc250e3aU, 0x3c29716f3df8b079U, 0x3d2fa3ea3e4103feU,
  0x3dae66e93f246598U, 0x3b2c5854bcd07dd9U, 0xbcfdb49cbd60aa1eU, 0x3d34c57f3e6f0ed8U,
  0x3dabd40cbe0b94baU, 0x3e3ef51e3e2a8a0eU, 0x394da41e3fa27d99U, 0x3d721bbc3965a8b6U,
  0xbd895e8cbd194556U, 0xbd5a326dbe3e17b6U, 0x3daf2709bdc2aa9dU, 0xbd9f17e33c16cb10U,
  0x3d28b188be0f6158U, 0x3d07f53f3becd3caU, 0xbdd5e7333d6b7b1eU, 0xbdcfc5023d8edfe0U,
  0xbc4c52d9bd9c85d9U, 0xbdb79d7fbd8d815cU, 0xbd6dbe12bcff15a9U, 0x3e133e5bbd513bdbU,
  0xbdc1eeda3d7a7474U, 0xbc2915b0bc412c49U, 0xbbd382cf3dd1cf63U, 0xbca59b79be30b68aU,
  0xbe00258d3c79b4fcU, 0xbd9168e7bddb591cU, 0x3dad0de8bccea8e7U, 0xbd84f17f3e10badfU,
  0x3cea3c2abd68b324U, 0x3d5314f53e01ba0cU, 0x3e29eb52bdca9af8U, 0x3d7497853e225321U,
  0x3d391a13bd021c6dU, 0xbc061adb3e1f94c4U, 0x3db76ba6bd3b7b6cU, 0x3e1e1e8fbc0c013cU,
  0xbda08c1d3dc4c989U, 0x3d626452bd9ff690U, 0x3cb7d323bca18534U, 0x3cefc8a43ca9c81dU,
  0xbdf49707bde7a1e6U, 0xbdc016ef3dbe72cbU, 0x3cf759a0bc54f435U, 0xbdac0820bd26cd6bU,
  0xbcb0948e3ce76e57U, 0x3d94b1d5bcd68d5cU, 0x3e760bb33d903103U, 0x3d989926be1b56d9U,
  0x3b3e0796be41e683U, 0x3dbc2b53bd5629b0U, 0xb94203e83d0f9222U, 0xbdea6519bddced89U,
  0xbd402ac4bdc57647U, 0x3d06502fbcd1b923U, 0xbd7a674dbdadf231U, 0x3da9175abc8c06d0U,
  0xbdfa827abcc5a871U, 0x3dd76b533d0c46b5U, 0xbcd59776bcd1ff63U, 0xbad4c3d43ca7cf1fU,
  0x3de8e6f4bd9bb503U, 0xbe0ab3233d74186bU, 0xbe0c6dbb3dccd612U, 0x3c3a50d03ce357c9U,
  0x3d8c460abe068a45U, 0x3dca4793bdd62b0dU, 0x3d7b8b2a3e4baaf5U, 0x3def1023be0c07a9U,
  0xbe0881a43bc0ea8dU, 0x3d34538cbe117218U, 0x3dc2b301bcf17559U, 0xbde2a05c3d2d774aU,
  0xbd4e5884be4198e8U, 0xbc735f593ee2fe83U, 0xbf035da7be506d31U, 0x3be89ab93e644df3U,
  0x3ef165603c7f583cU, 0xbdbbe4053b613929U, 0x3c903130be62d73bU, 0x3bd7a3dc3f41bb96U,
  0x3d8fba7fbd1c978eU, 0xbc7ce42cbdc0b0eeU, 0x3d5c2665be441921U, 0x3dfb00853b9b48f6U,
  0xbcb77a733e1aa5cbU, 0x3daa508e3d9f0790U, 0xbe5c56f9be0593a0U, 0x3d1a842fbd6d0abfU,
  0x3d019c45bc2c073eU, 0xbd30c712be220cddU, 0xbde735b93e3c087dU, 0xbd58dab0bc58b69dU,
  0x3deb5f903dc5493dU, 0x3c2468e5bd26c24dU, 0xbb346844bd880445U, 0xbd4f0e82bda568bbU,
  0xbcd560b3bd7380ddU, 0xbd8589c33e31df1cU, 0x3d183f52bdf967fdU, 0xbca37e37bdf89203U,
  0x3e02c4e93d053d04U, 0x3d916f3b3dffd709U, 0x3da7e0453dc67cebU, 0x3e30577ebb11709bU,
  0xbc131c3d3c92ed17U, 0xbd70f3353d1340abU, 0x3e212178be0752e4U, 0x3de9ab2f3dbcc2deU,
  0xbcfd192d3dce46a8U, 0xbd5822503d1c2275U, 0x3d4d8cb33d4eb76dU, 0xbdcbad033d19658dU,
  0x3db4ec4c3da62cf8U, 0x3deab8ab3dbf290eU, 0xbe0f6821bcfad671U, 0x3d9dca00bd4c1bafU,
  0xbe05e36abe25c236U, 0x3b39daabbc307a2fU, 0x3dcf23583e2832a0U, 0x3dfadf6fbdfc2cffU,
  0xbcf99dd13bf6abf5U, 0xbdb61357be089833U, 0xbdd71f8b3d61bac7U, 0x3dacad183e47cbc4U,
  0xbd2a92163d90a402U, 0xbd98b892bd6c84adU, 0xbe2cd2bd3e35f19cU, 0xbe12c8673d304d63U,
  0xbdae2fe4bda834c6U, 0x3df51d8dbe0c9ee4U, 0xbdafcf103dc48c25U, 0x3d88b63bbc30ad5fU,
  0x3dee9715bce8fb43U, 0xbca931783dbbc98cU, 0xbd784415be096cc8U, 0x3d4d2c11bd4b5eadU,
  0x3e0461953d278b64U, 0x3cf16fafbd33e225U, 0xbd6ebf943df99616U, 0xbc748044bc662f8eU,
  0x3b8f9ac5be167668U, 0xbd546e18bccf27cbU, 0xbd3bd8c33d2d23bbU, 0xbcbf5eeebe177464U,
  0x3d799db93d9b43fcU, 0xbda784f13d32ab98U, 0x3da61704beb3cacaU, 0x3e83f3383e6ef013U,
  0x3d3052b2bea3a481U, 0xbea2b4aabe016fe9U, 0xbca579893e4ada26U, 0xbe6bd2523e25e719U,
  0x3d4c772cbf033cfbU, 0xbe6f50ff3cdd4b6dU, 0xbc9375c0bd8377e5U, 0xbda7b8cb3dd3c6b3U,
  0xbd1c0c6f3de2e7d7U, 0xbde227a23c8633c0U, 0xbd37bab3bdb4b9c7U, 0xbe05ee273bc81b3cU,
  0x3db702a33cd37ce9U, 0x3c5b0f683db70205U, 0xbda3763f3d8d2b7cU, 0xbdea2e22bd368799U,
  0xbe06d846bdd81277U, 0x3b6bd410bda6a4ddU, 0xbcd6149c3d9a2738U, 0xbdba28bbbdcab2a5U,
  0x3d8efdd4bd8222f6U, 0x3dd95501be09bceaU, 0x3dba88f2bdabdb66U, 0x3a29a041bdcf4c5dU,
  0xbd968d893bdb2613U, 0xbdb8dbef3e178ceeU, 0xbd3d99493ccd69b4U, 0x3c9ed682be4d63a1U,
  0x3d7ba0f53c996cfdU, 0x3d73572dbd92cc7cU, 0xbddd70f53dbc83f0U, 0xbd09f180bd5b9cd7U,
  0x3c0c8d20be058a90U, 0x3d5b5f9b3e1238fcU, 0x3dfa6974bdd12055U, 0x3d9137543aec6586U,
  0xbdab85d73d2e604eU, 0xbcab1be7bde7aa38U, 0x3d582ce5bd9232cfU, 0xbd831b763d834f19U,
  0x3c90fbb83d0d8ea8U, 0x3d7967a5bd815805U, 0xbd1de7efbe0ee59aU, 0x3df5d3c5be180e25U,
  0x3daf7520bd50a4ecU, 0xbd2aac80be16fe7dU, 0xbdf47be13d9a5a4dU, 0x3df8bc44be1022b4U,
  0x3e22cc3fbd1d6c8fU, 0xbcfca79dbdab2d8eU, 0x3bced98f3c9d63bcU, 0x3e0983cfbd6e9c5bU,
  0x3d38f48dbd31d207U, 0xbd4fb5b8bca1f5f4U, 0x3dee50bb3d42ee4dU, 0x3ddd75853db90833U,
  0xbc2ebd09bcba7864U, 0x3e05bc273c9b9fa1U, 0x3d8428ddbda81a7dU, 0x3d942af83d863040U,
  0xbca340513b78f23fU, 0xbd834f5ebc591923U, 0xbe0d4019ba4daeabU, 0x3c922ac53da09248U,
  0x3e3c85a23ca0b4e1U, 0xbd38eca9bd5ddfc4U, 0x3d637b703b678eb6U, 0xbd1448af3c8a66a1U,
  0xbacdd28a3e0b4024U, 0xbc6bd6473cf51550U, 0x3eb885f3be9b44c0U, 0xbd8fbc893d5d5229U,
  0xbf44f3e7bd34be69U, 0xbd023765be977feeU, 0x3f4db22e3f5cfcceU, 0x3d00da6fbf5db19eU,
  0x3ed29705bebce345U, 0xbe4580ae3e266624U, 0xbe40d00bbe846c06U, 0xbd1629653d03e195U,
  0xbdd6c575bd0d6a63U, 0x3b58a8e33d26c127U, 0x3c98ae853c8f5f81U, 0x3b851ebabce4657dU,
  0xbdb2010abe0d57aaU, 0x3c9f85a53c5d49d3U, 0x3cb7ec493d903b5dU, 0xbdaf0e8dbcedf076U,
  0x3cece4ef3e05831cU, 0x3e2b56df3d03c944U, 0xbdce2bb93d6a9f0aU, 0x3d163ad4bd93c87aU,
  0xbd5a8f1e3c830e39U, 0xbcdef795bd39128bU, 0xbbc6d1ccbd8b3e5aU, 0x3cb38c2bbcf21a9fU,
  0xbdc4c6543d3291c9U, 0x3da609a23ddeeccfU, 0x3d03c5643cf89e86U, 0x3d5081333d4cbbddU,
  0xbcdbdae1bc4baeaaU, 0x3df5cd11bd2e17e4U, 0x3da83a363d8636fbU, 0xbd69fc2bbd762d8bU,
  0xbc5190763e0d83a6U, 0xbc993cc13d693807U, 0x3d42d2393d86bf68U, 0xbe03f50bbdd2e618U,
  0x3d96d930bd0a541eU, 0x3da02113be17638bU, 0xbe1813c03e1ba6d8U, 0x3d5a29e83d971b4dU,
  0xbd63ec42be1a8b2eU, 0xbca4a0dc3d25497cU, 0x3ce2dc4f3d065580U, 0xbc907b56bd115d7fU,
  0x3ce322d0bd3f742eU, 0x3d8dee6d3d141696U, 0x3d323dc0bc2e9750U, 0x3cec3118bd65b40eU,
  0xb90ea589bdc51427U, 0x3df15f6cbc7234a7U, 0xbd24f1bdbdeb0d07U, 0xbd1a747c3dbc0a6fU,
  0xbdd83108bd2c3cbbU, 0x3c24b9893bf3c855U, 0x3c21819abe020103U, 0x3a8a6c78bd1af5ecU,
  0x3d6876eabc02190eU, 0x3d95b069bd97ceecU, 0xbe4b1a0e3c0240afU, 0xbd46260c3d2f8a97U,
  0xbd5bb9a7bd3e73f5U, 0x3cf3c7c43da2c4b4U, 0x3d1eb196bd0538c7U, 0xbe0b338abcbed5fbU,
  0x3dd807e3bcb0a8dcU, 0xbd15cc98bddc8998U, 0xbdac898e3d8c479eU, 0xbcd9d2ecbadda7eeU,
  0x3b4809093d671f91U, 0xbd7496e9bd14d052U, 0x3e0c204f3d99cf8eU, 0xbeac49483e151beaU,
  0xbd4fa2563eeb38e5U, 0x3cde3e00be4245cfU, 0xbd9289fa3ba7934cU, 0x3d10e7d9bebe63c3U,
  0x3d0eca363eb432aaU, 0xbe9b2041bd705ff2U, 0x3d834dc83ee47976U, 0x3a88a6c43c20263dU,
  0x3d52a219bd1f788dU, 0xbc8313edbe4e24b0U, 0xbd1c2bbcbdab7c78U, 0xbd8f7f2fbe18a79bU,
  0x3c1aba253de196e3U, 0x3e7eb7b0bcaa6447U, 0x3e2daf0e3d4b211fU, 0xbd47ee69bc776726U,
  0xbced75053de65180U, 0x3d28021fbd3abf94U, 0xbc36df763b754021U, 0xbdbe94f2bd99c8e8U,
  0xbdb70e55be4eec56U, 0xbba7623fbddafe89U, 0x3df28a743e1c7197U, 0x3cdc9450bb898136U,
  0xbd0826e93dcba3efU, 0x3dc4afc9bdafada3U, 0x3c5b31cfbdbc2b91U, 0xbd99ca983cf2b238U,
  0xbc93317abe12c8d0U, 0x3d219af13ccee7c7U, 0xbd6edc313cecea7dU, 0xbd2634703da10a49U,
  0xbd892c903d690a1fU, 0xbe0354333cbdadecU, 0xbc69bb91bdcd293dU, 0xbd28b12f3dd87d84U,
  0xbde910f43caa09fcU, 0x3df3784abd098da8U, 0xbd967f023d9d7b45U, 0xbe0e4373bdcf2016U,
  0x3d18fd333d35136cU, 0xbda969c5be18e784U, 0xbd805b0e3dfe2556U, 0x3c50e1513cb510d4U,
  0x3dd06cf4bce08d74U, 0x3dab71183e4116b2U, 0xbd2112c83d365a7aU, 0x3cd35d733dbf296bU,
  0x3e0768c93c4e963bU, 0x3ca905993c807051U, 0x3d92dbe93c1a67d7U, 0x3e004374bc1e10d1U,
  0x3db120503ca78bbcU, 0xbd6c6d873d28c53bU, 0x3dc94ca6be0e7062U, 0x3d68b6b1bdc28341U,
  0x3dd97c8a3c0a0b8dU, 0xbdd8d62abdb82c76U, 0xbd0a83c4bc8f5da3U, 0xbcaee14abd22dba6U,
  0x3dd6d10e3db92515U, 0x3d2c29583cd0c942U, 0xbc1a3e2f3dc2f875U, 0x3d50d8fe3d5f2eb5U,
  0xbd13b6a3bd6241e5U, 0x3db5ac5d3d716de1U, 0xbd8a8d29bdf9bc7eU, 0x3dc23e5bbdeaad86U,
  0xbd468e0c3da227b7U, 0x3d68b499bdd848beU, 0xbd345f36bc7ec4c3U, 0xbd9589cabd3c3fe0U,
  0x3ef61d03bcef0bd4U, 0xbdf677d83e5e359cU, 0xbea0c8ab3df794acU, 0x3d96e312be5ca20eU,
  0x3e834faa3f199ba4U, 0xbd78eff3bf0b5e92U, 0x3ec60e49be89dd79U, 0xbe1db3aa3e83d475U,
  0xbe829835bd025e10U, 0x3cd00b6e3e2b7573U, 0x3db7083abe430ccbU, 0xbcdb4832bce0773cU,
  0xbd90b8e4bd955d4eU, 0xbe89f2f8be385848U, 0xbd84b91e3b9af393U, 0xbc36327b3dba51e2U,
  0x3cebe2bfbb21e1d6U, 0x3dbdf1283e35d6f5U, 0x3d9efb0ebc5921afU, 0x3e0a83a63d8d874bU,
  0xbd770887bd4b5910U, 0xbd9cf9a63db3926dU, 0xbd9f2179bdd44a42U, 0x3d64e945bd966b4bU,
  0x3d23eb90baa4baf8U, 0x3c0df91e3d874f79U, 0x3d8584123e32b247U, 0x3d4482f83d513f95U,
  0x3e007aa93e3c2427U, 0xbb79daca3d9db53dU, 0xbd56e7733d054105U, 0xbbfb6fcebcece3e1U,
  0xbe0c3041bcaa7268U, 0x3e1d70913cb1d541U, 0xbde4742abdb4ea02U, 0xbe8384fabc6e0b3eU,
  0x3d86f23a3c4a11f0U, 0x3b119002bdf1271fU, 0xbe4523503d54848aU, 0x3d172957bd397dceU,
  0xbd9717533c812369U, 0xbd8dc3d1bc37c7d7U, 0x3c1320513da42d60U, 0x3dc98d4e3dd694b2U,
  0xbdb48f75bc4fc721U, 0x3e0c2a84bda45e7eU, 0xbd34c8a03d7e08f2U, 0x3ccba3093d458ed6U,
  0x3b178e003d11ecb1U, 0xbd7e20443d14a9eeU, 0xbd3b7b91bdf1b624U, 0x3d9c55ff3d85fb47U,
  0xbddcb8373d8203f1U, 0xbe02187fbd83a0f3U, 0xbd5ba7ec3c4680e0U, 0x3d72c3bcbda19163U,
  0xbc0b5fdc3b57acc3U, 0x3e12627b3d83cf58U, 0x3cf5c2063d3d7f12U, 0xbdac0e913dce446eU,
  0x3da0f2753b969124U, 0xbcc0625bbd4c0b5dU, 0xbe0fba49be159bf8U, 0xbcb70ec9bdbedba7U,
  0x3e06aae4bc77b48cU, 0x3dfe7a48bde372efU, 0x3d6f5d723ce3b00aU, 0xbd14db5fbd816099U,
  0x3de0bb97bdf37932U, 0x3e24effc3e1745d8U, 0x3df4c3d2bd9a74c1U, 0xbd4e594ebd0319e7U,
  0x3ce960893dcd698fU, 0x3f54b6d33c0fd3f0U, 0xbd6771da3d8d05d1U, 0xbe739ebfbed81080U,
  0xbda174813eab8201U, 0x3eaa55323ee2f8abU, 0xbbf72badbee7c071U, 0x3f016a90be607ffbU,
  0xbe2634403e10ff24U, 0x3efd39eb3d40adb6U, 0x3e54996fbd2bbd51U, 0xbd89a2d23dbcbaffU,
  0xbdce11603e8c412bU, 0x3e3b7190bd5f4ac8U, 0x3dcd4964bd5b8a37U, 0xbe8a8397bd04e70cU,
  0xbd26830cbd26b29dU, 0x3eb4c3363e08e497U, 0x3e55c3f13cf84d0bU, 0xbd19fb7fbd3069c4U,
  0xbd4870f2be2df014U, 0xbdb0d3f8bdc3ba1eU, 0xbd845936bd1aa09eU, 0x3d06fc643cd984d1U,
  0x3e0f81b53d697ce1U, 0x3c955ece3e66a847U, 0x3dbc71de3d84e70dU, 0x3d0cf704be8068fcU,
  0x3e27936c3dfdd038U, 0x3e0f52f1bd0c10f0U, 0xbc2c39543dbc72cfU, 0xbe00698e3d6b3265U,
  0x3bbc3cd33dccf1b4U, 0x3e129c3c3d4c7247U, 0xbe1ecd90bc8b2b68U, 0x3c8017b73e37b745U,
  0xbd9f070ebe1e50fbU, 0x3e48e2b0bd16a3f5U, 0x3d833d9cbdf808e5U, 0xbdaf2b03bd9a3c17U,
  0xba90ad66bd4367c0U, 0x3e2d203dbd2278e7U, 0x3c940d8ebdcb1380U, 0x3d6cc34abcf17aa3U,
  0xbc4e76723d5c4a4cU, 0x3ceadedc3ddf5f32U, 0xbdb2c6c43d8adb76U, 0xbda042ab3dc77937U,
  0xbcb48ba43d666d62U, 0x3d8c80013dea122cU, 0xbd5641bd3cc9fa49U, 0xbd3250c2bc68c66cU,
  0xbbee21053d68a369U, 0xbdb121d7bc91a294U, 0xbce47e8dbd9722dbU, 0x3d684ea93c11d8acU,
  0x3e203cf2be0229eaU, 0x3dda104dbe37460eU, 0x3db2fe09be0d37f6U, 0xbe4481573bcf223bU,
  0xbe6e417c3dce1e08U, 0x3db6777cbd72da02U, 0x3db955c83e0010c9U, 0x3d8d4f23be144d3cU,
  0x3d74118b3cfcfd9aU, 0x3e1eef993d9693c2U, 0xbe1c9269bd89b784U, 0x3dec8e413c18e0f3U,
  0x3cf0c4873dd6f2b6U, 0xbd8672783ceabd55U, 0xbe2589f63b62c84cU, 0x3e81bc1d3e781bd8U,
  0x3c623e61bd2268e1U, 0x3d46eae23d171bfdU, 0x3d326dedbec0c3fbU, 0xbc7bf705bf0ee7f0U,
  0xbe7a213bbe6bed16U, 0xbd50d8f73e84e4daU, 0x3e7b39633dfa2b45U, 0xbd6d756ebb381a5aU,
  0x3c4f3e68be7cd39eU, 0x3d2b9dc0bf6a6161U, 0x3e189e2fbd0fc401U, 0xbd486c2dbd1f4ce4U,
  0xbd580135bd79e8a6U, 0x3e2f76583aab4cacU, 0xbb6746ab3dcc40ceU, 0xbe14de413e02404eU,
  0x3c0167c93cf543aaU, 0xbc60712abd95b8a2U, 0x3b4b2f753e145602U, 0x3e0457253b1d5d7dU,
  0x3dc067e73c83eb92U, 0xbb9246ffbcbe8189U, 0x3c93bf073d06efc1U, 0x3ced4508bcdddca5U,
  0x3ca4385ebd412b44U, 0x3db51308bdfb203bU, 0x3d92cbbf3d96829dU, 0xbe2bc8803e3c2201U,
  0x3e23bf78bd9ad304U, 0xbddcbc273ca70172U, 0xbe3ee9013c9ea533U, 0x3cceb8aabd3772abU,
  0xbd0e5c1e3e8a222fU, 0xbe7fef87bd7c148bU, 0x3d4a9dddbd774876U, 0x3e09752d3e099939U,
  0xbccea4e73da7e117U, 0xbcad4b43bbed604aU, 0x3e1ee9f3bd05350fU, 0x3d89284bbd80df5bU,
  0xbdccb689bc8462c2U, 0x3d25b1dabe1cabebU, 0x3df8f692bcf56d09U, 0x3d5f971cbc95127dU,
  0x3b598ac3be446416U, 0xbdcb02f3bda51d18U, 0x3de2b39cbe655b63U, 0x3e2608273df322acU,
  0x3d71095cba924102U, 0xbda43ea73e12ac15U, 0x3e26704a3da550aeU, 0xbe4faa643ce7de19U,
  0xbcb52853bd3f301fU, 0xbe8a0a81be2bcd5aU, 0x3e1233de3db21464U, 0xbc61ffbc3dacde58U,
  0xbdc005bb3cb1b105U, 0x3e4fc421be10bb73U, 0x3d948fe73dc69d82U, 0x3dad1584be06499aU,
  0xbc544a553e0a6a76U, 0x3d2dc6da3d2d637bU, 0xbdaaef3a3e0de141U, 0x3e3ee6613b16e37cU,
  0xbd0314673d842232U, 0x3d83e4023ce3e170U, 0x3da7c3d03e06455eU, 0xbe0366bebd8e02ceU,
  0xbcb2c5f7bdabc45cU, 0xbc8959b3bdfc40e0U, 0xbbece3ef3cb74908U, 0x3d2ef9a5be4572eeU,
  0x3ca8e18f3d199f04U, 0x3e14a0a03d53c231U, 0x3d1a11b0bd5f2a4bU, 0xbe707125bece6f05U,
  0xbdb8079c3ede6671U, 0xbef7e2723e8a4071U, 0x3d99605dbe0e3a5aU, 0x3efc03733e9976b6U,
  0x3d13a4b0bde76414U, 0x3e1eb67cbee5a187U, 0xbd1896f33f78250cU, 0xbde607e7bd81c6c5U,
  0x3defeb7f3d38b4e8U, 0x3d9430de3c7fbb1aU, 0xbe2eae433d406a26U, 0xbe05a6d8bd17cc54U,
  0x3d87899a3c85a0a2U, 0x3c9603a23dca944cU, 0xbb4bc4c2bd86a043U, 0xbda1071abc2a82c8U,
  0xbd6b7eb9bc70c6a6U, 0xbd5d9e7abe3924a2U, 0x3d35b6323df9035dU, 0x3c7b8b0abbb165fcU,
  0xbda864abbc75fbe4U, 0x3d0e11c73c9fbd6cU, 0xbe184267be0fc340U, 0x3e646bd53dd5a34aU,
  0xbd96cd9abcfc3201U, 0xbd7166bb3e0c72afU, 0x3d9f604fbb11dc32U, 0xbdeddb203de12823U,
  0xbd4f48ba3ddeae5cU, 0x3d50ffafbdf9db0cU, 0xbd918014bda2e6c4U, 0xbd29d5c83e0498ffU,
  0xbd8be6a9be06e041U, 0xbdf8c32abd97a4a6U, 0x3df600ef3c92127dU, 0xbcf656c5bc773130U,
  0x3e139c5d3ce60728U, 0x3dbbdb06be150304U, 0xbd8f3b783d93772eU, 0x3d76b14dbcc8754aU,
  0xba4bc49ebe0188beU, 0x3d35c098bd1be6a2U, 0xbd5700f63d3bd48bU, 0x3de28544bdf42232U,
  0x3d0d8bb5bd74082aU, 0xbbdc0a17bd3397a8U, 0xbe511aadbd858ac6U, 0xbdde80b33e4f54cbU,
  0x3cfc551c3cb855b9U, 0x3e28907a3cbf28e4U, 0xbdaeb151bc744eadU, 0xbd0bd45ebc6daad9U,
  0xbe11f3a8bdd127e4U, 0x3df0b7e13be497beU, 0x3cf581d73d3ff50aU, 0xbd9405303e328a9eU,
  0xbcf602ecbda70aa5U, 0xbc6cd72e3dc5f782U, 0xbc8af0f5bdd72f4bU, 0xbcc01b05bde56739U,
  0x3d4537813dba2000U, 0xbd09a935bd4fdc99U, 0x3cb85b2d3ced98b6U, 0x3d59f2493e692c79U,
  0x3cedc8a5be3bd945U, 0x3c3c7d21bdda856cU, 0x3dcb8f643d0ceceaU, 0xbe422e0e3d7e821dU,
  0xbcc496bcba9ab1d8U, 0x3c9ebae23d8ec004U, 0xbdc3d36bbd3ced27U, 0x3dd4c4febd792c94U,
  0xbdb18b81beadbf63U, 0xba46b81bbe3b7a51U, 0xbf7241803eec2e70U, 0x3c7267a9bec63b25U,
  0x3f6aeb0d3e91f67aU, 0xbdb48587bdf08af2U, 0x3dac2dfdbed3a6aaU, 0x3ca05f22be9d9d51U,
  0xbef32a65bea279adU, 0xbd8b1706bd911691U, 0x3a760e7e3ce3ba0fU, 0xbdaa7f433df78c3cU,
  0xbd1c5aba3d8839cbU, 0x3d71a2963e0af207U, 0x3e067f14bd9d7b3fU, 0xbd195e3b3d61f7d3U,
  0xbd32bd46bccfa0bcU, 0x3d9862bdba21ab67U, 0x3e23f59e3dcd5383U, 0x3d3472a33e15bf09U,
  0x3d971450bbbeab6dU, 0xbdbc53e23d4104aeU, 0x3d995a7f3df0efd9U, 0x3bc129e5bd991723U,
  0x3d7d280bbe1149f8U, 0x3d8ac61bbe0913f8U, 0xbdced5aebc6b10e7U, 0xbc013ba93d2781ecU,
  0xbda2d48d3e616b61U, 0xbc8eb1e5bdb86b10U, 0xbde860633d0064f9U, 0x3db6c5e5bd9d81bcU,
  0xbda955ba3e0d1d4dU, 0x3e4ae3aebce5b21dU, 0x3d35ba5abdaaf0b3U, 0xbd78bb1b3d5e19dcU,
  0xbc90062bbd8c9ffaU, 0x3ceeff3ab9f4d2eaU, 0x3e006a38bca32e4cU, 0xbdd3b3b8bddfc63aU,
  0xbd8e44febe3cbac6U, 0x3d422dc93dd45e95U, 0xbc803c4ebdf011d1U, 0x3de8bd97bd7ff423U,
  0x3cd015fe3dabc7fdU, 0x3dda1713bd4eeef1U, 0xbcfb7e5e3df95882U, 0xbe5fcfa6bb53e778U,
  0xbe0ca4dbbdd3a7baU, 0xbdf82c21bdcbc522U, 0x3d08efd53db9cf92U, 0x3ddb57f4bda76723U,
  0x3dc0e334bd953fe9U, 0xbd3544fd3ca0e267U, 0x3d6da3633e670ef5U, 0x3da48e52bc9c02bbU,
  0xbd3e25e33d6700b1U, 0xbdef8814be135ee2U, 0x3d3c8347bcd72095U, 0x3e422e493d465115U,
  0xbe0ab650bd800e39U, 0x3b392e24bd98a853U, 0xbc33fb3cbcf64771U, 0xbd90179ebd8e8063U,
  0xbe62e32e3dae9387U, 0x3d9323703c9627c7U, 0xbd09771cbd2b56dcU, 0x3e12f301bd0e514dU,
  0xbc67bc553db905c7U, 0x3c11bb0a3cab4a54U, 0xbdc5ff87bcb7bd96U, 0x3c088eb2bcc0cfa6U,
  0xbd99b4b73ccaefcbU, 0x3f1e999dbe31947bU, 0x3c62acf2bef2d32fU, 0xbed6876f3da70973U,
  0x3d7ee16bbe6f2176U, 0x3efabcff3f3ad73cU, 0x3cc08082bf2ef39fU, 0x3ed51abbbe53b702U,
  0xbdf86aabbf67cd77U, 0xbc8015a8bdb01fabU, 0xbda6c08abe40aa88U, 0xbe6170dc3de93351U,
  0x3d5762ffbcea53b6U, 0x3db5a47fbd556abaU, 0xbdc1d8e9bdba9449U, 0x3ca22f183dffc40bU,
  0x3cc65648bd6968f5U, 0x3da6081f3e029b93U, 0x3d97f5423dff7c75U, 0x3d536992bdaa65c7U,
  0x3d42bc20bd603c6bU, 0xbca0ba033e086d3eU, 0x3da0cf42bd13dad3U, 0xbdbbad493e1fdcc3U,
  0x3da2b8a03cf5bba1U, 0xbd33627a3c70e692U, 0xbd82a0cbbd8a0bb4U, 0x3be6cb293be17390U,
  0x3ea7fdd33d916276U, 0xbd718806bd820275U, 0x396ebbe5bdaf06a2U, 0x3d4af70e3d1081f6U,
  0xbdb13f71bc9d6849U, 0xbd991597bddc2defU, 0x3c4550b3bc960dfeU, 0xbcac935f3d7e7d86U,
  0xbde3c620bdad7dc1U, 0xbd75f229bd390aaeU, 0x3c9519343ddae71cU, 0xbd7b6ad13d328f6dU,
  0xbc86ba0abca9e533U, 0xbea652383cf6d692U, 0x3cc38108bdd856f9U, 0x3d80e70d3e88a361U,
  0xbb18e8363df1ad8cU, 0x3c74980d3dd7b35dU, 0xbe0f148ebce7a508U, 0x3cabdbafbd2a227aU,
  0xbda9eebfbd8a3b11U, 0x3d91a0e13d6d7e5dU, 0xbc91c0a4bd4aa133U, 0xbc8e45ef3c8d2f89U,
  0x3d715b37be9589dbU, 0xbcc43bc9bbe6a124U, 0xbde39992bc4a5f39U, 0xbc5a0641be2b34f5U,
  0xbdaa166b3ddf315cU, 0xbdc47b0cbe44a53aU, 0x3e8925743d983faeU, 0xbd49aa3bbd2b7fe6U,
  0x3d293ba1bd3d106fU, 0x3e19bdecbc346592U, 0xbda1181f3dc6eb39U, 0xbd053a9cbbb31d62U,
  0xbd6b9a1bbdb66879U, 0xbe0a030c3cdd422bU, 0xbd867226be397564U, 0xbe0e2cd33db766a5U,
  0x3cf540923cca234aU, 0x3bc297873d1b0965U, 0x3ea3e40bbde2ca73U, 0xbc60f1da3d88e1e8U,
  0x3dcab4b0bd44a530U, 0x3e165d813e618845U, 0x3dfa4f8abe363c87U, 0xbcd9637cbeb00c2dU,
  0xbecefee43df7bf4cU, 0xbda7eaebbd4ab8b5U, 0x3ef3af923f1cfb2eU, 0xbd523c67beee1229U,
  0x3e94286bbeda312eU, 0xbcbd5a4abf0eec55U, 0xbdd7aed7bdb74eafU, 0x3e959cc0bdcca546U,
  0xbe460f283c304b3cU, 0xbb818aefbc6e0999U, 0x3cf300c73e4a9053U, 0xbdab44e4bd92ba68U,
  0x3cf292df3e3bbaf8U, 0xbd83f4403d44b103U, 0xbd12b6603c977d44U, 0x3ddace633e2455c5U,
  0x3de9660e3d4fda30U, 0xbcb19a4e3d691edaU, 0xbd6478ac3dc67ed5U, 0xbe50607bbd0f2dc4U,
  0xbcfa2711bdb82b83U, 0x3d4bd9ddbda9ef65U, 0xbe274d413dabb9f9U, 0xbe23dcd5bd893096U,
  0xbd2ae80cbda192c8U, 0x3e09f1ad3ddeec5bU, 0x3da6d00abd931213U, 0x3cc13247bca27eb9U,
  0x3d8c51473de4c36eU, 0x3db7af3cbc8ed85bU, 0xbc8628f63d09848aU, 0xbe38d514bd80c059U,
  0xbc14a26dbd515397U, 0x3e0145373df61d6dU, 0x3dcfba4ebd0ec206U, 0x3ddf08813c2869f8U,
  0xbd096a0fbdb25981U, 0xbda5d5c1bb523955U, 0xbd849f8abc91f85eU, 0xbd5b4e32bd8e8d01U,
  0xbdef85f73ce29cecU, 0xbaa7bd38bc8b9264U, 0x3e6d85a8bd3ab043U, 0x3d2fadae3d845e45U,
  0xbde3d383bd434e6eU, 0xbd46c7b3bddff0e7U, 0xbdbceac33e0da69cU, 0xbd7af1b5bd7c0374U,
  0x3d91eb07bdd37316U, 0xbc468ede3d043d83U, 0x3dd751473d98a0eeU, 0x3dbc7bf3bcb9e599U,
  0x3dd2c9073d7dd9acU, 0xbd8fe1fc3dce9447U, 0x3e73000abe1d611dU, 0x3c84b0b3be1cf63eU,
  0x3c1c31993d6e5abbU, 0x3c3b0559bd32d848U, 0x3e7a79283d045054U, 0x3da509c7bc087581U,
  0xbd0d544e3e4eca81U, 0x3de70408bdaf2df2U, 0x3cb005c6bc495a28U, 0x3ccffbe43e0efae4U,
  0x3d2899d2bb9d49c6U, 0x3d6bff0e3d023c82U, 0x3e157b89bc93f3baU, 0x3cda1d45be7f5fd4U,
  0xbca1bb793e7e7239U, 0x3e6b99563dbaec87U, 0x3cfbcdf83e0cd031U, 0xbe6db2d13e4fa2c5U,
  0x3cb596c33ef2d4ddU, 0x3ef3223c3ea2fa34U, 0xbdac13d3be4091caU, 0xbed39cd9bd8fe5dfU,
  0x3cc9495a3da0f900U, 0xbdd9af2c3e9d1490U, 0x3cddda3d3f3e4eb2U, 0xbe9106de3e37c507U,
  0xbc47ebbb3e0eb0fcU, 0x3dc9f4e23da3a0edU, 0x3e07886ebd15078fU, 0x3d1a0c5f3e18e70dU,
