/**
  ******************************************************************************
  * @file    network_data.c
  * @author  AST Embedded Analytics Research Platform
  * @date    2025-05-13T11:15:47+0200
  * @brief   AI Tool Automatic Code Generator for Embedded NN computing
  ******************************************************************************
  * Copyright (c) 2025 STMicroelectronics.
  * All rights reserved.
  *
  * This software is licensed under terms that can be found in the LICENSE file
  * in the root directory of this software component.
  * If no LICENSE file comes with this software, it is provided AS-IS.
  ******************************************************************************
  */

#include "network_data.h"
STAI_ALIGNED(8)
const uint64_t g_network_weights_array[51906] = {
  0xbc1dda813dede501U, 0xbe087b76beb81d3bU, 0xbe4c56053d2a6127U, 0xbce470ac3e924445U,
  0x3e68ea28be9a4e33U, 0xbd97aa2d3ecaa09bU, 0xbec1bff9bdaf11abU, 0xbe2422923d1d3ac0U,
  0xbec7651dbe1a045cU, 0xbe09a9cebe54dc4eU, 0x3d979240be9b02acU, 0xbe1a4b0cbe346b4bU,
  0xbd2b1cb83e939132U, 0x3dbd2073be157f48U, 0x3e9da75bbd1a89c9U, 0x3d65bcdbbe662fdaU,
  0x3e32ccee3d89bc33U, 0x3dd8a718bc284149U, 0x3bcebcafbe8cfd08U, 0x3e4de4dcbdd36de7U,
  0x3dc4a2edbeb57405U, 0xbd54986b3d675234U, 0x3c7f1e933ea061b0U, 0xbdf53f823e3a662bU,
  0x3ea00589bcea407eU, 0x3e7735c9be075f6fU, 0x3e70281d3e8ce191U, 0xbe9deb863df1ac4dU,
  0xbe6ed3913e6fe30bU, 0xbea2ab273b12a696U, 0x3e16c9ea3dc89374U, 0xbc2ed7683cdd3c70U,
  0xbacea6b03dcbe1ebU, 0x3d6475c53d5edd00U, 0xbee6f7f13ed854e5U, 0xbe377eaabd284a10U,
  0x3dae7aebbce32f78U, 0x3d8fbc8bbe0d5429U, 0xbd08d6363e90fe9dU, 0xbdc18b973dadb76bU,
  0x3da5abe3bdd42b77U, 0xbac4a3283d1bd563U, 0xbe53bbfb3db708f1U, 0x3daca57bbe88a527U,
  0xbb4a4f38bcdb0174U, 0xbe2395aabd82dbbcU, 0xbdab0d3cbe9cc6b6U, 0x3e66be70be9e45f9U,
  0xbd58b841be8d07ebU, 0x3c80f7ff3e12d168U, 0xbe08c934bcd65ad8U, 0x3dcec1df3da3f588U,
  0x3e856be7be3f8d9aU, 0x3ded0df03dbea781U, 0x3ea386273e0b971dU, 0x3e416abf3e99280bU,
  0x3e1aa852be7b4366U, 0xbe073b2bbcc6d20eU, 0xbe46f4a03cce4899U, 0x3e587ffb3d716234U,
  0x3dcdb726beb705d3U, 0x3ec6ada13d29fa22U, 0x3ddf13743eac9c0aU, 0x3e9cacadbe05d595U,
  0xbee8a969be863984U, 0xbd7af74fbdc4cc3bU, 0x3c91740a3de69105U, 0xbce4e98f3ae91fecU,
  0x3d53ae693e68f187U, 0xbbe26027bd514765U, 0xbe87c8a03c8e8b29U, 0xbe44614d3cb055b5U,
  0x3d588c823df325cdU, 0xbe5d5d5ebe0dd0afU, 0xbda496edbe2774c2U, 0xbc0e05e73c23ea3eU,
  0x3ec8d8d3bcf29de7U, 0xbe8809413db4bceeU, 0xbe497e313d0e3f58U, 0xbe4dc7b73df7f1beU,
  0xbe004878bea2b7bcU, 0x3df060983dfd1a10U, 0x3df7253d3d3a3f07U, 0xbe02d58fbe328086U,
  0x3c17bca63d207c9eU, 0xbe96a8833e6c9013U, 0x3e005c4fbf0f33afU, 0x3d66b4053d597cf8U,
  0x3e160d9dbe4d017cU, 0x3d46240e3e7c5b5dU, 0xbe059755bee352c3U, 0xbc36480e3d9251a5U,
  0x3e05d2d0bd08ec7dU, 0xbe52e611bc870b04U, 0x3e8add1dbdfadd51U, 0x3ce2d7173d6fc992U,
  0x3e2b1d8a3e583ec1U, 0x3e0f0ef53e9fe785U, 0xbcaf528fbe1b530dU, 0xbe2d92493ea85726U,
  0xbd198ad2bddc4276U, 0xbdbfa14e3ba3a32aU, 0xbe178c00bdea6649U, 0xbcb527383bba3386U,
  0xbe8a2742bea8b876U, 0xbde5974c3e5166b8U, 0x3d2d89643dbd18cfU, 0x3dae0761bd6faf49U,
  0x3d166ac8bd925fecU, 0xbe4110c6bd02b43aU, 0xbdaab2283dcc562fU, 0xbe8ce933bd50c8afU,
  0xbe46a63dbe216dfaU, 0x3e89a8713e6367b2U, 0xbd01c0cbbe736379U, 0xbe1eb0293e1bc278U,
  0x3e0c0eacbeacc369U, 0x3ca6eef0bc9b6fc7U, 0x3e355d3d3cd4cf36U, 0x3d80410c3e358696U,
  0xbe1c6dd0bedc42ffU, 0x3a04d856bd4dcb72U, 0xbed0b55d3ea4292dU, 0x3e44b5a7beee193bU,
  0xbc085de73de382e7U, 0x3d8bdb943eede38fU, 0xbdbbd685bdd807d4U, 0xbe24fc373d8c0198U,
  0x3e34c288beba9da0U, 0x3e57e49c3decb297U, 0xbdaf0e823e5d04a8U, 0x3e3026fc3ea93e73U,
  0x3e2c50e8bd78db64U, 0x3eaf90393ebab46fU, 0xbd172ff8be5ca941U, 0xbc89efe5bdeba5d4U,
  0xbdd60570bd037664U, 0xbe350f1f3daf4acfU, 0x3d98cf793c8f3340U, 0x3d8d24713d612656U,
  0x3d1609273e5a4170U, 0x3df3a622be503f80U, 0xbd436707bd0ac457U, 0x3e81a159bd8ba2c0U,
  0x3e11ab883d47014cU, 0xbe6ecd19be84bf11U, 0x3d6437fbbe02b988U, 0x3e3d929f3dded12fU,
  0xbc3504083d972cacU, 0xbda7f74abdc8faceU, 0x3e33ff753e014ae5U, 0xbd1e6c903e000b7aU,
  0x3e80c70fbd0cd8d3U, 0x3e89a80e3ebc5ae5U, 0xbdf7a02f3d9232b7U, 0xbd7ecd49bd66fd21U,
  0x3d85ca773df21f88U, 0xbe836e27be6c6dc2U, 0x3dd3bef63e2b4b9cU, 0xbe1c85203dac4e5dU,
  0x3ddc70c63a3ba4d0U, 0xbeaeacb9bdfe72ebU, 0x3e1175dfbe59799dU, 0xbdcd968d3e2df01fU,
  0x3e37f94b3eb49d4eU, 0xbe046d2ebe0a5494U, 0xbc31159a3db82825U, 0x3df17927bd68f422U,
  0xbd89c2aabc2f20c8U, 0xbd39b7f03e884050U, 0x3ea67f243e80c52bU, 0xbe7d81ce3d520cf5U,
  0x3db76359bdd68b5cU, 0x3da7a1fc3e13e8ccU, 0xbe4ec40e3c6d4838U, 0x3e11d0eebd5cc656U,
  0xbdeb33f13e22cac5U, 0xbd8cd8373ccc05e8U, 0xbeb3e8433e89f8e1U, 0x3ec27e523e63ce27U,
  0xbe8136043d8d9419U, 0x3e0ffc953e7ac001U, 0xbe93a3f5be5cd90eU, 0x3e5cff6f3de8a63fU,
  0x3d2f8ef53e6eef45U, 0x3d55b1dd3df8a82fU, 0xbbb18e6cbe55cf6dU, 0xbe91dd743deb738cU,
  0xbdfeeaae3e8f0e5dU, 0xbd2cf4353ed1f67aU, 0x3efecbacbbc30be3U, 0x3e18ddb0bd7f12a3U,
  0x3deba5e6be639edfU, 0x3e262bdebe26bde8U, 0x3df3d7473db63bb8U, 0x3d6abe3bbe103119U,
  0x3e4d63e8bd09255dU, 0x3d074b4c3e19070eU, 0xbe99e7123de22832U, 0x3e75e9cabde3e851U,
  0x3e54b6943eaf9a01U, 0xbdd1cda03e2f8b31U, 0xbca4c1b03e3e6a42U, 0x3dde1a113e912e5fU,
  0x3e81c8d9bd54600cU, 0x3ec8a073bc5d7145U, 0x3d34a2863e336beeU, 0xbd42c954be0d2ac9U,
  0xbcb28e2a3e24c2d9U, 0xbd592042be867284U, 0x3d905ee13e7ad887U, 0xbd347f8d3d6b27e3U,
  0xbe80297e3e3c792dU, 0xbe2eb6ed3da1b7d8U, 0xbd81ae0bbe7df284U, 0xbdad49603e8b3942U,
  0xbeb60a93bd1aadeeU, 0x3e101cb83e0712beU, 0x3ec0fd5b3e0cf8e9U, 0x3d91d5b33c14e989U,
  0xbdd3d7a9bdcce966U, 0xbdfe95acbe9d96ecU, 0xbeff51673ea6441fU, 0xbc81dea33e50a3d9U,
  0xbd50c2013ce9f7cdU, 0xbe53ea173e563210U, 0xbef81f3a3d458d90U, 0xbe59d4c33ecac119U,
  0x39c5f8c33cdf14afU, 0xbdd60970be1b6bc7U, 0xbe41eb37be192a75U, 0x3cefb81ebe0b2efdU,
  0xbe917c713d91fdbeU, 0x3e4468523d1dd41bU, 0xbd95de54bd75e8e8U, 0x3db62e4ebe2cb2f5U,
  0x3da0d4fd3c5b8507U, 0x3e238b26be611a41U, 0x3e206fe53e02c8cdU, 0x3cb7c8233e002006U,
  0xbd2cac37bc831e2aU, 0x3edde895bec346aeU, 0xbdefeab9be99bd89U, 0x3e741f5cbeb1c21aU,
  0x3cd111743cd5a47eU, 0xbc8e3c763d9fceeeU, 0xbe67bb0d3dd0b87aU, 0x3e6adbd9be35c549U,
  0x3dbdfb22be758799U, 0xbd8be5003d1bc800U, 0x3e2431f8bd718257U, 0x3e642aa4be8af549U,
  0xbe26fee0bdb2d41bU, 0x3d23db4cbe19b579U, 0xbe2fe7603d696357U, 0xbdb80e81be8242f6U,
  0xbe3f693bbd76aeabU, 0x3e84434c3dfa4bb0U, 0xbd0bcb313c6caa0aU, 0x3dc82f513e71f43fU,
  0xbe65d2bb3d9d11e2U, 0x3d6eb03ebdefac83U, 0x3e68d8a73cfe7eceU, 0xbe17d783be0282f4U,
  0x3e0576fc3d907874U, 0xbd30aa0bbd039362U, 0xbe839a2d3ca9fa1bU, 0x3e2b66173c7c44fcU,
  0xbd5508643b63ccb8U, 0xbde7516dbd620666U, 0x3bf672f2be625b09U, 0xbc0396ec3e2a08b1U,
  0x3e0c9654be0ef8a5U, 0xbe81196e3d035516U, 0x3dfc10473c0d82e4U, 0xbe8c3b2bbe999817U,
  0x3e2651ae3e4d17b0U, 0xbe861f61bf1ec3dcU, 0x3d9d517bbd40130cU, 0x3da20ec4bcb7f697U,
  0xbceb06fdbc1a090eU, 0xbcd0860f3e05f9adU, 0xbdf2e0d23e9d8c90U, 0x3eacbfecbe2da443U,
  0xbd34c7bebe0908f0U, 0xbd6496d73d85f812U, 0x3cf1ecfdbd5a80f5U, 0x3c274a97bdf901d0U,
  0x3db392713e327c8aU, 0x3e1bd527bed7544cU, 0xbe10da5b3eb49763U, 0x3cd2a52b3d4bd59aU,
  0xbe59b87a3e94f640U, 0xbe68a652be893ff1U, 0x3e08a0413dc856d9U, 0xbcc9df89bec277d9U,
  0x3e6e9c0fbdcf17eaU, 0xbddbaa13bd2f977bU, 0x3e4e41983f0c5005U, 0xbe4886973e415e03U,
  0xbe818be73e7acef0U, 0xbebce8d1bd6c5113U, 0x3edc3c66be0480b6U, 0x3d99621f3cf50dfbU,
  0x3d8acb663dc98722U, 0xbc81fb1d3de069ebU, 0xbee953c83da60298U, 0x3d52a41dbde4542bU,
  0xbc683ba3be4adb87U, 0x3cffbfe23daabcf7U, 0xbd947acebda1070fU, 0xbd522204bdd0222eU,
  0x3dbed285bec5d90dU, 0x3e18693c3cd64c96U, 0x3eaa2f5cbe4d20b5U, 0x3e761a8fbd06902dU,
  0x3c357a943d06e8a0U, 0xbebb5270be14cb58U, 0xbe4e733a3de3402fU, 0xbe01b4f1bd7df115U,
  0x3e9107febecfb65bU, 0xbd59f74f3e1e7451U, 0x3e3237f73d971539U, 0xbec4ccd0be01a3c9U,
  0xbea611ab3e313969U, 0xbeaf89c03dac2024U, 0x3e9865fd3c02d09dU, 0x3e60a0633e9d8e87U,
  0xbea99109be14c7c0U, 0xbd91aa923ec79877U, 0xbdf42d743c0da4b1U, 0x3e121722bdffd1e7U,
  0x3d4e50c33d5f6195U, 0x3ea0310e3d67cc06U, 0x3da8a99fbd8be7c8U, 0xbec5a70d3db40b43U,
  0x3e4e515fbe907cd3U, 0x3de4f3833e9ef22cU, 0xbdac714abdcc5fb2U, 0x3dad009c3da84014U,
  0x3e3768d13efdcd2aU, 0x3e0e87963ea33fb7U, 0x3e0ea48abd922c4fU, 0xbeb028a6be91e8cfU,
  0xbe00d819bd94ec90U, 0xbeb3644fbe80de05U, 0xbda9ecb0bebc8731U, 0xbcf2e5933e1208a1U,
  0x3e85debebd9a11acU, 0xbf138a143e3d34cbU, 0x3d76dd4ebd25e1c0U, 0xbe6c9c4dbc973c15U,
  0xbe2116b8bd42b8dcU, 0x3e08f7d73e8ec1b7U, 0xbec29e9bbeb5b64cU, 0xbd7bbe77bda36530U,
  0x3e3393fc3d2b0aa2U, 0x3e6d26443e2d9caeU, 0xbe14d9aebe1f6586U, 0x3c6d9b24be2c38e4U,
  0x3dbb16bb3e19bfd5U, 0x3d44a6193e508917U, 0x3d08c8b63e2949cfU, 0x3e9a65e8bc81fab8U,
  0xbe8f1d8abdaf59c1U, 0xbec1e3253e042062U, 0x3d6c23373f02c2e4U, 0x3bcc7bd0be0c4936U,
  0x3e24c42f3d89ff0eU, 0x3dff26023cd35619U, 0xbdb0f9dfbe6ae593U, 0xbda497aebdfc459fU,
  0xbd1f87f1bdb9dacdU, 0x3e308cf4bd85b113U, 0x3e41d90bbebc7a88U, 0x3e86769c3ec1dbd6U,
  0xbc9486843e874ea9U, 0x3de5b706bd0151caU, 0x3d9fc695be6e14b4U, 0x3e2727f6be462905U,
  0xbdf40ab43ed959e7U, 0xbe15d02d3d64964eU, 0x3e63624ebe0591e0U, 0x3e4cd18abe38afbcU,
  0xbe8aac59bc96d7f7U, 0x3e90b294bec56c5cU, 0x3d2ea2a5be811f11U, 0x3dea9a38bdd83bbeU,
  0xbde18f553b3d29b1U, 0xbd7051d1bc77e831U, 0xbe3c72da3e5e1ba2U, 0xbe3a2cb63e1016adU,
  0xbe9eb7953e760678U, 0x3db23574be2c97e3U, 0xbe879219bc068c6dU, 0xbe6063493e2d7ae0U,
  0xbe1f1a7ebe69f6f1U, 0x3df5272b3d087f48U, 0x3e81cb61bde26e5cU, 0xbe3c4d903da68961U,
  0xbed36c9abe5eb712U, 0xbac65af43d1684edU, 0xbd4247413e1b565fU, 0xbeeeb45d3c503a7fU,
  0x3e39e1003d8f15d6U, 0x3df554043e460245U, 0xbd832e06be3ca1a2U, 0x3e3031c33e02425fU,
  0xbec03d67be85f246U, 0xbe8cb0f9bd7d7102U, 0x3dd2bb5dbe0ef586U, 0x3e4facea3e5911e2U,
  0x3cea1d9b3e2ebbf2U, 0x3e21bfa439957e66U, 0xbe2693f9beb11522U, 0x3e1e0f03bd407770U,
  0xbe46c1293d17af0fU, 0x3d9f7484be8925dfU, 0xbe1745d9be21337cU, 0x3e7c6cb33ddfd46dU,
  0x3d35ce48be1ab603U, 0xbe1b8309be088b81U, 0x3e35a3183cbfce3bU, 0x3dd2222e3e67a9c3U,
  0xbd5a5e75be83e786U, 0xbc81b792be076114U, 0xbed93a96bdfed8ecU, 0xbe05696abdf4da2eU,
  0xbdbae643be59addfU, 0xbd242e793e87abf8U, 0xbcda70fbbe3717bdU, 0xbda7bd6abe76bbabU,
  0xbddaac9bbcdb7860U, 0xbbc8c4e3bdab1333U, 0xbe4e5119be325341U, 0xbe1886dd3def2a22U,
  0x3ea5c217be353d2dU, 0xbee7b020bcd6087fU, 0xbd685f1f3d988af0U, 0x3e3de90b3e7fd9efU,
  0xbd1a557f3e40ad97U, 0x3c6ebed6be00ddc3U, 0x3e78e9d93d83cc1aU, 0x3ed70161bd539738U,
  0xbe4c2218be3f23b5U, 0xbe0e6748be8eb02eU, 0xbc6c2d5fbd9e5c6fU, 0x3e91a6533eed97f2U,
  0x39b728f0bdf9892cU, 0x3d30b760bde7a409U, 0xbcd30741bddbd27dU, 0xbc80d5943e098b49U,
  0xbd45fc293db5d955U, 0x3dd52398bdf56203U, 0xbb8d14ff3e927ca7U, 0x3e9741653dc31756U,
  0xbe518a163d28ea5aU, 0x3d6086073e2ac227U, 0xbd1f462e3e6c0408U, 0xbb866ef53e027c1bU,
  0x3db599e3bf33d5fdU, 0x3e38b881be057460U, 0xbe4170f13c88d194U, 0x3e2ae0333c2068d5U,
  0xbe52b6bc3e9307e9U, 0x3de6a4d23e65449aU, 0x3d00ea0d3d38c6d6U, 0xbd0440b73da71a5bU,
  0x3d8e402b3e0d2094U, 0x3e05174fbe6a5dddU, 0xbef0d275bcc41174U, 0x3e49d828be4bd57bU,
  0x3b9bc254bc38c04cU, 0x3eef8f333ed9d6e6U, 0xbd7e74d1bd0ddde6U, 0x3e0cf01fbe41b78cU,
  0x3e001fa9bea8f14bU, 0x3df93e20be0614faU, 0x3e9043a9bcc45d00U, 0xbd01beaabe853277U,
  0x3e2736b4bd46a214U, 0xbce674ebbe91a425U, 0xbd80c1e63eae4adcU, 0x3c41682d3d82734bU,
  0xbe084456bd2c54f0U, 0x3e82248bbe8f014eU, 0x3e097c133eef0e86U, 0x3d9c44363e9e1be0U,
  0xbeab58393e2a8fe1U, 0xbc141dd93dec8cd4U, 0xbca646d93ea33fb3U, 0x3bddbb693bea6da2U,
  0xbc7c302dbd678f53U, 0x3e9e1a023e57fd50U, 0xbe015ef3be8eca00U, 0x3d829f223d57af09U,
  0x3c85fe16beb8e7d4U, 0x3dee181ebef5fdddU, 0xbe53e0443e47aa99U, 0x3e316b933e25b00aU,
  0xbd9b9070bd984ecaU, 0x3e59e14e3d8ec402U, 0x3e7f4ac3bdef1fcdU, 0xbed9ced8be896c66U,
  0x3e197d05be88a0f2U, 0x3e60b7a7bec2ce6dU, 0xbe275365bd2b783aU, 0xbd3a28f0be847ef1U,
  0x3df24a103d323205U, 0x3e2d6f9cbe1c7e44U, 0xbebe9aad3e94ce31U, 0xbe8aa8c03e3e43a2U,
  0x3eef210fbda9c74bU, 0xbd694ec03e2d9cfbU, 0xbe3c16a5be052ed0U, 0x3d83ec9f3e4d5e49U,
  0xbdb529b13e0a7ffeU, 0x3dbdadbf3dbcc475U, 0xbe4155a3bddbdbf6U, 0xbcb763c7be10a220U,
  0xbeef2e25be91da4eU, 0x3e8666a8bcd05912U, 0x3e28b789bd75c4cfU, 0xbe5c0ef2bdebeff2U,
  0x3e1d4d173e5c5940U, 0x3d6c05f6bc5bdb0dU, 0x3e20ede2be6f59c5U, 0xbe627b28bc22d5c5U,
  0x3e03abfd3dcc3620U, 0xbe98692cbe8d4c5eU, 0x3f019983bdc3109dU, 0x3e491dc53cb8559eU,
  0x3e886c6ebe21669dU, 0x3d1e19c13e9f5368U, 0xbe1d43423d8c43caU, 0xbe2899753cbf60dfU,
  0x3ea86744be3318deU, 0xbe0a6aa3bc2f9ac5U, 0x3e0c39c13d6decd2U, 0x3e1545893e1e1910U,
  0x3e8782e0bda38118U, 0x3e20e9473d571438U, 0x3c5d1a4b3dd7052bU, 0xbe330904be6801f1U,
  0x3e6235933e834eb8U, 0x3e938189be0ad4d7U, 0xbd8ae0903ea9842aU, 0x3e53b374bbbe0c87U,
  0xbe35d045bda96aa7U, 0x3e1e94373e11dd65U, 0xbcd0bee33c8b8792U, 0x3c066f11bc4d8ba7U,
  0x3ea913c43b86a613U, 0x3e775e4f3d591bf5U, 0x3c6530ff3d93916eU, 0x3cbb4e523d2bc656U,
  0x3da8607cbd3e0b84U, 0xbe5088863e811908U, 0xbf0aed98bde0cea4U, 0xbd6b7950bd958ad4U,
  0x3d2a712cbd8f9418U, 0xbd90521cbeb951deU, 0x3d86212fbe33d8b6U, 0xbdebc28cbe905cf0U,
  0x3ec0bce7bda853f7U, 0x3e25b03abe91c67aU, 0xbda92512bdc7aa36U, 0xbcf55fde3e62c1c0U,
  0x3d1d6b1a3cfd6ddeU, 0x3eceb74a3d8036e1U, 0x3e8ba6c1bd3c896fU, 0xbe481047bc6b7cabU,
  0x3d8d1a763e2d344aU, 0xbe2e3740be20bcd9U, 0xbe0184bd3ada8452U, 0x3e7bf6383d48ba7aU,
  0xbc06b6a7be01e06dU, 0x3d4fa9dbbc59da19U, 0xbe5ce9a83e827249U, 0xbebedaa93cd49a3fU,
  0x3dba68bf3e1afb38U, 0xbc70fe8b3e260398U, 0x3d6ba7493e1bba70U, 0x3d38f3a5bdbb1518U,
  0xbd48fa633ec3d5d6U, 0xbe2376f73d83a747U, 0x3c9eedc0bcc3f808U, 0xbe1cca5f3e6693a6U,
  0xbe00f0693e00d0f4U, 0x3e84e2dbbe687637U, 0xbca71b38bd82070eU, 0x3e1954c23d4bfea2U,
  0xbe2c5cd3bcd1c64cU, 0xbe2b1b66bdafa842U, 0x3e6e421e3e71230fU, 0x3e7ca35a3e1bf92bU,
  0x3dc51ecbbecbd38bU, 0xbe655e993cf470eeU, 0xbe214fb2bdabf89cU, 0x3ebca6793e7dd8fbU,
  0xbcf1d59bbd1d0689U, 0xbce46ec93e52a7b0U, 0xbe137c863db89c6dU, 0x3e258b55be00aef5U,
  0xbe3700113e9b64adU, 0xbd855d593ddb9414U, 0x3d8be4223ec6f9e4U, 0xbedae97ebe090c8cU,
  0xbdbb80c8bcb132d7U, 0xbd8c08fc3b97609aU, 0x3dd64c783e503130U, 0xbe1f39f93dba4252U,
  0xbe32477c3e6dc33cU, 0x3e5162a73dc23eadU, 0xbb7caf913d927c85U, 0xbe8ff61fbe87b597U,
  0x3cc89899bea67cd3U, 0x3e87ccd53ebe0b99U, 0x3cc12e18be63f03cU, 0x3e78d34bbdcdf62fU,
  0x3eb938353dcdbedbU, 0xbdf435293e000f1dU, 0x3dea2976bd5fb0caU, 0xbdef9ddfbdcbe279U,
  0xbe29421dbddd648fU, 0xbe79aed43c8862ecU, 0x3e88d9b93ea444daU, 0xbc22205ebc87b320U,
  0x3d1ce7f1bdb90414U, 0xbe0a8fcfbdd2acecU, 0xbe6b8d083e2c6f9fU, 0xbd936b7abe0826c6U,
  0xbf007fe5be4989dbU, 0x3dfeba4c3db15834U, 0x3d6aea40be8b80ecU, 0xbe2535103e8f2801U,
  0xbddd2ecdbe032127U, 0x3e971f953d9b9f9fU, 0xbdf96aebbe7ca5a3U, 0xbd312dd13e8a2416U,
  0xbdc7ecb1be031505U, 0xbe2c6e86be8275deU, 0xbe067a3dbe2d8f0fU, 0xbe44e1873dbfe451U,
  0xbe3d07483df3388fU, 0x3d78f202bd27d44bU, 0xbe4ae2863dd91a1aU, 0xbcfeb291bf11fce8U,
  0x3e8c46fd3d01be74U, 0xbe0adb26bd2f0681U, 0x3e23dc40bdf8e293U, 0x3cbd6582bea5a461U,
  0xbcb15ad5be5a8670U, 0x3e1f8a8e3d12ce93U, 0x3ea18d54bd6c8b11U, 0xbdebc05c3e332facU,
  0x3e2940813e5d4961U, 0xbe5b71babe253bcaU, 0xbd149580bdd0dfe7U, 0x3e8ec8a6bdf586ceU,
  0x3e223ea3bdc4b2e3U, 0xbbbbb7f53e3351fcU, 0xbbb873b6bd20e6efU, 0x3e375857be6df8d2U,
  0xbcb504b7be6bba27U, 0x3e4dd26e3e97d08bU, 0x3ddf3f713e28e9a9U, 0x3e156b223e999687U,
  0x3d909cd9be3ba3c3U, 0xbdd6526b3d6a614fU, 0xbd7f84863e0bda67U, 0x3e891854bdd28befU,
  0x3e7b3049bd97a8a1U, 0xbbaffeba3dc28233U, 0xbdb27913be329a98U, 0x3e67fbdcbd36e68eU,
  0x3e137628bd0b0518U, 0xbf0b38a03e6ea0b2U, 0xbcdd7e20be2dc7e0U, 0xbc2287be3e612657U,
  0x3eb6c81abc02718dU, 0xbde5a26dbe3236c2U, 0xbc5ca0e73e0a1d9aU, 0x3e1f9c46bdc9d688U,
  0xbe2212313ccd4c58U, 0x3e3d6a6d3e071f34U, 0xbd8833eabe3e632eU, 0xbd856226bd129343U,
  0x3d7c0414bdbbfc90U, 0xbdbc495abdc9b5b8U, 0xbbbb30a4bdf6d871U, 0xbe837459be6b675cU,
  0x3e89e515be81b8dcU, 0xbe5dca173e84f46dU, 0xbeba9c783db05281U, 0xbe651057be0aa789U,
  0x3e6fc8b7bd37a193U, 0x3d0676ffbcda7d31U, 0xbe98cc553e801e98U, 0x3c04b9b0bdb88532U,
  0xbc0a78e5bcbecda0U, 0xbe2e39dd3ea30318U, 0xbdc01a44bdb2e1faU, 0xbdee91a13c38e96bU,
  0xbe90f2983e0c430aU, 0x3e39871fbda40661U, 0x3e3b69b3bcb7091fU, 0xbdcdcefdbd906ef7U,
  0x3daaca10bdb2fe48U, 0x3e71c4663e0d3628U, 0xbe26f3f9be70f034U, 0x3c2473cdbe5c0874U,
  0x3ce9c4443d78e719U, 0xbcf6b9273dc180e8U, 0xbe9e0b86be3c49bfU, 0x3e29605c3eaebf16U,
  0xbd8240bfbe36c077U, 0xbd8744fdbe74ef13U, 0xbdc91fc53e0cea67U, 0xbed27cee3e0680f8U,
  0x3cfb37f3bd59a528U, 0x3e741baa3cfb1861U, 0x3e4636b7bdb29310U, 0x3e9e34e3be256428U,
  0x3eb530213e7ae683U, 0x3d9d4f3d3dd25cc7U, 0xbd7a493d3e81045aU, 0x3da6bc5abd440738U,
  0xbd66d8533de92cfaU, 0x3cd6e682bd66beacU, 0xbe7b76043d9c3f49U, 0x3eab3c9f3e9a8f76U,
  0xbcd47b353dbd0edeU, 0xbcd61386be390d50U, 0xbe898d223d2470c6U, 0x3e3f77d0becd5069U,
  0xbd95b74c3e4868bfU, 0x3caf69503ea451d0U, 0xbe4140983b13bc1bU, 0xbd8538cd3ce214feU,
  0xbe916c3fbe5435d1U, 0x3e796e083cffb63eU, 0x3ddfd9063b18b7e4U, 0x3ddbefe43dbd05b4U,
  0xbe6ac7533e40040aU, 0x3dfae1babe91ef8aU, 0x3e4481303e295b75U, 0x3c9bd40e3d6f6267U,
  0x3ef160ca3d5fe2d6U, 0xbe8d2b7f3e80afb6U, 0xbe0ba087be4f5749U, 0xbcb989df3e3b450cU,
  0xbe3bb2873e166f1dU, 0xbc85e3efbe173c49U, 0xbda7310c3dc716a8U, 0x3deccbe7bdb1227bU,
  0xbe4034c23e3cc6b7U, 0xbd8708c73e9ce45aU, 0xbe0e258cbe0ad35bU, 0x3e970b803e0c1f84U,
  0xbead6b0f3ea6d47dU, 0x3a2d399a3df2a280U, 0xbdb8b0c0be80a89fU, 0x3cbac086be2dd881U,
  0xbda1b3a2bce15363U, 0x3cf5e2093e42fa87U, 0xbd9f2b0c3e4692b4U, 0xbea5eeec3e5a171eU,
  0xbdd6547a3e0d94e8U, 0xbe74357f3caa0b24U, 0xbce02f223d0d0b4aU, 0xbe1ea3203e14b5e4U,
  0xbbbb514a3db001afU, 0x3e40ac9abdaaffd0U, 0xbd1f7082be32cb80U, 0xbe8163ffbe49eb1aU,
  0x3bf9cc4f3dbadd5dU, 0x3e1109d73e09149dU, 0xbd48d7c6bc338e9bU, 0xbe1a811fbea830dbU,
  0x3ddbedafbd319242U, 0x3e37f9803e3676fbU, 0x3d6f75a1be967ccaU, 0x3ed1e1823eacf7e6U,
  0xbec848cf3e90423eU, 0xbc967a88bde26eb8U, 0xbdf8ace0bed10ec7U, 0xbe51605b3e3a603aU,
  0xbe030ddf3ec4c906U, 0xbe34a6203d781fe2U, 0xbd447a223a88b6aeU, 0xbcefffd23e831fcfU,
  0xbe1f54c63de3a71bU, 0x3e4cc8763e6d4d63U, 0xbef2b4063e8da17eU, 0x3e9650ab3dc1050eU,
  0x3d7f8e8a3e66ec93U, 0x3ce64c4bbe2a7f85U, 0x3e19f9dfbca70496U, 0xbeb07a61becab7bbU,
  0xbe18511f3df85032U, 0x3e8cb7ee3e006dabU, 0x3e2e812c3eb9da2aU, 0x3dd7449bbd20e585U,
  0xba1a61653dcf2508U, 0xbe9aabf03de64d16U, 0xbd65d9e53d68e9b6U, 0x3e368ff3bc6a846aU,
  0x3eb996bfbda128e7U, 0xbc6d0dfdbe448dc6U, 0x3e62f7793d40f699U, 0xbd68cf57be63ae44U,
  0xbc99e8c3be12a688U, 0xbd24ce8dbe09f507U, 0x3dd4e4cc3d8e7929U, 0x3dabba0ebcf5df1bU,
  0xbe4b93e0be5e5d3bU, 0xbe7a2274bd8b3b50U, 0xbe05923a3e6e9556U, 0x3d1258b73e6b5307U,
  0xbe04da2c3c1031ffU, 0xbe78c2fabdf2379fU, 0xbe00a57b3e4e9950U, 0x3d3a3e70bc233872U,
  0xbbdde7873da15be2U, 0x3c590510be83a3b2U, 0xbd952bb6bed47eafU, 0xbe3f9517be6d0e43U,
  0x3e0f6b523e3567f8U, 0xbdeaf77e3e0cb4ecU, 0xbb92e7b6be256d72U, 0x3cce2ded3e562df5U,
  0xbdbb5d95be4f7b56U, 0xbe4cc0b73ed3851aU, 0xbca918ad3e4d52edU, 0x3db95c0dbdd2179aU,
  0xbd5de750bc9c21f1U, 0xbd965cc93d7b255bU, 0x3eae08a9be719a88U, 0xbe62a1a8bd9a348fU,
  0x3e58dd34bd5e9d1eU, 0xbe235355bd3c4d44U, 0xbe6bf1193e2709c9U, 0x3dc677e6be3841a1U,
  0x3e48ebfdbc2cc5a0U, 0x3d1023833eb167faU, 0x3cbf8c4abd7c12daU, 0xbe10a8983e7fbdbbU,
  0xbd9e1fd83cbbdec8U, 0x3d8425bc3e9adfbcU, 0x3f03dbc3beb86716U, 0x3d726febbd204d71U,
  0xbda740b13db26785U, 0x3d742311be3c290dU, 0x3dc6c629bea4db9bU, 0xbec9885b3db3a303U,
  0x3d949ab4be6f43eaU, 0x3b1228873dc0e94bU, 0x3ea8fee9bdeaf219U, 0x3e91e5713d9463e7U,
  0xbdb95f743e2f67dbU, 0xbe3231f33e9770f7U, 0xbdaf8342bd82c572U, 0x3e904bed3e3d8e92U,
  0x3e765ef83e113919U, 0x3d5ca68cbd06b605U, 0xbc3bcf8fbd9e8a74U, 0x3c24370dbd905412U,
  0xbe26b350be38144fU, 0xbe27c26a3bc6046aU, 0x3ebfec34bdc44ee6U, 0x3e414a5e3e5534c0U,
  0x3ee4e3e53cbc2e1aU, 0xbde780e6be905684U, 0x3e565328bc240149U, 0x3d1b87353c5b5b25U,
  0x3e7581fabe40f476U, 0x3cabad42beb78ea0U, 0x3da05951bdbaf474U, 0xbd1493fbbe930dd3U,
  0x3df235e63e690455U, 0xbe156a41bbf9ec1bU, 0xbdf4ebd7bd91fbd6U, 0x3bd1f2ae3d8702b6U,
  0xbe622f633eb8092cU, 0x3e457ac03e0c9ca9U, 0xbe5e2e41bd8e2b3bU, 0x3c8d0efabc19d365U,
  0x3c33e13b3e285d7eU, 0xbdd52464bde6cef6U, 0x3cbd84a93eb8a280U, 0xbe4a4bc03ddf4dcbU,
  0xbaaa6bbfbd91ca7cU, 0xbe16b1493e963391U, 0xbdbf45033d3e62a0U, 0xbd92a93dbe8506cbU,
  0xbf011d61be143485U, 0x3e119268bcf22803U, 0x3e36291d3d88c7edU, 0xbce25ec0be28dcafU,
  0x3aa3c727bcd8b188U, 0xbe8f01bdbe010507U, 0x3dff34463d364617U, 0x3d7bf880bdb8985aU,
  0xbe04f29b3e744839U, 0xbe76bf9a3e405ea1U, 0xbdd1f6f4be5dcef6U, 0xbcb1e1c33dcfe79cU,
  0x3e5ac3ebbb651732U, 0xbb9cbb30bdb191d3U, 0x3dc688253e6cfb02U, 0x3e22c49c3e445f28U,
  0xbeaa3747bde122e7U, 0x3e17927d3e7b0d1fU, 0xbea0d215be011712U, 0x3c3f078f3e7327a9U,
  0xbda609ad3e74be68U, 0x3e07d33c3e35f00bU, 0x3e967a123d179112U, 0x3ea55207be63bd2aU,
  0xbeecb7b4bd4aad95U, 0x3d6fa0463eac23fbU, 0x3c62dfdfbe49e5f0U, 0x3d655c033e2c2faaU,
  0xbe9c03513e6988d0U, 0xbdf4f0083e1b4953U, 0x3e6a33e93c8d9d44U, 0xbe9ae1e83d0e37f5U,
  0xbe13b10d3dd2b49fU, 0x3e55a011bd599202U, 0xbdc92d1fbc81e89cU, 0x3e8852f53e131cc8U,
  0xbc0648bcbc8c173eU, 0x3c039d18bd2e2fd9U, 0x3daba9a9be80d296U, 0xbe66b3febd060b2bU,
  0xbe5155353d07cf7cU, 0x3dd7f4493c857fcfU, 0x3eebb2c5bd3b6a35U, 0xbd0c63593cf98c3eU,
  0x3f2d0932becf7d03U, 0x3e4088093e8ff713U, 0xbe470968bd2994d3U, 0x3e847fb53e50e5f7U,
  0x3dd0088f3e8e4fbfU, 0x3e4d81b73e9532ccU, 0xbe3d332b3dc946eaU, 0xbe1028493dc9d68aU,
  0xbde9db1abe8a2888U, 0x3dcdbc9c3ebdeb4eU, 0x3d4230e5bc83fdf9U, 0xbd6a0b09bcb4699fU,
  0xbec662efbcd74e0dU, 0x3e4725c93db9d667U, 0x3e2663c2bd686590U, 0xbcf207133db76370U,
  0xbd85671d3e92193aU, 0x3e6255c73caa659cU, 0xbdb95762beb8e977U, 0x3ed901a5bdad383bU,
  0x3e1383d9bc491b2aU, 0x3e02ad123d1edcc5U, 0xbdd3b0ec3eb45fe3U, 0x3b2b46d3be8def22U,
  0xbd0d9c7fbf0870bfU, 0x3dbb02f13e3f2b8bU, 0xbe37f4b7bf0dfb91U, 0x3d1c165a3c02d91bU,
  0xbbd7a68c3cff7f90U, 0xbe5097e23c26d210U, 0x3e69b5763e970155U, 0xbe100da93c04c927U,
  0x3e19da813d88eb9cU, 0xbe8bc6803e16c4f1U, 0xbdb4aae03d85f655U, 0xbdb5b7293da33369U,
  0x3cb7bb4bbcb2f329U, 0x3e18cc4a3ced6259U, 0xbe1faea93eb32020U, 0x3e3b7dd2be9aeb64U,
  0xbdc56079bdc151b8U, 0xbe4d18973e3c136bU, 0x3e6d8934bd990cf1U, 0xbddb44d5be15f5b1U,
  0x3d0b6e853d3bc3bbU, 0x3d0ab11bbe641393U, 0x3cf8b6283e65c21eU, 0x3d7a899bbc68f9e9U,
  0x3eb80dd0bddba7d5U, 0xbe0dc13a3e0d954cU, 0x3d966315be9b9af0U, 0xbea745bb3e77d2a1U,
  0x3d59aceb3daca743U, 0x3e29abdf3daa5bacU, 0x3e262ffbbe76a006U, 0x3d0f68083cd43c9cU,
  0xbe9361c4bbcd66efU, 0xbe6a5c2b3df10bb4U, 0xbe2ea4b33e285482U, 0xbe9787afbcb80bbfU,
  0xbdeccdf8beadfa1bU, 0xbda99d0e3e255939U, 0xbdc91b013d4120bbU, 0x3e6038b63e4980bdU,
  0xbe8883c03e91f97eU, 0xbe22e31c3e44111fU, 0xbe90ed9e3e825698U, 0xbdc922fbbd9798cbU,
  0xbe99fb13bd4ad801U, 0x3e67fe9bbec7fc14U, 0x3d16bdaa3d12089eU, 0x3e57a936beada84aU,
  0x3d2a16103a848894U, 0x3d8f16a7be70168aU, 0x3e8eabea3eef1e85U, 0x3e211cb4bd1ef658U,
  0x3d05378c3c82c888U, 0x3d01891ebe77bf47U, 0xbcad4e06bce54ee0U, 0xbd51e4db3db1f4d1U,
  0x3e722adb3df317dfU, 0xbdbaa884bdb564feU, 0x3df8545a3da2cd78U, 0xbe13511f3e932661U,
  0x3df58d14be8ae605U, 0x3d7fe1febdf2b298U, 0x3d018ab53da63abeU, 0x3e0ab08fbd21307bU,
  0x3dfbf6b93e1dd5deU, 0xbe60e3423deb69d7U, 0x3e0b11b5bc8d2ffaU, 0xbe736cc4be87b830U,
  0xbea8fa343dbe0efaU, 0x3e983545bd3979ecU, 0x3d49fb04bd8a4364U, 0xbcd13284bb902d19U,
  0xbdaf2521bdf6def7U, 0xbe3a85313ebe036dU, 0xbe93ab8e3e8a8ce8U, 0x3c97ffc7be67ec2eU,
  0x3dda75cabec551bcU, 0x3de1135abe824af8U, 0x3e494cf83db5038eU, 0xbd8f22babdfb55b7U,
  0xbd4a44ddbcc73fa9U, 0x3de3f582bbdd3969U, 0xbe90a4c9bdc7a465U, 0x3db177a13c6f683eU,
  0x3e8c98cc3e0159b9U, 0xbe4126df3e336792U, 0x3d67d42b3d73ff14U, 0xbe4e00a5bd0926f4U,
  0x3d8f03253eb34ba5U, 0x3d7b8f093e43684eU, 0xbd361d5b3e9ddeefU, 0x3da567583d5a0e96U,
  0x3dc180693d527f05U, 0x3e640055bd32c61cU, 0xbd7d97323de21bfdU, 0x3ed220d3bd9bd791U,
  0xbc45636fbe1e2dbbU, 0x3e0d69013d26a411U, 0xbe47895f3d864227U, 0x3dae5d4cbe092a20U,
  0xbdae1ff43df02eedU, 0x3e921d003eb2e0f6U, 0xbcbd3c373e70bd4dU, 0x3d16f51c3dea3a94U,
  0xbe182f8b3e606e03U, 0xbcc87e07be5628f3U, 0xbc2ec2da3e0e3aa6U, 0xbea7f9f93e565646U,
  0x3c2f129abc8ad318U, 0xbe1085b33e398ab2U, 0x3dda931cbd375206U, 0x3e49430f3ec6b3a3U,
  0x3ea5a7a3be6ebc89U, 0x3e02ccc6be3e256dU, 0xbe7401eb3d316643U, 0x3db470fbbdc6ce2eU,
  0xbee6af61be446edfU, 0x3ca765ccbe830ec7U, 0x3e0ced253e752028U, 0x3e51c4cfb7f5f283U,
  0x3e66689f3e805375U, 0xbe3489fd3d5f7c43U, 0x3d45b8d53e213a27U, 0xbd845b193e18a9d4U,
  0xbdfc36e93de4018cU, 0x3dd15e2e3cbe0246U, 0xbe8427cebdb3b895U, 0x3e3c09703e511941U,
  0x3ea3a2ee3e0af724U, 0xbcde4440be77f474U, 0xbe442e003e20af63U, 0x3dfeefa13d99b2bfU,
  0xbdef89263c982f54U, 0x3e246b0e3e3dc379U, 0xbd957f393eb4f252U, 0x3e14643bbdb262a8U,
  0x3e857f42be5f58e7U, 0xbeb6cb933d8d2dafU, 0xbe72358e3d40a966U, 0xbd7f87113caa59baU,
  0xbc1446b33da0464aU, 0x3de862da3ebc6612U, 0xbe077e01be672324U, 0x3ef2135dbdcc73b9U,
  0x3d134af53e21e238U, 0x3dbf41323da471f0U, 0xbe6dde483e1dcc5aU, 0xbdc3671cbc347f39U,
  0x3dd986393ca740c1U, 0x3e456431bd56a99eU, 0x3d650dd8be82c8dbU, 0x3da1a26bbe1f6301U,
  0x3e445e543dc6c361U, 0x3d658befbe276971U, 0xbe2687dabe1f8314U, 0x3e2c96dd3d69e037U,
  0x3ae88e433e60f5baU, 0xbd8ece8cbdfcd142U, 0x3c231b943e8f4a4dU, 0x3d7b3f863dfbcac4U,
  0xbdc15c8abbeda9ccU, 0xbda4d12cbe99cfc1U, 0xbdd2f1f3be42a63bU, 0xbdbd13fb3e4fe9f7U,
  0x3e80791a3d0619ecU, 0x3e03b0603d4b8174U, 0xbec433cdbdeffe70U, 0x3c9ee42ebe402047U,
  0x3e6b69373dd205b3U, 0x3e0a7e4b3e87e691U, 0x3e7bb1dbbeac4b38U, 0xbd386a983dc0da37U,
  0xbe8d1a133dbaa6ddU, 0x3dac8a39be06492bU, 0xbcf19a12bdc7cba6U, 0xbe723cc53ee7fd10U,
  0xbddb4c033ec2f7efU, 0x3d945a273e7281bdU, 0xbe3ea7f6be5c59f4U, 0xbe96272abe1f2327U,
  0x3c36d28b3e91eb79U, 0xbd78868bbea88904U, 0xbdf68f9b3d8f9d9dU, 0xbd62f647bd992ccfU,
  0xbd007615be6a9e4cU, 0xbdce93493dc0afebU, 0x3dde7a3abd840c00U, 0x3e2fc8e43e0d55fbU,
  0x3d11ea223e5da078U, 0x3e92c0173ae998e2U, 0xbd34b53f3e1eb9b0U, 0x3d9c16d13da17c3fU,
  0x3e1399823e898749U, 0x3e1386433c55ddc2U, 0xbe7d2748bd96d6fbU, 0x3dd5dbadbed45b0fU,
  0xbe5b98ba3e08ba27U, 0xbd8b62d0be714415U, 0x3c934ffa3de3f3dbU, 0xbe5b10883de35798U,
  0x3eb2ccc9bdaa8a03U, 0xbd6aaeb1be52847aU, 0xbd93ed0cbcf04e31U, 0x3e64ad36bda2ed4cU,
  0x3e2981d2beab5047U, 0xbd98b93bbe1e87e3U, 0x3dcbf50abe844013U, 0xbd34ecb1bd629540U,
  0x3c06c1d2bdf8953eU, 0x3eccfe4ebd8c3535U, 0x3d789564bd5812d4U, 0xbe46625d3ea2cfedU,
  0x3e1f163cbdad10feU, 0xbde9dd2dbe429c39U, 0xbcbf96273e1d0b30U, 0x3e92206fbe9c84b0U,
  0x3d0a611ebd487a45U, 0xbeb5b1003d606ef4U, 0x3e862016be61186aU, 0xbb6722c13e372de6U,
  0xbead324cbe95c136U, 0x3c0378873e5279a7U, 0x3da64463be5462fbU, 0xbdbabadb3ea434e1U,
  0x3cae47e53e5c859fU, 0xbdc142c2be00ab36U, 0xbe80f297be3819caU, 0x3e30258abe718e22U,
  0xbe8f7414bc51b8b0U, 0x3d652b19bbf09cf5U, 0x3eb17f1c3e4c1789U, 0x3e2b42293e98a10dU,
  0x3d3443fd3e4ea40dU, 0xbb737acf3d9124b4U, 0x3e15a1e53dc67c6bU, 0xbec13c06bd8977abU,
  0xbdb4ac313d8b8fafU, 0x3e250840bdfc4771U, 0x3e63a945be5455b6U, 0x3d3f1a853e874ec2U,
  0xbe2d847a3d4e0d07U, 0xbda642123dede51bU, 0xbd6d0bcbbe064d0cU, 0x3eb0291abe056ddeU,
  0x3e14a17c3d0b29b8U, 0x3eb511843d0224c4U, 0xbd04f2a7bdec96ddU, 0xbb011f90be9ee80cU,
  0xbe63515b3e865b6fU, 0x3d3fcdb6bdbb2cf1U, 0x39dfbb1a3dee6d90U, 0xbea20b6dbdce60e2U,
  0x3e1a3919bcb880a9U, 0xbdcef9403de31687U, 0x3dc55e8abe00ad19U, 0xbea2e2933e3f811fU,
  0x3dff75853dca50b7U, 0xbda60d17be7d097cU, 0xbd35c194bb152086U, 0xbda7da9bba7907d5U,
  0xbe329f93bdfb24d6U, 0x3e8ed3a83ea52e4aU, 0x3dd668993dd005d6U, 0xbd01ccca3dc4e438U,
  0xbe00e6243c85cae4U, 0xbc6352b33e2c631eU, 0x3a37140dbebe2af0U, 0xbc04c88b3e0b0760U,
  0x3e914370be91a595U, 0xbd11fc86be8f7870U, 0xbdc54594bd8187b9U, 0x3e7c6187be989e9bU,
  0xbd810a13be544713U, 0xbe58d5433e3f5d4eU, 0x3c9597b1be849eafU, 0x3ded36b73df55a99U,
  0xbe0fa35e3c74859aU, 0x3d9d105e3cb30a39U, 0xbc8d30c23d8f3961U, 0x3e64bc0fbd9edb00U,
  0x3e34f0a63e5d9f6cU, 0xbe0af1f4bce46252U, 0x3d9b49683c8fd81cU, 0x3e922df13e399194U,
  0x3e08a2ff3d57bdfdU, 0xbe2978793dfcf6aeU, 0xbb1cca413db0ea78U, 0xbe1fe5383e0a8633U,
  0xbde254e8bdcc4796U, 0xbe1b8e33be44c11bU, 0xbd9954c3be6f36faU, 0x3e3b6113be8d0d14U,
  0x3e37cdedbe14fb00U, 0x3d96eb6bbdd59fa0U, 0x3cd885fc3d93690eU, 0xbeb0d1523e5abf77U,
  0xbd9801bc3d9e0b87U, 0xbe96c17cbe4d940bU, 0xbdc905c6bd27671eU, 0xbe0d9ebebe2b6df0U,
  0x3dc263993e271c0bU, 0x3e2b25fdbddad222U, 0x3e7f4a2d3c84753eU, 0x3df854103e687db2U,
  0xbe54a8053e2c8e24U, 0x3e327de03e5e1994U, 0xbe79a016bd6ad4bbU, 0x3d263febbdaa7acdU,
  0x3e9a84c73e858bccU, 0x3cd6ec90bdd5a769U, 0x3d9d65ed3da7f0dfU, 0x3bb118d4be85d3caU,
  0xbd3eb527becf377aU, 0xbe0e0018bd0ece4fU, 0xbe910412bd5a2fa4U, 0x3ebf16503e6b47c6U,
  0x3e825f4a3dcd52b9U, 0x3d1e3e41bd72f799U, 0x3dc579ca3ca76ff8U, 0x3d30db7c3e0ed09fU,
  0xbdfb87993d9de47bU, 0x3d9a3b443e18aaa5U, 0x3e043fd83db290a2U, 0xbe886bd73e6a72a3U,
  0x3e9eccdb3e9f47a3U, 0x3dc7fb03bd5f49c4U, 0x3be798ebbd1ab0a4U, 0x3db9c18d3da79e7fU,
  0x3ea72d8bbeafcb11U, 0x3e01533a3d499c32U, 0xbed466f93e518243U, 0x3e552fdb3c9df38aU,
  0x3e467141beb815a4U, 0xbddc91bcbdb88dc3U, 0x3d2c1a463ef67074U, 0xbd3134b73d434d0bU,
  0x3e2f0aa13cd2b5baU, 0x3e0fbd893ebbb514U, 0x3d9f66ee3d15d1afU, 0xbe5644203e913ad2U,
  0xbe77291cbe735951U, 0x3e3986f2bca34197U, 0xbdf88b063de520bdU, 0xbcf4f8e8bc964d2aU,
  0x3c9831f3bcec72dcU, 0xbe957928be7351d6U, 0xbe7c5f99be2dd2ebU, 0x3d327a9e3d6d3920U,
  0x3d19e5b4bde0d77fU, 0xbe338ce4be9144f9U, 0xbd232a27bd4a72c3U, 0x3e38708d3eb57a67U,
  0xbb7ed4d2bc8d4abdU, 0x3d8c56233de76a0aU, 0x3de18c86be705018U, 0xbe1942303dc89ab3U,
  0x3cb502acbd6df09fU, 0x3d9e99d43de2c572U, 0x3e7117773dde37ceU, 0x3d6642893d1fc0ebU,
  0x3dac2bb6bdd575a6U, 0x3dd7b8b3beb093f6U, 0xbdef7031be72be46U, 0xbd7e1df43e3380bcU,
  0xbe4006223e4fda9eU, 0x3d8fec2dbea5baeeU, 0x3df3e9acbd4d9944U, 0xbe4b75a0be28f941U,
  0x3da4390abe4e12aeU, 0xbd2564e73d8bcd86U, 0x3ca104ddbd295b66U, 0xbeca73853d8acaecU,
  0x3e372b53bd9085a3U, 0xbe8e44d73e8e0c10U, 0xbebb1820be07d315U, 0xbedcb1a23e8718fdU,
  0xbe34f1343e530c40U, 0x3d840d473bdc224eU, 0xbe093051be17cc08U, 0xbc1f46f2beddc228U,
  0x3e2d9e1c3e87980bU, 0xbd9ff11abea6f8e6U, 0xbe701d97bcd4b6dbU, 0x3d2899a53e06be55U,
  0x3de0c656be10f2a9U, 0xbda7dee9be80e80cU, 0x3cee7974be18090bU, 0x3e56cd443e044b2dU,
  0x3c92639a3d82ff78U, 0x3d85f7eabd0ed71eU, 0xbd023a2bbe30693cU, 0xbdd69652be8176bfU,
  0xbe26f4193da456b4U, 0xbe813a7e3e626db8U, 0xbe1e4a29bddf91f6U, 0x3d6ee1f0bd205653U,
  0x3eb9a6063e104abcU, 0x3eb136f13de3b74aU, 0xbddf5d0fbd7f55b1U, 0x3e3f61a5be582308U,
  0xbd6259e83dc1f098U, 0x3e41814b3dcf6ad5U, 0x3d4751a5bd7a3124U, 0x3dd6b417bd138b21U,
  0x3e184f2d3d6878a4U, 0xbe006227bdd3d204U, 0x3dcf3a2c3d63a3eaU, 0xbea08c8ebe88ed5bU,
  0xbd8b370c3e881674U, 0xbd86bd553dca161aU, 0x3e10817f3eb6b7d4U, 0x3cb919bd3d807528U,
  0xbdfab333be0c7ecdU, 0xbd0b74cc3e65390fU, 0xbdc0a8de3ea18ecbU, 0xbe36cf32be4db969U,
  0x3e1b719dbdbe0ef8U, 0xbe58c2ce3c3193f4U, 0x3d3929ea3e5855c0U, 0xbe0b526dbe9882ebU,
  0xbe4860f33cdb18f8U, 0xbdb43d60be543aeaU, 0xbea21bafbe09201dU, 0xbe16be703d984248U,
  0xbece1a0a3eb5cbfeU, 0x3eaf49263df4df83U, 0xbe88a805be45c27fU, 0x3e36b2543df34f8dU,
  0x3cefd3cfbe639c52U, 0x3c73d336bd66efa9U, 0x3e855b813dcc2ff0U, 0xbe30072d3dfc3d7fU,
  0x3e213aa3be36067eU, 0xbdc3ba68be75fa02U, 0xbdf0a8c53e34fac9U, 0x3e715d163ea5d4d5U,
  0x3caa3a803df12b43U, 0x3d361993bd23e658U, 0x3d527aa83c9bb760U, 0x3e61fe8a3edb5b91U,
  0x3d1446d5bd08f755U, 0xbe8b657dbd785902U, 0x3d8151b7be33f508U, 0xbebef27a3d8fe30fU,
  0x3d90e09abdf44ca6U, 0x3d59dc62bcea97c8U, 0xbd26b0b53e03521fU, 0x3eece6933dc4cd09U,
  0xbed74c103e2c1513U, 0x3e201526bdb9fe98U, 0xbc2d7a733dad7007U, 0x3e27ee4f3e4f04c6U,
  0xbd6c28b13d0b6d9cU, 0x3d3a22e83dd76778U, 0x3cfbd29cbce19091U, 0xbedc54c5bdd6a214U,
  0x3eb7a7c1bea7a783U, 0x3ca2ebf43d9e4500U, 0xbe342c4dbccc34a9U, 0xbe423ea0be26c08fU,
  0x3e932895be6af02dU, 0x3e86c765be398f9bU, 0xbd151e5539b0073eU, 0x3e45991cbcd7a2e4U,
  0x3e32c627be9cffe5U, 0x3c922186bea26f01U, 0xbe0cfb0e3e34002dU, 0x3c0714c4bee2a80eU,
  0xbdaf08eb3e7532ceU, 0xbeba45dfbf1a140bU, 0x3d86b17a3ea82c74U, 0xbd80ea9a3de3c588U,
  0x3bb673eb3d1d0d96U, 0x3d868c5d3ec16db9U, 0xbe184808bd7ab055U, 0x3de033403e8d457eU,
  0xbe154fafb9f6db4bU, 0x3d8f4aeebe3e60d5U, 0x3dc146e3bd11a2e0U, 0xbc2b95ffbe9a73a9U,
  0xbd69b6b8bdfad67eU, 0x3c476a073c927a1bU, 0xbd6006b6bda62aceU, 0x3e0e7fef3e8b990aU,
  0x3dfdcb8bbd3ba5e9U, 0xbe75f5163e37e3bbU, 0x3d481aad3ccb3a63U, 0x3c84db5d3d5b8413U,
  0xbcb374f93cfc2bc3U, 0xbe95bb57bb864f25U, 0xbd7cb29bbd7fe010U, 0xbd209ba3bc841323U,
  0x3d33ecde3db4d142U, 0x3b476b5b3e84d070U, 0xbde705933ebb1fc0U, 0xbe9d93323ddd669eU,
  0xbd510814bdd1a3ecU, 0x3e551ce53d824c76U, 0x3ee72da5bea51503U, 0xbe015c4e3e6e3e0fU,
  0xb904a863bc34c888U, 0x3e1768273dd7ed62U, 0xbe107840bd306fe8U, 0x3c78a1a93dd8d845U,
  0x3db92140bea0aa0cU, 0xbcab27d43c80dc95U, 0xbe2daff1bc9069e2U, 0xbd6e20c53e6647e6U,
  0xbdb43c7e3e3dab7cU, 0xbe2a665f3ea2044dU, 0x3eaf2d9b3e5f70fbU, 0xbe3007b1be2bf199U,
  0x3d98035abdc11281U, 0x3cad79eabea26771U, 0x3d4b32c93e306a72U, 0x3dee8849beab61deU,
  0x3b6ab6b1bda3a7d2U, 0x3c8425b2bce5e610U, 0x3edbceb63cb93623U, 0x3d80174ebe2a602cU,
  0x3ebd2cc03e9c9d60U, 0xbddb1e723e465934U, 0x3dd62c51bcd022c6U, 0xbe1360fe3a925a0eU,
  0x3e9c5bf43e247016U, 0x3e019dbd3e26ccc1U, 0xbd335563bd913051U, 0xbbbbafeabdb0d906U,
  0x3dc32fb939e9289aU, 0xbd9e0896be1e5affU, 0xbca02d563da98458U, 0x3c869953bc660e5aU,
  0x3eb08fd8be34fb1aU, 0xbebbb978bbb05777U, 0xbe17aa243e37d9aaU, 0x3d883f8f3d0870d2U,
  0xbe10932dbe951d1bU, 0xbdced4b33ed2d5d1U, 0xbe418530be46742bU, 0xbe8a54bfbd63da89U,
  0x3bf96833bc3930e9U, 0xbe9f5fabbe732577U, 0xbd072d2d3e6c10deU, 0x3d6a50d43e90a67dU,
  0x3eb3679ebd2cb045U, 0xbe0c18693dd068a5U, 0xbead4afabeecfdaeU, 0x3e35586abd14b52aU,
  0xbd31b096bcb431a8U, 0x3e9d21efbe93d19eU, 0x3e36945b3d74c313U, 0x3dffa8dabe376852U,
  0x3e50665dbe847109U, 0x3dd5633c3d8a5127U, 0xbdbae3e53ee7f5e7U, 0xb7c135223e809fe6U,
  0x3dc433cdbcd3ad5bU, 0xbd585e543d39c1a9U, 0x3eb697d3be2e3bd9U, 0xbce368fd3dad9922U,
  0x3d993b483e4d7684U, 0xbe93ad80be2f2a40U, 0xbde571a53d30b164U, 0x3e11c2b6be79d9bbU,
  0x3e03207d3dd3a6d0U, 0xbde1d0f8be2d2479U, 0xbe37e376be992be1U, 0x3d86400abee94c37U,
  0xbe7a4cebbd79ffb3U, 0xbde2eef4bdf78dfdU, 0x3e2aff7c3e9ce23fU, 0xbe99da9abe285184U,
  0x3d81d46b3e3d936bU, 0x3d81b1923d0e372cU, 0x3e85743dbd0a96b9U, 0x3e7becf83f00c48dU,
  0xbdf784f8bc2d95f2U, 0x3d193d1f3e2c212dU, 0xbde73c77bd9b4e26U, 0x3d25c644be884bc9U,
  0x3da135f6bdac5fddU, 0xbcce6514be1ea157U, 0xbe3790063da24c24U, 0xbe3419abbe27cd88U,
  0xbeb048ca3e6ebf5cU, 0x3e5fd7fcbdfa5e68U, 0xbe8227f23e08fed5U, 0xbe705a9c3e164d83U,
  0xbe6ff2b1be09b18fU, 0xbdffd63d3d7b4fedU, 0xbe3b0c673e118106U, 0xbe82f9523d2970a2U,
  0x3e1bab633ec82e79U, 0xbc5939963e190a39U, 0x3e9f9906bdb70504U, 0xbe81664d3bd9b7fbU,
  0x3d18581dbe99b535U, 0x3e38e04cbe2162cbU, 0xbdd64456be72d585U, 0x3c4c2bb23e58af96U,
  0xbe0c5f5abd90ec4eU, 0x3d3865b33ea322b0U, 0xbd8267173e204003U, 0x3c9600b63e2f67f1U,
  0xbec132dcbc4e5700U, 0x3da42891bda3cb24U, 0xbdf93ab63d4ae5d4U, 0xbe1d1a8f3caafac1U,
  0x3df3162d3e145030U, 0xbc168a3fbdfb7174U, 0xbdb38cf1bd18bf51U, 0x3e618183bec0b01fU,
  0x3eb86424bed22187U, 0x3db7b01b3e134678U, 0x3cb4bd333d0720fcU, 0xbd48c43dbd9e6d37U,
  0x3e09aeeabd6fbc4fU, 0xbe8e3fd93d8e4bb0U, 0x3dc3353abf25e886U, 0xbd1fbeb03e096104U,
  0xbde3ed84be816bd1U, 0x3dec82583e98ac79U, 0xbe4c2228baa06f9cU, 0x3d8ad5513de40a0bU,
  0xbda233a0bbc4308bU, 0xbdba7b343db21df4U, 0xbe5fb60e3d06c579U, 0xbd4db452be862349U,
  0x3e233b45be626fe0U, 0x3dc79ec13e9aaf5dU, 0xbcda1e943d810b71U, 0xbe6274113e8babb4U,
  0x3d55cf543d10e1dcU, 0xbd8529d6be6af48cU, 0xbe619bb03cfefc02U, 0xbe52c5d7bf00fd55U,
  0x3e1240243dabe2c6U, 0xbe03146fbe964039U, 0xbd852808be971aa3U, 0xbec02844be2b5285U,
  0x3d15697abe620152U, 0xbd00d21b3da2291bU, 0xbdfb5642bc70c129U, 0xbe699fb83ead164aU,
  0xbe5d98f4bddf2108U, 0xbdc1edaf3d87843fU, 0x3e6c22603d90f007U, 0x3cd26fb2be28d5c6U,
  0xbda5aa34bd5afbceU, 0xbdb32fa9be0a2560U, 0xbd814924bdf595c2U, 0xbd1f0b8bbd0778ceU,
  0xbd1e2b1cbe953999U, 0x3e3d39783cb124ddU, 0x3e036e2d3be059caU, 0x3e195b553e29b1b8U,
  0x3e26f79ebde91a18U, 0xbe81b1293e2170ebU, 0x3e80a9a4bd4d6b96U, 0x3e0c64113e013919U,
  0xbbebfd933e2c4ce4U, 0x3e84d8ed3db6662cU, 0x3e68c3a9be7ecb9dU, 0x3ea84e683dae5a7cU,
  0x3c399d3b3e358fbdU, 0xbe306a103cd6e933U, 0xbdc23074bda33f73U, 0xbd23258f3e0bb252U,
  0xbe6cd5dcbe757d23U, 0x3dd2413fbe21732bU, 0xbdb3fb97bd9ba9ddU, 0xbe3d69d1be95f5cbU,
  0xbe38d1cf3e7b3f70U, 0x3d14ea043d829818U, 0xbe15e764be97b8f3U, 0xbd996f643d2a827dU,
  0xbe38bce63d96f36dU, 0x3d2377e3bde16c9fU, 0x3ca059933ddc6e60U, 0x3e8f91b83ee55beeU,
  0x3ddd1c13bd4546cbU, 0x3d9beab8be1f497aU, 0x3dd3fcc5be3cdc1cU, 0x3d81b563bdc8a054U,
  0xbe19316fbda81174U, 0xbe5fa5cf3e29998eU, 0xbdb15bcc3e6cb8bcU, 0x3e6ea7783e81272cU,
  0x3e13ef3f3d528ce5U, 0x3e535a263e92a643U, 0xbe9e7a593e8526e6U, 0xbea5cd53be23914aU,
  0xbe360f443ca77cc2U, 0x3e3b37ddbd82bdf0U, 0xbdef5a8f3e83082bU, 0xbd338e623e6bb8eaU,
  0x3e8e77963e0c997fU, 0x3e22ec433e493f5bU, 0x3c9911b33d2f63eaU, 0xbca9ba933dc46648U,
  0x3d8d8dd2bd502aebU, 0xbd5fe67bbebc8f02U, 0xbe85c366bdd163bfU, 0x3e3817193e97f861U,
  0x3ba6df373db20c0aU, 0x3ea701ae3d32ad87U, 0x3e86b6e8befc9af1U, 0x3ed2b7993e742478U,
  0xbd4578a4bddcc525U, 0x3e051f21bd89fc01U, 0xbe0a9c0abc036dadU, 0x3b14b99d3e9f4e8aU,
  0xbeb87257bdc531eeU, 0x3d24d7733b88cfe4U, 0x3d7e1d5e3e5910c1U, 0xbda04348bdbe4a13U,
  0x3e0fc4ae3dfa03b2U, 0xbc7c68483e403ed9U, 0x3e4beea2be6e4d92U, 0x3dfa208ebcd14bb2U,
  0xbeb97aec3db7f75bU, 0xbd1c4aefbd157218U, 0x3e1b1d4f3d32429bU, 0xbdf139a13e95b70eU,
  0x3ead8a623d9cfdccU, 0xbe1a9061beda18a4U, 0xbd1e885fbd4b65ecU, 0xba58d9b5bdd719aaU,
  0x3e83c9a63e997b3eU, 0x3e434fb3be0d36dfU, 0xbe28fa15bdf77b2bU, 0x3ca5d1a0be0e8223U,
  0xbe8419edbe1e3305U, 0xbde152f4becc8c20U, 0x3ccaa2bebd4b8c77U, 0xbd2eb0dc3d4bc06cU,
  0xbeb61fb6bea179feU, 0xbdb73b88bc45c016U, 0x3df3a2093e3817caU, 0x3e901efbbea142b0U,
  0x3dd30b083e960168U, 0xbe56eea23e4080daU, 0x3db985e43e0cbb4eU, 0x3c9f04163ceaa40fU,
  0x3eb7cab03d97e1b6U, 0x3ea6c21abe7b15fdU, 0x3e17d385bd5563abU, 0xbe2728febd688204U,
  0xbe067aecbe4fdea0U, 0x3ed4ccbbbc7fe803U, 0x3edd84553e0e91e0U, 0x3d294244bde09d84U,
  0xbd1935fdbda28995U, 0xbe3013c63e21308aU, 0x3d5de9723b1dd23fU, 0xbeac6fcebc9523d8U,
  0xbe5d4681bb1a2672U, 0x3ea2d0df3e4f920dU, 0x3d610ab73e7559c2U, 0xbcc1fd6f3e2ce8bfU,
  0xbdd17cc93d1662b5U, 0x3df070e33cbd6dddU, 0xbd6a84743e62321eU, 0xbe2ea169bc9bb57fU,
  0x3e09bdbfbd09cdf4U, 0xbe3aa69abbfa4340U, 0xbe22654e3e42f39bU, 0x3d76f5253d3a8c74U,
  0x3def88303ebde610U, 0xbc15cccabc05a7edU, 0x3e5e33be3e2593c7U, 0xbc5cb25a3d16a92bU,
  0x3e721b49bdb3019eU, 0x3e37eca63d0315e6U, 0x3e813aa13dd5b2b3U, 0x3e33d9c3be2b1a55U,
  0x3e060f563d312503U, 0xbd9afd173e344bb4U, 0x3e25e309be6f737aU, 0xbed95914be2aa130U,
  0xbbc7d7e5bc11689eU, 0x3d631fb4be55e943U, 0x3ecbcb03bea55da7U, 0x3dd17f7f3eb2805aU,
  0x3cb61f4c3e60b4adU, 0xbcbc9f3d3e190287U, 0x3d8d7270be0865b4U, 0xbe1f7ed4bd68491fU,
  0xbe5855593eeabfd5U, 0xbdca2b783e30bc7bU, 0xbea54fd4be265c72U, 0x3d68806dbeaeaeceU,
  0x3e18d252bed16aa4U, 0x3d7042e1be2649d5U, 0xbdc9e90fbc7cf4deU, 0x3df5d1163d98ca34U,
  0xbec1223c3e19d8e2U, 0xbe03afc5bda0b88fU, 0xbee8e8ae3ebb0259U, 0xbec64e6abd47bd3fU,
  0x3de517153ea909c9U, 0xbe6fbd9a3eb14d01U, 0xbc5c5f183cf11c22U, 0x3dc025c53c7320caU,
  0xbdffa77a3e70e608U, 0xbd9a3783bcf862d0U, 0xbe4637383cb27446U, 0xbe9b7ed6bc8ea7d5U,
  0xbdf010a93e4f8eddU, 0xbed4000bbaf501a5U, 0xbe1966ebbe4821b0U, 0xbd53ad5d3dabc54aU,
  0x3cb84452be1e28c2U, 0xbee5559fbe60a547U, 0xbe2759b4bdf93f91U, 0xbdb8bfffbe6e442aU,
  0x3c6c332b3ea87c07U, 0xbdc21c1c3e3127b9U, 0xbdf69c8b3e591a4dU, 0x3d99f8923bf80a8aU,
  0xbce1686ebcbb3487U, 0xbdea74483c687151U, 0xbea0e5bfbd23ebe5U, 0x3ee3b581be670759U,
  0xbdc8d3f93e8c4c6aU, 0xbd282f5abdf3fb11U, 0xbde8a3c93d93725dU, 0xbc61718c3d86f9bfU,
  0x3e1a66cabd0f2b42U, 0x3e11461c3d80de74U, 0xbeaed6a7beaea051U, 0x3e8590333e413abdU,
  0xbe439c06bb6ab5e7U, 0x3efe84113e8efdc4U, 0xbe97e6253ec2d8ccU, 0x3c9a8b493de61196U,
  0x3da04e4d3da0bf7bU, 0xbda5f6e83d8921a7U, 0x3c36569cbe338811U, 0x3e539fbb3e157399U,
  0xbeb0ce99be8c7321U, 0xbdea6c8a3d053148U, 0xbe1d8258beab33cbU, 0xbe6cb6843dd5f4cbU,
  0xbda5f63c3d8d1d1dU, 0x3e1c4d663bed48b6U, 0x3d4465883d88b2eaU, 0xbe18389abe00339bU,
  0x3e9dcd033e9ddc87U, 0xbcceeec93df7252eU, 0xbddbabf63ed7c1b9U, 0xbe2006d5bd69de60U,
  0xbd0f147b3ecc694eU, 0xbd431f773e59af17U, 0xbd5ada7d3d72d38aU, 0xbde8bb723dab0bfeU,
  0x3e087f103d8e06f4U, 0x3ea4ec133e7a6778U, 0xbda806983e32177aU, 0xbe5281543e5ba60cU,
  0xbd7e49bdbd6bf0b5U, 0xbe1c786ebc92ebfbU, 0x3da15f4f3cc57ec6U, 0x3e383b31bd5a964eU,
  0xbbf789223de08de8U, 0x3d63e857be204c7fU, 0x3dbdc322be5853e2U, 0x3d74fa653e8778b7U,
  0xbdf73846bdac0a4bU, 0xbe0c11cfbd3fe61cU, 0x3d5c4a073db2e21eU, 0x3d9f289d3e3360beU,
  0x3e5736aebf004ab3U, 0xbe1744ca3dc8d268U, 0xbe4500ccbe67faa8U, 0xbe6187c9be8ada55U,
  0xbe18b52b3c0e5991U, 0x3d1902813e634aa9U, 0x3e067cc73e09c4daU, 0xbc54eba3bd8a2cadU,
  0x3e8404823dcb466eU, 0x3eb4f3c8bd8d9eadU, 0x3ccc8c483e28f592U, 0x3ec8d02f3dfd6b45U,
  0xbded3e18be2b79f8U, 0xbb8070c7beab25a6U, 0xbc6dc2df3d6271c3U, 0x3cec7daabca7a45cU,
  0xbd4e28b5be847de1U, 0x3e71dfcb3d67fd66U, 0x3dc8204bbe374dbaU, 0xbe71951e3deab245U,
  0x3d734534be23e06bU, 0xbc2bfe88bd80f78fU, 0xbd5a6f8a3e83ad63U, 0xbd82a8fabddfe1f6U,
  0x3d7dabc5bd57aa7dU, 0x3eb51dd7bd5c78f2U, 0x3e2df558be3baa18U, 0xbeaa3c513dca8533U,
  0xbe2ddc22bcf233c9U, 0x3ec091f1be5c5c71U, 0xbeb95145bdf1f5f0U, 0x3e9c1b4abe96489eU,
  0x3e20dcaabe282766U, 0x3d9cf197be95a0feU, 0x3ee4e25dbec674c7U, 0xbd1466553e430b20U,
  0x3e1fcfc53e1a5f42U, 0xbe83c2b93d73d42aU, 0xbdf0cf0c3e1ea7d0U, 0x3e0094b0be534618U,
  0x3d0d3fe5be859f29U, 0xbd32a3313e1fce54U, 0xbe7734523d5c1dc8U, 0xbe86aea7bed8d43bU,
  0x3e64e82ebde59253U, 0xbda8a368be8ea505U, 0x3e5c3710bd93da0dU, 0xbda174a4be41c981U,
  0x3ec8655bbe03a8b0U, 0x3db955b2bde7c481U, 0xbd7c332abd2f916fU, 0x3e97da2fbeb37274U,
  0x3e8968af3e81f30cU, 0xbe4857db3ea1fa0fU, 0x3e5bdc29bcacb516U, 0xbd135c47bc83cbb5U,
  0xbe2a1deabeb01babU, 0x3e0af041bddf17c7U, 0x3d9eb3b23d6511f5U, 0xbebe9115bdaa5511U,
  0x3e1dd7cabe3880ccU, 0x3e6a7abc3dba4e1fU, 0x3dd891cdbcf8e28dU, 0x3ddb2abf3e9fd846U,
  0xbcb157c13e3e0605U, 0x3db17f173e1a0453U, 0xbd82e87b3e1d7270U, 0x3d5293ffbde36f5cU,
  0xbdf29a70be5928f9U, 0xbe4ffff9bdd5defcU, 0xbe9766273e903b71U, 0x3e3841503e809542U,
  0xbd1383693d839c8dU, 0x3dc970583d22fc2cU, 0x3e0dd8243cf869dbU, 0xbe4f4731bbe51235U,
  0xbe97b5c83cabdb2aU, 0xbd41a421be6632e6U, 0xbe0cc4d3bc8d8240U, 0x3d40d3ef3e217526U,
  0x3d9b75303ea4709bU, 0xbe7a92dbbe2ed3b5U, 0x3e59a4553ea387d2U, 0xbb6134d73cf09772U,
  0xbd1962ab3d3db077U, 0x3e2596c0beabef90U, 0x3d8590fe3e14ceedU, 0x3e2debb73ddbb60bU,
  0xbe2784ad3dda8c19U, 0x3c6e3b4fbdf0dc4bU, 0xbda6295dbc94fb00U, 0x3e99ecea3e16663fU,
  0xbc13be233dc184caU, 0xbe07f9443e24b214U, 0x3e2a64b3be948a02U, 0x3d4026323d65479eU,
  0x3e73e4683dad991fU, 0x3dac848f3dfd78caU, 0xbd87f6d83e12304aU, 0x3cb84c01be8770d6U,
  0x3d3227963e6f5582U, 0xbdc24bbc3e061072U, 0x3e7e26103dc659faU, 0xbdd9e2d93dd356b1U,
  0xbde1dca1bd6f397dU, 0xbec7e66dbe4c809aU, 0xbe2cac193e8b2433U, 0xbcff7d093cbbd765U,
  0x3d17dd41bc00d00cU, 0xbc3551ae3d488c77U, 0x3e1af640bdd2597cU, 0x3baac6b03ddd2b47U,
  0x3d695763bdfc5695U, 0x3e2a20e8be3930c7U, 0xbe6acdd73da3e4a9U, 0x3e3c2467bd087cf5U,
  0xbe15b39e3dbd7a67U, 0x3c020a6b3d716461U, 0x3dc80e7f3e151697U, 0xbeb1b9123e8da935U,
  0x3c83fe4fbdca16f5U, 0xbb595e1abdcc7e4dU, 0xbda59105be7aa335U, 0xbd027fc13eada831U,
  0x3cc5f614be8beb7cU, 0x3dafb7663f004fb0U, 0xbc71b0a33d9211feU, 0xbe92365ebd3fcf6eU,
  0xbeddc9403e15cdaaU, 0xbdaec4003e62ac46U, 0xbf01410cbe6bcb5fU, 0xbe8190e83e56a009U,
  0x3e0d9cdc3e2bb6edU, 0x3e19e73c3e84d823U, 0x3caab3003d4d7568U, 0x3c2c7f22bd726435U,
  0xbd43585cbe4258f0U, 0xbe8c81bcbd944b98U, 0xbe5dfb9fbe755956U, 0xbdc6ec15bd799e77U,
  0xbddef02f3e3d12e7U, 0x3dd810bbbd558c18U, 0x3e63301ebeb141a5U, 0xbd83735f3d04d9c1U,
  0x3e9aab783d2c7ec4U, 0x3dea852fbeda7e2aU, 0x3e273712be6e021aU, 0xbe2c71c43eb6d4c6U,
  0xbe09677e3e3235cfU, 0x3c874c1e3d58b2feU, 0xbe0e5e283e63f4aeU, 0xbcccc996be41b7f1U,
  0xbdbd26bbbbef941cU, 0xbe23795a3e203fafU, 0xbdc7444c3ea9dedeU, 0xbb8408d8bd8cda4bU,
  0x3e295142be9d761cU, 0x3c896c6abdbc20f1U, 0xbe9afc4d3eb5d097U, 0x3c3ff1673edadc6cU,
  0xbd492f003b0fdae2U, 0x3d726263bd2e0014U, 0x3df44cdebc634eaeU, 0x3e451ecd3b6a08d8U,
  0x3e10bb563cf3f178U, 0x3b5c5d1f3e40b144U, 0x3dec0bce3dfea95cU, 0xbe88281fbe285481U,
  0x3d69ce863dbd5dc1U, 0xbe7b4357bdd4cf7aU, 0x3ea4d65c3ea4bf87U, 0x3df55f943e3a742cU,
  0x3e8911a23dde55f1U, 0xbe0fa32e3dcde29bU, 0xbe17f594bd819b50U, 0xbe34478cbec0f745U,
  0x3e086c5bbce01819U, 0x3e0f8e813dc679eeU, 0xbe2cee7ebdefdf42U, 0x3d86a7bbbdcc0e22U,
  0xbe84c3813da9fec5U, 0x3e533ccd3e2a58acU, 0x3eb040a8bce89158U, 0x3da3d2cb3be57841U,
  0x3e0f6ec33d2e17e6U, 0xbd08eeb83e4f919bU, 0x3dda1e71be3cbd77U, 0x3dac28183e852b20U,
  0x3e9882f93d2629acU, 0x3d5e3818bee1653cU, 0xbe93b7853eabe056U, 0x3d033f863e1b283eU,
  0xbcbc6e8cbec3030cU, 0x3e4699ba3ed94b63U, 0x3e396d8439758e51U, 0x3e9a5c023cef20a4U,
  0xbe2d21e0bde3e4a8U, 0xbd769057be1f35c6U, 0xbe032a21be0df227U, 0x3d4abac2be9ba430U,
  0x3df965a8bdf47af2U, 0x3de35dbdbe90eef5U, 0xbd651982be26f64cU, 0xbc9e046f3d2c3522U,
  0x3e3f36ee3e38687eU, 0xbe3c16df3dae3a2bU, 0x3e0396bbbe422e5dU, 0xbe88ea113e46bd25U,
  0x3da9841cbe0a8b73U, 0xbdbcfcee3e533fe6U, 0xbe1a462cbcd65935U, 0xbd4eb2dabd86a7d8U,
  0xbeaabbf93d2bbd2dU, 0x3e3c0de4be9f9daaU, 0x3e4f79b43c10c4a1U, 0x3e64c3e63e0a202cU,
  0x3e1d45cb3d17ef6cU, 0xbd506d37bda4a382U, 0xbdc5e206bd9972ddU, 0x3d5a60e03da0db00U,
  0xbe1ee5d2bdc99d64U, 0x3dae1498bea53ecfU, 0xbbd5f9ab3e024d09U, 0xbe8c103d3de70114U,
  0xbde968a5bda91ca5U, 0xbe6226a4bda434f9U, 0x3c548c9cbe16c99eU, 0x3dc79ee4bd2b3a3eU,
  0x3e3a2c5cbdc2c073U, 0x3e9a4effbdd70372U, 0x3de70215be91430dU, 0x3e7966fdbe1cae8cU,
  0x3da0e2533e90cd65U, 0x3e312a78be0d6516U, 0x3c36efc8bd422582U, 0x3d9e93a13cf6ea81U,
  0xbc09b1e33d9733b5U, 0x3c8b926abda362c4U, 0x3ef40b14be649601U, 0xbe3166dbbddd9c73U,
  0xbe95b93c3e349a63U, 0xbea6e86cbea00d37U, 0x3bec0450beccb0b7U, 0x3df609afbe0f29aeU,
  0xbe1694d43e3a1ec3U, 0x3e0b1c3d3cc4eb13U, 0x3ea5e3e53d697097U, 0x3d66735e3ea2770dU,
  0xbe02f1c5bea52305U, 0x3e11dc283d49b120U, 0x3e13b09f3cacf5feU, 0xbd6fc9c93d11f6d2U,
  0xbe520064be8f002aU, 0xbd313f61be0690aeU, 0xbc8c09dc3d8ae580U, 0x3d1f8332be5cb9d3U,
  0xbbe677ef3e0736c1U, 0xbd66f4253e587602U, 0x3e38e7933e63cc9aU, 0xbe93959d3dd99b6fU,
  0x3e53fe2d3e0706ffU, 0xbdb024f0be44e44fU, 0x3e0182a9be2d2da8U, 0xbe91c3e33c225ddcU,
  0xbe1c9e42be483871U, 0xbdd7f191be8cf464U, 0xbe4929af3dd24e41U, 0x3e0afe3bbd77f191U,
  0x3e7bb7613ea3ff55U, 0xbe98d200be4e5a3aU, 0x3db45629bd29bb46U, 0x3d52427a3ba0ecd1U,
  0xbe61591e3e161e1dU, 0xbc87ea3b3eafafc0U, 0x3ea4e79cbbc4ef16U, 0xbe7d202b3e2f4531U,
  0xbe1888523d3b8a17U, 0xbdba1a27bd9d67bcU, 0x3e4558f8bd49bbc9U, 0x3e82f67cba958838U,
  0xbea6991a3e82ec2aU, 0x3e9ea1be3e06effdU, 0xbdf315263e64ea9fU, 0x3d6dcd7a3e2d0681U,
  0x3d44e1fabdf9b645U, 0xbe893332bcbba290U, 0xbe81df093e85062dU, 0x3ad810183da05c3eU,
  0x3bb12cc03df86db9U, 0xbe6b1b49be03cfe5U, 0xbeb43c39be2d8820U, 0xbc388910bdefd681U,
  0x3e33ce0cbda9852fU, 0xbdba35dfbdcdc4feU, 0x3dafce423e7258a9U, 0xbc3c6e08beac0cf5U,
  0xbdc6660f3c858a5cU, 0xbeca21c6bde67dfcU, 0xbd51bbeebe959b8bU, 0x3d590c753d7255d5U,
  0xbd9598943de0e4d5U, 0xbe0e7ec0be4f662fU, 0x3e76c9613d26c6f6U, 0xbd623b913d7cb881U,
  0xbbe909283d092196U, 0x3af0d8e1bd71b0b4U, 0xbe0e6df8ba4e9714U, 0x3d29945d3dab372fU,
  0xbe928d1dbefe52e0U, 0xbe282e8a3e8afb08U, 0xbc670e89bc2c88d0U, 0x3cd01d90bcf1fb0aU,
  0xbd20f3a83dbf77f4U, 0x3e1d27713acb2928U, 0xbc9cb1a23e76cea1U, 0x3c3801d5bcb6d2edU,
  0xbdc469543e814449U, 0xbe4ebe9dbd065a48U, 0xbe04a003bde9d484U, 0x3d0a27efbe274ce3U,
  0xbeaa0340bf055211U, 0x3df9188a3e2b0104U, 0x3d1dd9573c954b7aU, 0x3e5f12343e1fb52eU,
  0x3d96b1cdbb9ba959U, 0x3dfdada8be8ea847U, 0x3ca6b3503e90c78eU, 0xbe19c0833e325a30U,
  0x3e5b53ddbd4f1c7dU, 0x3bc1d2bd3dffe35aU, 0x3e38b5afbd590e06U, 0x3e61b112bd9fdd72U,
  0x3d1bb3313e306852U, 0x3e5b9bc53e7a3754U, 0x3e3624463daf59e1U, 0x3d4e57a53e5ce5abU,
  0xbd60a880bcaa0551U, 0xbd2d06a7bda0ac4bU, 0xbcfe5997bda5dce3U, 0xbd319b59be48354dU,
  0x3e3f3ca43e9b9675U, 0x3e7efef6bd4625c4U, 0xbecda5a2bf0c5c5cU, 0xbe8a2b7d3d52e478U,
  0xbd79e9d4beca2b4fU, 0xbe6436bebedb296dU, 0x3eb01d0d3e0e0218U, 0xbee3adedbd709138U,
  0x3c85ad66be2fa054U, 0xbea1e374be9ed838U, 0x3dbd53d8be8041e5U, 0x3e52d03abe07252dU,
  0x3ddc7ef23e81ce86U, 0x3ef768f23d33b0c6U, 0xbd06940bbec8383eU, 0x3e150bed3e191b87U,
  0x3e6a37d3be2995a2U, 0xbcfcdcfc3ce62b1cU, 0xbea99ec13e713fe7U, 0x3ebd831bbf081bbaU,
  0xbec343ccbec1a21eU, 0xbeb9ad603e06d456U, 0x3d3b646dbee00940U, 0xbc4dfe87be7e0c92U,
  0x3d1771a83eb38061U, 0x3e0897be3db0ab3fU, 0xbe377576bd055587U, 0xbe1a0db2beaa6f2dU,
  0x3ed46e563eb5694bU, 0x3ea15a34bea5a5b9U, 0x3ec317abbe909596U, 0x3dd3558e3e445c34U,
  0xbf2dc32abe5c2e71U, 0xbe81565fbe5ea8efU, 0x3e1ea5cb3c9329f1U, 0xbd9918033d427972U,
  0xbe8cc3dbbf080a68U, 0x3d9b9c7bbeed4cb4U, 0xbe65f378beaa5dedU, 0xbf1c5c103ea909b2U,
  0xbcfc0a8fbddc74a3U, 0xbecae3b53de91867U, 0x3e726e0c3e39d72bU, 0x3ed1470a3ef27249U,
  0xbe840282be908771U, 0x3d20f6263d444cedU, 0x3efb45d63e89fbe7U, 0xbb4108bc3e8073d1U,
  0xbe6eb303bb132806U, 0x3eaf69733de6b755U, 0x3e217433beafefb6U, 0x3e7a38063e9f9ffeU,
  0xbe3be791bb54b42eU, 0xbde6aff03dfbc024U, 0x3c9ace273e17da55U, 0x3e07c906be8dd176U,
  0x3e7f65fe3e865d0cU, 0xba8a2c3abf10e6b1U, 0xbe52f2b13d254520U, 0xbea846543e90229eU,
  0x3e899e58bdc4b695U, 0x3e80c4f03d057f59U, 0xbd905666bf05b3a9U, 0xbe1c3863bdce36a0U,
  0xbe49ecfb3bb26e0dU, 0x3e9bf4fc3d9335edU, 0xbe99538f3e914d39U, 0x3ec35290beaaf383U,
  0x3dfa19c6be883a3fU, 0xbdd3ee863e6cde60U, 0x3ead0d27bdacc285U, 0xbf0f97343b458ae5U,
  0x3e8a51553dd23d4eU, 0x3ea148d53e953615U, 0xbea6a45c3e8976bdU, 0xbe77039cbf05396bU,
  0x3e558ffc3df05c37U, 0x3e948d17bdc612f2U, 0xbdb9c5ee3eb6059fU, 0xbd0ae187bd866a98U,
  0x3d760cccbeda7fd3U, 0xbe8ed7f33d4d45e6U, 0xbe16e8d7becc7330U, 0xbdf1c365bea0e9faU,
  0xbe5beea13d5203daU, 0xbeef9176bda03900U, 0xbe9b026cbf025563U, 0xbee48e5fbef50d48U,
  0x3e7e0ae6bc518bebU, 0x3ee98c62be5bfc39U, 0xbe1b45c6be1cb366U, 0xbece8117bd7f16b0U,
  0xbee7343dbec4927aU, 0xbe355d29bef102bcU, 0xbe372aeebec29d3cU, 0x3eac5ad93ea06017U,
  0xbe888d58be85e374U, 0x3efb0589be4c578fU, 0xbed2c9773ea59c63U, 0x3e68e3fdbe21c958U,
  0xbedb0bc4bf23695bU, 0x3e9938edbe9d9a7fU, 0xbede50d53e2761fcU, 0xbf045722be1aaef6U,
  0xbed00d333dc22016U, 0x3dabddfebe6b6587U, 0x3e033d793e16ada6U, 0xbe886e4ebe8e52bcU,
  0xbe9926c6bedb3d79U, 0x3d993a603e80d401U, 0x3ea6b2e2bea4aa4dU, 0xbf08e34fbe09ca89U,
  0xbe51a31f3ecf2cccU, 0x3b8da7b03cad416cU, 0xbe23e631befbd78eU, 0xbf0f2fd4bdbfa7cdU,
  0x3ed4ba95bee5d833U, 0x3bc0a62abef4903eU, 0xbe8d7903beaed7b3U, 0x3eda02dbbea50511U,
  0x3d0b66b73e99a922U, 0x3ec7b1453dce1fa7U, 0xbe7767d7beb40671U, 0xbe665b0d3eb404fbU,
  0x3e91dfb5be8f11aaU, 0xbeee11523dcbf4cbU, 0xbe05bb283e634d5fU, 0xbe4a3c793ea8d3beU,
  0xbe25a271be882e2cU, 0xbc801092bd565b49U, 0x3d128338be2c3d1dU, 0xbcdd663ebe87a754U,
  0x3b55f951bd2346f5U, 0xbb5bd8b3be3869c9U, 0x3d52ed43bd52b007U, 0xbe8d74eabae259d9U,
  0xbdb8ca083c378a86U, 0x3e93a21e3c200b0aU, 0x3c8ad36fbded9208U, 0x3ca5efc5bdd2a5f4U,
  0x3dfda3a23d874864U, 0xbe32df69bc806156U, 0xbdc7c85fbd3b33c4U, 0xbcc439573e0500eaU,
  0xbad3be653e31e034U, 0x3d57f5fa3da25e11U, 0xbe376393bd79f5fcU, 0xbe7fafcbbe2d28a4U,
  0xbbf51dfe3d3e3100U, 0x3dfbb4163ba37bd3U, 0xbd9da2f6bdc35ec0U, 0xbd63da783e1abfa3U,
  0x3d2c43083aa6a464U, 0xbe51cc433d15cb1dU, 0xbc896185bddc8417U, 0xbdbf81223c96b3a2U,
  0xbd51560e3d806a79U, 0xbe0a217c3d854315U, 0xbd2bbe793cd29d95U, 0xbd3192a6be91a4b6U,
  0x3d80d758be2506c0U, 0xbd123544bd33174cU, 0xbd44f5c6be50fdadU, 0x3ded17a8bdafe433U,
  0xbd1b940c3d284afaU, 0xbd882094bdb97274U, 0xbdc7601c3b0b4405U, 0x3da6f4cbbb91f166U,
  0xbd46ce01bd94586fU, 0x3d012977be2806b9U, 0xbe425575bd844d4bU, 0xbe39e2e4be16245aU,
  0x3d64f52f3db75515U, 0xbdc7b3c5be8fb0e9U, 0xbe02dcdfbe88451cU, 0xbc233f69bd2d8175U,
  0xbdbba95a3c90ebd9U, 0xbc1ce143bd16b842U, 0xbdd4c9a83db2fdd1U, 0xbd347f02be3381c4U,
  0xbdf1d2f3be916a60U, 0x3d23c29fbc95648dU, 0xbe68da89be8ea6bfU, 0xbd68e2f8bdba0878U,
  0xbbeee33c392dfa70U, 0xbde44819bdda20beU, 0x3c8f92eb3e2c622dU, 0x3e03d9bc3d2449a2U,
  0xbe762c2f3cd707f2U, 0xbcf3ee90be482abbU, 0x3bf76c4cbc1be147U, 0x3c657c92be24acb1U,
  0x3da88b6bbe42e1f0U, 0xbe2becc03b0e565fU, 0x3d8d7381bcaf941dU, 0xbda9d621be276ff8U,
  0xbdcec335be3cef25U, 0xbe69f3ddbcbc8b2eU, 0xbdb9bc94be330c6bU, 0x3c6159f63dd817f8U,
  0xbde3b5c2be1b68d5U, 0xbd9818363cf0243dU, 0x3d9d5f623d986d6aU, 0xbd8745fd3da0900dU,
  0xbdc3c02ebd97480dU, 0xbebcb3853d4c8759U, 0x3ddd94abbe178e9aU, 0x3d41de113e1050acU,
  0xbe5def92bb3ae7adU, 0xbddfca53be910ac8U, 0x3dffe9763ce165d3U, 0xbd87b17c3e25ac0dU,
  0x3db6ac79bd8f369aU, 0x3d5fcfc2bdf1adafU, 0x3ce2354c3d63132eU, 0xbcb5d1c5bcc5f491U,
  0xbdadfc73be3553cbU, 0xbd45c86a3d726cb8U, 0x3da68352bd246bccU, 0x3dcb1fa0bc4b08e7U,
  0xbd07cae6be06715cU, 0xbc4fdb2bbe0fec90U, 0x3ded46083d5a3b6cU, 0xbdc414dabd95d451U,
  0x3df80006bcd71bbfU, 0xbdf39456be29c211U, 0x3d1a6ff5bda0ce87U, 0x3c91fb06bd8b180aU,
  0xbe3691aebe02ad9bU, 0x3db29c09bdc014f6U, 0xbdb858223d0c641eU, 0x3d99ae4ebd93faadU,
  0xbe2d268bbde44892U, 0xbe8e31da3ea886c1U, 0xbdc606a7bd9d7cebU, 0xbda4a35d3cefa4fdU,
  0xbddcddeb3e069385U, 0xbeac9ad1bdd184f9U, 0xbe63d94e3e27d643U, 0xbd8cf761bd5e0d55U,
  0x3db2903abe0d3063U, 0x3dda35773e4b5378U, 0xbd92d68b3e0fc455U, 0xbd097f0bbe05abdeU,
  0xbe1362f03c8c4f74U, 0xbdd0fb1dbd60c499U, 0x3be1742f3e31cc0cU, 0xbd776eba3d4f374aU,
  0xbd7942d2bbeba990U, 0xbd4f81a23dd9ce87U, 0xbc8a927d3da3c753U, 0x3d31fcb9bdbff711U,
  0x3d765c363e3a5d41U, 0x3cbca200bd6e7a89U, 0x3cc4a2bebd4b719cU, 0xbe6db1a03dc31e67U,
  0xbd4b3900bc140772U, 0xbd52c82ebdcadd11U, 0x3c45c6ce3d799e53U, 0xbdedea783dbf0f7fU,
  0x3d781f603e2a4263U, 0xbb65b9d33d6b7b3eU, 0xbd755c1b3e64baa9U, 0x3dc15e4dbe39cfdcU,
  0xbe0ace5bbde50c18U, 0xbdbb3fa8bdb197e0U, 0xbd9b2c5bbbe4ee18U, 0xbe4fc002be5623a4U,
  0xbea75e79bc1d61cfU, 0x3d56bda0be250ad8U, 0xbb104b303cf12704U, 0x3da58723bdd61bfeU,
  0x3dc5fd0bbe3c32eaU, 0xbdb5bb92ba767b3dU, 0xbd20ae3c3e4cea6bU, 0xbd7448ec3d8c370cU,
  0xb912a9b0bc7fcfcbU, 0x3b68ca5fbcf04a6cU, 0x3e08377abe459925U, 0xbdb577abbdf9c3adU,
  0xbd32f2b23cdcf0e5U, 0x3d628a313e16b77cU, 0x3d72bb723e689a35U, 0xbdfc5559bdd7aea2U,
  0xbdee2eabbe50707bU, 0x3e12b181be899c72U, 0x3e1af7bebdd0343fU, 0x3ce0d1393e00b68cU,
  0xbb4a10163d0a35cdU, 0xbcdb2aa6bc8b2432U, 0x3e04a082bd875d6cU, 0xbe03aecdbd94fa6dU,
  0xbd93fe5d3caaf0faU, 0x3e6e3583bde5c447U, 0xbc2921273c83ec82U, 0x3e3e1b2abe22e2d5U,
  0x3bb2a0af3db27cd0U, 0x3d78e1b03d8483b1U, 0xbe4280e43d94f6c6U, 0xbe824456bd9c2e13U,
  0xbe0ba51b3cabe8efU, 0x3e29f1933d715535U, 0xbe3ec211bdb524feU, 0xbdb72c35be7289a7U,
  0x3de6abb7bdf58886U, 0xbd68e17d3e03def3U, 0xbdf37ee4bdbe59a4U, 0xbe3ff6fa3d15d147U,
  0x3b663c783e07b905U, 0xbb76e19d3c70a81fU, 0x3dab892a3d124062U, 0xbcb2d2c0bd974065U,
  0xbc95818a3cef5124U, 0xbdb9d6053e260c5bU, 0x3aa27b12be535518U, 0xbe362da3bdb0331fU,
  0x3d4dec15be76d6f9U, 0xbda6b1383c53a816U, 0xbd121b513c49fd59U, 0xbe0d3b0d3d1ca0ccU,
  0x3dad85883d952708U, 0xbd85bdd6bded590eU, 0x3c9889233d4905b2U, 0xbe1453123d673f23U,
  0x3e05be543e574bceU, 0x3e928395bd47fad3U, 0x3c4c1c9d3d9b45c2U, 0x3c92c4e4be241181U,
  0x3c68c8f93e1915ccU, 0x3de59f61be2eec08U, 0xbdb7034ebdfa3f99U, 0xbdfe5cb1bd3269c0U,
  0xbc816f3ebe01a966U, 0x3e1dad18bd491502U, 0xbda59ee4bd4e6c03U, 0x3d7399e93e96ad2dU,
  0x3dda7ae83e24701cU, 0x3e1b95693e604ef5U, 0xbdf2c4dcbd9e2946U, 0x3cc01cf3be219d49U,
  0xbde17f54bb380edfU, 0xbcf29786be107efaU, 0x3c81807c3da1fc1eU, 0xbe411364bde4c218U,
  0x3d0a082bbd25092eU, 0xbe478932bcbf564bU, 0xbd65b6c3bc7012b0U, 0xbe03d6323d0cf383U,
  0x3d1aae253de2d1faU, 0x3e317f9c3c635082U, 0x3e3d3db5bd2037a9U, 0xbac5fabbbe22c218U,
  0x3c02cb333e99794fU, 0x3c8f46bdbafb26e0U, 0x3e2106f1bde448b3U, 0xbc0f211c3e401ceeU,
  0x3b9fefcdbd11fc8eU, 0xbd9a4421bcb82702U, 0xbbf24c85bd97b562U, 0xbc3ab71cbdc3fd2eU,
  0x3d851ecd3e4ab607U, 0x3d31a8bdbe00f99eU, 0x3ca7aaab3e040054U, 0x3d05b610bcddb3f5U,
  0x3db5a58bbc86cc78U, 0x3e1c12303cafaf91U, 0xbcbe82fd3d4a8d3eU, 0xbd6a1214bcc30666U,
  0x3dc9e864bdc831a8U, 0xbe19bacebeab06a8U, 0xbb9aeb15bd3b5425U, 0x3d1b0e10bb5e7f16U,
  0xbe11747b3e21e67dU, 0xbe21402a3c14fcecU, 0xbd1022f5be406b91U, 0x3d4a26ec3c4db307U,
  0x3be56024bce1fa4aU, 0xbe2c4e66bbf814faU, 0x3da9bb05bd96174fU, 0xbcf8d3313d52f00bU,
  0xbc8022b4be4c9b8cU, 0x3ce62ae13e02e9d4U, 0x3e42ef783e536e3aU, 0xbd639bcfbca0a649U,
  0x3e0765abbd5d9f54U, 0x3d5c92da3d4beafcU, 0xbd0af7ec3e012091U, 0xbc8281f03cf9274cU,
  0x3cfdb16bbe3d3500U, 0x3e419099bd172b64U, 0xbd111020bc1cf098U, 0x3e4382bcbd6ac3d6U,
  0x3e1ad2ebbc42e8a9U, 0x3d809599bde87ff3U, 0xbc8225a93dd63b9eU, 0xbe1e2c293cea8d92U,
  0x3e05fe8f3d2526b5U, 0x3da628aa3ce4d268U, 0xbc482958bc846cfdU, 0xbcf7d95e3daab710U,
  0xbd6e8f37bdcf325bU, 0xbbcebb47bd0342aeU, 0xbd51e540bd7410bbU, 0xbc5d858d3d2c2d56U,
  0x3df11399be21a54eU, 0x3ddd96663e07d0d0U, 0xbdf13999bc15096bU, 0x3dcec2d0bddc111bU,
  0x3d7060f63e0a43fdU, 0xbd1b3fbfbd9f9fa2U, 0xbd7058e0bbbc5bfcU, 0x3c9eb1263d58ac70U,
  0x3cf4be5c3dc248edU, 0xbe0806e33dbe9a73U, 0x3db08f2e3e6454ddU, 0x3e2f10613d8b00b7U,
  0x3dc1e790bae8294cU, 0x3ddfcf703dcf3adeU, 0xbd71bb1abbeb8ff4U, 0xbb4b05babdf602aeU,
  0xbc87e2e93dc03e46U, 0xbdc3d7e9bce5334cU, 0xbca32d38bd90b045U, 0xbc0f833cbd5209b7U,
  0xbe2dff6f3dd6f630U, 0x3c575f113cce0facU, 0xba4a220abde63335U, 0xbd88d1acbb382d24U,
  0x3d29cac1bca3fb6dU, 0x3e42f9cabdf85fb7U, 0x3d954b19be051468U, 0xbdbfe7d73e37a7bfU,
  0xbdaae0b5bd9ec4f3U, 0x3c912b89bdfe51a8U, 0x3ddb4ca3be3b38a9U, 0xbe689c11bdb19250U,
  0xbda9ec033be1f7ffU, 0xbe00ac15bd1a19f8U, 0x3df20bcdbdfb401cU, 0xbd870ab73ea7deb6U,
  0xbe17f6f5bd4cd309U, 0x3d41e08e3dbc0762U, 0x3d5eec3e3c1fafb6U, 0x3e178cc9be9921d7U,
  0xbd820295bd28ea5eU, 0x3d616b6d3d945f7eU, 0x3dc2b6513ddfbcfeU, 0xbcc7b7a1bc6ab89eU,
  0xbd81d002bceb78b9U, 0xbdef8ea33e8080e0U, 0xbccfec3fbd86307eU, 0x3cd0a4d3bdb1cdeaU,
  0xbd8dcedfbe5430acU, 0x3c5399b1bddb601bU, 0xbda871c1bd796223U, 0xbd14a851bde455d9U,
  0xbe9a04cebc1ecf79U, 0xbd2c62733da75046U, 0x3de12f5abdf809e0U, 0x3d1f63b1bda2a8ccU,
  0xbc443cf2bd8c684fU, 0x3da8764e3da330b2U, 0xbc651adbbe4a31bfU, 0xbe11ef5b3d9ec1a9U,
  0xbd0494503cc15722U, 0x3d0d1621bd2cb3a9U, 0xbe1e1b673e1a5848U, 0x3d8bbda4bdc698e2U,
  0x3dea5ec6be3a74a7U, 0x3cdd59d63d1de541U, 0x3d4d33363d5b4570U, 0xbbb1681d3e412bc5U,
  0xbde43cc3bd2d71ffU, 0x3b9b69d23ca69695U, 0xbcba70dfbde10d1bU, 0xbd4abb9e3d94a1d9U,
  0xbd7923683de00882U, 0x3b91e6b8bdc71eedU, 0x3c65f71cbdfac536U, 0xbe1caca33d310dfcU,
  0x3e5750bcbb481b2fU, 0x3db5b3113dca758eU, 0x3ea92514bc999591U, 0xbe5642283d46afd4U,
  0x3d9d80373d174cc4U, 0xbdd11ebbbd264e49U, 0xbd24eddb3d29a41fU, 0x3df43a85bd4a535aU,
  0xbd44cb38be957e49U, 0xbd87b8453ea93005U, 0x3cfb14c9bb06df40U, 0xbde0cbf33de28e66U,
  0x3d8e13133cf3347fU, 0xbde375e0bd91d1aaU, 0xbdfb052a3da9c990U, 0x3dd67140bea7444bU,
  0x3e4f2063bd8a0c1aU, 0x3d9d974fbc1693a7U, 0x3cc71504be2473c2U, 0xbd4a40cabd695434U,
  0xbc95af473bb9b54eU, 0x392bee293d55acbaU, 0x3e581127bd65d928U, 0xbe0c90a2bc9f1fcfU,
  0xbd4ba2933c104452U, 0x3d54e83fbe22548bU, 0xbda44f37bdf9bdedU, 0x3d76f1ac3d073a94U,
  0xbd046c8d3d0a5b5bU, 0x3cdf0059bd50a3f8U, 0xbe20f77cbd27902dU, 0xbd3f88243d058bd4U,
  0xbdb723e9be8e8b53U, 0xbcea40eebd7b6127U, 0x3e4500e53e3015d2U, 0x3da3fc3dbd2576ccU,
  0xbc23b735bcad7982U, 0x3d85715fba9a31c5U, 0xbe1406c9bdd180acU, 0x3dad2114bde154f9U,
  0xbdbb950e3ceb36f6U, 0x3da2f6dfbdac1039U, 0xbdf46c42be1bdddaU, 0x3d94ad783e3df1a1U,
  0xbe2ff293bcea3d02U, 0xbd966b65bd62f661U, 0x3d4ff13eba7b0692U, 0x3d0f492ebcd44051U,
  0xbe35e9b73c5cf0e7U, 0xbb289b51bdb012c0U, 0x3e59b2ffbd779f73U, 0xbe87ea323e01b2b4U,
  0x3d9c9eb3bc8466b4U, 0x3c20ec4ebcdd0fa8U, 0xbda502733cc74140U, 0xbdd37c38bd55b22fU,
  0xbd914a46bdb298dbU, 0xbdd07077bda5b46bU, 0x3e148b40bd85736cU, 0xbe5de1eabcc3b401U,
  0xbb5dee8ebe329aecU, 0xbe1be4d13d5ec8d3U, 0xbe3eb6c2bb2d9285U, 0x3dd18900bc39c53dU,
  0x3db3f9c5bd1f3a37U, 0xbde4087c3e0876e8U, 0xbdb5839cbd82dafdU, 0xbe1ded39be051dd1U,
  0xbd935be83e05ec35U, 0xbda8d2dcbccb721aU, 0x3cb6d2d63c99a3d2U, 0x3dc68064be2773b4U,
  0xbd7239f8be3114e4U, 0x3e02ab05bc9ff9beU, 0x3c8c7e1b3ddb7e2eU, 0xbe2aef37bea00912U,
  0x3d9b0ad5bc9c7094U, 0x3da5f9b5be5bfa3aU, 0xbe5225fdbddb3355U, 0xbdd3b3183c6cfae1U,
  0x3d265f913b283f30U, 0xbe0a14a0be2fe329U, 0x3cb0c4123c536112U, 0xbd144e18be0d3cdeU,
  0xbcdd7f97ba7f7e1aU, 0x3e1e2358bd66c02eU, 0xbd71af78be6fecbcU, 0xbe1f19033d871286U,
  0xbe2e6c9bbd90fd98U, 0xbe64016f3e6a16e2U, 0x3dcca802bcee8793U, 0x3ded4d4dbe0314f6U,
  0xbd8025c8bd1f2d7bU, 0x3c97a95d3c1212beU, 0x3a133eef3e2ef201U, 0xbc3f5a8abde861f2U,
  0xbca3e64dbd3078f5U, 0xbe184bf0bd5d75d2U, 0xbd34ad3abcddfd25U, 0x3c845a613d787018U,
  0xbe118445bdb2d665U, 0x3e40856fbd738009U, 0xbe0d7513bd2cc8ddU, 0x3e219c3dbdfac1caU,
  0xbe8ad274bcfa6ceeU, 0xbe8a47c9bd044c9fU, 0xbde4e283be067e85U, 0x3d315c7e3e03b7b2U,
  0xbe56c227bd141e04U, 0x3d6fb5f43d0ecbb8U, 0x3ca59b5d3d315435U, 0xbdc5c05bbdc40d48U,
  0xbdb3e0d63e073448U, 0xbd73d8973d8b02f6U, 0xbe051f8dbd54852fU, 0x3d481d4f3c8bf26cU,
  0xbe1ad871bda7cb9fU, 0x3e3a11e2bd8a72e2U, 0x3d7b73e83e85868cU, 0x3e81d6943da3d70cU,
  0xbe069813be2e14a4U, 0xbdec630d3de0cba3U, 0xbe2118e8bd39eccdU, 0xbd4f5b76be1704b1U,
  0x3d635143bcc23647U, 0xbc012ab2ba0eac2dU, 0x3d407a553c6d4f8cU, 0xbd224a85be28eac5U,
  0x3d9367f13c5c96f6U, 0xbddefdc83dfbf0ffU, 0x3e0752ce3c87e99eU, 0xbdddc6e83d013d6eU,
  0xbd74ed2e3e31e08fU, 0xbdc789923cfbe25bU, 0x3d45bdc9bcebeeecU, 0x3db3abd73d320a0dU,
  0x3baf29dfbdc00e3eU, 0xbdfbf738bdabd290U, 0x3cd6fd15bdc8cde3U, 0x3d5bd7403da42464U,
  0xbc3347b43da20082U, 0xbe3bd4c0bdf00bd6U, 0xbe7e47883cf7f538U, 0x3ea2c9403dc133dcU,
  0x3d097dfbbd1f0989U, 0x3e48cb4dbd16863aU, 0x3d4839f33c123c1bU, 0x3d28581abe1b348bU,
  0xbe4524bb3dc07afaU, 0x3dd0c9e03e8dbacfU, 0x3d18a358bd848d22U, 0xbe8a556ebdedb141U,
  0x3d6c26c3be9e7013U, 0xbcc256bbbdc2f958U, 0x3d4cca04bd3ffcbaU, 0x3cffa7f83d2ae21dU,
  0xbd8503da3e0ebb0fU, 0x3e1df8713c364ba8U, 0x3dc39413bd72f7b1U, 0x3de39918bd897f02U,
  0xbe6d16a0be148affU, 0xbe03b45dbddc10d3U, 0x3e1f43043ccfd5a6U, 0x3d0148ccbddc92b9U,
  0xbdcec6963c70fb4aU, 0xbb719d4fbd87ba07U, 0xbde1f2173e26380cU, 0x3da68c22bd4041c1U,
  0xbdd14f3bbce759f8U, 0x3dc092d2bd1a0040U, 0x3dabf379bd8ac5efU, 0xbd5a2c7fbe278becU,
  0xbdae7c41bdc94d39U, 0xbdb3af95bd1d6f0aU, 0x3dc259acbe622b31U, 0xbd06fc3c3d4bd02fU,
  0xbd6f9555bdd6bea9U, 0x3d1cab1dbcae99b2U, 0xbd81e1dfbb9dd0faU, 0xbd90b920bde69f12U,
  0xbdd84aa6bdd177ccU, 0x3cfcd9d6bd54d1edU, 0xbd56c3443dcf4c3cU, 0xbd6a0eecbcd44f45U,
  0x3d59f572bd2b218dU, 0xbdff049dbdb62143U, 0x3cd43d8dbc230f24U, 0xbcb659bebd27e531U,
  0xbced5143bc5a675dU, 0xbdee973ebd9ec8b7U, 0xbd2e065c3ca61ef6U, 0xbc8bb1bebe5bcc8fU,
  0x3d6b6232bc72ef70U, 0xbcf14308be07887cU, 0xbce4ce90be40eb4fU, 0xbd273095be08150aU,
  0xbe1c310f3de3cd7cU, 0xbc1d7faf3d88fee9U, 0xbd94a9d43cc42c35U, 0x3d79deabbda6594fU,
  0xbe10ae153d479594U, 0x3d469cab3c1029fdU, 0xbd4404113c39adc8U, 0xbda676e4bdea8ab1U,
  0xbd52c19bbd991532U, 0xbe298c103ce43571U, 0xbe5e77ab3db2b020U, 0xbd08aaf8bc31b00fU,
  0xbe6e233abd7cc5c7U, 0xbe5c166fbdbd116aU, 0xbd734f933c7c253bU, 0x3d0411b6be5d5f40U,
  0xbccd91a1bdbd6060U, 0xbe1666cb3d2c43e0U, 0xbdfa5b38bd80deceU, 0xbda7112dbeb06985U,
  0x3dc639cf3c2488a7U, 0xbe02d52a3d6cb6fcU, 0xbdc64d4d3b4ef325U, 0x3d82db96bdf66fa6U,
  0xbde00460be4c0201U, 0xbd15a423bdcd14e1U, 0xbc0670bf3c5ecfacU, 0xbce7d25abdbd3c78U,
  0xbbc29a07be1112f6U, 0xbc36146bbe339e3dU, 0x3e9e38cbbc54c900U, 0xbdc5daf23dd18c63U,
  0x3b92ed38bdab2595U, 0x3de6af7ebc9c4e15U, 0xbd2f8f60bde7cbc6U, 0x3d5f93d83e000acfU,
  0xbe38d6153e282166U, 0x3c5a3f12be17fa67U, 0xbc6c509fbdfadea7U, 0xbbf9e0273d4ba032U,
  0xbd0e789fbde837eaU, 0x3d8e4a2abdf6c4cbU, 0xbd3feeeabdf466dcU, 0x3c0324253d8c668fU,
  0xbe2c3976bd1f6b70U, 0xbb509f41be1e907fU, 0xbc1a5ce2bbee8885U, 0x3dafb397bd519357U,
  0xbcdb8dcfbdf941b8U, 0xbd90731e3b662659U, 0x3c3c48cb3c74197eU, 0x3d526eb73d93a0d1U,
  0xbc39b5dabb6943e2U, 0xbd2bfcc0bd7b1c26U, 0xbd5c8d4a3c79beceU, 0x3d4d7fdb3c985aacU,
  0x3d68f8163dac7648U, 0xbe247a4fbd78a358U, 0x3da1b96c3d53f6f6U, 0xbd89e95fbe962248U,
  0x3e4d4a923e095339U, 0xbd8b8ef53cc14d2fU, 0x3d6d41f6bc63134cU, 0xbdad3211be1f738dU,
  0x3df86e443dcd5a13U, 0xbe261b81bd8a2e17U, 0xbc8a6d38be096562U, 0xbda8f10cbe1937dfU,
  0xbd9866583d1d9ab9U, 0xbd970ba6bc23892bU, 0xbdcac64cbdb98d76U, 0xbd4fd2493d553603U,
  0x3e1038a23ca2f202U, 0x3b4693cabcf96a04U, 0xbd1fad313e41b743U, 0x3d58e3bfbd99e316U,
  0xbe4e8d30bdfa7811U, 0x3d6de77c3da06c30U, 0x3cf4220d3d359d2fU, 0x3d1f469abd14ec3fU,
  0xbd520a173c20013fU, 0xbdeb28303c69a65eU, 0x3dca896cbd87415eU, 0xbdd7c7c2bddcf911U,
  0x3d739089be2353c5U, 0xbca468213d1cfb15U, 0xbc949d15bcb01585U, 0x3cab6123bd9cf320U,
  0x3d2515853e1d98b5U, 0x3e6eec6bbcaae0c4U, 0x3c6c2adcbd565e6eU, 0xbc5e4e7cbe22c9d9U,
  0x3d5d092abe373e0cU, 0x3d83c30b3db23466U, 0x3de1bc363d0d9250U, 0xbd8c4d69bbf95f6bU,
  0x3c213086bd88e94fU, 0x3dc056a33da623d1U, 0xbe40cf3bbde7e3dbU, 0x3db5309fbdea78d6U,
  0xbcd64c1a3d9c53efU, 0xbd9cbdb4bddfc780U, 0x3cbbcf5cbe1dedb5U, 0xbc8d3c6a3d9d7cf3U,
  0x3d5a5947bdb65e1dU, 0xbcdf3412be8e5f92U, 0xbd82e0833e3a4a81U, 0xbd0ef8b4bc392296U,
  0xbe619005bc90a750U, 0x3de5d5aebcf5cca6U, 0x3e0b29713b12e079U, 0x3ceca38d3d0c25a8U,
  0xbe0f8debbd2b6846U, 0x3ceb458ebc8ee27fU, 0xbe5edc353e1810f8U, 0x3e02a10bbe80cdbfU,
  0x3d2097833cf4fffbU, 0xbcf8c9ed3d409d16U, 0x3df28e183c9d56b2U, 0x3d3b4ee4be06fe15U,
  0x3d6a1e723d97b516U, 0xbeb15f633cb5e016U, 0xbdbc8b7abb26969bU, 0xbe0089b43df0b76fU,
  0x3d81dc533df0584bU, 0xbd28d9753def0092U, 0xbe251227be49d15bU, 0x3c35d26abe1e741dU,
  0xbd0ee13f3e1ccf5bU, 0x3d172654bd6e6f9cU, 0x3df169183db06c82U, 0x3d3e2f70bb219e49U,
  0xbd41f3ea3e51a053U, 0xbc4fb4bbbe200f92U, 0xbd0a359abd18a8adU, 0xbc998b8abe43d557U,
  0x3de5c220be1419c0U, 0x3a8c95bdbe66858bU, 0x3d8a1011be31cdccU, 0xbea02ad9bd7dfdebU,
  0x3cbbcbdc3c1f569fU, 0x3db3d00abdbdc9aaU, 0xbd6651f83d9bc791U, 0xbe1576493db563c0U,
  0xbd6bab78be0f712fU, 0x3e454a0dbe0211a7U, 0xbdcd61d8be03a915U, 0x3cd696883e2402b5U,
  0xbe9675b93a456249U, 0xbdebbaf9bdd1574aU, 0x3cc25605ba68cf2cU, 0xbde281f7be8f617aU,
  0xbc2beef7bdfb36bcU, 0x3d5c6f423ca216edU, 0x3d503fee3e293f5bU, 0x3d46e9233d783cc6U,
  0xbd86e018bbfc24f1U, 0xbdfc0a0dbdf628f3U, 0x3dc7e0ffbd59288aU, 0xbd48b43fbd5c68ebU,
  0xbea9229d3d48e82eU, 0x3dedcdcf3dc9f7c4U, 0xbdeeed853d463b9bU, 0x3e878aa83d57bfe9U,
  0xbdcb4682bd799f2cU, 0xbd3b4718bde2153dU, 0xbd999ee0be46257aU, 0x3ad2af273e5aac58U,
  0xbafe5780bc9cdabdU, 0xbb7f5d013e27163dU, 0x3d981a6a3dacc3fcU, 0xbdd08a8cbdf1e4c9U,
  0x3e2015103e2706dbU, 0x3e2a1122bdd254dcU, 0xbd47fdef3dbd976eU, 0xbdeb422cbe007695U,
  0xbe20e1063c9c39a3U, 0x3dda3420bbcba35cU, 0x3d85fd5d3e013d6dU, 0x3d30adde3e440eb5U,
  0xbcc62130bcd51028U, 0xbdecf7ee3d5bfaf7U, 0xbdb957c5be02dac8U, 0xbd92fa62be38f3a2U,
  0xbce1b6a3bd0ca5cfU, 0x3dbd84363d6b55f4U, 0x3db50cf33ce585f2U, 0xbe0c4512bd26901aU,
  0x3d104d573d367aaeU, 0xbdb25371bdcbd037U, 0x3ceaf98d3cf86452U, 0xbded0eef3da3f76cU,
  0xbdeed3693e2d295dU, 0xbd424f33bdaa6f69U, 0x3d8c3b14bdb8c48bU, 0x3de88a5ebdfc1e6fU,
  0x3e899a3fbe38b60eU, 0x3db337c7bd60c1aeU, 0x3e5c746fbe2b38d3U, 0x3d9d1e28bc726351U,
  0xbe18d7cc3da9ae57U, 0xbe602d793d8353d9U, 0x3ba080393cf7a98dU, 0x3e6f8ec53dbfaf97U,
  0x3e47a01dbcc95a11U, 0x3d20028b3b807274U, 0x3d2582a53d62de8dU, 0x3e8942aa3b263b80U,
  0xbdabb96c3cd5299dU, 0x3d31b45f3d446d60U, 0xbdc563acbce97a33U, 0xbe0c0fa4be6805a6U,
  0x3d1703b4be9263b8U, 0xbe35f081bd2d90c0U, 0xbdf336c53e0d504aU, 0xbd8ef54dbd35074dU,
  0x3c1aad78be0c47bfU, 0x3e16f49a3dbb4bfbU, 0xbd097f3bbe936204U, 0xbccff9c6be082884U,
  0x3a102c833d01c845U, 0xbdcc5aafbd702b75U, 0x3da5cd6f3be4cdc5U, 0x3c7a3ac83e51ee09U,
  0xbc2dc43c3d83d26bU, 0xbd44094e3db28e83U, 0x3dff31293cbad863U, 0x3d92ee7a3e5ba618U,
  0xbcebfaa13d3f8a63U, 0x3e877dc13cd07795U, 0x3de4bbe13acb8348U, 0x3c3490f2bd16624cU,
  0x3da6f920ba478724U, 0x3c291bdb3dc604f5U, 0xbe01b7e43cb14097U, 0x3d2da4d33d6008e1U,
  0x3d4464d63e74c308U, 0xbd0ceec83d679341U, 0x3d110566be3851f8U, 0xbe3d65bc3e266c1aU,
  0x3db38195bccf1247U, 0x3dfc173dbddabfd0U, 0xbdeaa3d73e83b0e2U, 0x3dcee2ad3dccae4fU,
  0x3d137245bddc8289U, 0x3d615989bdadb305U, 0xbca51a75bd5b94cfU, 0x3da850bf3e197569U,
  0xbe3196b23e46ef8aU, 0xbda555913c9817d4U, 0x3ca2472fbd36c20dU, 0xbd66398e38b79d46U,
  0x3d6057f4bdd5adf3U, 0x3df9f6a13e1d2626U, 0xbd1e08663db0b139U, 0x3c6064be3e0e557aU,
  0x3dcfd21d3d60904aU, 0xbd061b123e83d7ddU, 0xbcec8a9b3c9106e6U, 0x3bfe2ca73e16dcabU,
  0x3dab58edbdcefd72U, 0xbc48deb1bdddfab9U, 0xbe05aad03d4406e1U, 0x3dbd540c3d412897U,
  0x3de313f23dd24915U, 0xbd1af3fdbdea5810U, 0xbd6d5804bc0270b7U, 0xbdd533f83d7b8e69U,
  0x3d179e983e1bea07U, 0x3cc56d3ebdbcca08U, 0xbdabe2763d8909e9U, 0xbc285923bbb11577U,
  0x3e576fb1bd8f3108U, 0xbda867303d4435fdU, 0xbdd3481b3d556fafU, 0xbdfea2953d378137U,
  0x3d89e411bc94912aU, 0xbde4e2ef3da1e2d6U, 0xbdc115543d71ee7eU, 0x3e27e3323cc5fa36U,
  0xbde273673e593c73U, 0xbe326307be06185aU, 0x3ddc12df3cb94fe2U, 0xbcaab69e3c9ba4a9U,
  0x3e29b7a73de9b8d5U, 0xbd87779a3cc6a022U, 0x3daa2f65be6508e3U, 0xbd8c822abdc8c968U,
  0xbcba0ae53c8abd87U, 0xbdf50233bd7700dbU, 0xbdb560573c242d28U, 0x3e0746c4bd48265fU,
  0x3d1d6bfdbe497760U, 0x3de63c96bdb14b5fU, 0x3dbb6a163db97471U, 0x3d18b8113e76ab3eU,
  0xbd1ec1b63e5956bfU, 0xbdb6072a3da1e3a4U, 0x3d04120ebd6c855bU, 0xbbd0da463d8baa14U,
  0xbdae5a6a3cac4f4bU, 0x3d9be958be92c853U, 0x3e6c806cbd572258U, 0x3db217d53e171930U,
  0x3e269fac3e6c874bU, 0x3e2f9358bd6aca90U, 0x3e54e625ba998aeaU, 0x3d54857d3d9e6526U,
  0x3cc0b92bbd55191aU, 0x3c3283593c6b436cU, 0x3dbf49ff3e2441a5U, 0x3e0943dc3d481210U,
  0x3d9feac63dca6bd6U, 0x3d13ad7e3e091b61U, 0x3cfae9b9bd4aceccU, 0xbd21d3b33e2597b2U,
  0x3e52d7a43d9ae5d0U, 0xbddc089a3cf9672bU, 0x3db3498fbd5979c9U, 0x3d84c7a6bd9280f5U,
  0x3cf165ee3d56f0a3U, 0x3c4b507e3d110753U, 0x3dc1cd33bcf06965U, 0x3d762abc3db7179bU,
  0x3e0d4ac5bd80d631U, 0x3c6d036e3d3870a8U, 0xbe76a5efbb4b47b1U, 0xbc3bf0af3b88240aU,
  0xba3b53993e68796eU, 0x3dd4b611bdd1228bU, 0x3db569093d941816U, 0x3de932473db257bcU,
  0x3e1a28ccbc5e8d44U, 0x3dbd0f483d85ec49U, 0xbc9bbde23db51f48U, 0x3dbcfed23cd4e921U,
  0xbe44ccc23da22896U, 0x3c005f433d7f12d8U, 0xbceedfba3da447f0U, 0xbda5ec9d3e330704U,
  0x3d272af2bda3fc68U, 0xbe3f67423d3e1ac1U, 0x3d135f133e80ec66U, 0x3d065287bdab789fU,
  0xbd09d55c3d132527U, 0x3d7d740dbe50fd05U, 0xbde663ffbd1e2e32U, 0xbc80b379bd678771U,
  0xbe25ab173d125575U, 0xbdebd558be4fefb4U, 0xbddf55ed3daefc95U, 0xbd6778f73d38bbcfU,
  0xbd9d49833e1ed54aU, 0xbcfbef4dbdcbdc1cU, 0xbe24282ebdd163b4U, 0x3d01790cbd1e565cU,
  0xbba4e9c2bcd13c0eU, 0xbd3f82a73e0e8bb9U, 0xbe0a10eb3e157b31U, 0xbdde6eb63d9da4a0U,
  0xbe82ba1fbd74b828U, 0xbe78a933be29a17eU, 0xbe0bdad03d6b707dU, 0xbdf4a89cbe2e5cddU,
  0x3cd01167be200efaU, 0xbe3b330fbe2af596U, 0xbc51f803bdad2506U, 0xbd826c533d5aa465U,
  0x3d2acc713e108797U, 0xbd27ef77bd7d659eU, 0x3d718d5f3d4bc575U, 0xbe22a860bd1390c2U,
  0xbdd77b26be174abaU, 0x3d1a6fb0be66ef88U, 0x3d72cf33bd2b02ecU, 0xbd450cfd3c24da1bU,
  0xbc9949bdbe8c8f32U, 0xbd308894bdfa1e1fU, 0xbe0ce802bd53ff30U, 0xbc4cd4ca3dd780ceU,
  0x3e61d09b3e5ce6cfU, 0x3df001da3c00f1f7U, 0xbd009b76bbd36631U, 0xbd33d1543c40897dU,
  0x3c95c4653daa37b7U, 0xbc9dedf8bbe5af7cU, 0xbcf3b0a63b1b9c08U, 0x3e501e60bdf924dbU,
  0xbc39d4b4bd53d82bU, 0x3d00262cbda94d63U, 0xbd13e23dbe5c92f8U, 0xbe132b5abcc29ed8U,
  0x3d594d313db925abU, 0xbe02c1903d388ec7U, 0xbd971875bdfdc2adU, 0x3dded34ebe2896c1U,
  0xbd54aa8fbe0d32bbU, 0xbd4c46283d3c4bccU, 0x3ba3dd92bda806b1U, 0xbe45203dbd3afccaU,
  0x3e036f3a3e8258a7U, 0xbe2a3686bd06c375U, 0x3e44b1233e05e746U, 0xb90229ccbca8016aU,
  0x3cc1e1a8bdf3df8cU, 0xbe00fd993e06ea42U, 0xbd067ff4bdb28e61U, 0x3d9feb5cbd7e7417U,
  0x3b90d028bd0ce0ffU, 0xbe1e58a93ca08d28U, 0xbc55e2763e40c1d4U, 0xbc9fbd6d3ddc55afU,
  0x3e0c3edd3e20f738U, 0xbdb114e0bd3c2d26U, 0x3d8c2389bdfc55e8U, 0xbdd8c54d3ddd5965U,
  0x3c1c87443e019fceU, 0xbd3c582dbe03c64aU, 0xbe316adc3c0e8933U, 0x3dd4f9c9bdc17803U,
  0x3d1b21b9bccf5c9bU, 0xbe219eaebd224fd0U, 0x3e1fd623be001cf9U, 0x3d147bfc3dad4a8dU,
  0xbd533594be26cdadU, 0xbd9d4169be7f433fU, 0xbdbfe5f8bd5324d1U, 0x3a97bfb3be4a0bc0U,
  0xbcf9eab23e267325U, 0xbdac9aaa3dc85a9dU, 0xbd69a158bca906ddU, 0xbe4f803fbe1aca90U,
  0xbda75e3fbe7acd8aU, 0x3d0d5ba1bdb859b9U, 0xbd662e643bd9c1f0U, 0x3e5ac75e3da84fb7U,
  0xbe704273be831ba8U, 0xbdb85854be2d6935U, 0xbd2893f1bd990bd4U, 0xbd4cae60bd9c2e2fU,
  0x3e81f1213e79ac3eU, 0xbc8a7b77bce4182cU, 0xbe47e00dbdd69715U, 0x3db8b217bdb09cd6U,
  0x3bd12967bd40af61U, 0xbd0628a7bc8ab275U, 0xbd5dc096bd9c9483U, 0xbe3943c53c98eb94U,
  0x3df5e0cbbc91edf2U, 0xbd573a513e17fc9dU, 0x3e137a09bdbd80c3U, 0x3d6cf5363ba0f0b1U,
  0x3ce54cdb3d2d89ecU, 0xbc048bf3bd3308f2U, 0xbdb3df25bdbe7bceU, 0x3dd566393d5213e5U,
  0x3e0a4422be6f891cU, 0xbd71ee2cbd9b7e15U, 0xbe22d0b7bc82237eU, 0x3de5bcb9bdb8760bU,
  0xbda45538bbb8c6b4U, 0xbdd0b5d4be4099aaU, 0x3df096be3d3d640dU, 0x3d911ebebce510f9U,
  0xbde378103d895111U, 0xbbdfacaabc0898a1U, 0xbb0ed8ff3d9ce5e0U, 0xbe221a5d3daf8cb0U,
  0xbdbce512bdfa4d5eU, 0xbd4bf92cbe17914aU, 0x3dd05087bd799313U, 0xbdc78ce4bdf08f1cU,
  0xbe26d54c3d909485U, 0xbccbe567be1521eaU, 0xbe0384e93ddca234U, 0x3e10c0d7bcdcf26bU,
  0xbe2d5aa83db4995bU, 0xbdcdec75bd1e74eaU, 0x3d4a1283bcba3397U, 0xbd8848c0bd5012acU,
  0xbe0676e6bcc8ffbcU, 0xbd20b3b0be249ed7U, 0x3d3b41913d76448bU, 0xbd3df9093c73a879U,
  0xbca42a893cd0a0b4U, 0x3e7bf52cbde776b2U, 0x3e0adfc8be3261f9U, 0x3e00dbb0bddff9d6U,
  0xbddb3b53bdea217bU, 0xbe295eb93da3a425U, 0xbd212f45beb718d3U, 0x3c040f293ddfb37cU,
  0x3de7c881bdb29eefU, 0xbcd2ec793debe571U, 0xbe6279383de8646bU, 0xbe23bb97bd86d22bU,
  0x3d0149e6be80236cU, 0xbcbd1b49be0df095U, 0x3e6535bcbe2b5ab0U, 0xbdf61b963b923120U,
  0x3b4b5f7c3e19c298U, 0x3ccfe9f5bda73f70U, 0x3e6bfdd33d2b60a8U, 0xbe99fff43e0007d1U,
  0xbd885760bd804baaU, 0x3d0cb573be214791U, 0x3cb41bedbd208082U, 0x3dccf53cbe02da3dU,
  0x3d841066bddae65fU, 0xbdc4e3e6bd061c78U, 0x3e26b895b9f65b7fU, 0xbd23a40abcc5bcecU,
  0xbea1173f3ca2186cU, 0xbe21fcd93cbb142bU, 0xbcaf2fabbc55405fU, 0x3dd6e499bc88847dU,
  0x3d858185bdfc8feeU, 0x3da4d646bdeec99bU, 0x3cfc706d3dc529d0U, 0xbc8c6450bb8d14d7U,
  0x3d7b05943ca22ae9U, 0x3d7672363a8798b6U, 0xbbd8b2fabdb215caU, 0x3d9a01c63deb393fU,
  0x3c65caaf3c1db549U, 0x3d780f80be349885U, 0x3cb56c1a3d64b3e9U, 0x3e2c088ebcc045fbU,
  0xbe2f5c04bda25dd7U, 0xbe3448a33e411aefU, 0xbe2501d2bc2ad03aU, 0xbe5f849dbe8e6e1bU,
  0x3e54c46c3e5e3098U, 0xbe74a1f73d190405U, 0x3c2115cc3d7414b9U, 0x3e10147c3e5083efU,
  0xbe275e51bca95680U, 0x3db16fd9be431c8aU, 0x3e33f1dbbdc8dfaeU, 0x3e2f404ebd7c3669U,
  0x3deba15b3caddee9U, 0x3ccb5ce7bd0bee9bU, 0x3de9ff13bd4222c9U, 0x3e1143a0bdbb4fafU,
  0xbaef813cbea7faf4U, 0xbd5521563b929fc1U, 0x3e02c25b3e0c8060U, 0x3e24c51a3cf0bea8U,
  0x3dcdd0ff3df83f5bU, 0xbe3e97f23d808587U, 0xbcf1798dbdd9fc1bU, 0x3d31d2733b4c0df2U,
  0xbbcb36d8be16f4d9U, 0xbd0af4fbbe1b660bU, 0xbe276f02bdcd3d5bU, 0xbcfb1d0f3e72ca47U,
  0xbe5d787bbe319f40U, 0xbe6d9fa3be15af0bU, 0xbe3151d8bd9e70a5U, 0xbd5ab3633d8b1a00U,
  0xbddaf529bea95981U, 0x3d9118f8be0f0835U, 0xbe18fc4e3dc8f078U, 0x3d7d33623d85a5d5U,
  0x3dac28edbdcb5396U, 0x3c83dd2e3d7e805bU, 0xbcca41223de69f61U, 0x3db8575bbdb534ffU,
  0x3e1cb89fbd299935U, 0xbda4a3c6bd3ce3c9U, 0xbe00a683be0fd4f5U, 0x3e4202d5bda499d1U,
  0x3e547fd1bda4ea07U, 0xbccab10b3e28dacbU, 0xbdf7fd913d513a57U, 0xbc9d67cfbd3c7280U,
  0xbdd70e3abd978eacU, 0xbdb7a5783dfc0ad5U, 0x3c8973873d25026fU, 0xbd4d212ebe13c90cU,
  0xbd8fd698bc10f0f4U, 0xbd6af4cb3ddae774U, 0x3c7d12133cd5cc63U, 0xbdd6ebcc3dba1522U,
  0x3d3b5e16bdb4bec9U, 0xbe3b905cbd8dacedU, 0x3d3c93db3ccecb80U, 0xbcf5b17abcf710d4U,
  0xbd2978b5bcba2e5dU, 0x3e53e54f3db254a8U, 0x3d607a9bbda51061U, 0xbe0524f7be06f33aU,
  0xbccd77eb3ccf8779U, 0x3e025246be16f1e1U, 0xbc4bc22ebcc446f6U, 0xbd30fb7a3d70f495U,
  0x3e0683953c4b292aU, 0xbd4aed713dc2744aU, 0x3e36878bbe7b012eU, 0x3cee1c8a3e208b25U,
  0x3da7be413dedb656U, 0x3c86a2ffbdac3548U, 0x3d4dcb503dcc297aU, 0xbddc7a433daab921U,
  0xbe342b313d387f85U, 0xbcef35d3bc56facfU, 0xbd05a9ffbd5d2d4aU, 0x3df25a4d3d66cec9U,
  0x3a8787983dafeb6bU, 0xbae36d25bc725b90U, 0xbe4b47d73c340dadU, 0xbd8771b7bdf6ccefU,
  0xbe80bd2b3ca68860U, 0xbdce59683d8e23fdU, 0xbd19723ebc3a3d10U, 0x3c907c6d3d3d5b62U,
  0x3cfcbac2be0431d1U, 0xbdfcee963d0e1e0eU, 0xbd5dfc82bb655ea5U, 0x3d1ef1a9bca7e9dbU,
  0xbdbb248c3db75c90U, 0xbd62596cbdc8c926U, 0x3d7612663c919121U, 0xbd9a92b43d48736dU,
  0xbd6866623e1e64beU, 0xbd434161bde1367cU, 0x3db12b2e3cf54dd1U, 0xbe3dce0d3d41de40U,
  0xbe10e556bddce7baU, 0xbda656d93d353d85U, 0xbd2797babd432a24U, 0x3dc3ddd0bdfabfdaU,
  0xbdb158f43c81e0a1U, 0xbe0d3ddfbd96eecaU, 0xbdc2e1e0bd7d5be7U, 0x3ccb5ca2bcb0ab5fU,
  0x3e2337a4bdc66640U, 0xbbe2f9a0be38bc79U, 0xbd95fc9b3dfcaac2U, 0xbdbc81553d6dcd8aU,
  0x3ddf6373bdc326bcU, 0xbda1b692bd715d78U, 0xbd66e9ed3d3665f7U, 0x3de5c1ac3da1a484U,
  0xbd97791a3db11bacU, 0x3c9b9657bc4e12a8U, 0x3d65ece7bb07bb9fU, 0xbccf5f38bcb42641U,
  0xbc8f825c3cf91d1fU, 0xbe517f113d4cf5e7U, 0xbdbf21ccbd70d9afU, 0xbbb795743caa9b93U,
  0x3cfb6fccbd888f15U, 0xbca9977a3c312d40U, 0x3db87f9cbd3e3075U, 0x3d2701a33e1aef9eU,
  0xbd95b46e3afbbf68U, 0xbd0108c8bdd79263U, 0xbdf9c5c3bd65fcfeU, 0xbcb73a50bca3af41U,
  0xbd81388c3cf32718U, 0x3cda5b3abd230db4U, 0x3caf1d703d77b996U, 0xbcc97baf3df4615cU,
  0xbbecc9f9bb7fd8b9U, 0xbe5267813cfc70e2U, 0x3cdf52e03d2c4d76U, 0x3d887e993dfe23c8U,
  0x3c4420c93b6e451bU, 0xbd50280abe02fa13U, 0x3df97cd53c965edeU, 0xbe01ee173d6c37aeU,
  0xbe33da393e333806U, 0x3d1dac24bd5b9291U, 0x3d18587abc2f6363U, 0x3d32be57bccc5907U,
  0xbce89bdf3dfd2c54U, 0xbe2eec18be55ac40U, 0xbcbf6ff43d5ad968U, 0xbd9435303d835eb7U,
  0xbd0b614c3ccd2467U, 0xbdc193d4be3854bdU, 0x3d2034033d48c89dU, 0xbdcc4810bceb774bU,
  0x3d559db03d8f4805U, 0xbd49201d3dea0556U, 0x3e6986fbbcba8f45U, 0xbe569f203e08b2cdU,
  0x3b4746243ca0b86eU, 0xbd51819dbd7e71f1U, 0xbd179af2bd248e64U, 0x3d04e372be184642U,
  0xbd4a3a93bc4f5bfbU, 0xbd3eaf59bd708556U, 0x3e223838be3f5ed1U, 0xbd0d8924be08b013U,
  0x3dda18a1bde0a5e8U, 0x3db37992bdba4d77U, 0xbcbc792ebd98707eU, 0x3dfddab5bccdb2edU,
  0xbc82395dbcf76cfbU, 0x3d135eff3dc927a8U, 0xbd778417bdea7bf4U, 0x3d661f8f3df5e752U,
  0x3dcc424cbdfb5950U, 0xbd9bef843db7b34aU, 0x3cac41b43e150c5aU, 0xbd080fc6bc2b5dc6U,
  0x3d828d123d8c9221U, 0x3d519362be2037acU, 0xbd67c79cbe331eecU, 0xbd1a52d13a0406a2U,
  0xbd46ea93be2a52a8U, 0xbd28474b3cde3934U, 0xbe088c18bca37c86U, 0xbda7aa43bbc17e6fU,
  0xbcfad454bd6d15b6U, 0xbd9b1e93be5cf375U, 0xbd0715fa3d4d37edU, 0xbe1fe0c43c355281U,
  0xbb61e72fbd3fbbdcU, 0x3dd8b84b3d451d58U, 0xbe05cdb13d9040d9U, 0xbd65f0e33ccec09dU,
  0x3bad97b4bd3c1d65U, 0xbd6042cbbdedd042U, 0x3e0dac953de396ceU, 0x3caf7206bda1b277U,
  0xbcf93602be1ac335U, 0xbd37da3dbd416659U, 0xbdf9fa8bbdba4231U, 0xbcf7d79abca9cd64U,
  0xbd495a0e3bbbc0bfU, 0xbd8b0252bd701bdeU, 0x3d0878903e608813U, 0xbc7e1b053dd99e0dU,
  0xbbcb78883e5b3778U, 0xbcf23d7d3e108eeeU, 0xbdc60ea1bd0b0b0aU, 0xbd9d6affbe101695U,
  0x3c8289ae3d38992bU, 0xbdfa43ffbd25eca3U, 0xbe45b7543d66f564U, 0xbe018442bb4670bcU,
  0xbe518f96be0409f8U, 0x3d3d607f3cdcb6a3U, 0xbd8e5d48bc51c0beU, 0x3cab93d9bda64eddU,
  0xbcd3d5683d54e84eU, 0xbe03deedbe9e5c8dU, 0x3e0275c33c211b82U, 0xbe8ca33f3ea66978U,
  0x3e8a8d7f3dcdd724U, 0x3de857923e4a33a8U, 0xbd43c693be121237U, 0xbde2f58e3d4b3f8aU,
  0xbe13c09dbcf17ebfU, 0xbddfdeed3d534e11U, 0x3ddc5e95bdfd6ca1U, 0xbe1b4264bd579ddbU,
  0xbe9c0b89be502eb8U, 0x3d9070c03d96254dU, 0xbdd988e1bdd664f6U, 0xbd9bb9b93cd6412fU,
  0x3e2804ea3d69fba3U, 0xbd40c3a03e118d51U, 0x3dbf6abd3d478182U, 0xbda9d333bd8d5eb7U,
  0xbd530ebdb9d41966U, 0x3d2705563c944cffU, 0x3df57b93bb9292d8U, 0x3e1667ddbe004ebbU,
  0x3d50d66ebdac140bU, 0x3e61c77bbd645716U, 0xbdfb95e13cce92e0U, 0x3c854da3bde27b04U,
  0x3e4bcb633e03b5c9U, 0x3e79dc013c4adc70U, 0xbd85cd82be3ef452U, 0xbca98965bceb145cU,
  0x3e96afb93c4d417bU, 0x3d0c3d6ebe385f07U, 0xbe2e76b83d4f1091U, 0xbd902cdc3cc4fa06U,
  0xbce40cc6bd0dbf6bU, 0x3ca6dcc1bdbb195eU, 0x3c2be3e43ce78c02U, 0xbe7a59c7bc4cf550U,
  0x3c551b3cbe58deb0U, 0x3d59dbba3e4a2cc6U, 0x3d7ae57fbe0ee188U, 0x3e3a8bfbbd58a46aU,
  0xbc39a9e63d737695U, 0x3cae26e53da17823U, 0xbd24cba0bca767b3U, 0x3d417572b9183765U,
  0x3cd5a97a3dd0f15cU, 0xbe17a5963df9815fU, 0xbd37af79bd26c8d6U, 0x3d3cbe26bc6964c6U,
  0x3d8add0cbc22df22U, 0xbdd5ec9a3d6353c4U, 0xbd2028edbc30f041U, 0x3dab2247be11457cU,
  0x3d391b19be0843fbU, 0xbe233e1d3ccd935fU, 0xbe19b8ebbda092bdU, 0x3e0ecd673c9828e8U,
  0xbdc84cdcbc84d9e3U, 0xbd3eae74bd4ae2bcU, 0xbc9e8f7a3c55a585U, 0x3cabe0cebe1ca543U,
  0x3c3b05403d8b1215U, 0xbd7d9cf83d815b1dU, 0xbd1aac033b915542U, 0xbe1edc403e54be2aU,
  0xbe3870283d76e340U, 0x3e712ece3ca7b3f5U, 0x3d91909d3e57a835U, 0x3e0146e93d368ee3U,
  0x3d983797bc6bfa8eU, 0xbe7776773d910990U, 0xbdb1a68e3d3b590aU, 0xbdb9b227bd822fdfU,
  0x3e2da1783d631b8dU, 0x3e30f1e43af4679bU, 0x3e0acc493e169bc3U, 0x3d4eb6c0bdb0b566U,
  0x3c769b7d3c88d9acU, 0x3be6a4c13e693665U, 0x3e83d4e0be6243c2U, 0xbce1f9ee3c1e550cU,
  0xbd71aac83e2a04c6U, 0xbd3f14033d147c2bU, 0x3dd28df0bdf153a7U, 0xbcb82070bdd061e4U,
  0x3e6569a73e151604U, 0x3d4a602c3ce2b122U, 0xbe2be0273c3921a8U, 0x3e8250fb3d5a3a76U,
  0xbda28ed2bd2e641eU, 0xbe0c37393d358b3dU, 0xbd58494cbdd3772eU, 0x3e64d8c6bcebfa95U,
  0xbc0ab6b4baf072ccU, 0x3d5e668abcd26e81U, 0x3e3e51543d2baeddU, 0xbce77c61bde48876U,
  0xbe248a0c3e262ca9U, 0x3e0bb8543ddae4c1U, 0x3e16cedabd40696dU, 0xbd109db3be0a5c55U,
  0xbd98e97fbda83639U, 0xbe51745bbe59c219U, 0x3ebf2a7bbbcf0157U, 0x3e24480ebd83a732U,
  0xbe8c78a83cb8e3fbU, 0x3d66ebf73d8f664eU, 0x3e2d38783d2fc8dcU, 0x3e2dafbcbe0f7352U,
  0xbd191a853d2e9542U, 0x3e21d69bbcd21dc8U, 0x3cd5f42e3cbcd6f7U, 0xbe1525483c0f1058U,
  0x3d396ba43c2e6c19U, 0x3d230b913ddda253U, 0xbd16f16fbdeb8047U, 0xbda4139a3c807968U,
  0xbe26a042be0c75d2U, 0x3d9eb4f43e875b21U, 0x3e5968c23e60f6c3U, 0xbdb83c0f3c66c4afU,
  0x3dbf6c613deda53eU, 0xbe2d8433bd8def97U, 0xbd41277e3e4d644bU, 0xbc77af14be6e011eU,
  0x3dc4acb83d91edd1U, 0x3eaae4533e6651c2U, 0x3e34bff9be40c508U, 0x3da41213bdaf6531U,
  0x3e6be24f3ec28e56U, 0x3e6562a23cc9f0f8U, 0x3cebbe7c3e5c3a17U, 0xbd203142bc739243U,
  0xbcc7887bbe9146e1U, 0xbd6e3885bd481ffaU, 0xbc974cd23e28f9fcU, 0x3cc317773cf760b9U,
  0x3c9de7c8bad87a02U, 0x3d472f963e347a61U, 0xbccd57773c114c2eU, 0x3dfc4828bd54e5bcU,
  0x3e0a79963e308000U, 0x3e696bbc3c896dffU, 0x3aa47b9cbd9131efU, 0x3e1ac8663e074c7cU,
  0x3dd72eab3e05e43fU, 0xbdb713b63dcbc964U, 0x3e01d83f3ced863bU, 0x3dac1cd7bd9701b5U,
  0xba95d3f23e06c461U, 0x3dbf73193d9f9e49U, 0xbd64dc0e3caf685aU, 0xbe3bb3f23df49e78U,
  0x3e6623cd3e157b52U, 0xbe03c8a63d91333bU, 0x3e06749a3e2da4e5U, 0x3ddc4ed3be4760bdU,
  0x3d6a37a7be41249bU, 0xbd6919623cafdb78U, 0x3b9f9d073ec31750U, 0xbd0c9e0bbdedf4e6U,
  0x3e72bbbf3d6e57d3U, 0x3e27d270be028500U, 0x3c0356353da7f7cfU, 0x3e2e291e3d5af0baU,
  0x3e1dd11bbea768dcU, 0x3e4314a53e2f8feaU, 0x3d1f90533d900ad7U, 0xbdb909143dfd2381U,
  0x3e54ede63d23e34cU, 0xbdeac9c73db0eb5bU, 0xbc68118a3ce25831U, 0xba9500b5bd3a419bU,
  0x3dc1ad23bda827d0U, 0xbde48409bb82ce8eU, 0xbdb469373d83b5bdU, 0xbe6d6f723da0eedcU,
  0xbc875dac3de6fed9U, 0x3d0b317e3ded338eU, 0xbde2f362bd2c5483U, 0x3e1a35023debeda6U,
  0xbe535dc03e049465U, 0x3d9314f43aa21797U, 0x3e840b7d3d613f10U, 0x3df6647abcb078e3U,
  0x3d9ae53c3e4d6791U, 0xbdfbf7d83ad1356bU, 0x3d73680b3cb1ee98U, 0xba9123f53e4ec38aU,
  0x3d114b843e454d6dU, 0xbd8bc1ef3e18bcecU, 0x3e5ead093e586f73U, 0x3da62ebf3e6eb789U,
  0x3e8be83d3dba774dU, 0x3e02f2dcbd910c6dU, 0x3d3cd7863ee79524U, 0x3e81f2143d57365cU,
  0xbc9789eb3e85d657U, 0x3d732a953e238f2cU, 0x3e7168343d47bcb9U, 0x3e2684f83d169d5cU,
  0xbddb12a43e413f58U, 0x3cf0f74d3e125079U, 0x3e7347483d736b28U, 0xbd9423f3be245d5aU,
  0xbd11b454bd099c29U, 0x3ca270d9be0c2cddU, 0x3eaf6af53d051696U, 0x3e50e4c73d849155U,
  0x3dd1113bbbfdcb45U, 0x3e129807bcd4c14dU, 0x3d3317023d14e343U, 0x3e4f62fd3e2e1707U,
  0xbcdbd9cfbbff1827U, 0xbc3375943b9bff04U, 0xbdd9441b3e01f25aU, 0x3d78209dbcc0059cU,
  0x3e24685b3e602326U, 0xbd00c5543dde47faU, 0xbe3b89383e2c3d02U, 0x3b7e956c3e64ce17U,
  0xbd1bdb84be5a6f5bU, 0xbe8172d23cbffbcbU, 0xbd44e9693dc68684U, 0x3e8cf973bd0f498bU,
  0xbe2fdfae3c06683fU, 0xbd2c1f643da528e2U, 0xbc91d38d3e24cb37U, 0xbd1143d63dfe58f4U,
  0xbd4e9ab63dfeea48U, 0xbe057c853dcbf9cfU, 0x3e1357b53e366df6U, 0x3d41b763bd46168fU,
  0x3e04ed7ebd8373dfU, 0xba59af9cbdacc1e7U, 0x3deea260bd606fc3U, 0x3d9edd5d3c62520cU,
  0xbcdc60b83dad8247U, 0xbd642d0dbe811ed3U, 0xbca52740bd9e7c18U, 0x3c4d66813de75c5fU,
  0xbe2e02f63cb96b43U, 0x3da773503cb82c44U, 0x3dbec6f43e6664ecU, 0x3c2ddcf0be06663cU,
  0x3d69b3a8bc17d27aU, 0x3d5605c3bdd77ad5U, 0x3d848e69bc86589fU, 0xbe00a013bda95656U,
  0xbc205020bdefa373U, 0xbd09cce8bd8bdb7bU, 0xbc3e03a2bdc97060U, 0xbba06eeebd9a2889U,
  0x3d577a47bb9ec16fU, 0xbe025600bd200311U, 0xbe2853c63de91892U, 0xbd61c1d2bd2a3e49U,
  0xbdeba218bb9b3467U, 0xbd865cf4bbeefe0fU, 0xbc4ea427bcc2a8a3U, 0xbdd13f0dbdd45181U,
  0x3e1d97a93e40df4dU, 0xbc1445793ca7bc5eU, 0xbd68fd1ebd73041cU, 0xbd902557be2d4316U,
  0x3c898c79bd65846aU, 0x3d9ae72dbe8ba09dU, 0x3db68ecb3d59255eU, 0xba5eea6e3d468a7eU,
  0x3c7013c23d2a63dbU, 0xbd19e2d9bdb322c5U, 0xbbddcf723dcca7bbU, 0xbdb8e910bd077b8fU,
  0xbe22b215be4d3206U, 0xbd104ef3bd0acb76U, 0xbe1ddbb6bdb1b935U, 0xbd872aa13d097610U,
  0xbce78fa2bc459bd9U, 0xbdc3796b3cd464dfU, 0x3d02685cbda7221aU, 0x3d6d2667bdf61070U,
  0xbdb6080dbdac2a9dU, 0x3d84cb92bd38f9abU, 0x3bc00f80bd858be3U, 0xbc548de43e05d022U,
  0xbe07dede3da5c086U, 0xbd80db6cbd6eae78U, 0xbd93827ebdd8c434U, 0x3c89a2033dce3ef3U,
  0xbe13392cbccc5a91U, 0xbe594cb23ddddf1cU, 0x3dfc4b0a3d028f21U, 0xbd18b86a3c34dcdeU,
  0x3d99e3113d6b9772U, 0xbda187bebd44ba53U, 0xbe009a53be06c811U, 0xbd05e596bcac2823U,
  0xbe09d937bdf46526U, 0x3d7bc173bd1f8ea6U, 0x3ddca8dd3dace776U, 0xbc82cf603d858811U,
  0x3d936c533bae6ec0U, 0x3d12320c3c2ad9f2U, 0x3dd28cc4be1bf626U, 0xbd473650bd3f1820U,
  0x3d202cd6bd986698U, 0x3d685e11bdb9e13bU, 0x3d140fe83d9549c0U, 0xbba927a6bd97384cU,
  0x3ccfb22b3d962cc5U, 0xbc7531b13ca435ecU, 0xbd89fa61be11d046U, 0xbd7b0517bdd437fcU,
  0x3c7eaf6fbe190dfeU, 0x3dfb7721bde60774U, 0xbd9a8e36bc1f8cd3U, 0xbd94a49a3e1870a5U,
  0xbc59dde6be337328U, 0xbba139a93ca4972dU, 0xbdb1e555be7a1cd1U, 0xbbd0ab42bc2cdca7U,
  0xbd0299c8bd4213e6U, 0xbceb4c9abd62d0edU, 0xbe077b98bdb7ece8U, 0xbdbdf6dcbd92f350U,
  0x3d9b942bbbb7e28cU, 0x3db9f5c5be9b5e78U, 0xbe29c2abbcf965c9U, 0xbe1d7a643b7d9717U,
  0x3d03e2d43d872a62U, 0x3e12e720bdc87099U, 0xbe05180bbc473f48U, 0x3c06e128bd449120U,
  0x3e1c66e13d6c0032U, 0x3e08ee2b3d16b9f5U, 0xbd60b297bd8338bfU, 0xbdc49e363e091effU,
  0xbe04697bbde5b316U, 0xbd8db2fa3ce213d8U, 0xbd4f10743d4a8403U, 0xbdf72b85be1bf25eU,
  0xbd5a7b23bccfa210U, 0x3dc7b31c3c5ecaafU, 0xbcbd1cbabd8d4023U, 0xbdfc17743d7e1ecbU,
  0x3cf93644be1f53b8U, 0x3b51ecb8bd84983bU, 0x3da07ead3e3395f1U, 0xbd68879abdbeff44U,
  0xbaf733ec3dac3acaU, 0xbc6060fdbda41ec4U, 0xbdaa11aebe11625cU, 0xbe3a188ebdb7e5b7U,
  0x3d2d9f563cb81ae3U, 0x3d9df745be308fecU, 0xbdd32dbabdbe7272U, 0xbd707d7f3b76c926U,
  0x3e077d8bbca6fd23U, 0x3d70e906bd9752cbU, 0x3d332349be4ebc98U, 0x3b0044553d92fb44U,
  0x3d4c79ccbd86ca4dU, 0x3d4145a33e1001ddU, 0x3d5094903db0191eU, 0x3d5e53243d4c373aU,
  0x3cf2e10abd5be015U, 0xbe2957103d795c10U, 0x3d1b63213e1f309dU, 0x3e33f6ae3d50b008U,
  0xbde440213d69a1b2U, 0x3e8c3ac6bdb3c9fcU, 0xbe886043be1ed641U, 0x3e3395d8be5729b1U,
  0x3db77bba3d63c344U, 0xbd4a06583e1ff8d3U, 0xbdebb4263da5cd2bU, 0x3d542e713e34ffb2U,
  0xbdb2bf3bbdfd5e7bU, 0xbdca5605bc25e9e7U, 0xbc6677033ca5417dU, 0x3ae51196bd67c97eU,
  0xbe89d9fabceca29dU, 0xbd814c2bbe4c23faU, 0x3d306299bdb32336U, 0xbd694bdd3d3f9bcdU,
  0x3d5d286b3da8ee19U, 0xbd59f564bc3b6949U, 0xbd36d6773d22907dU, 0xbd28bd0b3dcefbcfU,
  0xbde985943ddc379fU, 0xbe22fa67bdc8d9faU, 0x3dd758b7bc3a41e8U, 0x3b502e9bbdb866ffU,
  0xbd5132f5be130803U, 0xbe0bcdeebd0585bfU, 0xbe7135543d949f81U, 0x3dac2b4f3dd70f9bU,
  0x3d96374b3e2f3df8U, 0xbd545bcebc7430c3U, 0xbdf87a0fb9e09f68U, 0xbe3e5e60be06521dU,
  0x3d2e17a43e1aab6aU, 0xbdcd079fbd640aa5U, 0x3e153784bd59191aU, 0x3e6257af3b946d2fU,
  0xbd2898183d99eaeaU, 0x3daceebb3d4ffffdU, 0x3e0af6f8bcb0fa33U, 0xbde718c0be26fe9aU,
  0x3d9a6a4abd4fb42cU, 0x3d9d6b943d2d15d9U, 0xbc2bddaebc783747U, 0xbc14b7823d5edbe2U,
  0x3dfe7263bd02eb77U, 0x3b8324233dbdf7e1U, 0xbd13e654bd37acd3U, 0xbdf61c873e08ece4U,
  0xbc585de43d9a3040U, 0x3d378d12bde2df34U, 0xbc75d9a2bd2bdfe7U, 0x3b03b8c43e03dca5U,
  0xbe40fcae3c7b7db4U, 0x3d8ce1ad3e24bb6bU, 0xbdd776c3be34b659U, 0x3a812dc3bd81b54bU,
  0xbdc27f5ebd045a01U, 0xbe0cae44bd80e349U, 0x3d2bc0b53e94c359U, 0x3c91ff1d3e030ad0U,
  0xbe1dd267bdd4b684U, 0xbdb65f8ebd9f273fU, 0x3cd1bbafbd0d9460U, 0xbd68b8333e485bebU,
  0xbda3219b3e51ea77U, 0x3e43c73a3d1d3027U, 0xbe489d7f3dacf2feU, 0x3e53b79abdaf1cebU,
  0xbe1ad1f83d9f267fU, 0xbdd6e454bd5f7072U, 0x3daeb116bded5966U, 0x3dc3cb473d6d7c9bU,
  0xbdfea66bbd4e925bU, 0x3d267f75be1a7684U, 0xbd7ef329bc31ec2dU, 0xbe1eb90dbe59425aU,
  0x3d36f7463e68c10fU, 0x3d9b1e193e1f5e02U, 0xbd6ee41b3dff8effU, 0x3d9a96883d6df7b0U,
  0xbd4f64e4be059408U, 0x3d43134d3df3cfe8U, 0x3e1c1d5e3df310eaU, 0x3e64aa563e8eba58U,
  0xbd8f26223cd52ac9U, 0xbe2762fa3a3a8869U, 0x3c81215ebe30cbefU, 0x3c096227be0d5b0dU,
  0x3c3d97ce3e0c7212U, 0x3cf39c433bfbea68U, 0x3d78d04dba794d02U, 0x3d989df8bd868904U,
  0x3d600d903da4bd88U, 0xbd2241d63e2b7789U, 0x3df18c513d5d7941U, 0xbd160d083dd1b3d4U,
  0x3e265c203e5c8854U, 0xbdeb1ca53df57805U, 0x3d4fe371bd32805dU, 0xbc980f77be04a034U,
  0x3e0066b73d5ac7f3U, 0x3b8a1600bdf42119U, 0x3d2d6030be074d09U, 0x3dc89ebb3e12740fU,
  0x3d292e07bd6fa8cdU, 0xbe0dfb91bb5ddecaU, 0xbda46d3bbd0f2e78U, 0x3e5684453bcfb85eU,
  0x3dbc5ffdbcf08db6U, 0x3b09aeb0be33a181U, 0x3dc7ad773e291dabU, 0x3df95dcebd9f5b86U,
  0x3cad03513e36782cU, 0x3db583493e18dd28U, 0xbe2a99d53d28cb69U, 0xbdfca4e6be40ca18U,
  0xbc4d73b0be6146ebU, 0xbd683fa8bde274ffU, 0x3d8587fe3d5249e5U, 0x3e0373693d8b418fU,
  0xbe105c3a3dab8154U, 0x3d99b5253df50945U, 0x3da8bcf1bde97cf0U, 0x3dfe10bb3c8421ffU,
  0xbe855a6a3c993788U, 0x3bb0dc14bc42b24fU, 0xbd87d1783b67f34fU, 0xbdd4e1a0bdb346d4U,
  0x3d6625e93dcf6aa1U, 0x3cfb51403d90a0acU, 0xbdf9d4dcbda5b98dU, 0xbdf15aaabcbff02dU,
  0xbdf9f2f6bd96bc33U, 0x3d0eafd13e580d62U, 0x3db4bb043e303e33U, 0xbcf5a7bcbd7aa396U,
  0x3beabcf0bcbd0e00U, 0xbe562300bda5e244U, 0xbe1ac84d3e0da0e4U, 0xbd5daed3bcf16937U,
  0x3e152ef7bcf82378U, 0x3e0cdba33da5b7f2U, 0xbd793f89be227181U, 0x3c4356c3bd2b159dU,
  0x3e13a81e3dc39fd9U, 0x3e3616583cee5c92U, 0x3cd9c34b3d803210U, 0xbd1c78063c6f578aU,
  0xbd2bd0cabe5417e7U, 0xbd8394d4bd838b7aU, 0x3dd0b2143e37c110U, 0xbd8006703dbea71fU,
  0xbd6083c7bc328ffdU, 0xbd189f9a3dd735b6U, 0xbe1a5614bbcd2092U, 0xbcb22f93bd7e7776U,
  0x3dd8850f3c0f5e2aU, 0x3d84c1f73c8349daU, 0x3c2d33d6bd4a5db6U, 0xbc8c36893de5559cU,
  0x3e184c923d7ef5f0U, 0xbc97d528bbade6bbU, 0x3d9126fa3daf588cU, 0x3dfbd2fbbd8fb948U,
  0xbc96fd7f3d88fd4cU, 0x3d9b236cbdbe3e6dU, 0x3c7ac1d0bd25db43U, 0xbe268bbdbc3aa36bU,
  0x3e3d460a3e304406U, 0xbe1c81243e1789b6U, 0x3d2542f83d301de7U, 0x3caf52afbe551c45U,
  0xbdaf95a1be151cffU, 0xbd1abbff3ccb3415U, 0x3a6087cd3dbfa58eU, 0xbda194fcbd57eda3U,
  0x3db368013d5ff51aU, 0x3d5f797038c32200U, 0xbcc35ce73e298bb9U, 0x3e004ee9bdad4785U,
  0x3d00c578be2048afU, 0x3d9191ed3dc48981U, 0xbdb458383d8e041dU, 0x3d9725d73d9e59e3U,
  0xbc1cd1f9bc29f3c2U, 0xbe06f11bbcb54844U, 0xbdcf53ee3d97b4d0U, 0xbc2f827ebb883e69U,
  0x3e2ea5bfbd9a86e1U, 0xbd1885ad3de50ba9U, 0xbdaba7eabd679a89U, 0xbda7056f3d551c9fU,
  0xbd47c98a3d14f31dU, 0xbdf954a43d588c81U, 0xbd99d4cdbb50ddb7U, 0x3d95fe173d703eb6U,
  0xbe0bfa35bdc1bab7U, 0xbc0e96e13d94a195U, 0x3e6231e83d8bd217U, 0x3cef438b3dac9638U,
  0x3dabb6663c78907bU, 0xbded7aacbe3a269aU, 0x3c4c3459bde0ea79U, 0x3d75bd9cbd3366a2U,
  0xbc9f851e3e0777baU, 0xbdc5a502bcd0f121U, 0x3e0b4c703e15c8d1U, 0x3cd16b2c3e376cc0U,
  0x3e898fdabd0594aaU, 0x3cd0b463bd867cdbU, 0x3d842cf73e5aaa36U, 0x3e7259d33e114d0eU,
  0xbe68f43cbc64170dU, 0xbddab1c53e2558d9U, 0x3e2844463e008ab1U, 0x3e28e2923c02d0edU,
  0x3d2eb52a3e28cb67U, 0xbb7a13843d26b00aU, 0x3df07ba0bcaeb0afU, 0x3b628283bd286171U,
  0x3c8d2e27bd45a5d5U, 0x3d3649c0be197a65U, 0x3e33c517be29a849U, 0x3d907cb4bd61c585U,
  0x3d43ac7a3e11659fU, 0x3d8af76e3da8ee97U, 0x3dcefe543d8f99f3U, 0x3e2130ff3d96fd51U,
  0x3dffee6bbd1b3cd0U, 0xbd913cabbdc026ebU, 0xbe465c1abcafa654U, 0x3d8da5973c18f531U,
  0x3e08d5e33cd25cafU, 0xbdaf9f133d8ea83dU, 0xbe6d02d43de18f08U, 0x3da886563e0b5495U,
  0xbc23837abe387e38U, 0xbe0ecd12ba783dfbU, 0x3c88c1f43e3a1fe2U, 0x3e0157b2bdcdc81cU,
  0xbe2280963d13f7bbU, 0x3d26c35bbbd2a25aU, 0x3e2dcc1e3e39af9fU, 0xbd9da6b03e0512aaU,
  0xbdf4c7b63d0b6dc6U, 0xbdd9dde43bd6aa01U, 0x3e61f1383c3fc83aU, 0x3dab1b0abda3f59eU,
  0xbc92ea9a3d050967U, 0x3d271827be8e7befU, 0xbde69996bd077919U, 0x3da5584f3e0d75ebU,
  0xbd81413e3cc002a5U, 0xbd37df92be233608U, 0xbbc90df93e2a2d45U, 0xbbe06bd5be041dd8U,
  0x3d309e623d15ad54U, 0x3b95a61bbc4dc77dU, 0xbe2273873d0464d7U, 0x3d630d56be20d318U,
  0xbcb0a406bd7755feU, 0x3ccdd90dbc8e2efeU, 0xbe17aaf2bc3d2094U, 0xbd801a9b3e3dbae4U,
  0xbde86e32be9da712U, 0xbd870a74be0531d5U, 0xbde27cc83d9a8161U, 0xbe2026f2bd63cc7aU,
  0xbdc648f3be00c6bbU, 0xbe8a0ef4bdb556baU, 0x3de5f7413c8a37e8U, 0xbdc2954f3c25eb5aU,
  0xbd4fbc613a2ddd5fU, 0xbd46350a3b1b35afU, 0xbd218e5dbda6aa9aU, 0x3cf79cf6bd204e54U,
  0x3d1c57fbbd10e123U, 0x3e0b2274bd5e6bfdU, 0x3b2c9236bddcb054U, 0xbe1f881dbdd407d5U,
  0xbdee1c17be0f8c81U, 0xbd0811ff3d35826eU, 0xbd99ffd33d36039bU, 0x3d4291133da7d335U,
  0x3da380163c7309f2U, 0x3d30ab013cf0a644U, 0xbd981fa4bd7b4332U, 0x3d23e3a4be4a8166U,
  0xbccf95e23e21c021U, 0x3d58904e3d448bcbU, 0xbd58099f3da1d5f9U, 0x3e08ebafbeb06d64U,
  0xbd5c89bcbdeaea2eU, 0xbd56c038bdab2e89U, 0xbd427d913beeeecbU, 0xbdf9795ebe38a2bdU,
  0xbd26e7f5bb25922fU, 0xbb558ee3bb60114cU, 0xbe01220bbe18c878U, 0x3d9cb2f1bdc2fc28U,
  0x3e147864bd9c36afU, 0xbe825f0cbc79c724U, 0x3c3d4754bdf0b445U, 0x3cb8bcf3bc936403U,
  0xbd5531a8bbbbeabaU, 0xbe13ea20bd7a6938U, 0x3d5c0fabbd8757f3U, 0xbd8904603d46bf40U,
  0xbdcb82b8bdd195daU, 0xbbaf6cea3d87de99U, 0x3d4b7e1a3b814e0fU, 0xbd29507ebe00080dU,
  0xbd1de46ebb04d617U, 0x3d951f523e7509ebU, 0xbd834dd43df2195fU, 0x3d337a2d3da178bfU,
  0xbd7634573b489b42U, 0x3d7e3ff6bdb3eaa2U, 0xbd59a624bd7c0b0eU, 0xbd81a59c3cd969b9U,
  0xbdf155443a833bc9U, 0x3ca76935bde5fc37U, 0xbdc863f4bcfd6475U, 0x3de6c166bdf9ec94U,
  0x3b792f1dbd90a052U, 0xbe4029f6be0bce47U, 0xbd7ecff0be2efe71U, 0xbcb0540ebd5a0178U,
  0xbdf9eb0fbe147436U, 0xbce2d55a3ccaec88U, 0xbd7241afbd80e709U, 0x3d3f6b29bddc688fU,
  0x3d8acfaabd6dbd5dU, 0xbcddf5c13d40eb31U, 0xbe1aa0e9bd166c02U, 0xbd8d755e39a6c40aU,
  0xbdd09b51be65c4e7U, 0x3c64d2a1be129df8U, 0xbe5e6e063c02713dU, 0xbdce29f3bd23765dU,
  0xbd34941dbb9de418U, 0xbdbb49ebbe1cfcbfU, 0xbe1e77c2bda140d8U, 0xbc850f0bbcdaf60cU,
  0xbd8df1523d82ea73U, 0x3dda82a8bdfaac88U, 0xbd987169bbf21251U, 0xbd5cf636be14da74U,
  0x3cadfddf3bed4478U, 0xbe71a1e3bd0bedb7U, 0x3d3f210e3dcd254cU, 0xbe4af61e3e0903fdU,
  0x3c476b1a3d221344U, 0xbdda6f67baf24b8aU, 0xbc9d5e5abdba90d5U, 0x3dd317d33df992acU,
  0x3e7ed40abdc6fa93U, 0x3c0d5a233d5568dfU, 0x3b02b4a7bdc6f6e1U, 0x3cdaf4e1bd44f384U,
  0x3b1b2ce0bd992eb1U, 0xbd54e830bad68806U, 0xbd1538eabe255c88U, 0x3c94ec3fbe42c5ccU,
  0xbdc2f1aabd844080U, 0x3ddc88a6bdbbe0beU, 0x3df3184abe26415dU, 0x3d53914cbdd90ee1U,
  0x3d058fc03e0237bcU, 0x3c273b133de69462U, 0xbc93703b3d115f91U, 0xbe047ce3bb9e48d0U,
  0x3d18a629bdaf0a17U, 0xbdedb8a4be209b00U, 0x3d0776ccbd4c2d3dU, 0xbb02b8a0be59f73eU,
  0xbda691783cedf2a8U, 0x3e04c24c3d685fdfU, 0xbc805004bd639d8aU, 0x3dabc548be0ff2b3U,
  0xbe464b773e1ec33aU, 0xbc39e01b3e152ea2U, 0x3d4d7688bd0a3b32U, 0xbe1d5036bd275230U,
  0x3dc20f223ba1df7eU, 0x3dd0c0babcdd4d19U, 0xbe367bddbe1540d7U, 0x3df031d5bc77b12eU,
  0xbe30d7113cc3dabaU, 0x3bf311793e28e84cU, 0x3daa1404bc416a48U, 0xbdb2c61fbdb90ae5U,
  0x3d107285be71b3feU, 0xbdfe1341be79dc54U, 0x3e092fc1bd25ea30U, 0xbda149243d2c7593U,
  0xbd3bf776be2c022cU, 0x3dcb3a653e0e784bU, 0xbe89d104bd6e6eb0U, 0x3d809303be127961U,
  0x3dd3ffe4bc383dbbU, 0x3d4d2344bd5ab8d9U, 0x3d826a1cbd08c2f5U, 0x3e3c5780be460090U,
  0xbe434c7cbcfec8feU, 0x3d04aa903d8306f9U, 0xbd0085903e5613deU, 0xbda0c6a63e310598U,
  0x3b88ddaabe182d02U, 0xbe8311203e06b5fcU, 0xbe411e1c3d810190U, 0xbcdb0e4dbe7a67f4U,
  0x3aefc7193e54f42eU, 0xbd8c81d8bd6bc778U, 0x3ced3934be524cb3U, 0x3e21ad773da24632U,
  0xbd052a753e5113d8U, 0xbd24b3edbdbee4e5U, 0x3e138c313ddb904aU, 0x3e6dcb5dbdce8c4eU,
  0xbbab7ac73e4c05e1U, 0x3be4e101bd3c445bU, 0x3c844332be3c4c49U, 0xbecfd705bc23da35U,
  0xbd4fce993d49f839U, 0xbe3c6a15bc932ac8U, 0xbcdb3f67be11b77dU, 0xbe1906a4bd4b80d8U,
  0xbe5d733abe472200U, 0xbe015647bd8ee86cU, 0xbd0984c4bd25b0c4U, 0xbd074241bcb730bfU,
  0x3dd31b99bdbfefeeU, 0xbda7613ebdd16970U, 0x3e5cfb2bbc940345U, 0x3c410b03be4350ebU,
  0xbe56f291bd668226U, 0x3db1849e3d9a056bU, 0xbdcafb1f3c0635b7U, 0x3e1e9d913adbf3d8U,
  0x3d9cccd7bdc1eacfU, 0xbd1e3ad4bce285a1U, 0x3dccc5c43e22d27dU, 0x3d8e64b0bcf55a4fU,
  0xbca2476fbdc23864U, 0xbe01f87c3dea7962U, 0x3e2a8f56bca3f677U, 0xbe2edcc13e400cb3U,
  0xbd8bd8ffbc593db5U, 0xbd01db91bc8fdd61U, 0x3d4d41a0bc47eeb4U, 0xbc1ee3aa3e05c114U,
  0xbe4600a63d8cd3d5U, 0xbe3e9731be57f08dU, 0xbc43afe3be7f33beU, 0x3d8e3e433df4d56bU,
  0x3e31a346be4686deU, 0xbd8586dbbdce9c3aU, 0x3d9538fcbe3965f3U, 0x3e17153bbdc10a5fU,
  0xbd070a4f3daefab4U, 0x3d485a3e3d7b660aU, 0xbe8c36253e65f4afU, 0xbda64efabcaae0bfU,
  0x3e1c29f2beb51ac5U, 0x3cb8d5a63dfb2a42U, 0x3d1a7a183dcbe713U, 0xbd04d2ca3e046bb4U,
  0xbd90760e3e1c3080U, 0xbe0a07ab3de4982bU, 0x3e16bdc1bda45dfdU, 0xbe020c1dbdb2082dU,
  0x3c982c93bb128fd8U, 0x3d3248fc3bcd17ffU, 0x3e4b78ef3ddefaeeU, 0xbd0fd664bdc9e193U,
  0x3e4ff1633c93108eU, 0xbc2b3f393e4297c9U, 0xbd0de5873d12c3c2U, 0xbe435caa3e760e3aU,
  0x3e7ad139bd3a8bc7U, 0xbe3e335d3d8c4dd0U, 0x3cdae692bd0792b3U, 0x3e1e054ebe178445U,
  0x3c0f2e21bdf24515U, 0xbd5d7c9ebce91222U, 0x3d50d515be277181U, 0x3c86bfe53dd7339fU,
  0x3d60386c3cbe4846U, 0xbe313b633dcc71e3U, 0xbe3382613d98347cU, 0xbb1cc3ecbe2cd45eU,
  0xbdb6c818be564f88U, 0xbe8a1badbe22cb4bU, 0xbd491fb23dadfee7U, 0x3e5e32ecbe42d483U,
  0xbc9e5bebbc8fec45U, 0x3d948017bd12f1ccU, 0xbd72f5b83cb4447fU, 0xbc69800bbd2dfb30U,
  0xbd3a35e03d131818U, 0xbc0e024fbd9aa59cU, 0xbda93de83c15351cU, 0x3bcb7c0d3d8d27a2U,
  0xbd9359edbe4f577cU, 0x3e5ecaf13cdd6739U, 0xbddfd5cbbe8d1246U, 0x3d4e4900bd0d0255U,
  0xbe94af9cbda65c53U, 0xbc8faa1fbceba731U, 0xbcb52a053e4da0c8U, 0x3e109e913c48ad72U,
  0x3d654a703e4de947U, 0xbb4584443e0d8e98U, 0xbd906626bd887adbU, 0x3d9e61ffbd609843U,
  0x3cda34013e8279b3U, 0xbb025d12bcf8e305U, 0xbe464b313dad01c6U, 0xbd6360333bd49f27U,
  0xbd84c87dbe119b0eU, 0xbdd0382bbe2d0fbcU, 0x3d7a7a2bbc1bb950U, 0x3d170cacbcfe432eU,
  0xbd18ee10bd988f13U, 0xbe5252ecbdf4c21bU, 0xbdf4c2e9bc1311e8U, 0xbde080f73da700abU,
  0xbd8098c33da42facU, 0x3caf2d9f3b940b46U, 0x3c85fb2abdb169cdU, 0xbd8b679f3e00405eU,
  0xbe40d78cbd1f404dU, 0xbd33b26e3db1daeaU, 0x3b074c4f3d6e9727U, 0x3d8ef6d4bdda89a5U,
  0xbe920f16be2982cfU, 0xbd039c07bdb5695dU, 0xbd33b82d3daf7742U, 0xbdde8edfbd5d71bfU,
  0x3d88048fbdf47f90U, 0x3d0c5c5fbe5377baU, 0xbcd532ea3e33f72eU, 0xbd4301d4bc6ea0f1U,
  0x3e0a20783cb79f30U, 0x3cb6424e3d6fe507U, 0xbe119a603e4aa038U, 0x3e5fba353d15667bU,
  0x3e253cc33d986b36U, 0x3dbb23f8bd5ba3a0U, 0xbdc5ea0ebe8957cfU, 0xbe025779bd98829eU,
  0xbd857fc43df8f3edU, 0x3c4e0cb1bd4593f2U, 0xbe6d3ce2bef128e9U, 0xbc48cb0dbe36dacdU,
  0xbd349b46bdfa33e8U, 0x3ceb57ad3e1e5ae5U, 0xbdd367b83ccc6f43U, 0x3d72704c3d61a40eU,
  0xbe09f4213d4d63baU, 0x3dc3082fbd0b2f76U, 0xbdb0437ebe0e8516U, 0xbe0544c83e6bea0eU,
  0xbdf595b53d186d70U, 0xbcc962e93cbbc6e0U, 0xbd6eb26fbe6229e6U, 0x3ddbf859be4af5dfU,
  0xbe84640d3d4ff449U, 0xbe1dd6db3da26176U, 0xbdd31f393e88c270U, 0x3db907f63e6151bcU,
  0x3dc9f3d23d8b19c7U, 0x3cc428a33caeb7baU, 0x3d37cb41bcd96ca4U, 0xbd831db13d733936U,
  0x3cb8dd1e3d39b9b0U, 0xbd9c489abe7c0485U, 0x3dd927c0bc16ada8U, 0xbdc17a3fbdde4ff5U,
  0x3c0e03f5bdf74bf7U, 0xbe530918be38f95bU, 0xbda3ab2abd56e342U, 0xbdcbbb273db27573U,
  0x3cafd709be559792U, 0xbe1cf61abe464384U, 0x3cbf0196bdc7cc80U, 0x3e2af1e3bd42d729U,
  0x3d34e4733df37cd5U, 0x3d780895babb0193U, 0xbc15bcac3e4ffb5aU, 0xbe8828a13e0eb72dU,
  0xbdfe769bbe056c53U, 0x3dfa8d2a3d6f7277U, 0xbd6b6e7abd7b389eU, 0xbd761a97ba32ab1fU,
  0xbd2eb52fbdcf4ad2U, 0xbe712ff4be2a7db4U, 0xbdb96cccbdbaabd7U, 0xbe0b3ab0bdc409e5U,
  0x3e4ece73bbd370b4U, 0x3d0b52493d6e41e8U, 0xbd0071d4bc0dcd6dU, 0xbd0eeb123cb577c9U,
  0x3cae27d83d4d5adcU, 0xbe2ab7dc3c3b56e8U, 0x3ce3c2abbe2a3ac1U, 0xbe1ebe7a3e0051a3U,
  0x3c8e00c8bb252693U, 0xbdd19dab3dfe2072U, 0x3e0570313d964f85U, 0x3deef59bbd66312eU,
  0x3e07a718bd0b77daU, 0x3d8da4753dae4ca3U, 0xbca151fabe693ab7U, 0x3dce2f88bd1c8aadU,
  0x3d17873bbe0ade88U, 0x3b94d28bbe8b3a78U, 0xbe1f53dfbbbb036bU, 0xbc0defebbe553259U,
  0x3d52452ebe65cd52U, 0xbd3ec289be0f50d9U, 0x3c1688413e079e57U, 0x3d1247c93e14998fU,
  0xbd042c153c959f1cU, 0xbd1ae48bbe01c6b5U, 0x3b98f386bd447190U, 0xbcedf21b3db47afbU,
  0xbd55293cbd51a763U, 0x3d2f3823be335a84U, 0x3ca777913cdaff37U, 0xbd1e0737be1b835bU,
  0xbe111b003da3b18bU, 0x3dc5c8eebd9940c3U, 0xbde0e864be1052bfU, 0xbd9f11fdbd075c04U,
  0xbd8c17cd3e3351e9U, 0x3cd591ec3de403d7U, 0x3d8c36c93e6ce8acU, 0xbe2b4c253bb90ce8U,
